00
FE
FE
03
02
F9
FF
01
03
03
FE
05
03
FD
FD
03
05
00
06
01
FF
FE
01
00
05
FB
FB
FF
FF
02
01
FF
FC
FD
05
01
FE
FE
FD
00
FF
FD
02
FC
FF
03
00
FF
F9
01
FD
FF
00
00
F8
FD
04
00
FF
FE
FE
FD
FE
FF
06
03
FA
FE
E3
05
00
FE
FD
03
01
03
FE
02
01
02
EF
FE
01
01
01
01
02
02
09
FD
FB
F9
00
07
FF
01
03
FF
05
FD
F5
0B
00
04
04
02
FF
08
09
00
FF
02
F9
FF
FB
FB
02
FE
FA
00
04
FE
00
03
FF
F6
00
03
01
00
FA
04
00
02
FF
01
01
00
FE
FF
FF
03
FD
01
01
01
FE
01
FD
00
03
FA
03
00
FD
05
03
FA
03
FE
F9
FD
FF
F7
07
F6
02
FB
03
FF
02
09
FD
03
FF
FE
0A
01
08
FB
02
FF
EC
F8
F7
FD
02
03
00
F1
01
FE
09
06
F7
FA
EC
04
00
00
FF
00
FF
02
FD
FF
00
03
F4
FF
FE
07
FF
00
FB
FC
01
FD
FE
F6
05
09
02
FF
FE
FD
04
F8
00
F8
FE
FD
01
FC
00
F8
04
00
01
FD
00
01
04
F9
00
03
FB
FD
0D
FF
FE
04
FF
07
FE
00
FD
02
FE
F5
00
02
FD
FE
02
03
01
09
01
03
FD
00
02
00
04
F9
00
FE
F9
FC
F7
01
01
08
06
03
00
FE
00
FD
03
00
02
03
FE
06
FB
FE
00
FB
04
00
01
02
FE
00
FB
03
01
01
FE
FC
00
FF
FC
FC
FF
FE
FE
FD
02
01
01
F7
07
FA
01
FC
07
06
03
05
07
FE
05
01
06
02
07
F9
01
FD
EE
FC
F8
04
FD
03
00
F6
FD
02
00
FF
FE
FD
00
FE
FF
01
00
FF
FF
FB
FE
03
02
02
00
03
00
FE
03
FE
FD
FD
FF
01
FD
FF
FD
FF
03
FD
F4
03
FF
FE
06
0C
00
01
01
02
FF
FE
FF
01
FF
03
F1
00
F6
FB
02
02
FF
FF
FC
03
FE
FC
FD
02
00
FE
F4
01
01
01
10
FF
00
00
06
F9
00
00
FB
00
00
02
F6
04
FA
F7
FF
FE
F9
FE
02
03
FF
02
02
02
FD
01
FE
01
FF
FF
01
02
00
FE
FE
01
00
01
02
02
00
FE
FE
01
00
FD
02
00
01
FF
FD
FE
FF
FC
01
00
01
FE
F9
04
FF
FD
FF
06
01
04
FF
FE
01
00
00
02
FC
01
01
FF
0E
00
FF
01
FF
FC
03
00
FF
FF
06
16
FF
02
FA
FF
06
FD
FD
FF
FE
01
04
02
FF
04
FE
01
02
00
03
FD
06
FE
02
FE
FD
FC
04
FD
FE
FE
FC
08
02
00
03
FF
FE
00
00
FE
FE
FE
01
FC
01
FF
FE
00
FE
02
FB
02
00
01
02
01
FF
01
FB
FE
FB
FF
FD
FF
FE
FD
FE
01
FE
00
FE
00
00
02
00
FC
FD
FC
02
02
FE
FF
FD
FE
FC
FC
FE
01
FE
FD
FD
00
FD
FE
00
FE
FE
02
FE
01
01
FD
02
00
01
01
FD
FF
FD
00
FD
02
02
FE
00
FE
00
FE
FE
FE
FE
FF
00
02
FF
01
00
FF
01
01
FD
00
FF
01
FF
FF
FE
01
FD
00
FE
FD
02
00
01
00
FD
FF
FD
FE
FF
FF
FF
02
FE
01
02
02
FE
FD
FD
FF
FE
00
FE
03
00
FF
01
02
FD
FB
00
01
01
00
02
FF
FC
00
FB
FD
FE
02
FC
FE
04
02
00
00
01
02
FF
00
07
05
00
FA
11
FE
01
01
00
09
00
03
FC
00
00
FE
FF
04
05
FC
00
03
00
04
08
02
FE
07
07
00
01
06
FD
03
FE
F9
F6
04
00
02
FC
00
FE
00
04
FE
FC
FD
F5
04
D0
0C
00
01
0B
08
06
04
FF
F5
01
F8
01
02
FA
01
FC
FF
FC
FE
FE
FD
FC
FF
FF
FF
FE
FE
01
02
FE
02
FF
02
03
FE
02
00
FF
FD
FD
FF
FD
FB
02
FE
FE
02
FE
01
FE
FF
FF
01
FC
FE
FE
00
00
02
02
02
00
02
FD
FF
00
FE
FE
02
FF
FF
FF
01
01
FD
00
02
0B
03
02
FC
07
08
FE
02
FF
05
01
03
02
FE
01
FF
03
03
FE
04
01
01
00
01
FB
04
02
00
08
F8
00
09
02
FF
FD
01
F7
F5
02
FF
00
FB
FF
06
FF
FE
01
02
01
00
06
02
01
FC
04
00
05
F9
FF
FE
FF
00
00
FB
03
FD
FA
0A
FD
F6
02
FF
01
05
03
01
00
01
01
00
04
02
F8
FE
FF
00
FD
FD
FE
04
FE
FF
FF
07
FF
03
06
01
FD
00
E3
00
01
02
02
06
00
01
FD
02
FE
02
FD
00
FA
FD
03
03
0B
FC
12
02
03
FF
FF
02
02
03
F8
04
00
FE
FE
FF
02
00
01
FE
00
FF
FE
FF
01
02
FC
02
FE
01
02
03
06
FD
FE
02
01
FC
00
FE
FF
02
FF
04
FF
07
0D
04
01
FD
04
06
02
06
00
01
00
00
01
03
05
F1
01
02
F7
FD
0A
01
03
04
03
FB
02
01
1A
04
FE
02
EA
07
FF
01
FD
FA
FF
FD
00
01
FF
02
FA
FF
FB
FE
FE
FD
F5
FE
0A
03
02
FD
FF
F0
02
02
F3
00
FC
FD
FB
05
FE
02
01
02
03
08
FD
01
FA
01
08
FF
00
06
00
FB
F6
00
12
02
FD
01
FF
04
FE
01
FC
FD
10
FC
0D
FA
00
FE
02
06
FE
05
08
FE
04
00
00
01
0A
03
FF
FE
06
FF
FE
FF
02
FF
FC
FF
01
FB
FD
03
FC
09
F4
01
FF
04
01
FC
00
00
FD
00
FF
02
04
FE
B2
04
02
FF
07
03
FA
01
FE
FE
00
EA
FE
04
02
03
00
FE
05
FC
01
01
FD
02
01
01
FF
FF
01
FF
FA
02
FE
00
02
FF
FB
FF
02
FC
FD
FD
01
01
FE
01
F9
01
FD
01
FF
01
FF
FE
FB
FC
01
F8
FD
FF
01
FF
02
FF
F8
FD
03
FF
FD
00
FC
FE
FF
02
03
FC
FE
FE
E0
04
06
00
06
FC
FE
01
FF
02
FE
04
02
FF
03
FD
05
FF
07
09
FE
00
0A
07
15
00
01
01
02
01
FD
02
FF
03
04
FC
FE
0B
02
02
01
04
FD
08
02
FE
FF
00
02
03
FE
03
02
02
05
03
FF
00
06
05
02
F0
02
03
0E
FE
FE
FC
03
05
01
06
05
03
03
0C
FE
FF
00
02
08
FF
03
00
FD
FF
06
04
00
01
01
01
FF
FD
FF
01
01
01
01
FF
00
FF
01
01
00
FE
FE
01
FF
00
FE
FF
FD
FE
FE
00
FE
FC
FD
01
00
02
00
FF
00
00
03
FE
E7
FD
02
0A
F1
FC
03
00
02
00
02
0C
FF
FE
01
FE
06
03
03
03
FF
04
14
00
0E
00
FA
FD
08
FD
02
FB
03
FF
FA
04
FB
00
01
01
02
FE
FF
FB
FE
FE
02
FD
FD
FE
00
F8
FF
FF
F6
02
05
01
00
02
04
FC
FE
01
FF
00
01
FC
FC
01
FF
01
00
FD
FE
FA
FF
03
FF
01
FC
01
FF
FD
00
01
00
02
FC
02
02
FE
02
FE
FE
FF
E0
01
02
03
FF
FC
FD
01
FB
FB
FF
ED
FF
03
01
01
DB
02
02
FE
FE
01
FD
FB
F3
00
FD
FE
03
F1
FE
FF
F5
02
FD
05
FE
FE
FE
FE
FD
FD
02
FA
01
FF
00
FD
FE
01
FD
F5
FF
FE
FF
02
FE
01
FD
01
02
FE
01
FE
E1
01
06
FF
01
FE
02
FF
01
FD
FF
F2
00
01
00
01
DE
03
FF
F4
01
02
FF
FD
F9
02
01
01
00
F8
01
02
01
FF
02
01
FF
FC
FE
00
FF
FC
01
FD
FE
FD
02
FF
FC
00
FD
FE
00
FF
00
FD
00
01
FF
FE
FD
FF
01
01
0A
FD
02
00
F3
FC
FE
FD
FF
FD
02
FC
05
01
01
FF
03
01
00
FD
01
FD
03
01
FF
FF
FB
01
FE
FF
01
FE
FE
FF
FE
FE
02
00
FE
00
02
01
03
FF
FE
FD
FE
FF
FF
01
FD
01
FF
01
00
01
FF
FF
FD
01
01
FF
FE
FE
2A
01
FB
00
F2
03
01
04
FF
F8
00
FE
FB
02
00
00
E7
FE
F1
FC
01
FD
FC
03
F6
01
FB
FD
01
08
FF
02
03
02
F6
0A
02
14
FE
FC
FD
01
00
09
02
00
00
FF
03
00
F7
F9
00
04
FB
04
FA
04
08
FF
05
F7
01
FE
05
FF
F5
09
02
F4
FF
FC
05
00
FF
02
FA
FF
01
FE
03
02
EE
FD
FF
FE
04
FE
02
03
FD
04
FF
FF
FF
FF
10
00
00
02
F9
03
FE
FF
FE
01
FE
08
03
01
04
FD
FE
FF
02
FF
02
01
02
07
02
00
00
FE
FE
03
00
00
01
FD
0C
08
FD
F5
00
FF
03
F4
FE
EE
00
02
05
02
FD
01
02
01
FD
FE
02
00
FA
FF
01
02
04
D3
FE
FB
FE
00
FF
01
00
FE
01
01
01
FC
02
FE
FD
FE
FD
01
FA
FF
00
FE
02
00
FC
00
FD
00
FE
FE
00
00
FE
00
FB
FE
00
FB
00
04
00
02
01
04
FE
06
08
FE
FE
01
02
FF
03
FB
FE
FF
FE
FA
FF
03
FF
04
05
FE
FE
00
FF
FE
00
FB
FC
02
FF
01
01
FC
01
FB
02
FE
00
FF
FC
01
FB
FD
00
FE
FF
02
02
FF
FF
FE
FF
FC
FE
FD
14
04
FD
02
FD
0C
02
02
00
08
FE
FD
FE
03
02
03
FA
00
F9
FB
FD
02
FE
F9
FB
FE
01
F7
05
08
00
FF
00
00
FC
FF
00
00
FF
02
02
FF
FF
FF
FE
02
01
02
02
FF
FD
FD
FE
00
00
FD
01
FC
01
01
00
03
FF
FC
FF
02
FF
FF
02
02
00
01
01
00
03
FE
FE
FE
FD
FE
FE
02
FD
FF
00
FF
FE
01
FF
01
FF
FE
01
FE
02
02
FC
01
01
05
00
06
FE
FF
00
07
03
06
F9
02
02
01
04
01
F2
04
FE
01
07
02
F0
04
02
FD
02
F7
01
FE
FF
01
00
08
F0
06
FF
05
03
00
03
02
02
FF
00
02
FD
FE
B4
04
01
01
0B
03
0A
03
01
FD
00
F5
00
01
08
02
FD
F9
D1
04
02
FE
00
09
00
09
F7
FF
00
01
EF
FE
F4
FF
FF
FF
FF
FC
0C
FF
F9
FE
01
09
00
00
FE
01
FD
FF
FE
00
00
FF
FF
FF
FF
FF
FF
02
01
FF
FC
01
FD
FE
01
FE
FF
FD
00
02
00
FD
FF
FD
FD
00
FE
FC
02
FE
02
00
01
00
FF
FD
FD
FA
FD
FF
FD
00
FA
02
F8
01
02
00
FC
01
01
FD
F9
00
FD
04
02
FD
2B
00
FC
04
F5
03
00
06
FF
0F
01
10
04
FF
04
FF
F9
02
F1
03
02
FF
00
05
0A
04
FF
FF
FE
09
01
03
FF
FE
FF
FC
01
00
02
00
01
00
00
FF
FE
02
FF
FE
00
01
FE
FF
FF
FE
FF
00
00
01
FF
02
00
00
FE
FF
F9
07
02
02
0D
02
02
04
02
05
01
04
00
FF
FE
FE
05
02
FF
00
03
03
03
02
FB
07
03
01
06
FA
02
07
0E
06
FE
FE
F2
EC
FE
00
F8
F2
01
E6
04
00
FE
FF
FF
02
07
09
00
02
03
FF
F4
02
00
F5
FF
E1
FF
02
04
FD
06
03
F5
FF
01
FF
FB
F8
00
EF
FF
01
03
02
F1
FD
F4
FA
01
02
F7
01
F5
FE
FB
FF
FC
FE
FE
00
F5
FF
01
0F
0B
16
FE
03
02
00
FF
05
03
00
FE
FE
07
00
03
03
02
FF
05
05
01
05
01
02
06
01
00
02
00
FD
FA
06
00
0D
FF
00
FF
03
03
09
FC
03
01
FD
09
01
05
06
FE
00
09
03
00
00
FF
00
02
FD
01
00
0E
02
F7
0E
0A
06
01
FF
05
08
03
10
01
01
02
FE
0E
02
02
08
02
00
0C
FC
FF
04
FE
02
02
FF
00
01
07
00
FF
01
FD
DF
FF
FE
F9
DB
02
ED
01
02
FF
02
04
FE
07
03
00
FF
0A
FD
01
FA
FE
FC
FD
D7
02
FE
F1
FE
0B
FA
07
FE
00
FE
FF
FD
02
FB
01
00
FD
FE
F8
00
FF
FD
FD
01
F8
FE
FF
FF
FC
01
FE
FF
02
03
00
00
00
FE
FF
FE
FE
FE
00
FD
FE
FB
FF
FE
FE
01
FC
FF
FE
FE
FE
02
FC
FF
FE
01
FF
FE
00
FA
FE
FF
FB
00
FE
FA
08
FF
FF
06
00
10
02
11
03
00
FF
FF
06
FE
0C
FF
01
01
FC
01
0A
FD
FD
03
01
0D
FE
01
02
01
00
01
FD
02
00
01
FD
F9
FE
F9
FE
FE
02
FF
FD
01
F9
FC
FE
01
FF
FF
FD
FE
00
01
FD
FE
03
FE
11
03
FD
FE
0D
EB
02
00
04
FD
00
FA
00
02
FF
00
F9
00
00
F3
02
FF
EF
03
F2
01
00
02
FF
02
FF
02
05
FF
07
F9
0B
0C
02
01
01
02
FE
0A
06
01
03
FD
0E
FE
0D
05
00
00
02
FC
01
02
FE
00
00
FB
FD
01
FD
03
01
FE
FD
FF
02
FE
01
FE
FD
00
FE
01
FF
00
01
02
FD
FD
FF
00
FF
02
FE
00
02
FC
FF
FB
FF
00
00
FD
01
0C
01
05
FD
FF
FF
03
01
00
01
03
FF
00
01
00
FF
FE
FF
FF
FE
00
FE
FD
01
FF
00
01
00
01
FD
00
FE
01
00
FF
FF
FF
03
FF
FD
FD
01
00
00
FF
FF
00
FE
FE
02
FF
FD
01
FD
02
FF
FF
00
01
01
02
DB
03
05
10
02
F9
01
01
06
01
00
03
03
00
06
01
0A
02
03
08
00
01
07
04
1D
05
01
01
05
FE
01
05
F1
02
FB
FE
09
F6
FF
FD
03
00
FE
02
00
02
FF
00
FE
01
0A
EF
FD
03
EF
FA
04
02
FB
06
FF
E5
01
05
FA
FF
F7
F3
FC
0C
FE
03
FF
05
FE
01
0C
00
FE
FF
F9
00
01
FD
FF
FE
FC
06
04
FD
FD
03
FE
0A
FF
FE
FE
FE
FC
00
FB
FD
FD
04
00
FE
FE
FC
00
02
01
FF
FC
00
DD
07
FF
04
08
05
07
02
00
FF
03
04
FD
02
F9
01
FE
01
F4
FE
01
04
FD
FF
FE
FB
FE
FE
03
FF
FB
00
FB
03
FE
01
00
FD
0D
FA
02
FF
FE
F8
FF
00
FD
00
FC
FE
00
FB
00
03
FE
01
FF
FB
00
01
01
02
D9
01
00
01
FE
03
FF
04
07
04
02
FA
03
02
FE
02
FD
FE
00
FB
FF
F5
00
FD
FD
06
00
FD
00
FF
02
00
08
00
00
FB
03
00
FD
01
FE
FE
FD
01
03
04
01
02
DF
FF
02
FE
03
0B
00
06
FE
0A
FF
0B
FF
00
00
FF
FF
02
FD
00
00
02
FB
05
10
FD
02
FA
FE
10
03
FC
19
02
02
00
F3
05
FE
FF
FF
06
00
04
FE
00
FF
FF
F7
03
F9
06
FF
FD
F8
00
FD
01
00
04
02
09
01
FF
1C
01
09
02
FD
EA
00
04
FA
F1
00
DF
04
02
01
03
FB
FF
FF
00
00
03
02
02
02
00
04
F8
00
EA
FE
02
01
FE
FC
FF
FD
03
FE
03
FF
FA
FF
FE
03
00
FE
01
E2
02
FF
03
FF
01
FD
00
FE
FF
01
FC
04
0E
FF
02
FA
02
0A
FD
D6
F9
FD
00
FE
07
FF
00
FF
01
FF
FF
E6
00
FB
03
FF
00
04
01
FC
04
00
FD
04
08
01
00
FD
FE
FA
FB
F6
EE
00
00
06
00
02
02
07
02
01
00
01
03
F7
0B
02
03
07
08
0B
03
FF
01
FE
02
00
02
0E
04
02
00
F9
F9
FD
01
FF
04
02
FD
02
03
00
FE
F2
02
FB
FD
FE
02
F9
FD
04
FF
FD
FA
FE
04
FF
02
FD
01
FE
FE
02
FF
01
FE
03
FE
01
00
FD
FE
FE
00
00
01
FF
FE
02
FD
03
FE
02
01
FE
FE
03
01
00
FE
F9
FD
FF
00
FC
00
FF
FD
FD
02
00
01
FD
00
FE
FF
FA
FE
FE
06
FE
FF
00
00
FF
FF
00
01
FE
F7
02
00
FF
04
FD
08
FE
05
00
02
FE
04
FF
0A
02
03
01
FD
03
04
FD
FC
00
00
00
04
F6
02
0A
01
04
F0
FF
03
FB
03
02
01
F4
FA
00
04
00
0E
03
06
05
FE
00
FE
FA
FF
FE
04
FE
03
FE
05
13
FE
FC
01
FD
00
02
FF
06
04
FD
01
F3
FE
03
02
00
FC
FF
F8
F9
00
FF
00
05
FE
BF
04
FF
01
03
01
FC
06
03
FE
01
09
FF
00
FF
02
00
FD
02
00
FF
01
FF
01
01
FD
FF
FF
FF
00
01
00
FC
FB
02
FF
00
01
FD
FF
02
FF
00
FE
02
FF
FF
FD
02
01
02
FF
FF
00
01
01
FF
FE
01
FF
01
01
FC
FF
01
FE
FD
00
01
02
01
01
03
FE
FE
FF
02
00
FC
FF
FC
FD
02
FD
FF
FD
02
01
FD
FE
FF
03
FF
01
FF
FE
FD
FF
02
01
FF
FE
FD
02
FF
FF
FD
FD
01
FD
01
02
FE
FD
EA
0B
FF
01
00
02
01
05
FB
01
FE
FF
FD
FE
F4
02
FD
02
0E
02
F8
FF
FF
FD
03
06
02
03
FF
01
FD
02
06
FF
00
FF
04
01
00
01
02
FF
FC
00
05
FE
09
03
FE
00
FF
FC
09
FE
FC
FE
FE
06
FF
FF
09
FE
04
0A
F1
03
02
FE
F8
0B
FF
FE
05
FF
FD
00
04
FC
FD
05
02
FE
0B
02
13
02
01
FA
05
01
00
FD
01
00
FF
FE
FF
01
02
FE
FE
02
FE
03
FE
00
01
FE
FD
FF
FE
FF
FD
FF
FE
FF
00
02
FD
FE
FF
FE
02
02
F5
03
FD
F8
0A
F8
FF
FE
FE
0A
00
08
00
01
FF
00
03
03
0B
F3
02
02
F1
FA
F9
00
02
07
01
E6
00
00
0B
FC
FD
00
0A
F6
FE
01
02
FB
FE
F1
01
FF
03
FE
FD
FE
FD
FC
01
FF
F8
01
F6
FE
FA
01
FE
FE
02
FD
0A
00
00
00
F6
FA
01
00
03
00
FF
FB
00
FF
FF
03
04
01
FE
FA
FE
FB
FF
00
FF
FC
FD
FE
FD
02
00
FA
08
FC
F8
02
FA
F3
00
FD
01
03
02
0D
05
FD
FF
03
08
FD
09
06
02
FC
08
FF
FE
FA
FB
FF
FA
CD
02
FC
E0
FE
FC
F8
0E
09
03
00
FD
13
00
08
FD
02
FF
02
F9
01
FF
02
FF
00
F4
FD
F9
01
03
F4
02
15
FD
00
10
FA
00
FC
0B
00
01
FC
06
00
FF
02
03
FD
00
00
07
FF
0A
F7
02
FD
04
01
03
FF
FE
09
FD
F3
00
FB
02
FE
02
FD
0A
F0
FD
01
04
EF
02
E4
04
FF
02
FE
03
00
04
F9
FE
01
FB
01
F0
04
FE
FD
F8
E8
FE
FE
03
FC
00
FE
07
02
01
02
FE
01
FD
07
00
00
FE
FE
0A
FE
10
05
FE
FC
08
FF
06
FC
FE
04
FA
03
03
F8
00
01
FE
02
FE
02
FE
FE
01
FE
FD
FE
FE
FF
FE
02
FD
FD
FE
FF
00
00
00
FD
00
01
01
FF
FE
00
FE
00
02
01
02
00
FD
00
FE
FF
FF
FF
FD
01
02
01
FD
FE
FD
FD
00
FE
02
00
03
01
01
00
01
FF
01
01
02
02
01
00
FB
08
01
08
00
02
00
FF
00
FA
FF
01
02
01
03
03
E2
02
03
02
05
04
FB
01
07
FC
02
EC
FF
03
F9
02
00
FF
06
06
FE
02
03
FF
FE
03
FC
02
01
00
FF
FD
0B
05
01
FE
01
FB
00
00
FD
02
04
0E
00
02
FB
01
00
FC
01
01
FD
00
FE
FB
00
FF
FF
01
01
03
FE
FF
FF
FF
02
01
FF
01
02
02
01
FE
01
FF
00
01
05
02
03
FE
FF
07
01
00
00
01
02
05
04
02
03
FE
06
01
FF
FF
02
01
FE
FA
F1
00
02
02
01
EB
FE
FD
00
02
01
FD
FD
FC
01
FE
01
FD
FD
02
00
FF
FD
01
FF
02
FE
00
00
FF
02
02
FF
01
FF
FE
FD
FE
FF
02
FD
FF
FF
01
00
00
FD
00
01
01
FE
00
FF
00
02
FD
01
01
FC
00
FE
01
FF
01
FD
FE
FE
01
01
FF
02
FE
00
FE
F5
02
11
FF
01
00
FD
FF
00
08
07
01
01
FF
0E
FE
25
08
FE
FD
07
FE
0E
FD
FA
06
FF
F6
03
F8
FE
02
FD
01
FF
02
FF
00
00
01
02
00
01
FF
FE
FE
FD
FE
01
00
03
FE
FD
FF
FF
01
02
00
FF
01
02
FE
FD
00
04
FF
F6
06
02
04
FD
F8
00
02
FF
02
FF
00
FE
02
05
FE
02
01
01
FF
02
00
02
FE
FF
FF
FF
FD
F0
FE
00
FD
09
03
FE
FF
06
FD
02
FD
FF
03
FC
01
FC
03
FE
F8
01
FE
F8
FB
FD
FF
FF
05
02
FC
00
00
FE
00
01
02
FD
FD
00
FF
00
02
FD
FF
FF
FF
FE
00
01
FE
FF
FE
FF
FF
FF
FE
FD
02
02
01
FD
00
00
02
FF
01
FD
FC
01
01
01
00
FF
00
00
FE
FE
02
FF
00
FF
02
00
FD
FF
FE
FE
01
FE
FF
FF
FF
FF
FE
00
FF
01
FD
00
FE
FF
FF
FD
FF
FE
02
01
FF
FE
FD
01
03
FE
FE
00
FE
FE
FE
00
00
FF
01
FE
02
01
FC
01
01
EE
FD
FF
03
F5
0E
FF
00
02
FA
FE
03
01
FD
FE
FE
00
02
01
00
FF
02
02
07
09
04
FD
03
05
00
01
02
F9
03
01
FE
FD
FE
00
02
01
FD
00
FD
FF
FE
FE
00
FE
01
FD
FB
01
FF
00
02
03
FF
00
FD
00
FB
01
FE
F7
06
FD
FE
05
04
03
FF
03
FA
FF
02
FC
01
00
03
01
01
0C
07
01
05
04
FD
0A
FE
FC
FF
06
09
FF
FE
04
02
00
03
04
FC
FF
FD
05
FF
FF
F3
00
FE
FF
FE
FB
FE
FF
F5
02
00
FA
FD
FD
02
FC
07
02
01
00
FE
F1
FF
FC
FC
FA
17
FE
03
00
02
01
FF
03
02
00
03
01
FF
E0
03
FE
03
0A
FE
F7
01
FE
FC
05
FF
FF
03
00
01
01
02
05
00
01
01
03
02
01
FF
04
00
00
02
06
00
03
03
02
01
05
00
03
FC
FD
FE
01
0A
FF
01
03
01
02
F9
0E
00
FE
FC
02
06
FF
01
01
FF
02
FF
FE
00
0A
E8
02
FD
F0
F8
01
FD
FF
04
FF
F4
FE
FF
F7
00
FD
FF
FF
FD
00
01
FB
00
03
F6
FD
00
01
00
E3
01
01
FE
FF
FF
02
04
0E
01
FD
FD
03
03
FE
FF
01
00
FA
0A
F5
FF
FF
FC
FF
FA
01
F3
00
FE
00
02
05
02
C4
00
00
00
04
00
FC
FF
FD
03
00
F2
FE
00
07
02
02
FB
FB
08
00
03
FF
01
00
06
FF
03
00
00
05
00
FC
FE
03
03
01
FC
F0
01
05
01
04
EF
FE
FF
0B
FE
02
F9
04
03
00
FF
FF
06
FD
0F
09
00
01
00
FE
FF
F2
04
02
FE
00
FE
FA
FD
FA
02
01
02
00
05
FF
FE
00
02
FC
03
FE
02
FF
FE
02
00
00
FD
FE
00
FF
FD
F8
FC
03
02
FD
00
FF
FD
00
FD
03
04
00
01
FD
03
00
FF
FC
07
00
FF
02
02
01
03
01
00
03
03
05
01
FA
01
FF
04
03
03
F6
FF
02
00
03
F7
03
04
04
00
FF
FF
F9
FF
01
02
04
FF
FF
01
03
02
01
00
01
01
07
02
FE
00
05
01
0B
FB
00
FF
FE
F9
04
FB
FC
FC
FF
03
FB
00
00
FE
FF
F7
01
EF
02
02
FD
01
EB
03
F1
FC
02
00
F9
03
F5
FF
FE
FC
02
02
01
01
07
00
FE
FD
0A
01
03
FD
04
FF
02
07
01
FE
FD
00
04
03
01
FC
FE
01
FF
FC
08
02
01
01
03
FA
01
01
07
FE
FC
0A
00
F5
FE
FF
04
01
FF
09
03
02
04
03
08
00
09
FF
01
01
07
FD
02
FC
FD
03
00
EA
01
FC
FE
02
01
02
02
01
FE
00
FC
FF
FF
02
FE
FD
FF
00
01
02
00
03
FF
FD
FF
01
01
FF
00
01
FE
FF
FF
FE
13
05
FD
05
04
FB
01
02
FF
07
01
F1
00
FF
FF
FE
F7
02
FC
FC
02
03
FA
FB
F7
FD
FC
FA
FE
0A
01
FE
FC
03
05
01
FD
00
01
FF
FD
00
01
00
01
00
FE
03
F8
FE
FD
04
00
01
03
03
FA
02
01
01
01
FD
03
FF
FC
FC
02
FA
02
01
01
FB
FB
FE
FF
00
02
FD
FD
FD
FD
FE
00
02
02
FC
01
02
00
00
FF
FF
02
00
02
00
01
00
FF
FF
02
FD
FD
00
FF
FE
01
FC
03
01
02
FE
00
FD
FE
FC
FF
FE
FE
00
01
00
FF
FF
00
00
03
FF
E4
01
09
FF
FF
FE
FF
02
FF
06
FF
FE
FD
02
FF
00
EC
03
F9
FD
FF
00
FF
02
0E
01
03
00
03
0A
03
01
00
FD
FF
FD
FD
FE
00
FD
01
01
FE
FE
01
02
00
01
FD
FE
03
FD
00
00
FD
02
FE
FD
FE
01
FD
02
03
01
FA
02
07
FB
FE
FE
FF
FD
00
00
00
01
02
FF
02
FF
FC
01
FE
FF
FE
FD
FE
00
00
05
00
00
00
F9
00
03
E7
01
F8
F8
0D
FF
02
01
07
00
00
08
01
FF
FD
02
FE
02
0B
F6
01
FE
FF
F9
02
04
01
09
00
E7
FF
05
04
03
F8
08
FC
03
01
00
FF
01
FE
04
03
FF
01
01
02
00
E0
03
01
04
FC
06
02
06
02
00
00
09
01
FF
0D
02
04
FE
01
FE
01
02
FE
05
03
0D
FD
00
FF
FF
08
01
02
FB
00
00
05
00
0B
03
FE
01
FF
FD
01
01
19
05
FE
FE
FA
05
00
FF
01
03
00
01
FA
01
00
FF
FC
00
FD
FB
02
00
FA
01
FF
04
00
04
02
01
FD
FF
07
02
01
05
05
FF
FF
FB
04
01
FF
03
04
FF
FD
FE
03
02
03
EC
00
02
E9
FD
05
02
00
05
00
F2
FD
03
00
01
02
FE
01
FF
FF
FD
01
FD
01
00
FE
01
00
FE
FE
FD
01
02
00
02
02
FF
02
FF
01
FF
FE
FE
FE
FE
02
FF
FB
FC
FE
FE
02
01
FE
02
01
FF
0A
FD
FE
FE
F8
FE
FB
FA
03
01
FD
01
03
FD
FB
06
03
01
02
FE
0C
00
FE
00
F9
02
00
01
FF
FE
FE
FD
01
00
FE
FF
FE
FF
EE
00
FF
03
FF
09
FB
00
FE
02
00
F8
02
03
F5
04
00
FF
02
EB
02
FC
02
01
00
FB
FB
FF
02
00
FC
00
FF
F1
FD
00
E7
F7
FA
FF
01
01
00
07
FF
04
05
FF
FD
FD
FE
F4
00
00
03
F0
00
F6
02
FF
04
00
03
02
08
FB
02
FD
03
01
05
FA
FF
FB
F8
E7
03
FC
FC
00
F8
FC
FC
01
FE
FE
01
F9
01
F6
FC
FE
FD
FF
06
FE
06
04
FF
FC
F5
FF
05
00
FD
01
FF
09
02
FC
FB
02
03
FB
0B
F7
FF
02
FB
00
03
EE
02
FE
FC
FD
FB
02
C0
0F
FE
04
0E
03
06
05
00
FA
03
FA
00
03
02
00
F6
FA
04
EF
FE
FD
08
FE
FF
00
03
01
02
00
07
FE
EB
00
00
FF
FF
FC
FF
FE
FE
05
01
06
FF
03
FF
02
02
02
FD
FE
FF
03
02
07
01
00
04
FE
01
00
F6
03
FF
FD
02
01
FD
04
0C
FD
FC
FD
FD
FA
00
FE
06
01
02
05
02
FF
FF
FF
03
00
02
0A
00
03
03
FF
03
02
0A
FB
FF
01
F7
01
03
02
FE
FD
01
DF
02
04
0D
FC
04
FF
07
0F
FF
FD
FE
FF
FD
04
04
FF
01
FE
03
01
06
F2
01
FD
DE
00
FE
FE
FA
02
FC
03
FE
FD
F2
02
F5
FC
F2
0F
01
03
08
FC
02
F7
FE
FF
05
03
00
00
ED
0C
FF
FF
0B
F8
F5
FF
00
03
02
EA
00
00
DA
01
05
03
01
FD
FF
01
FC
FC
FD
E8
FF
00
FE
01
D3
02
00
FC
FF
01
01
01
F7
04
01
00
02
F4
FF
05
17
00
03
02
00
04
FE
FE
00
F2
01
F9
FC
02
05
FE
06
FE
FF
03
00
FF
01
06
FC
03
FE
FF
FE
DD
00
FE
D7
FF
05
01
02
FD
03
01
00
00
00
E8
FB
00
02
FD
D5
00
01
FE
FE
01
00
FE
F8
03
FF
FB
01
F3
FF
02
12
00
FE
03
F4
F9
00
01
FD
F9
01
FD
FF
02
00
01
FC
FD
F8
FF
00
00
00
00
FF
00
01
03
01
F6
03
FE
FD
FF
01
FF
02
05
FF
FD
FE
FE
FE
FD
02
FE
FF
03
FF
02
FC
F9
02
02
FF
FF
FB
FF
00
01
FF
01
02
FF
01
02
02
03
04
01
02
FE
04
FD
FE
02
FE
FF
01
FF
01
00
08
EF
FD
02
F1
F8
04
FE
FF
05
00
F1
03
FF
FC
FD
FF
00
FD
02
FF
00
02
01
00
FF
00
02
00
03
FD
00
00
00
03
00
FD
00
00
FD
FD
02
FD
FD
FF
FF
03
02
F7
FC
FE
02
02
05
01
00
00
FC
04
FD
FF
01
F6
FF
F9
FE
00
02
FF
07
04
FA
FC
FF
FD
01
FE
FD
D8
01
09
01
00
FB
02
FF
FE
FD
FF
EB
00
01
01
00
D5
00
FF
FE
FE
00
00
FC
F8
01
FD
04
03
F4
FE
05
FF
FF
00
F6
11
00
FD
FD
02
FF
FE
00
FF
FE
01
FF
04
01
09
EE
FD
02
F3
FB
FB
00
FE
04
FC
EB
FF
00
01
00
FE
FE
FF
FF
FF
00
FE
00
02
FF
FF
FE
02
00
FF
02
FD
01
02
02
01
FE
FF
FE
02
00
00
FB
FE
FD
01
01
01
FD
FF
FF
FD
01
01
FF
01
FE
FF
FE
FD
00
FF
00
FF
FE
00
00
01
FF
01
FD
01
00
FF
FD
FE
FD
F0
02
FD
FC
EF
04
FE
00
04
F3
00
F3
FA
01
03
FF
02
FE
E2
04
01
00
08
FD
02
FB
01
00
02
06
FF
FB
0C
FF
01
06
07
00
FF
FA
03
01
00
04
FE
00
FD
FE
01
FF
06
EF
01
FD
E0
F9
09
00
02
03
FF
F7
00
00
06
FC
02
FE
04
08
FE
00
04
FF
FE
0A
05
00
FF
00
06
FD
07
03
FE
FD
07
00
01
FB
F9
02
FD
00
FF
FB
FF
FC
02
00
06
00
FE
03
03
06
FF
11
03
01
FD
FF
12
00
01
00
02
FF
08
FB
FA
01
FE
02
01
F9
FF
FF
09
FD
F5
0D
07
0C
00
FF
05
06
00
0D
02
00
02
01
09
02
0C
09
01
FF
0E
02
04
F8
F9
02
FD
FC
01
F7
EE
FD
00
09
F0
00
01
FF
FF
FA
02
05
08
FD
00
FF
07
FE
01
04
00
FF
09
03
0A
FF
00
FC
01
FC
FF
00
1E
FF
FC
00
F7
07
FF
02
FF
04
02
0A
01
02
02
01
05
FE
F9
FE
FF
00
FF
02
0B
00
01
01
00
02
FF
02
FE
01
FC
0E
F5
01
01
01
FE
01
02
01
03
FD
00
02
03
01
A5
02
00
02
05
01
F8
03
FE
03
03
E9
FE
02
16
00
00
FB
FA
06
01
FF
03
0C
01
0A
01
FE
02
FF
FA
FF
03
05
FD
00
01
03
06
04
01
01
02
05
FE
03
0E
FD
F9
01
0D
F6
FF
FD
02
00
FE
FA
00
02
01
03
02
03
FB
FD
FE
FD
08
FE
02
FC
FF
08
F8
FF
FD
F7
00
FD
FE
FE
FD
FD
03
01
00
FE
02
FD
02
FD
FC
FE
00
FE
FE
FE
01
FF
00
01
00
02
FD
01
FE
01
01
01
FE
02
FD
FD
03
0D
02
02
FE
01
00
04
03
03
02
02
01
01
FC
04
02
01
02
04
FD
FE
05
02
03
EE
01
FF
1F
04
00
05
F2
05
02
FE
00
F9
01
F6
F3
00
02
FF
EE
02
EC
02
FF
FF
03
02
EF
00
01
00
03
04
FE
01
F0
FF
08
FE
03
FD
00
FE
04
05
01
06
00
01
01
FD
FE
FF
08
EF
FF
00
F6
FD
FB
00
FF
00
03
FD
FD
04
15
FE
F6
FD
F8
0E
01
FE
03
01
FF
04
FB
FE
03
FE
FA
03
01
FD
FE
FD
F9
F9
0A
FD
00
00
00
05
FE
00
FD
02
02
FF
02
00
FE
FE
FD
01
01
00
FF
FF
02
01
01
00
FC
FF
00
FD
00
FD
00
FE
FF
01
FF
FE
03
FF
01
FF
01
FD
02
FF
00
01
00
00
02
FD
02
02
02
00
FB
FF
00
00
02
01
02
02
FF
01
00
00
FD
01
FD
02
F1
01
F2
FE
FC
EF
FF
02
04
FD
FF
FF
00
02
02
03
FE
02
F5
08
00
00
12
FD
F6
00
FC
03
03
FF
02
FE
FC
FF
F9
FC
02
FC
00
FE
04
03
03
04
FE
FE
00
FF
05
01
0B
01
01
FF
FE
FE
0E
00
F9
FF
00
0C
FE
FD
01
04
02
05
04
01
FD
FA
04
02
00
08
06
01
02
FF
FE
FE
08
ED
00
02
E6
FD
06
03
02
02
FF
E4
FE
03
01
FF
FD
FD
FF
FE
FF
FD
01
FD
02
FF
01
FE
FE
FF
FE
FF
02
FE
02
01
FE
FE
FE
01
00
FE
00
FD
00
01
DB
FF
09
01
FF
FF
FF
01
00
00
00
EB
FE
00
01
00
D4
FE
00
02
FE
FF
03
FC
F7
00
FE
00
01
F2
01
03
F6
FF
FA
0E
0C
01
FE
FF
FE
06
FF
08
FC
FF
01
FE
05
FF
03
FE
03
00
FE
08
FD
05
FE
01
05
01
FD
02
FE
FB
F3
01
12
FC
FE
00
FC
FE
02
0A
08
01
02
04
0C
01
28
0A
00
FE
05
00
07
FB
FB
03
FB
F6
FE
F5
FB
03
FC
F6
04
07
FF
02
00
08
00
09
03
FD
01
01
FC
01
02
F5
FF
FF
EA
02
FE
01
FD
F7
FD
0C
01
FF
FF
FC
F5
06
05
FF
02
FC
FD
07
01
14
00
01
FF
03
0D
FE
FF
00
01
00
09
01
01
03
FE
03
01
FA
00
03
04
F9
04
01
0C
09
02
01
01
08
FF
0A
05
02
03
FE
0E
02
13
08
02
FD
08
01
09
F8
FC
FE
FA
FA
03
F8
FF
FD
FF
01
FE
00
03
01
00
FF
01
FD
02
02
FD
00
02
FD
00
FD
01
FE
FF
FE
01
00
FD
FE
FD
FD
03
00
D4
FF
06
02
07
F9
02
01
FE
FA
FF
EB
FD
01
01
01
D7
03
01
FB
00
FE
FE
FC
F8
03
00
00
01
F5
01
01
F7
00
FE
FB
07
03
01
05
FD
00
FF
FD
05
FD
FE
FE
FC
FD
03
FF
FF
FF
FF
02
10
FD
01
04
03
02
FF
00
FE
00
01
FD
F7
FA
03
01
02
02
02
0C
00
02
00
FF
FF
FE
CB
04
02
02
09
07
01
04
00
01
04
03
FF
03
F2
02
F9
FA
FF
11
02
FE
02
FA
FF
FC
FC
FF
02
FD
03
03
FF
05
01
04
06
FA
FB
FC
00
04
04
05
01
FD
F4
04
FB
07
05
0E
FD
03
FE
03
01
07
FB
FE
02
01
03
FF
F5
08
FE
02
07
05
FC
FE
FF
00
01
F3
FF
FF
FC
00
FE
FC
05
FE
03
00
00
01
FE
FF
01
FF
00
FF
FA
00
00
03
03
FE
00
FF
03
FD
FF
00
00
00
00
00
F6
FE
FC
F8
0A
0D
01
04
03
02
FF
FE
0A
02
FF
FE
F3
00
FE
F8
FE
03
FD
02
10
01
02
04
FF
08
02
01
F0
00
04
01
E2
FC
FD
FF
00
04
FE
05
00
FF
02
02
EB
FF
FB
FB
FF
03
01
FD
FE
03
FC
FE
02
06
FD
00
FC
FE
F8
FB
FB
FF
01
FF
01
FF
FD
FF
04
00
03
01
FD
FE
FF
FA
03
FF
FD
04
06
FD
FE
05
FC
FD
03
FE
04
03
05
07
F9
00
FE
FE
03
04
FE
F9
FF
01
00
FF
03
FF
FA
FD
00
02
FE
00
08
00
02
FD
FF
03
01
00
FC
00
FE
FE
FF
01
02
FE
01
FC
00
00
FE
00
01
01
FB
FE
FB
FF
FF
00
FD
01
00
00
FF
FE
FD
00
02
02
FE
FF
FF
01
00
01
02
FD
01
FF
FE
FD
01
FF
01
FF
00
00
01
00
FF
00
FC
FB
FE
02
01
FD
01
02
FE
00
00
02
02
FF
FC
00
02
FE
00
FD
01
00
00
02
FD
FD
FF
00
00
00
02
02
FE
FE
FE
FE
01
FE
FD
02
FF
01
FB
FE
00
FE
09
01
02
03
01
05
FE
01
FC
FD
FC
03
06
02
08
01
00
FD
02
FD
04
FD
FC
FF
FD
07
03
FC
EE
06
FE
FE
E9
0D
00
03
00
FE
02
FE
00
FD
FF
FE
02
03
F8
0A
01
02
03
FC
F9
FE
00
FB
08
03
03
FE
FD
03
00
01
FF
01
FF
02
FF
02
01
00
FE
00
02
02
FF
01
FF
FC
FF
01
FC
03
02
03
02
00
FF
00
00
FD
DB
03
04
01
03
FC
01
00
FD
FF
FE
EE
FE
01
02
FD
D8
03
FD
02
02
00
FF
FC
F6
02
00
FF
04
F0
FF
03
06
FA
03
01
F4
FE
02
FF
02
01
FF
01
00
FF
FF
01
04
FE
06
00
02
FB
04
FD
FF
FA
FC
01
FE
02
FF
F8
FD
FF
FF
00
01
03
FD
FF
FD
00
FE
01
FE
FD
FF
00
FF
FE
00
FD
01
00
02
F8
FE
FE
FC
03
05
FC
FF
02
05
FC
03
FE
04
FD
FD
00
FE
FC
FD
01
FE
FF
FF
02
00
02
02
02
FD
FD
02
FE
05
FF
FD
01
00
02
FE
FF
FB
FF
FF
FB
00
03
01
01
01
02
FE
F7
07
01
FE
00
F8
FF
02
F9
00
01
FD
FA
FC
02
FB
05
06
FB
01
FE
02
03
03
00
FD
04
FD
00
FE
04
FF
08
FE
FE
04
FD
02
FF
03
FD
01
02
FB
FF
F8
03
01
03
02
EB
FF
01
F8
02
FB
0A
01
0B
FD
01
01
00
01
04
F6
02
01
00
04
00
F5
00
00
02
04
FF
F1
02
05
FC
02
F3
FF
FC
F6
05
F4
FD
04
01
00
FF
04
00
03
02
FB
FD
00
02
02
01
07
FE
02
03
FE
FD
FF
FE
FD
00
04
19
FE
00
22
FF
01
0A
FF
F4
01
01
FD
F4
FF
EF
F7
02
01
01
FF
FE
FD
00
00
FF
00
08
ED
03
02
01
01
DB
00
FF
FE
00
FC
FE
F5
00
02
FE
FF
01
FE
FC
01
02
FF
FE
FE
FE
F8
FE
00
FE
02
01
FD
FD
00
FF
01
FF
FE
FD
05
FF
02
FD
05
09
FF
03
03
01
02
09
02
01
04
02
05
02
08
04
01
02
03
02
FB
05
FC
FE
05
01
FF
05
05
01
FA
02
FA
FB
FF
03
04
FF
00
02
FF
FD
02
02
06
01
F8
FE
00
FF
FB
FE
07
FF
00
FF
FF
09
03
02
09
03
FC
06
07
01
01
01
00
01
00
04
FF
FE
00
FE
06
01
03
FF
01
04
05
05
FB
01
FE
FF
04
FD
FF
01
FF
FE
FD
09
00
06
FE
FD
FB
FE
01
00
FF
00
FF
FF
03
FF
F6
00
00
FF
02
02
EE
02
05
FD
02
F2
00
03
0D
06
01
04
E9
FE
FE
02
FD
FB
FD
00
FA
FF
02
03
FB
00
F6
06
FE
03
02
FE
F6
FF
FC
F4
01
07
03
02
01
02
01
FE
FD
02
00
02
FC
FE
00
FA
01
00
FD
00
F5
00
FB
01
00
02
01
03
F7
05
FD
FD
05
FF
FF
03
F9
FD
02
0A
FA
FF
FF
00
03
01
01
FE
01
FD
02
01
04
FE
02
01
01
03
00
FF
04
FE
00
02
00
03
FF
FD
FE
FF
01
02
FF
FF
FF
FF
FF
FB
FE
FC
00
02
FE
01
00
FF
01
00
01
FD
01
FE
FE
FF
00
FF
FD
01
01
FE
FD
FF
F7
F6
0E
FF
FD
FF
03
03
FD
FB
01
FF
FF
02
07
FF
12
03
00
00
03
02
0B
FF
F8
01
FC
0B
02
FB
04
00
02
FE
07
FC
FF
01
01
FD
FD
F9
06
FF
00
00
FD
FE
FF
FA
FE
00
FC
FD
0F
FD
00
02
01
FD
FF
FE
1D
FD
F8
FF
F7
F8
00
00
04
04
FE
09
05
01
FF
FD
00
00
F2
FC
FF
00
06
FD
FA
03
FD
04
FE
F5
FE
02
04
02
04
FB
F5
03
01
06
F7
FF
FE
F4
FF
FE
01
FE
E5
03
EB
FD
01
05
03
07
F6
03
00
FE
02
FA
FF
FD
0C
03
00
04
01
E7
00
00
03
EC
02
E6
FD
FD
FF
02
02
02
03
03
00
00
07
03
EF
02
FD
FE
01
E2
01
02
FA
01
01
F7
FD
03
01
09
05
01
01
FE
01
02
FE
00
FD
FE
CA
0C
01
05
0A
02
04
04
00
FD
00
FA
FE
00

