02
F8
01
F5
00
03
FE
FB
FE
FC
01
FA
02
FE
FC
FC
02
05
FB
FF
FD
06
FC
FF
FC
FD
F7
00
E4
FE
FE
06
FE
03
02
FC
FF
00
00
01
01
00
01
FF
FF
FE
FE
FF
02
00
FE
FF
FF
FD
FF
01
01
02
00
03
FC
FF
FD
FE
FE
FF
FE
00
FE
00
00
FF
FF
00
FC
00
01
FE
FE
FE
01
01
02
02
01
00
FF
FF
03
FB
FF
00
00
02
02
FF
02
EE
FE
FF
02
FF
05
FA
FB
01
FB
FD
FF
01
00
FD
03
01
01
FD
05
FB
FC
00
FC
01
FE
FC
FF
FE
F8
0D
DA
F5
FD
06
FF
01
01
FC
04
FF
0C
0C
FE
01
00
01
01
FF
E7
02
FD
01
10
02
00
FE
FD
00
0B
00
00
E8
FF
00
00
01
01
00
FF
01
01
01
FD
FC
02
01
FC
FD
01
00
FC
FD
FF
00
FF
02
FF
FD
00
01
00
FD
FF
FD
01
FD
FE
08
03
FE
01
FD
00
00
08
FC
02
02
02
00
02
06
F5
00
02
01
EC
01
FD
FC
FD
FE
07
FC
E9
01
F8
05
01
FC
FC
02
FF
FA
00
FE
E1
FE
02
01
02
FE
FE
FC
06
04
FF
09
E8
FD
01
00
EC
FE
01
C7
F2
F7
00
FF
FE
FE
FD
FD
FB
FD
FF
FD
00
02
FF
FE
FD
FD
FF
03
FE
FD
02
FF
FE
02
FF
FE
FB
FD
03
01
FD
FD
07
0F
06
F6
FF
01
FE
FC
03
FA
FD
0F
FE
02
FC
00
02
FB
FD
FB
FD
06
FE
FD
01
05
FA
FF
FE
FD
01
FA
02
00
FC
04
FB
FF
01
05
02
FE
F3
F9
03
FD
FD
01
03
FF
FF
FE
FF
FF
04
00
F2
F4
FB
F3
F8
00
08
FC
FF
FD
01
FA
04
01
04
FA
FB
02
FC
FB
00
FC
FB
FD
FF
FD
F4
FD
FE
F8
03
00
01
05
08
FF
FB
0B
F6
F0
FE
07
03
03
02
FD
F9
FE
04
02
FB
01
00
FE
00
04
01
F8
F4
00
01
FB
F9
01
EF
F5
0E
FC
00
17
08
02
F8
FC
02
FB
03
00
FE
FE
00
01
FB
F9
FF
FF
FF
02
FF
FB
F8
FC
03
07
F9
02
FD
FE
0D
FF
FB
00
FD
FC
FA
03
06
F5
04
FF
F4
FF
FF
F7
00
01
02
02
FD
FD
01
F9
04
03
01
F9
F2
FE
01
FB
02
00
FF
EA
F7
02
04
03
01
EC
F8
02
FB
FA
03
00
FE
F8
FE
FF
01
02
FF
F5
FF
03
FD
EB
FF
FB
CD
09
F9
F5
E2
FA
02
FC
02
E8
03
FE
FE
FD
02
FD
FC
FF
FE
00
00
FF
00
FB
04
FE
F9
02
03
F1
02
03
F8
FD
0A
FB
00
01
F8
FB
01
00
FE
00
FE
00
02
FF
01
FD
01
00
FF
00
FF
FE
03
FE
FE
02
00
01
FC
03
01
FD
FE
02
FD
FF
FF
01
03
05
01
03
03
FC
FB
FF
FF
01
07
F8
00
FD
FD
01
FD
FB
EB
01
00
01
FD
FD
00
F7
0B
00
09
FE
02
02
FA
00
FC
FD
00
00
01
01
FD
02
FE
FD
FF
FE
01
00
FE
FF
FD
03
FF
00
FD
02
FB
00
00
00
F9
FF
FD
00
EE
00
00
F5
07
01
FD
FD
FF
FD
FE
FD
02
03
00
00
02
02
EF
FA
01
02
FA
FD
FD
03
F3
00
F7
01
EC
0D
02
E8
0E
29
02
FF
FE
03
FE
03
04
F7
FE
FE
01
FE
02
FE
00
00
04
FF
F7
04
FE
00
0B
01
06
ED
F2
FA
04
FB
FE
0E
02
FD
FF
F8
FD
FC
0C
F6
02
01
00
00
FF
08
D9
03
FF
0C
02
FF
06
06
0A
00
10
05
E4
EE
FC
02
F6
0C
01
FE
FD
FE
01
00
F7
FA
FD
FE
00
03
00
F5
FF
FF
00
09
FD
04
FE
00
F6
00
FE
00
FA
FA
FA
F9
FB
FE
03
FD
FF
FE
FD
FB
FE
FF
FE
01
FB
FE
00
FF
00
01
02
FE
00
FF
02
00
00
02
FD
01
FB
02
FD
FC
FD
FE
FD
01
FE
FC
FC
FC
FD
FF
FE
03
FC
FE
00
FB
00
FD
FF
FD
FE
00
FF
FD
02
FB
00
FD
FF
FC
F6
F7
02
03
03
FF
FA
00
01
FE
0B
08
01
FE
FE
03
FE
FF
ED
FC
FE
05
13
02
F8
FC
F3
FE
08
F8
02
02
01
F1
FC
08
04
FE
01
00
FB
FE
FA
02
01
FE
FE
02
02
FB
F6
00
01
F2
00
00
FF
FF
03
04
08
00
FA
01
FE
F5
F7
02
FE
01
FB
F9
FD
03
F8
FB
FE
02
FC
FE
01
FE
FC
FF
00
09
02
04
03
0B
05
02
00
05
FB
06
FE
00
FC
00
00
FF
FE
FD
FF
03
03
00
03
FE
FD
01
01
00
FF
FF
FE
FE
01
FF
FF
FF
FF
FD
02
FE
FE
00
FC
FC
02
00
02
01
FC
FE
02
FD
00
01
FD
02
FD
02
FE
FF
FC
03
00
FE
01
01
FC
FE
03
FB
FC
FB
FF
FE
FB
02
FF
09
05
FF
FF
FF
FB
00
0B
01
FF
03
FF
04
00
03
E1
FE
03
F3
01
04
02
01
00
01
0C
02
E0
FA
FF
FE
01
03
02
00
FE
FC
01
FE
FE
FE
03
FD
00
00
FF
01
FF
01
FE
FD
02
FE
FF
FB
03
FB
03
FE
01
FD
02
06
02
FA
00
FF
05
F8
04
00
F1
00
FF
FF
FE
FE
FD
04
03
FE
01
FB
FF
FD
FD
04
FC
01
EF
FC
FB
01
FB
FB
02
FF
FF
03
FC
FF
FC
FE
FD
FE
02
02
FD
00
00
FB
FF
FB
00
FC
FC
FE
FB
FA
FE
FC
03
FA
FE
FE
F1
FD
FB
01
02
FD
00
F9
FF
FF
01
F8
02
01
FE
FD
01
02
F9
02
01
F9
01
00
02
0E
05
FE
FC
0A
F9
F1
FE
00
FE
FB
F9
FF
02
01
FF
FC
FA
FF
FE
02
FD
FD
00
FB
02
FE
02
F0
CF
00
02
FD
FF
FD
01
B6
F1
03
04
FD
FD
FD
01
01
FB
FF
02
01
FC
03
FE
FE
FF
00
02
FC
00
FE
FF
FF
FF
02
FB
FD
FF
FF
FE
FB
02
FC
06
05
03
FF
FC
FF
FB
01
01
FA
E4
04
01
FE
FF
FD
FE
FD
FD
03
FE
FE
FB
FE
01
F3
0A
FD
F6
E0
08
FB
00
01
FD
FC
FE
02
FD
FF
03
02
FE
01
02
01
FD
01
FD
FE
FC
FF
00
00
FD
FD
FF
00
00
FE
FF
FC
FE
FF
F4
F3
FB
06
00
03
FC
FD
01
02
0A
04
02
FE
02
03
03
FB
FB
02
FC
F9
0F
01
F9
FF
F6
FB
0F
F8
06
01
FF
F5
FD
00
03
02
02
FF
FC
FE
01
FC
FF
FD
03
00
02
FE
FF
03
02
FF
FC
02
FC
FF
0F
FE
FF
FB
FB
00
FE
FE
02
00
FF
03
FE
FE
00
FF
00
00
03
FD
FD
00
01
01
FF
FD
FF
01
FF
02
FE
FF
FE
01
FE
FE
FD
FD
ED
02
06
E1
FD
FE
F5
FF
06
00
CF
F3
FF
02
01
FF
01
F6
FB
03
FD
14
FC
FA
04
FA
FF
03
E8
FE
F9
10
01
03
05
E9
06
FE
FF
01
01
FD
F8
06
FE
FF
00
00
00
F3
00
03
04
F4
0B
00
FD
F7
04
FA
E6
06
01
07
F4
01
F4
F3
00
FF
01
FC
03
FD
FD
00
FE
00
03
FE
01
FF
FF
02
02
07
FF
03
FF
01
FC
FF
FC
01
02
01
F6
F4
00
F8
01
02
01
03
FE
FE
FD
FB
02
01
00
FD
03
01
FD
FC
00
FF
01
FD
02
FD
F5
FD
FA
04
FC
F6
F7
E3
F6
1B
FE
02
01
02
02
FF
01
F7
FE
01
FF
FB
01
FC
05
01
02
00
FD
FE
FD
07
0A
FD
0A
F8
FB
FB
F2
00
FE
07
FF
FF
FF
01
FD
02
09
F3
FE
FE
FE
FF
02
08
02
FD
FC
00
00
FC
01
FD
00
FF
02
F9
F6
F0
FE
00
FE
FC
FF
FE
01
FC
FB
FD
FD
FE
FD
FF
FE
00
FF
FE
00
FD
FC
00
FF
00
FB
FF
FD
FD
02
00
FE
FE
0F
00
02
FD
FE
03
F3
FD
02
FF
F9
EF
FF
02
FE
01
02
F8
00
FC
FE
00
CD
01
FF
FE
01
FC
FC
BD
F1
F7
FB
02
03
FB
01
01
F7
00
02
FE
FB
FE
FF
02
FB
FE
05
F8
FC
FC
00
FD
F9
F9
01
FB
FA
FD
FA
FA
03
06
FE
FD
01
00
00
FE
FF
01
02
01
02
FF
FE
01
FF
02
FE
02
FE
FE
FE
00
FE
FE
FD
FF
FD
00
00
FE
FF
02
00
02
FF
09
FD
01
FC
F8
00
FF
E5
FF
FE
FF
FE
01
FD
FB
FD
FD
01
F2
FB
01
FF
F7
F8
01
04
FE
F0
F5
FC
FE
02
01
FF
FE
00
01
02
FC
FD
FD
01
02
FE
01
00
02
FC
00
01
FF
FE
00
FF
02
FF
02
FE
FC
FD
02
01
F0
00
09
FD
FF
03
00
FC
05
0D
FD
FF
FE
FD
05
04
00
F1
FE
00
FE
13
FE
FB
FB
FA
FC
10
F1
FC
02
01
F6
FE
EF
FD
02
F6
FC
01
02
F0
FB
FD
FE
00
FE
00
F7
08
00
FF
14
06
FD
FF
FC
F8
01
E0
01
08
00
00
02
00
E5
04
02
04
04
03
FE
F2
FE
02
04
01
FB
FF
E0
03
05
05
F7
05
01
04
FC
FE
FE
E0
02
01
03
FB
FA
00
FD
00
02
FA
FF
FA
00
FB
02
02
00
FF
04
FF
F6
00
00
03
F2
07
02
FD
02
06
FC
00
F6
02
04
F7
01
02
15
00
FE
FA
01
FE
00
00
FF
00
01
FD
FF
04
FD
FE
FF
FF
04
DE
00
FD
FE
01
01
FC
BF
03
04
FD
FE
02
01
FF
FE
06
02
FC
FE
04
05
FD
00
FC
01
FF
05
FC
FC
FF
08
03
03
F4
FE
F8
00
05
FF
F5
FC
FD
FF
FC
07
FA
FE
FB
FF
FE
FF
09
00
01
FF
FA
04
FB
02
EA
FE
FD
00
F1
F8
FC
F9
06
FC
0B
FF
0D
01
02
02
00
00
01
01
FE
02
01
01
00
02
FF
FE
FE
FC
FC
FC
FE
FD
01
FD
03
FE
01
00
FE
FD
FF
FE
FE
FF
FE
FD
FF
01
02
FF
FF
01
01
FE
00
00
FD
FD
FC
01
FE
FF
00
FD
00
FF
01
FE
02
00
FD
02
00
FC
FC
FC
06
F0
FD
07
03
FD
FD
FD
00
FF
E3
F9
03
00
02
05
02
EA
FA
03
FE
FB
F6
FE
FF
02
04
FF
07
E8
FF
F3
F6
FE
FC
01
05
03
02
F8
FF
FB
FC
F9
01
FD
FE
00
01
FC
FD
FD
03
FA
04
02
F9
02
F8
FE
FD
01
FB
0C
FB
04
06
F2
FE
FF
02
F1
02
FE
F4
14
00
FF
FF
FC
FF
01
F8
00
00
F4
02
FC
05
F9
00
00
F5
04
E9
FE
F8
0E
01
F8
04
00
F6
00
00
FB
FB
0E
01
FF
FD
FE
03
01
01
FC
FF
04
01
FA
05
00
FA
FD
00
02
FE
02
02
05
FD
FD
FE
00
F8
FF
F4
F9
05
F5
00
02
FD
FB
00
FE
FA
02
FC
FF
FC
FD
01
FA
04
FA
0B
06
F1
FF
F4
05
FD
FC
04
FE
00
FD
FB
FA
FE
FE
00
FC
FC
FF
00
FB
FA
FC
FD
F6
02
FF
00
FF
FB
FC
FF
08
F1
EC
F4
03
02
00
02
02
FE
FD
00
FE
FB
FE
FF
FD
FC
00
00
FB
02
FE
00
FA
D7
FF
FF
02
06
01
01
B6
F0
F8
06
02
FF
EC
F9
01
FD
00
02
03
D6
F8
01
01
02
FE
FF
FA
02
00
FD
05
F9
F9
F8
04
FB
00
D4
D8
0F
FA
02
FD
FB
FF
00
FE
FD
FC
FB
FF
FD
FF
FD
03
FD
01
FE
FF
FC
02
02
FC
FC
FE
F2
FD
02
FF
FF
01
FB
FE
03
00
FD
00
FC
02
02
01
02
FD
F9
03
00
FF
FF
03
00
FE
02
FA
FD
FA
F6
FB
F2
FE
FD
01
FC
ED
F6
FA
FF
F6
F0
03
01
00
FF
F7
FB
02
E7
FB
00
FE
01
FE
01
F8
02
03
FC
F3
01
04
FE
F0
0A
FF
FA
02
FA
02
05
05
01
15
FE
01
FC
F4
FF
02
FF
FA
02
FE
03
FD
FE
FE
03
01
00
F0
EC
FA
F2
04
FA
F6
FF
C6
E5
06
01
F9
FB
02
FF
03
03
FE
FD
FF
FB
F8
02
FF
02
FE
01
FB
FD
02
00
FF
FD
01
01
FF
06
FF
FF
FD
00
00
FD
00
FE
FF
00
00
FE
FC
01
FE
FE
01
FE
00
FF
FF
01
FF
FC
FD
01
FD
FE
FD
FD
FE
FD
FB
FE
00
00
01
01
06
FF
ED
FF
FF
FF
FF
FF
05
DB
F6
FE
FF
FE
FC
03
04
01
00
00
FC
03
FF
E6
F0
FC
F0
D8
04
FB
FD
FF
01
00
FC
02
02
00
FE
FE
FE
FF
FC
00
01
FF
FB
02
FE
FF
00
00
01
00
00
FC
FF
00
FD
FE
01
00
FE
FD
FF
FC
FE
08
02
FB
FD
03
FD
FF
04
02
00
FA
FD
01
00
F9
FE
01
07
00
01
FB
02
F1
00
00
FC
FF
03
00
00
01
FC
FA
00
FB
F9
02
03
E9
00
FF
01
00
FE
03
F7
03
00
02
05
F0
F9
FF
06
FC
FB
F5
D8
0A
FB
FD
03
00
FB
02
FE
FB
FE
03
FD
F8
03
01
03
FE
FF
FF
02
FC
01
03
FD
FD
FB
FB
FE
FC
FE
00
F9
02
FB
FE
F7
FD
FF
02
01
00
00
FE
01
FF
F9
01
01
FD
01
01
F9
FB
03
01
FF
FF
03
01
FE
08
03
03
FB
03
FE
00
FA
FD
11
01
02
FD
02
00
03
06
FD
00
01
FC
03
03
FF
F0
00
FF
FC
FB
02
06
03
FA
04
09
FC
FA
07
00
FD
08
F8
05
FD
00
FC
F8
FD
02
F9
FE
01
FD
01
FE
FF
EF
FF
FD
F7
05
02
04
04
06
FF
FD
07
F9
F3
05
FB
FD
0E
FF
01
FC
FC
FD
00
0B
01
FD
FE
FF
03
00
05
EC
01
FE
08
03
00
FA
F4
02
FB
0F
00
E7
FB
FE
F6
F6
F7
03
FD
04
FF
FE
01
FC
FF
03
FE
FD
FE
FE
F8
F7
FF
FF
FA
FB
00
00
FC
EA
FE
F0
FB
05
09
FD
FE
FD
03
00
FD
02
FD
02
FF
FE
01
FE
FE
01
00
FF
FE
FE
FF
FE
FE
FE
01
00
01
FF
FD
FF
FE
02
FF
FB
01
FB
FF
02
01
FE
FE
FE
FE
00
00
FE
00
02
FE
01
FD
FF
01
00
00
FC
04
FE
FD
03
FE
00
FF
01
01
03
FB
00
01
FF
03
FD
FF
02
FD
FC
FD
FD
00
00
FE
02
01
FE
00
01
00
FF
FF
FC
FE
FE
FD
FF
FF
FE
FE
FB
FC
01
01
00
03
FD
01
FE
FE
FB
FD
03
FD
FF
02
02
FD
FD
02
FF
01
FD
03
FD
00
00
FF
00
FB
FD
FB
F8
07
02
F7
FF
FE
02
F3
03
FE
FF
0B
01
FD
02
FE
02
FC
FB
01
FF
F9
E9
FE
03
F9
10
03
F6
F2
F4
0F
FB
F5
FB
FD
FF
FE
FE
FD
01
FE
00
FB
02
FD
FE
FC
00
00
FD
FF
00
02
FD
FF
01
02
F3
00
FC
FE
FE
01
0B
01
FF
DD
07
00
02
00
03
00
FA
02
FF
02
00
FB
01
E8
02
00
FF
F2
04
02
DF
FC
08
F5
EC
FF
06
05
03
01
FA
F8
01
FE
FF
F9
FD
01
FC
F9
03
FF
FE
00
03
FD
F5
FE
FF
FD
00
02
F8
F9
FE
FE
FC
04
F6
F4
FC
FE
F7
03
06
FE
FD
F7
01
02
00
00
FE
01
00
FF
00
00
FB
FE
FF
FE
FF
FC
02
F5
FB
01
FF
02
FC
F8
00
02
01
0F
03
FE
FB
FE
01
00
F6
FB
01
00
01
FE
FF
F9
04
04
03
F4
DB
FB
00
01
06
FB
F9
AF
EA
FA
07
FD
04
FD
04
FF
FA
FB
02
FC
FE
00
FF
00
FB
00
FF
03
F4
F9
00
01
FE
01
FD
FD
01
FF
F7
FE
F6
FB
01
05
FE
E4
02
03
FC
F7
02
00
E9
FE
01
00
FE
00
01
F9
03
FD
00
FA
01
FD
BA
07
0A
E5
D3
F2
F7
02
04
FA
02
0B
01
FD
F9
FD
FB
FE
09
01
01
FE
FD
03
01
FE
FB
FE
02
F4
F2
00
F9
FC
FE
00
10
FC
ED
FC
FD
FF
FE
FD
01
FE
FE
01
FE
01
FF
FF
FE
00
01
FF
02
00
FB
00
FF
00
FD
02
FD
FE
FC
FF
02
03
03
01
FE
F6
FB
FA
04
00
FC
00
02
01
FA
F9
FF
00
00
01
00
FB
FF
01
01
FA
FD
FF
FC
FC
00
FB
F9
03
FD
FD
FC
FB
FF
FB
FE
01
00
02
FF
00
FF
FE
FF
01
00
FF
01
00
FE
FF
00
00
FB
FF
FC
00
FF
FE
FB
FD
FC
FC
FA
04
FD
F7
04
FD
FA
FA
00
FF
00
04
01
00
01
FF
01
FC
FB
FE
FF
FC
FF
FB
FD
01
FF
01
FA
00
02
03
FE
0D
00
FB
02
02
FA
02
03
01
FF
FB
FF
03
01
01
00
FB
00
FA
03
03
00
FB
04
00
01
01
FB
FF
03
00
03
FF
00
03
02
FE
FF
02
02
02
00
FC
00
FF
02
FE
00
FC
02
FF
FE
FE
FF
01
FC
FE
01
FA
FF
FD
02
FE
03
02
FE
FF
00
01
FF
FB
02
01
FF
00
01
FE
02
FF
01
FE
F8
FE
FD
02
00
02
FA
01
01
FF
00
FD
FF
FF
01
F9
FE
FF
00
00
FE
03
FF
FE
01
02
FE
01
02
FF
FD
00
FC
00
FF
FC
FF
00
FA
FC
00
FE
FE
01
02
FD
FF
F7
FD
00
F6
00
FA
FE
FE
01
0D
EF
FE
FF
FE
05
FC
05
FD
FF
FB
FA
FE
F5
CB
03
03
EA
FD
DB
FA
00
01
FD
06
0C
FD
FE
FE
01
02
FD
F5
F6
00
00
FE
FC
03
F6
02
04
00
01
D3
FF
FF
02
04
02
F9
A8
F3
FF
FF
02
FD
00
03
FF
FE
01
FE
FE
FF
FE
01
02
00
00
00
01
00
03
FE
FE
FC
02
FB
FC
02
FD
01
FF
FE
02
05
06
FD
07
FF
FB
00
FE
02
00
FF
F3
FE
FD
FE
00
02
00
EB
FF
02
FC
E9
02
FC
00
0A
FC
03
16
0C
F5
00
FE
FD
02
00
00
FB
02
FF
02
FF
01
01
00
02
FE
FE
FF
FB
FE
FE
FE
00
01
FC
FE
FF
FF
FF
01
FC
00
06
E2
01
0B
01
FF
01
FD
FB
02
07
F9
FD
FF
01
06
02
FC
FD
02
FD
E0
FE
00
FA
F7
FE
FB
0B
00
EC
FF
05
03
FB
F8
FE
FD
F8
FE
01
00
D7
05
FF
FD
FE
FF
05
F9
01
02
FF
00
F8
FB
03
E9
FD
01
F6
F6
0A
05
FE
F5
FA
11
FF
04
FC
FD
00
02
02
03
02
FD
01
00
03
FE
FF
02
FD
FA
01
01
03
FE
FD
FF
06
01
FD
FC
F0
00
02
F5
00
FE
FE
FF
00
FF
08
F9
02
FE
01
FB
00
00
FE
04
FE
09
0F
03
FE
F7
05
02
D2
FA
0B
05
FC
FD
00
FA
01
00
FB
FD
01
FD
FA
02
00
03
01
03
FE
F9
FD
FB
02
03
02
FF
FC
02
FD
FE
FF
FD
07
FF
FF
FD
00
F3
03
02
03
FD
01
FD
FA
02
02
00
00
FB
01
FE
01
01
03
FD
DF
FF
F4
FF
FE
00
FD
D9
FA
FA
FB
FD
E6
F7
00
FE
00
F1
FF
FF
F9
FF
01
FF
02
FC
FF
EA
02
00
FE
09
06
F6
F8
FD
F4
FF
F2
09
FA
00
02
FE
FE
E6
00
03
00
FE
FE
FE
F7
FD
00
02
FD
FE
01
E9
01
04
02
FF
03
00
F0
F4
01
F9
F0
F6
01
03
FF
00
FD
FD
FF
02
00
FF
FC
FD
FF
FC
02
FF
01
FC
FF
FE
FC
01
FD
00
FD
FF
FE
FE
FE
FC
FE
FC
02
FF
FB
00
FB
FF
FD
FE
FD
00
01
FF
FE
FF
02
FE
FF
FF
FD
FE
FC
FE
00
FF
FF
FF
01
FA
03
02
FB
FC
FD
FC
FE
FF
00
FD
FC
03
FF
00
03
01
FF
02
FD
01
FF
FF
FF
FE
FC
01
01
FD
02
FE
FE
FF
01
FC
00
FD
03
FF
F4
FD
F7
03
02
03
01
00
FE
FD
FC
05
FE
02
02
01
FC
FE
04
01
FC
FD
D1
FE
03
FB
FF
04
00
C6
07
EA
F0
F1
F9
01
02
02
02
F9
FA
04
FE
F6
01
FF
01
03
FE
00
F9
01
01
FA
05
02
FE
FA
01
FF
02
02
FA
FF
FF
02
FE
09
01
FE
06
02
FF
05
FD
06
FD
FD
02
01
03
03
FD
03
01
01
09
FF
DA
F4
EA
F9
06
E2
F9
F5
FF
03
FF
F4
F9
03
02
F9
02
02
EC
03
FD
FD
FC
FE
FE
FD
01
FF
FF
F8
04
FD
CD
FE
FA
E9
EC
F6
F9
03
02
EE
00
FB
FF
02
FA
FF
02
03
DC
F8
01
FD
02
FB
04
FC
03
FF
03
02
06
00
F3
00
13
FC
DC
F7
EB
02
01
02
02
E3
03
01
06
00
FD
04
F7
00
FF
FF
FB
00
03
E1
00
03
01
00
F8
FF
EB
F4
F5
F9
F3
FA
03
03
00
F0
01
FF
03
01
FD
F5
FF
FE
FF
F9
FE
FF
FE
FE
FF
FD
F9
01
FE
00
01
06
FD
FF
00
01
FF
05
04
F2
04
EA
FD
00
FC
FF
FE
00
FA
02
FD
F1
FE
FD
FE
05
00
FB
02
05
02
F2
F6
00
FB
FB
F7
00
07
F3
05
FA
F7
07
00
EC
01
00
FC
F4
01
FC
DE
FC
FF
00
FB
FC
00
FC
FF
FE
FB
03
FD
01
FA
00
FD
FC
EE
01
06
03
FD
FE
01
FE
02
03
FB
FB
FF
FF
FF
FC
FE
FF
FE
FE
FF
01
FC
00
FE
00
02
02
00
FB
FF
00
01
FC
FC
FC
FC
FC
00
FE
FC
01
02
FF
FF
01
FD
00
FD
FD
FF
FD
01
FD
FD
00
00
FF
00
FF
FC
FD
FE
FE
01
01
00
FE
FB
02
FC
11
02
FF
00
FB
FF
02
F3
FD
03
FE
FF
FC
01
FD
FE
FF
03
05
F5
FF
F7
FC
EE
FC
08
E9
F6
FA
01
FB
FE
FD
01
FF
00
FC
01
FE
FD
FE
01
02
FD
FD
FF
FE
FB
FD
FD
FF
01
FF
FF
FC
02
F8
02
02
00
FF
FA
FF
FF
EC
FD
FE
F8
FB
05
FE
FB
0D
01
FF
FB
FE
02
EB
02
FF
03
F3
05
03
EF
F8
10
F7
EF
01
08
03
FC
02
FE
01
02
00
FE
FF
FF
FF
FD
02
00
02
FF
00
00
FF
FD
00
00
FD
01
FE
FF
FF
FF
FD
01
00
FF
00
FD
FC
FD
FF
FE
00
FC
02
FD
FF
FC
00
03
01
00
FD
FF
FF
FC
FD
FE
FF
FC
FE
FE
FE
00
FF
FE
01
FF
00
FB
F4
FC
03
FD
03
FA
FF
00
01
FF
FE
02
03
FC
02
01
00
FD
03
00
00
04
FF
00
FC
09
FE
FF
00
FF
FF
FC
00
F6
F8
FE
FE
FA
FF
01
FD
FE
FD
02
FD
01
00
FF
FF
FD
01
FE
FA
FA
03
FF
00
F7
02
FF
FD
FB
FA
02
F6
FF
02
00
01
F6
02
FF
FA
E7
FA
FE
FE
FB
04
00
01
01
03
FD
FC
17
FC
FC
0F
15
F9
FE
FE
EC
FE
FE
FE
FB
00
04
01
04
FA
FD
FF
F7
FE
FF
01
01
FE
02
01
F8
FD
FE
FD
FE
FE
00
01
FD
00
F7
FB
FE
00
FD
FB
FC
FF
FE
00
F9
FD
FF
FD
FC
FB
00
01
FD
01
FE
FE
FE
FB
02
00
FE
FF
FC
FF
FF
FF
00
FE
00
FF
FC
FF
FD
FE
00
FF
FF
FE
FC
01
FD
FC
00
01
00
00
FD
FF
FC
03
01
F8
FB
00
00
FF
F9
00
FF
FD
FC
FC
03
04
FB
FD
F6
00
01
03
00
00
F3
F4
FD
FF
FD
00
00
FB
05
FB
01
FE
DF
FA
F1
FA
08
01
FC
D4
FE
F5
FB
FD
02
FF
00
00
FF
00
01
00
00
FF
FF
FF
FC
02
02
FC
FD
FF
01
FC
02
FD
02
FC
00
FE
FC
02
FD
FB
00
04
FB
03
02
FF
01
03
FF
00
DF
01
00
02
00
FC
FB
F7
00
FE
01
ED
DE
FE
04
06
F6
00
F8
CC
F2
F9
FE
F9
02
12
FE
FE
FE
01
FB
02
F8
FA
02
FE
FE
FD
FE
F8
FF
04
01
F5
DD
FE
F9
00
0A
FD
FA
AD
FE
02
FF
FC
02
00
00
01
FF
01
FF
02
FE
01
03
FC
02
03
FF
FE
FD
FD
02
00
00
01
FC
03
FE
FD
FF
FE
FF
FE
FB
05
03
F9
FF
00
FB
03
FD
FD
06
FF
00
01
FF
03
00
04
F2
00
FB
FE
06
00
F9
F8
F5
FF
03
10
FB
FE
FD
F6
FC
E8
00
00
FB
FF
04
FD
F8
F5
00
02
02
00
03
FF
00
01
FE
FD
C9
FE
FF
04
03
FE
F7
AC
F9
FF
FF
FE
FE
00
03
FE
01
00
FD
FD
FE
FE
02
FF
FD
FF
00
FE
02
02
FE
FE
FE
FD
FC
FC
FD
FB
FE
FF
01
FF
03
06
FA
02
02
03
02
F8
04
FD
E8
F3
01
FE
FD
02
01
F6
FB
FF
FE
FE
03
FA
02
FF
08
04
F3
E5
FF
FB
FF
07
00
FA
01
00
00
FC
04
FF
FE
0B
FF
01
FF
04
00
FC
FB
FB
FD
FE
00
00
FC
F3
FF
FB
02
F8
08
FA
00
01
02
01
03
FF
02
FC
FC
00
FD
FB
FE
01
02
FF
02
FC
02
00
01
F7
F7
01
03
FE
01
FA
FF
F9
FA
FF
FD
05
F6
F8
02
03
01
FB
01
00
F0
03
FE
01
03
01
FD
F9
F7
01
02
FB
FE
00
03
F7
FB
01
F9
02
FE
FE
FD
FE
00
FF
FE
FE
00
00
02
02
FF
01
02
00
00
00
FD
01
FF
01
FD
FE
FE
FC
FC
00
FE
01
FF
FC
00
FF
FF
E9
FD
01
02
01
FC
FD
FE
01
01
F9
FD
FF
FC
00
02
01
FE
FF
03
05
FF
01
F9
FF
07
01
06
FB
F2
FC
04
00
FA
FD
02
02
02
FE
01
05
FC
FD
00
FC
03
FC
FE
F6
02
00
FF
F4
CF
FE
04
01
03
01
FA
AF
EE
FA
FD
02
05
FA
00
FE
FB
F8
08
FE
FE
F6
01
00
00
00
FE
FE
F1
00
FC
0A
03
01
03
FF
FA
00
FD
FD
0A
01
FE
FD
00
F5
05
02
FC
FB
01
02
F4
E5
FE
02
FD
03
FF
03
FC
03
01
F9
00
01
FF
00
02
FE
F3
00
FB
01
04
FE
FF
FF
04
FF
FD
FB
FE
FF
FE
FA
01
02
FB
FF
02
FF
F4
FD
FF
FC
01
FF
02
03
08
00
FE
08
F5
F1
0E
FE
FC
F3
05
FD
FA
F8
03
FE
EC
05
02
02
FE
FD
01
EC
FC
05
04
EE
06
03
F6
F8
F6
FD
E8
01
07
FF
00
01
FE
FA
FF
01
00
FE
02
FE
F9
FA
FE
00
01
00
FE
FC
FC
FF
FE
FF
00
FE
FB
F8
FA
FC
F9
FE
FD
FD
FE
FE
FC
00
FC
02
00
FF
00
00
F9
FE
FE
FF
FF
FF
03
01
00
FC
00
FF
FD
03
01
F9
FE
01
FE
FD
FE
FD
02
03
01
0B
01
02
F6
FC
01
FF
03
FF
FF
03
FC
FE
FF
03
EB
02
02
0C
FC
FE
04
06
03
05
07
03
F1
00
FF
FF
FF
01
02
FF
FD
01
00
01
FF
FC
02
00
01
FF
00
FF
02
FE
00
FD
FD
FE
FB
FF
02
00
03
FF
03
FF
FF
F9
FE
03
02
00
00
FF
01
01
F7
01
00
FF
00
00
FF
F7
FE
02
FC
FC
F1
03
FF
FD
FE
FE
06
FD
F0
FE
FE
04
FD
13
FD
00
FF
F9
03
FF
FE
FB
FE
02
00
00
01
F5
03
01
02
F8
D7
FC
03
FE
FA
FB
FD
A5
EB
FD
FF
F2
FC
04
01
FE
00
FF
FE
FE
01
FF
01
01
02
FF
04
00
00
03
FE
07
FD
03
FC
FD
FB
00
02
FE
F6
F6
06
06
00
EC
FF
03
FE
01
00
FF
FB
02
00
01
00
FC
00
F1
FD
FF
FF
F7
E1
FC
02
02
FC
01
CE
D0
F9
FE
FC
FD
00
FA
01
01
FD
FC
00
FE
FD
FD
FE
03
00
02
FE
FE
FF
01
FD
02
FD
00
FC
FE
FE
FD
FF
01
03
FC
04
C5
02
08
00
02
FA
FE
00
FF
F5
FC
FD
02
FD
01
03
FA
FB
FE
FD
F5
0D
02
FB
F9
00
01
F8
FF
F3
FE
EC
09
01
FD
03
FD
FA
FC
05
00
F6
F7
02
01
FC
02
FE
FA
F7
F9
FF
FC
FB
03
01
01
08
05
FF
09
0A
FE
FF
03
FD
DE
FF
FE
01
FE
FF
03
D6
FC
02
01
FE
FF
03
FA
07
00
FE
02
0F
FD
FA
E6
01
F6
DD
F8
0A
06
FA
03
FA
F1
00
FE
FB
FA
FF
02
FF
FE
FD
01
FF
FF
02
01
02
02
FE
06
FF
00
FE
FF
FC
00
01
01
FB
FF
FC
FD
FE
02
01
FE
FB
FE
FE
FE
FA
FE
FE
FE
FF
FC
FE
F8
FC
00
FD
FF
FF
FE
FF
00
FC
FA
01
FC
FF
03
08
05
FF
0A
02
FD
FA
FE
FC
03
06
01
04
00
FE
02
FD
00
F8
F8
FD
03
FD
FC
04
E7
FB
00
0F
FE
12
02
00
FD
FC
FC
02
FD
02
FB
02
00
FF
02
00
FE
FE
02
01
02
FE
00
03
FB
FE
02
FC
00
FD
FF
01
FE
00
00
00
DD
F4
04
FC
02
05
F8
F7
04
E7
F4
02
FD
04
FE
FB
04
00
01
00
F3
FD
04
F8
02
F1
F6
01
03
FB
FD
FA
01
01
FC
07
02
FA
FD
00
00
FA
FC
01
04
FC
FE
02
F6
FC
FD
00
05
FF
FC
F9
FE
F4
01
00
F7
0B
FF
03
F4
FE
EE
02
00
02
FE
FE
FF
07
F9
03
01
02
FD
01
01
04
02
03
FD
E8
FD
EE
FB
F7
FB
F6
DB
FF
0C
07
F6
FE
FF
02
02
FC
F9
00
FF
FC
FC
FF
FE
03
FD
00
F5
FF
04
00
0E
F2
FE
FF
F8
07
FF
F8
F6
06
08
09
FE
F8
EF
04
FE
01
F9
00
00
F9
FE
FF
FE
FF
FE
FD
E6
00
03
00
10
F3
08
D9
F4
FF
F8
F5
FD
F8
00
FF
05
07
E6
FE
FD
FB
F2
02
FC
F3
00
FE
02
FC
00
01
02
F9
FA
FB
F6
FE
FD
F1
FE
FF
FE
E4
01
FD
EF
FE
00
F9
19
00
03
FF
FE
02
01
04
08
03
02
02
FF
01
0B
02
04
01
F9
F5
FD
08
FF
00
04
FE
E7
0A
00
02
FE
00
0A
FF
FF
FA
FC
FD
FC
0B
FC
FF
FD
FC
02
01
05
F5
01
FE
FC
F8
FD
F9
F8
02
FC
0A
FF
EB
F9
FC
FE
00
FD
00
02
FF
02
00
02
FF
FD
02
FF
FF
02
FD
FD
FB
FE
00
FB
FB
00
FF
01
03
02
FC
FD
00
FB
E7
06
03
E6
02
00
FC
FB
FE
00
E9
05
FD
00
FD
FC
FE
E1
FB
FD
00
FE
FA
FC
FA
F5
E9
01
E2
F4
03
F8
FC
02
FC
EB
05
FD
FC
FE
FF
01
FC
FC
02
00
FD
04
FF
ED
FF
02
00
FC
04
05
EE
F3
10
FE
EE
02
FD
01
00
FD
FF
FF
FD
02
02
01
FD
FE
FC
FE
FE
FE
FD
FD
FE
00
FE
00
01
00
FD
FF
00
FD
FD
FD
01
FF
FF
FF
05
E7
F6
04
03
00
01
FD
FA
01
06
F2
02
FE
03
04
02
FE
02
01
01
F2
00
02
00
F9
08
01
0A
FF
02
05
06
FE
F6
0A
00
FC
02
03
FC
03
01
ED
FF
00
01
03
00
FA
01
00
02
FA
07
02
FE
03
FF
FE
06
04
F7
FD
FE
FE
00
FD
00
01
FD
FF
01
00
FE
FD
02
02
02
FE
FE
01
FD
00
02
00
FE
FF
01
FE
FF
FF
01
00
02
FD
FF
00
FB
DE
00
02
05
01
FF
02
F5
F5
02
FF
FE
FB
00
DD
00
03
04
EA
EB
FE
ED
F3
12
01
EC
FB
EA
02
06
FF
03
F9
FD
01
FE
FC
00
FD
09
FB
01
01
FE
FD
00
FB
02
FE
03
FA
E3
FF
EA
FF
06
F0
FD
CF
EB
07
F4
00
02
F4
02
02
FE
FE
00
FE
02
F6
FF
03
03
FB
02
01
00
02
00
08
F6
FF
00
04
11
FF
EC
FF
F5
00
02
FF
01
F6
FF
FD
02
00
06
FF
F5
08
FF
01
FD
06
00
FE
F2
FC
00
FE
09
FE
F5
F7
FB
FF
FE
FC
06
FD
00
ED
02
06
03
FD
FD
FE
FC
01
03
FD
00
00
FF
01
01
FC
F6
01
FD
FA
EE
00
01
01
FF
FF
05
00
F4
FE
FE
01
04
F3
FF
00
FA
F7
03
FC
F4
FE
FD
FF
00
00
00
FC
05
FB
02
09
09
FE
02
F5
F8
FE
F5
FF
E8
F8
FE
F0
FC
08
02
00
FC
FE
FE
FE
F4
FA
FD
02
FE
02
04
E4
01
FF
01
F7
EA
00
F7
F7
08
FB
03
E1
F8
FA
08
EC
FA
09
FC
FE
FC
FE
03
01
00
00
FD
FC
02
FE
FE
FE
00
FE
02
FC
F2
FB
F7
00
FC
FC
07
F7
EC
01
FE
FA
FB
10
05
04
01
F9
FA
01
04
F7
00
01
01
01
01
04
F6
04
FE
07
FC
02
03
04
04
00
09
05
E3
04
00
02
00
02
02
02
00
01
01
FD
FA
FC
02
FD
FF
05
FD
FD
FF
FD
FE
FF
FF
FD
02
02
FD
02
FE
00
FE
01
02
02
FB
FE
FF
FD
00
03
FF
FE
00
01
FF
00
00
02
FE
FE
FD
FE
02
01
00
FF
FE
FE
FE
FE
FF
FC
FF
01
FF
FD
02
FC
02
01
00
FD
01
02
FE
01
03
00
00
03
00
FF
FD
01
00
01
FE
01
FC
FE
FF
01
01
FB
02
01
02
FF
00
01
01
FE
01
FF
FE
01
FF
F5
01
01
FE
FE
02
03
E6
02
01
02
F2
FE
FD
FE
FB
FE
02
04
08
FF
FF
FF
FF
FC
01
00
FC
F8
03
FB
FE
04
FD
03
FE
FD
FE
00
FB
FD
02
00
03
00
F9
FE
F9
00
F7
03
FC
F9
FC
FE
FF
F2
03
FD
FA
F9
02
01
FA
00
FE
FE
FC
FF
01
EB
FA
FE
FF
F9
04
01
F2
F8
0A
FE
F9
02
03
02
02
FF
FD
FF
FF
00
FF
FE
FC
00
FF
01
02
FD
01
FD
00
FC
FC
FF
00
FF
00
FF
01
02
00
FD
FE
FE
02
01
FF
04
FD
FE
03
00
05
FC
FA
FF
05
F9
FE
FF
00
FE
03
00
FC
02
01
FB
F9
FC
FD
FD
02
FC
FF
F7
FF
FF
FE
04
00
00
FE
FE
FF
FD
F8
FD
FC
F6
02
FD
02
04
00
02
00
02
02
FC
FB
03
01
FE
04
FD
01
F8
01
FD
01
EA
F7
02
00
01
01
FE
FB
00
FB
E8
00
FD
FF
02
FE
01
02
03
01
FB
02
00
FB
FB
05
F8
06
FB
05
05
0B
01
03
E9
FD
FE
FE
FC
FF
FE
01
FD
02
00
FE
FD
00
F2
F8
02
01
ED
F0
04
FF
00
EA
03
CD
EB
FE
FB
01
FC
02
E4
FE
03
FF
FC
06
FD
02
E9
FE
FE
00
FD
02
FC
04
FC
FE
04
CC
FE
FF
02
02
FD
EF
CC
EE
FB
00
02
F9
0D
FF
01
FC
02
00
FF
04
FC
01
FE
FE
FF
FF
FE
FD
02
01
F9
D7
FD
01
02
03
FE
F7
B2
F4
FE
03
D3
FD
0B
01
FE
FE
FC
F9
03
FA
F6
00
FC
FF
04
00
FE
FF
FF
FE
EC
05
07
F6
F3
F6
F6
08
FD
06
F9
04
F8
F4
FD
01
00
FE
FB
FB
FC
00
FD
FE
FD
FD
FD
03
01
FE
FC
00
F9
FA
01
01
FE
05
FE
00
02
07
FC
E3
03
02
F4
00
FE
FF
FA
FE
00
E6
F7
02
02
00
FC
FF
01
FB
FC
00
FD
03
FC
FD
F4
EB
FD
EB
02
10
02
07
02
00
EF
02
FE
FE
02
02
FE
F6
FF
03
03
FE
FC
02
FE
F9
FD
FD
ED
13
FF
FD
E6
F7
02
D0
F9
05
05
01
FD
FD
FE
03
01
01
FF
00
00
FF
FE
02
02
FD
00
00
FD
FF
02
FF
FE
03
01
FB
FC
FC
FD
FE
FF
FE
FF
FA
FF
FE
FA
00
FD
FF
FC
03
FD
FD
FE
FF
02
00
00
01
FD
FA
00
FD
FE
F8
FD
F2
01
FA
F9
F9
F9
03
FD
02
FA
03
06
05
00
06
FE
F9
FB
07
F9
FE
FD
FE
00
00
02
FA
FF
02
06
01
03
05
04
FC
03
0C
04
FE
F9
02
F2
06
0C
02
FE
02
F8
F9
00
03
03
FF
02
FB
04
02
06
07
01
00
F8
00
00
02
F8
12
00
09
FE
00
01
00
FC
04
E8
04
02
FB
04
00
00
DA
F7
02
FF
02
00
03
DB
02
05
04
FB
05
02
01
FE
FD
FF
DB
00
FB
FD
00
02
FF
FA
FB
01
FB
F8
00
FF
F9
FE
FD
02
02
FE
00
00
00
02
FF
FE
F8
FD
D7
02
F7
F4
F2
DC
FB
FD
F9
F2
FB
05
FD
04
FF
FF
F9
00
04
02
03
FD
03
01
00
FA
F7
03
01
05
07
00
FA
00
FE
FF
09
F5
FF
03
01
EA
FF
FF
FE
03
04
00
02
00
FE
FA
01
FD
FD
02
03
08
FE
03
FE
F6
05
FB
E1
FE
0F
F5
F7
F5
F4
FE
FF
FE
FF
01
FE
01
FE
FB
FD
00
FC
FC
FD
03
FF
FC
FF
FD
FD
01
00
02
00
FE
00
FC
01
00
00
00
00
02
01
EE
F9
01
04
FF
01
00
FF
00
FE
F4
02
FD
FE
00
00
FC
05
FE
FF
00
00
04
00
FC
FF
FE
00
04
FA
01
FC
FF
01
F7
08
03
FE
FD
01
02
F9
FD
03
FE
FF
01
02
F0
FB
00
FE
FB
FB
04
F8
FB
03
F5
F4
FE
01
02
FD
FF
03
01
00
02
FD
FD
00
FD
FE
00
FE
FD
03
01
01
00
FE
00
FF
FD
00
01
FF
FC
02
FF
01
FD
FE
FC
FA
F1
FF
FC
01
01
02
00
FF
FB
00
F6
00
00
FB
01
00
00
02
02
FE
FB
00
02
05
FC
02
00
FE
06
F6
00
FF
FD
01
06
FE
02
FC
FD
FC
FA
0A
FC
FD
FD
FC
FF
FE
05
F3
FB
FC
01
01
FF
F0
FC
07
FB
09
01
E9
FB
02
FD
FD
FE
FD
FE
FC
FB
06
FE
D8
05
FF
00
02
FA
02
00
FA
03
02
FE
FA
FA
02
00
01
FF
FA
FA
01
FD
F7
12
06
F8
05
02
F9
FF
02
FE
FD
0C
02
04
00
FF
00
FF
03
FB
01
04
03
FB
00
00
F6
FC
F6
FF
00
FC
02
00
FF
04
05
01
F8
F7
05
FF
03
FF
FF
00
FB
FF
04
F9
EC
FE
FE
FE
04
FD
FE
FD
F7
02
00
FE
FB
03
01
02
FC
F4
FE
FF
08
F9
03
02
00
FD
FF
FF
04
01
FD
F8
F9
02
01
FE
03
03
F5
FB
F1
FD
F9
FE
FE
FD
05
05
00
FE
01
02
06
F8
01
04
01
F1
01
01
00
FC
FD
FE
FA
03
FF
F1
FC
00
F7
FF
00
FF
D9
FD
F7
02
FE
FA
FD
F9
02
00
00
FE
00
FE
DD
FE
FE
FD
01
00
02
EF
05
00
01
00
F7
FB
FB
F5
02
FC
F9
F9
FD
E8
FF
05
F8
01
02
FC
00
F8
03
04
FF
01
FD
00
02
02
FF
FB
02
03
02
06
FE
FF
FD
FD
FB
FD
FC
01
FE
00
01
FA
FF
02
FF
01
FC
01
01
03
FB
FD
00
01
FE
00
FE
FF
F5
03
00
FF
EB
02
F9
00
04
FF
01
01
FC
03
FC
D8
F2
F4
02
00
FF
F7
FE
03
01
F2
02
00
01
01
01
00
00
FE
00
03
F2
FA
FF
F3
05
01
00
F5
F2
02
FD
EF
01
0F
05
02
00
F9
03
FE
FF
FB
FD
FF
00
FD
FE
FC
FE
02
05
02
E2
FD
F7
01
08
F7
FE
C5
E3
03
06
07
00
FA
02
FD
03
FF
03
02
FA
07
FE
03
00
00
00
03
FE
00
FD
00
DF
FE
FD
FC
08
01
F8
F0
07
F2
FC
FD
FD
FE
02
00
FF
FF
FB
FE
FD
FD
FD
FD
02
01
FF
FD
FD
00
FD
FF
01
02
FD
FF
FF
FF
01
FE
FE
00
D8
0A
02
F6
04
01
F6
FE
00
FD
FF
0B
01
02
FE
02
FE
01
F7
FB
FF
06
04
FD
FD
FA
FA
01
F8
F0
F6
01
FC
F8
00
FD
FF
01
00
FE
FE
FD
F9
01
02
FC
FE
FE
FF
FD
FB
00
00
FD
FF
02
FC
FD
FE
00
00
00
01
02
FF
DA
FB
15
FD
FD
FF
FC
01
FE
FA
F6
01
FF
03
FC
01
04
02
02
00
FD
D7
F9
FF
02
FD
FD
00
B2
EA
02
03
00
03
04
FE
00
F7
02
01
02
F8
03
02
02
FE
FF
00
F2
F8
FB
02
FB
DB
01
01
F9
FD
FE
02
FE
07
03
00
FF
02
F0
FB
02
FD
FE
03
00
ED
00
FF
00
00
02
03
F6
05
04
02
F6
01
FD
EA
FB
01
FB
E6
FC
FF
F3
01
00
02
FF
FC
00
02
FC
FC
02
00
01
FF
01
00
FE
FE
02
FC
FE
00
FF
FF
01
FE
FD
FE
FE
FF
03
02
01
F9
04
FE
FA
01
FE
01
00
01
02
05
04
03
02
FD
01
FD
05
F0
FE
FC
FE
04
FF
FF
FE
01
FF
FD
FE
04
FE

