EF
F9
09
02
E9
F8
FC
EC
FD
0D
EF
FE
FA
EF
F5
E4
FD
FA
EF
FF
02
F1
E7
F4
FE
F7
FF
01
FA
F7
05
FD
01
FC
0C
03
09
D1
FE
00
10
06
CC
06
F8
0C
04
C3
0C
10
FF
F8
01
06
F1
EC
EF
0B
14
02
01
15
0E
FE
05
03
FE
FB
FE
F7
FE
FC
FD
FA
01
F7
05
FD
FE
00
FB
00
00
FF
01
FD
FE
FA
FF
FA
FF
FD
00
F8
FD
FA
00
00
F5
F8
ED
17
F8
01
F0
FF
FB
F5
00
FE
E3
00
FC
DB
00
F5
FE
F9
F7
FC
05
FE
FF
F7
F4
FE
08
FD
03
01
FC
FE
00
03
FD
01
02
FD
01
FF
FF
FD
02
04
FF
01
03
00
FC
03
FB
FB
00
FB
FC
03
01
04
01
FC
03
04
FD
FC
03
04
02
03
03
01
02
03
00
03
04
FF
00
FC
03
00
FF
FF
FF
00
FF
00
01
FA
FD
FC
02
00
FD
0D
0F
0B
01
F4
FA
F3
FF
0E
07
F6
02
FE
F6
F8
FE
F4
03
FB
F1
F0
FE
05
E4
F7
07
05
F7
FD
0A
F3
03
18
04
E8
0E
FB
06
0D
FB
F6
18
F2
FA
10
F3
0B
FC
F9
17
F6
02
10
17
23
03
01
2D
FF
E8
07
09
01
E9
FC
31
EC
05
16
F6
DE
00
F5
00
08
FE
FB
EF
F3
05
00
EB
04
F6
F4
DC
FA
02
F8
0B
11
08
E4
19
F9
01
FC
04
FD
FC
03
FA
02
FD
04
01
FE
04
00
04
FE
FF
02
02
FF
FC
FE
FD
01
02
FC
03
FC
00
04
00
FC
E7
0C
DE
05
06
E8
04
03
0C
03
DE
08
F2
06
F0
E1
0B
0A
FD
FF
04
08
F3
F5
FD
04
FE
F0
F6
08
01
02
FE
18
13
FC
F7
1E
FF
F5
F3
01
26
F3
00
00
CF
29
FB
CD
06
0D
05
E9
11
1B
FF
F3
FA
12
EE
E3
04
FE
F9
0E
ED
0E
07
03
FA
DF
F7
16
FB
F5
11
FF
07
09
00
F9
F0
03
F0
DA
EF
F4
F9
FA
F5
12
FB
F3
07
F3
FF
0C
FA
02
F4
F1
FB
FF
00
FE
FB
FD
05
FC
FC
F9
F2
03
FD
F7
FC
FF
03
FB
FC
FF
01
F9
03
FC
00
F9
01
1C
0F
F6
FC
1F
04
F5
F6
00
27
F1
F3
FF
D8
2D
FB
D5
0A
0A
FE
F9
17
1F
02
F5
FF
10
EE
E9
07
F8
EA
FD
E0
F4
02
04
04
0C
03
FB
20
F5
01
0A
F9
20
F9
EC
04
06
08
06
21
11
06
04
C7
F9
F1
08
10
05
03
FD
FD
03
00
00
FC
03
00
FE
02
FF
01
FE
00
04
FE
FB
03
00
FC
01
FC
FD
02
03
04
FE
FA
02
FD
FE
FD
FC
01
03
FE
00
00
FE
00
03
FD
03
FC
02
00
01
03
00
00
FD
FC
FF
00
01
FB
01
FF
FB
FB
FC
04
FE
FC
F8
F3
FF
F7
F7
05
03
03
F6
FD
FB
F9
01
02
02
F6
02
FD
FA
F9
06
FB
FC
05
FB
FF
FE
FE
F9
F4
05
05
1E
DD
DF
0E
FB
F9
0C
F4
F6
00
F7
FC
08
FC
02
FA
FF
02
FA
E3
0C
FF
02
F1
F3
09
FD
ED
FB
FD
FF
FE
12
01
0B
06
FB
06
E8
F8
15
F3
FE
18
F8
FE
F0
F9
FD
0C
02
F8
EB
E1
F3
F8
F7
EB
01
06
F7
FB
F8
0E
ED
02
FF
FF
D4
05
FD
09
08
D2
FF
FF
07
FE
D7
07
10
0E
FE
04
02
F6
E8
ED
06
17
F8
03
11
04
FF
FD
F1
03
01
FD
02
FC
F0
F7
F9
F7
01
F4
FC
FB
F1
FF
FB
FB
FF
FA
FF
F2
F7
01
FB
F7
F7
02
F6
00
FD
03
06
FE
04
FE
FA
FC
FC
FA
FB
04
FA
00
F3
00
04
F9
FA
04
FD
00
03
03
FE
FD
02
FD
FE
02
FC
F6
FA
EB
F4
0E
E3
F2
10
FD
12
EF
EB
03
FB
FB
10
DE
10
F8
EF
FB
04
FD
F8
10
06
0C
03
BE
F0
03
08
E7
03
04
01
0D
FB
ED
E3
03
07
02
F4
0B
FE
14
F0
FE
ED
F7
FC
0F
D5
09
FD
0F
11
0D
03
13
F9
0A
FF
1C
03
F5
FA
F8
FF
FC
F8
FE
F8
FF
FB
01
FF
FA
F4
FF
FA
03
FD
00
01
FD
F4
F7
00
F6
01
F7
00
02
FB
F6
F4
F6
14
FF
01
0B
F3
02
F6
FE
0B
00
E8
04
FF
FC
F3
00
F3
01
FF
F8
F2
02
01
EB
FC
EE
F2
FA
FD
02
FA
FF
04
01
FD
00
FB
FB
FD
03
FE
FD
FE
00
FF
FE
03
FD
FE
FC
01
03
FE
04
FD
03
FB
FC
FB
FB
FB
04
FE
FD
FA
00
F7
04
F1
FE
FE
02
FB
F5
00
FD
FA
FD
F5
FA
03
FC
F8
01
FD
FC
FA
FA
03
03
F9
FB
02
FF
FB
FA
27
02
03
F2
23
FC
02
F7
F6
10
F2
FB
FE
E6
1A
EE
D3
F0
06
0D
CB
08
05
05
F4
04
05
FC
E4
1C
FE
03
F0
F4
05
F8
ED
F5
EA
FE
08
EC
13
F8
E9
FC
E5
05
08
F9
0B
FF
00
E4
ED
0F
01
E5
00
0B
F4
F5
01
08
27
17
00
FD
FA
F7
F2
F6
07
01
EB
11
07
01
E0
FA
FA
0F
00
EF
06
0C
11
B8
F5
16
0C
F9
05
11
E3
00
0D
02
00
FB
F2
FC
FD
F8
02
05
F4
07
FD
FB
02
FC
FD
04
FC
F3
FF
0D
01
F3
FA
06
00
FB
01
00
FE
FC
06
08
00
F0
EB
03
FE
FA
01
FF
FC
F9
ED
FC
FB
F4
01
FA
EF
FB
F5
F9
F8
FA
FA
00
F8
01
F7
07
F7
01
01
FE
00
00
04
FD
00
02
FA
0A
FA
FF
00
FC
09
02
F6
04
02
00
FF
03
0A
FD
FF
02
05
FC
FE
FE
FD
F7
F1
FF
02
FF
FA
FD
FC
04
02
F5
00
FB
FA
F4
ED
00
F9
F8
FD
FF
FE
F1
FD
F9
FE
FD
F7
FE
FA
FF
FC
FB
04
01
03
01
FD
FF
FE
03
FC
FC
04
FD
FD
FD
FF
00
02
FC
01
00
FD
FC
02
FC
FC
FC
01
FB
FD
FD
02
00
04
FD
FE
FD
03
02
FB
FE
04
02
FC
02
FC
00
FD
02
00
04
03
01
02
FF
FB
01
02
FE
FC
01
FE
FF
FE
ED
DB
FD
FA
0C
D2
F8
F8
F8
FF
FC
FE
F7
03
02
FC
02
FF
F2
F6
EC
D9
09
05
E7
FE
F8
FD
ED
0A
EA
F3
ED
DE
EB
F4
FC
E4
FB
FC
FA
E8
F4
FE
F5
FA
09
EE
0B
00
0C
F5
F6
F9
FD
07
E9
0B
04
0B
07
0B
00
D1
EC
16
2A
FA
09
FB
03
03
0E
0F
EA
F9
09
FB
F8
F2
04
00
10
02
F7
FF
F9
E8
EB
FE
E2
E0
F5
FA
FC
05
FE
EF
F4
FA
F3
F6
06
04
FE
FC
01
FC
F7
07
FB
FC
FE
FB
FF
F4
07
04
FA
03
0D
F9
02
F7
FC
F6
FA
00
0D
DF
08
03
01
E7
EE
FE
F8
F6
01
04
00
EE
06
00
05
07
F6
FC
F3
FD
03
F8
E8
02
F1
FE
03
08
CE
F3
FE
02
02
FB
FE
FD
00
02
00
02
00
FF
03
FD
03
04
FC
00
FC
00
02
01
FF
00
FA
FF
01
01
FF
FD
02
01
02
F9
04
01
06
EC
00
FC
00
FF
FF
02
FE
03
FB
F4
00
FD
03
FB
FD
02
FB
FE
F3
FB
FA
FF
FD
04
FE
02
02
07
F9
FC
FD
FD
FC
03
FB
FE
04
F8
01
03
FF
04
FF
FF
00
01
FF
FF
03
04
01
FB
07
00
FD
FF
FD
01
F4
14
08
0A
FE
F8
FC
F6
01
11
04
E4
10
00
03
05
02
F3
11
02
F9
E8
FB
EA
DA
FC
FB
F1
FE
FA
FF
EC
FB
FC
01
FE
FB
FC
FC
FC
00
04
03
FE
03
01
01
FF
00
01
FF
04
03
00
FE
FC
01
FC
FF
FF
FC
FF
FC
FC
00
FC
FD
FD
F6
F8
FF
FB
04
05
F9
01
F9
F5
FC
F6
FE
FF
02
F6
01
FE
F0
FA
03
04
F7
FE
03
02
F5
FA
FB
E0
F0
FE
00
EF
00
03
00
EA
E6
09
F2
0A
FF
D9
FE
06
04
FE
FE
F2
EC
F1
FB
00
F8
F1
FF
06
E4
FB
E4
F4
02
FC
F9
DB
03
F9
02
FC
F1
0A
F5
FE
F0
E3
10
0D
FF
FB
FC
EF
F4
FB
F4
01
09
0E
FD
0C
FA
FC
00
03
03
FD
FC
02
FE
FC
02
FF
03
04
00
FC
00
01
FF
02
FF
FD
02
01
FB
FC
02
03
FB
FC
01
03
FB
02
F6
0F
0C
15
E8
FA
01
E1
0A
26
F1
F5
F2
C6
FF
F1
06
F9
C6
FE
F1
E2
E2
F1
DA
F6
00
08
04
ED
1B
E9
FD
FF
02
FB
FC
04
FD
FB
FB
FE
FA
FF
04
F8
05
FD
FE
FA
00
00
FD
FB
FA
F9
02
F8
01
FD
FC
FD
04
02
FC
FF
0E
EE
0D
E7
FF
F3
FA
F0
F4
02
FB
F3
F6
F6
03
FC
06
FC
F9
0A
FF
FB
F8
F9
20
09
E7
F7
06
E7
0B
FC
FD
00
FB
D3
01
05
FB
E5
E1
03
0D
DA
06
DB
F9
02
F0
B4
0C
05
04
04
07
00
02
04
0D
FF
0A
F0
D6
0E
CF
F8
08
14
01
04
F9
05
19
F9
E4
06
DD
20
03
D5
09
0E
E5
0B
19
14
FD
FF
B6
14
02
F1
D8
02
FD
03
01
FF
FE
FF
02
FF
F8
02
FA
FC
05
05
FD
01
FB
FA
07
06
F7
F4
06
FD
01
FD
FC
FA
FB
F8
F8
FF
FB
FC
00
FF
FB
03
FD
FE
01
FC
02
00
FB
01
FB
00
03
FF
FB
02
FF
03
00
01
FB
FD
FF
00
FB
01
03
01
FE
03
FD
FD
00
FE
03
02
01
01
FB
01
FD
FA
FD
01
FF
03
FB
FF
02
FB
FE
01
FF
FE
FC
01
FD
00
05
FE
FD
04
11
E9
07
EF
EF
F9
F9
07
10
0F
EA
F3
FF
07
04
0A
FC
F5
01
02
FB
08
0E
F7
FC
0D
07
F6
F4
04
F8
0B
F7
F1
EC
F2
05
17
09
F6
11
01
FC
0E
FC
1B
01
06
FF
FD
00
04
24
13
0E
05
03
F3
F6
07
FE
08
FF
17
0B
F0
EE
20
06
03
FD
FC
24
F2
FC
FE
DE
25
04
D3
08
06
02
01
1C
21
01
FB
F3
06
F9
F2
07
FB
FD
E7
02
ED
FA
01
ED
00
F6
E5
EA
FB
F0
FD
FE
F0
FA
F7
FE
01
01
FD
EE
F3
FA
FD
FE
F0
FA
03
F8
01
F6
04
F9
01
04
FC
FE
01
00
FC
03
F6
06
FE
F7
F7
FE
FA
FE
F5
FB
02
FF
FF
00
FC
02
FE
F6
01
F3
FC
08
D2
09
E3
0A
EE
E5
FB
F6
D4
05
0D
F1
E9
08
03
05
08
FA
EF
FB
F1
06
0A
01
FF
06
0D
07
03
08
F4
03
27
14
02
03
EC
FF
FA
FB
01
FA
E3
15
08
00
CD
F8
F0
0E
11
FD
0A
0C
04
D1
F3
1D
0D
F3
FD
01
F3
FD
FC
FD
02
02
FE
FE
FD
02
FF
01
01
FE
00
FB
03
00
FE
FE
00
FE
03
01
02
FC
01
FC
05
04
FF
01
03
02
EE
0D
FA
E9
1D
05
03
F9
FD
25
F7
FD
09
D2
2C
FD
D4
07
05
00
DE
15
17
01
FB
F8
00
EF
EE
06
FE
E9
EC
F3
06
0E
E7
01
FE
05
0A
ED
0E
E4
07
F6
EF
03
14
04
F9
FB
FF
FD
F6
05
0A
FC
F6
FF
12
E6
00
02
02
0D
E6
0D
E3
F2
02
FF
05
F3
0D
E2
03
FB
00
06
09
E2
01
ED
EA
03
FA
09
01
F7
F8
FF
0B
C8
06
02
FF
02
00
FE
01
05
00
FC
FE
00
FB
FE
FE
FC
01
01
FB
00
00
03
FF
01
FE
FD
00
00
01
FF
FE
01
FB
FB
E4
09
EC
FE
FE
FC
F9
FB
E6
FA
FC
F9
F7
FC
F5
FF
FF
FF
FF
FD
FB
F5
F6
F2
FD
FA
FC
FA
00
EB
00
04
FF
FD
FE
FC
FC
FE
FD
03
01
03
FD
01
00
FF
00
FD
FB
FD
FF
FB
FD
FC
02
03
FF
FB
FF
00
FC
04
02
F7
06
FE
05
F4
EA
02
FB
02
0F
F0
FB
FF
FB
F7
DD
F4
FA
0C
F9
0B
F8
F7
F4
F5
04
F9
E9
FF
05
F2
F4
F7
0E
F5
EB
0A
03
FA
08
FA
F0
05
F2
F8
11
F5
04
02
F3
ED
FB
01
04
08
06
F9
FE
03
02
E3
06
12
03
FF
08
04
FF
01
00
FE
FD
F8
F7
FF
02
FF
FF
FB
FB
F9
01
FB
FF
00
00
FD
00
04
FE
00
03
FF
FA
FF
FA
FD
0C
FA
F5
06
F8
FF
FE
FF
F5
06
F6
FE
02
F8
FF
F6
F8
02
F9
F9
03
06
FF
F9
FD
05
00
FA
06
FC
FE
FA
F4
00
01
04
FD
FD
FD
FB
01
03
F1
04
F6
02
FC
FF
FB
01
FB
00
FA
06
01
F8
00
FD
FB
F9
FF
02
F9
FF
02
FF
F7
03
F2
FB
FC
00
02
F8
FC
FC
FE
F4
04
FF
04
FF
F9
FD
FA
FF
F8
03
00
F7
FD
FE
FA
ED
FB
FF
09
05
02
06
F6
00
01
FA
00
02
F7
FE
00
FD
FC
FF
FF
FD
F7
F8
FF
04
05
FA
FA
01
00
F8
01
FD
FF
FE
05
FF
FE
01
02
FC
02
FE
01
FB
FE
FD
00
FC
FF
FD
FB
01
FC
FC
03
00
FE
FB
04
FB
FD
00
00
01
03
F4
05
F9
FB
F9
F5
FA
FF
FC
FF
F9
F8
0B
F6
FC
F0
F5
FB
07
F1
F9
00
0B
F9
F3
FD
FA
F9
FF
FD
FB
FF
F8
03
14
E1
FD
10
E8
DA
F3
E7
22
FA
F3
E2
E6
1C
01
E3
F8
05
0E
03
17
17
F2
F7
06
0A
EC
F5
15
EB
00
04
FC
FB
00
FC
FB
FE
FF
00
FC
FF
00
03
FD
03
01
03
04
FE
04
04
FF
FE
04
FE
FC
01
03
04
FC
FE
FE
FE
FD
01
02
01
00
FB
FF
FB
FE
02
03
FD
FD
04
FB
02
03
00
05
01
02
02
FE
01
FE
FF
FC
FC
01
FF
F8
03
E8
02
FB
06
02
FD
EA
F6
EE
FA
04
07
08
DE
EC
F6
08
02
02
10
D0
F9
02
F8
D5
FE
F3
E4
E8
0A
F8
E6
FD
0D
CE
FF
FD
FE
F7
05
F8
08
F7
F8
F5
E9
EF
01
F9
F4
0D
04
D3
F4
0D
00
FE
F6
01
08
07
F3
FE
0C
04
02
04
00
FD
FD
00
FE
04
FD
03
02
FE
FD
FB
FD
03
FA
FE
00
FF
04
FD
FA
07
FE
F8
FE
FE
FD
00
04
FF
FB
FF
FF
FC
01
00
FF
FC
03
FB
00
01
01
FE
FC
00
FB
01
01
FC
00
01
FF
01
FB
03
FF
FD
FF
F9
E4
F4
0F
F4
0E
FF
F5
03
04
CF
04
F6
EB
F2
C5
E7
03
E7
02
F6
C8
A8
D3
05
FE
EC
00
05
FF
FA
03
F8
F5
FE
FA
F2
FA
06
05
00
F1
02
F6
00
FC
F6
EE
F2
FB
01
E0
F9
FC
00
FE
04
F8
09
FD
FD
F7
FE
04
FE
FD
FC
FF
06
F7
FC
03
04
FC
08
FA
FD
FF
FA
04
03
F9
01
FE
FB
05
04
04
FD
05
00
F9
F5
02
FC
FF
F3
EA
0F
07
07
F4
FF
FB
03
03
00
02
F9
F3
FD
FD
F0
07
F2
D9
EE
FD
04
02
FF
F7
F4
F9
02
F6
0D
FD
00
03
FB
FF
FE
00
00
FB
FD
FE
FF
FD
04
00
01
01
F8
01
FC
FA
01
FC
FF
FB
F9
FB
FD
F8
FB
FC
FC
01
02
02
04
03
04
F1
00
FB
FF
02
F7
FD
01
00
02
F5
02
FA
04
F6
FC
FD
07
06
F0
01
04
02
F9
FF
01
FA
FD
FD
F5
F8
F7
FE
00
06
FB
FA
08
FD
03
01
F8
04
FB
FD
00
FB
02
00
05
06
05
01
FA
01
FF
F9
F6
01
00
F0
E4
FD
F7
F9
F8
C2
E9
F2
03
05
F4
EA
02
03
FE
05
F7
FA
FF
05
FC
06
F0
05
FB
0C
F5
0C
F8
D0
FE
FE
ED
F4
03
F3
FF
14
FF
F3
FA
09
03
0A
F9
FF
02
08
00
FC
00
0A
03
07
10
0A
FF
EF
F4
0C
EC
01
E3
FB
F0
CF
E8
F4
07
0E
04
E1
0E
F0
0E
02
F5
10
00
E2
05
FA
0D
ED
0F
08
04
05
FD
EF
01
09
EF
02
FB
EB
EB
F1
0D
E7
05
05
09
FC
00
04
05
07
FD
F6
07
00
FD
F7
05
04
F7
F6
F3
F6
F8
FF
F2
F4
F8
FD
EF
FA
18
F1
DB
2D
F4
08
EC
EF
FF
FD
FA
FB
C8
07
F3
ED
E2
0C
F0
D4
FC
03
0B
00
CB
ED
0A
FA
DE
09
FF
FF
01
FE
FC
02
03
FF
FE
FE
FD
02
03
FB
FC
FE
01
02
FD
FD
00
00
FF
FF
FB
FD
FB
01
FC
FF
02
02
FB
1D
F4
0A
02
DF
06
FA
04
0B
E1
F9
03
0D
ED
E2
F4
FC
04
FA
FC
F9
F4
E2
FA
04
03
FD
F3
08
0C
01
08
24
16
02
02
DD
03
F7
FD
0D
00
E4
19
0A
02
D1
F8
F0
10
F9
0E
03
0B
06
C0
F3
12
08
F7
FA
11
F4
FC
FA
0F
00
00
F7
F8
EF
06
FC
EE
0B
F9
F7
06
DF
0C
03
06
FE
FD
F9
E5
F7
06
F8
FD
02
0C
F4
04
FA
01
0A
02
FC
FB
F8
FC
00
F6
F3
00
03
F6
00
F7
FA
F9
00
FD
F7
00
00
FE
00
01
FA
05
FC
FC
FC
09
FC
F9
00
01
05
FA
E8
FC
01
03
06
05
FF
FB
F3
F6
F5
F7
FA
00
F8
FD
FB
EB
FD
FC
FF
00
FC
01
F1
FE
FA
07
F6
0B
FA
00
F9
01
F4
FC
FA
01
FC
07
F0
01
F8
FD
FB
03
EA
FE
F7
FD
02
E5
F6
0C
00
FE
F9
08
E3
F3
FE
E6
F2
04
E8
FC
15
0D
03
FF
01
FC
0A
F6
01
03
00
09
FC
0A
FE
14
FF
09
05
00
F3
F7
07
F8
02
F5
16
05
EE
05
F0
FF
FB
FA
F2
FE
FA
02
FF
F5
F7
F7
FE
00
FB
04
07
02
ED
EF
F8
0D
FC
F7
06
00
FE
06
FB
FA
F9
F3
ED
FF
FD
FA
F6
FE
FE
F9
F5
FE
09
FA
FC
FA
E7
09
FF
FD
FB
07
FA
F9
F7
03
FA
FE
01
F3
02
F2
FD
FA
01
FE
F6
FE
08
F4
F7
00
F5
01
FE
F8
00
FE
FC
FC
F4
F8
F9
FE
FA
F9
FC
F8
F6
F6
FC
0A
15
0E
F4
06
F4
FA
00
DC
D9
F4
F6
F9
F2
02
F5
F5
F7
F9
E7
10
0C
10
E9
FB
04
18
F2
F0
0B
0D
EA
00
FA
F5
F4
F7
F7
FD
0B
03
F3
D0
06
EA
FB
FF
D5
00
03
F6
E0
0B
F2
D7
DB
0A
09
0B
CC
07
F9
05
07
FE
00
FF
F9
02
ED
F8
FD
FE
FF
00
02
01
FF
FD
FA
F8
FC
F9
FB
FD
FE
F9
FA
03
FB
F5
F5
FB
00
F9
03
0D
EF
F5
FC
F3
E9
FB
07
FF
E9
DA
03
10
EB
0B
C4
FB
02
04
99
14
FF
FD
F8
04
03
0C
FF
06
08
0A
FE
02
04
FE
FD
02
01
01
02
FE
03
FD
FB
FD
01
FD
FE
02
01
01
FF
FD
01
02
FD
02
FB
03
FD
FF
FF
01
FE
F8
0E
F8
F9
03
FC
FA
FA
00
FE
FD
F2
08
FD
FD
F8
F9
FD
01
F9
EE
FA
FB
FB
F4
FC
FF
FB
FA
FE
FD
FC
FA
FB
02
F9
00
02
01
FD
01
FF
FE
F6
FB
FC
FE
FF
FA
FA
FD
FD
F8
FE
01
05
FA
FB
FB
FB
FB
02
FB
FE
FE
F4
FE
FD
EF
F9
03
0E
FD
05
F8
00
0B
00
EB
04
F2
FB
04
F7
01
FD
F9
F3
0E
01
F5
EC
FF
F4
FD
04
FC
FA
05
F8
F0
2C
01
01
FC
01
23
F0
FD
07
CC
29
F9
C8
FD
06
FF
0A
18
1C
08
FA
EC
FE
F4
EC
03
FE
FF
F5
06
F0
FF
F4
FD
F4
FA
F5
FE
01
F8
00
FB
FC
03
00
FC
F9
FC
00
F3
FA
F2
F9
00
FC
FF
FD
ED
FD
04
F8
11
05
04
0B
FA
E7
FE
F3
EA
0A
EB
E5
F1
D5
F8
FF
FB
F3
08
F7
CD
DA
08
DA
15
0B
03
ED
1B
EE
0D
ED
F5
0F
FE
F7
FB
ED
06
08
EE
0F
09
EA
F7
E3
05
0A
F4
0D
FD
04
DE
EA
07
01
E9
11
01
EE
EF
07
FA
FB
FE
FC
FE
F2
FD
FB
00
FE
01
FB
F9
05
02
FC
FB
FB
FC
FB
F7
FD
FD
FC
FE
FF
02
FD
FA
FE
F9
FC
F3
F1
F0
FD
FD
EA
FE
F9
02
02
FB
F8
F1
FA
03
F9
F2
FF
FD
F9
F3
01
FC
00
FC
F9
E8
F7
FC
FE
F1
01
09
01
0D
F2
07
E1
02
09
FC
DD
EF
FF
FC
08
FC
FA
F8
FB
EC
E8
01
08
08
F8
01
05
28
02
F5
09
08
FF
00
EF
07
ED
0C
F5
FA
EF
05
F9
F9
08
F1
EE
07
F5
FF
08
FD
E9
06
04
E9
F9
F4
F4
0D
F5
FC
00
F0
FD
03
FE
07
F6
01
06
F9
F6
F6
EA
1F
FC
01
F1
E2
1E
00
E4
11
02
FD
F0
15
15
07
F8
18
09
EF
FA
13
04
0D
2B
19
06
06
00
FE
F3
FC
08
0A
E8
14
0C
01
F4
FA
F6
FF
05
01
00
06
06
D7
F6
17
03
F5
F8
12
ED
01
FF
04
FF
00
FE
00
FE
FE
FD
04
00
FE
FC
FA
FD
FD
00
F9
FC
03
FB
FF
FD
FE
F9
FE
03
00
FB
FE
FA
F4
E9
FC
F7
F6
D5
F9
F0
FA
02
E9
0C
08
FD
FC
D9
09
08
0C
FC
FE
FA
EE
FC
FF
FF
F1
07
03
01
F1
01
00
03
FD
FD
FE
FC
00
FE
03
02
03
FE
FD
02
FE
05
FA
FB
00
FD
FF
01
FB
FD
04
02
FB
01
FF
FB
02
FC
05
EB
FD
FD
F5
FF
06
00
FF
00
F1
FE
EF
09
FA
EE
FC
01
F8
F6
00
FD
F3
F3
03
F9
FF
F7
02
F6
01
04
FF
FA
FB
FE
02
04
01
FF
FC
00
FD
FB
FF
00
FD
FB
FE
F9
FE
FF
03
FE
F9
FF
02
FE
FF
03
02
FB
04
F9
01
01
07
F3
01
FA
00
14
00
F7
12
F3
F5
08
FB
0C
F9
FA
0B
06
0D
0C
1F
03
0A
09
E1
F4
F1
0B
09
07
F0
F2
F6
00
FC
0D
02
09
04
FD
24
E6
FF
F0
FB
26
FE
D5
00
03
FC
05
1E
1D
F7
01
0C
03
FE
03
06
00
04
ED
06
FD
F8
E7
01
10
01
F5
F7
0A
F5
FB
FD
06
F5
06
FD
ED
04
06
FC
00
19
03
F7
DE
01
F8
F1
0A
00
FC
E5
F7
02
EE
FE
04
06
FA
E4
03
04
FE
EF
E6
09
0D
F1
06
09
04
F3
E6
03
02
00
F9
F1
05
06
FF
03
EE
FA
10
0F
03
FA
EC
F9
07
F5
09
FB
E2
F8
F6
07
04
E0
08
FB
06
F3
F4
FA
FC
F3
0E
F1
F9
F2
04
F9
11
07
FF
FE
F8
FC
00
FE
04
05
F5
FD
06
F8
FE
F7
FB
02
FC
F8
07
03
01
FA
02
02
01
FD
FD
FF
FA
FF
ED
05
FD
02
FA
FC
F4
FF
FC
F2
FE
FF
FC
F4
F5
02
FE
FF
FE
FE
01
EF
FD
FF
F9
00
02
FD
FA
FE
00
08
ED
F6
E9
FB
F6
FE
09
FE
E3
E9
02
FA
F8
0B
D3
05
04
ED
D6
0A
00
F3
EB
0C
03
01
E1
07
08
0C
03
FB
FF
FD
FA
FB
00
00
00
FB
02
00
00
FD
01
03
03
FD
F9
03
FE
FD
FF
FE
FE
01
FE
FC
FF
F9
02
F9
FA
F7
03
EC
09
F9
07
07
FD
01
FC
D9
04
FD
F0
EF
D3
F2
FE
08
FE
ED
F6
CE
DA
07
05
02
F1
09
EC
E8
03
FC
ED
F7
FF
FA
02
00
04
FA
F7
FB
06
F5
03
FD
F6
FB
00
FE
FC
FE
00
F5
FA
FB
FE
F4
F2
FB
01
F5
02
FE
07
F7
FE
FD
35
01
FC
F8
FC
2A
F6
06
01
D1
28
FC
CA
06
0B
00
FF
11
1C
00
FA
F8
17
F4
EF
12
FD
03
05
FE
01
FC
FB
00
02
01
00
FF
02
03
00
FF
02
01
FC
FC
00
FC
02
FD
04
01
FB
FF
FD
FC
01
01
FF
E9
F6
FD
04
E5
E1
04
ED
0A
08
F2
08
E8
F0
FA
DE
0B
05
F6
FF
05
09
EC
01
F3
00
E8
04
FD
FC
F8
F4
FF
F8
F3
02
FC
EF
02
EC
FD
04
EF
04
09
F5
F3
E7
01
03
00
03
FE
FA
EA
EF
FD
FC
E6
09
F9
F2
F2
F7
FD
F8
F3
01
F3
F3
FD
F6
F8
FC
FD
03
F9
EF
02
01
F5
00
FE
FE
05
FD
F9
FB
FA
FC
FF
F6
06
F3
F7
FB
00
04
FC
04
FC
FA
00
00
01
FD
01
FD
01
FB
01
FF
FC
FF
00
FF
FB
FF
FB
00
00
00
FA
02
01
02
FD
FC
FF
01
FC
00
02
03
01
FE
FD
FC
03
00
FB
FF
04
03
04
00
01
03
00
FF
04
FF
02
03
FE
FB
04
02
FE
FB
FC
FF
00
FC
00
FD
05
FB
04
FF
FF
F9
00
FA
F9
01
01
FE
FE
00
02
04
FF
FD
01
FE
FF
FC
FC
01
01
FE
FB
E7
02
FB
04
F7
FD
F2
FC
FF
FA
01
F9
F8
FE
EF
02
FB
03
02
04
F8
ED
FA
F9
FF
FD
08
FF
02
FE
F8
F7
06
EF
FE
08
DA
01
FB
0B
FC
E3
03
EC
07
F1
DB
06
0A
0B
F7
07
01
F0
F0
F9
06
03
FD
F6
08
F6
F8
F7
0E
0F
E9
18
FB
FB
10
F9
E1
ED
E3
FE
22
FD
F1
E7
F9
FF
D1
E5
0B
0F
FF
F7
FE
39
09
DF
0F
FB
04
FB
07
00
FA
01
FD
FB
00
FF
F8
00
FA
FB
00
F6
FF
F6
FC
01
F5
FE
05
FD
FA
F9
02
0C
FE
F4
FE
04
FF
FB
00
FC
FE
03
00
FC
FF
03
FF
01
04
FC
FD
00
FD
FC
FD
01
FE
FE
FC
FA
FC
FB
02
04
01
FE
FF
03
03
FC
02
F8
FE
05
F8
00
FC
02
FC
02
F8
05
FB
FE
FC
FC
FF
04
F7
F9
01
06
00
02
FB
FF
01
02
FE
FD
01
05
E8
F3
00
0A
05
FB
E9
FC
07
F7
FD
F3
06
02
F2
02
09
FB
F3
F0
00
FE
01
E2
FB
FB
09
00
05
E9
EC
FD
F2
FB
F9
03
F4
00
F5
FB
F6
FA
FE
F7
FC
FB
FC
00
FC
FA
F7
FF
FA
FC
FC
F8
F9
F2
02
F7
02
EF
FE
FC
FB
FF
FE
FC
01
FD
02
01
FD
FE
FF
03
FF
01
03
FF
01
FE
00
FB
04
FE
04
FE
04
FD
FE
FD
00
00
02
F7
F9
F7
F6
E3
02
0F
10
07
FF
02
EB
02
05
F9
05
FF
EC
18
FE
FD
F0
14
0C
FF
02
F3
F4
FA
F8
F5
09
FC
04
FC
FB
FD
F1
FC
03
03
FE
00
F8
09
FA
FD
FD
F9
FA
06
ED
FA
FE
06
00
F8
00
02
02
FF
04
FC
FD
03
04
03
FE
FC
FD
FD
FB
FC
00
00
01
02
02
04
FF
01
FC
00
03
01
FE
FF
FC
02
02
FC
FC
FE
01
FF
01
FF
13
F9
FD
D1
29
01
05
00
FC
15
F0
FE
FB
D8
14
FC
D1
FB
0D
05
02
08
0C
05
FF
DA
FC
F9
F0
05
08
03
FB
02
FD
01
FB
01
01
FC
02
04
02
FD
FB
FE
01
FB
01
02
FB
01
FE
FB
00
03
01
FE
04
FB
FC
01
01
03
FA
06
FA
04
EB
00
FE
FD
FF
FE
FB
03
FC
FD
FA
03
01
04
FA
F8
00
07
FD
ED
FC
0A
05
F5
05
06
01
FD
2A
EA
F8
05
FD
F7
E3
F0
FA
1C
E7
F7
05
F9
1A
02
F5
FF
FF
FC
0E
17
1D
E1
FB
FA
10
EE
04
01
EF
F2
17
EB
E2
F5
DA
04
0C
FF
DA
FC
06
00
06
F3
00
03
03
12
FA
F4
03
09
FF
05
08
EC
05
EF
14
C2
05
09
2E
17
05
03
01
02
FB
F8
03
05
E4
1B
09
02
D8
F6
F3
0E
0A
F9
05
07
10
CE
F2
16
05
F7
F9
18
EA
F8
13
05
FA
0C
10
F9
E7
F4
FF
0E
F8
F9
0B
E0
13
F7
DF
2A
03
0A
FE
FF
0E
F8
F3
0A
17
F2
EB
17
00
00
F3
04
FC
FB
37
FF
FD
F4
02
26
F5
F9
04
CA
23
FC
C5
FC
0B
04
F5
14
15
07
F4
FB
0B
F6
E9
12
03
FD
2D
06
FA
FB
33
FF
F5
F9
FC
24
F2
FB
FC
CE
22
FB
C4
02
06
01
F3
14
1B
FD
F4
FB
18
F2
E9
0F
FB
ED
0D
CE
16
EF
F7
FE
E8
03
18
0B
00
D6
F4
F9
FF
04
FC
E4
03
E5
EB
EF
0A
F1
08
EF
16
06
FD
E6
DB
00
09
00
02
02
F1
FE
F9
FC
FE
00
F9
05
F9
FD
FF
00
00
04
FB
F7
FB
FE
FC
FA
FC
FC
FC
FE
FB
FD
FD
FD
01
03
FC
FB
FC
01
FE
00
FB
FD
FF
FE
04
02
FB
00
FD
04
FF
03
FE
FF
03
01
FC
00
02
FB
FB
FD
04
FF
FC
F8
F7
FE
FB
02
02
01
F6
FA
F9
00
00
02
01
FF
F9
00
FC
FE
00
01
FD
05
00
02
F4
FA
FB
00
02
05
DF
F9
FE
0C
EF
04
F7
07
FA
DE
0D
00
06
FD
E3
06
17
09
06
FD
FA
EA
ED
02
07
FA
ED
04
05
F2
02
09
F2
FE
12
02
02
E9
FD
EC
E2
F4
0A
DE
07
06
EB
03
03
FA
DC
0A
0B
E8
FC
0B
F4
10
F9
08
E6
0F
F3
F2
03
E5
F7
F3
EE
FC
06
08
08
E7
0D
E5
FB
F3
DD
07
11
01
FC
0C
FE
EA
F5
05
01
F9
04
FE
01
EF
0B
02
00
0E
FE
F0
24
FF
FB
F5
FB
26
F4
FF
FD
D7
28
01
CE
07
06
FD
FE
19
1C
01
F9
FC
15
F9
E4
10
FD
FB
05
08
08
FD
0E
03
E8
06
15
04
FA
FF
D5
06
FD
0A
F9
F0
03
EC
DF
F1
05
FB
FA
EA
09
04
F2
14
F5
FF
01
F9
01
FE
FE
FC
04
02
02
00
01
00
FE
FA
00
04
00
00
01
00
01
04
FD
FC
FB
FB
FA
FF
FE
FA
03
00
FE
FE
02
00
05
00
03
FD
02
07
FE
FE
05
FC
06
02
F3
04
01
FD
F8
09
02
FA
FF
01
FB
FD
F6
FD
FC
F6
00
FE
F9
09
C8
05
04
04
FF
DD
02
EB
04
F5
E8
FF
05
FC
F8
F5
02
F8
EF
F5
08
1A
FA
E8
10
F8
02
F8
F8
FF
F7
FB
FF
02
FE
FE
FB
F0
05
F8
03
F7
F8
03
01
03
06
00
F8
F6
F7
02
FA
EE
01
FF
03
F3
FE
02
F3
F9
01
FA
00
FE
01
FA
FC
FC
FE
FF
F7
FF
FB
FF
00
FF
FF
04
FF
F9
FE
FF
FF
F6
FA
FC
F7
FD
00
01
F0
00
03
E9
F6
F9
E8
FC
04
E9
08
F8
F2
FA
DA
07
FE
01
FF
11
FE
DF
FA
08
03
F5
00
00
F3
0A
FC
EF
F5
E1
EE
00
EA
FC
0F
ED
D0
FD
08
F2
04
F9
04
01
03
01
FE
F9
DB
07
FD
10
01
D5
F9
FE
0B
C6
04
EF
FC
11
FF
08
14
FE
09
FE
FE
FB
05
CB
F5
ED
05
F6
F6
0B
00
F6
FA
F5
F5
09
F6
CC
C3
05
C9
CA
07
01
19
0E
05
FA
20
FE
F2
FE
FF
10
FF
F5
FD
DD
0D
00
E5
F2
0D
00
0A
FA
05
FF
F7
0C
15
F2
E2
18
FF
FC
F8
F4
E9
EA
08
FC
0D
FB
EB
F8
FB
FF
E7
EE
11
F9
FA
0B
F8
10
04
0D
0C
0A
FB
EB
DD
0D
F9
EF
FA
FE
06
07
DD
1A
F0
FB
E7
04
F0
1A
08
DF
F7
DB
F6
F0
FF
02
F3
0B
08
02
48
FB
E8
04
FA
F3
E2
F6
FE
02
D2
FE
00
07
FA
FE
09
FE
FA
F6
0E
D8
07
E8
EC
09
00
F9
13
06
FD
E5
F7
1C
FF
EC
FD
01
FB
E5
06
EE
12
ED
F8
0B
0D
08
0C
FB
F8
0E
F3
09
03
FB
1B
F7
EA
0A
03
E4
08
17
0D
06
FD
C6
F5
EA
00
F7
05
FB
18
0D
FF
03
FB
F7
EF
00
03
FD
FC
01
EF
F6
FD
FF
FD
FB
04
E8
00
F8
FD
EB
F7
F9
08
F8
F4
F9
FA
F4
02
F4
00
FE
F8
05
04
FF
FD
FC
F6
00
FE
F9
00
FE
FB
05
F2
FC
FE
FE
01
FE
01
FA
FD
FC
FC
F6
FF
F4
08
03
14
F8
01
F8
DB
FB
0F
E7
05
FC
EE
FF
E1
FF
01
D6
00
E1
E9
D7
F7
FE
01
EC
03
01
FB
F9
02
F3
FF
E0
0C
EB
ED
FB
D6
FF
12
FD
02
F5
FC
FF
FE
03
FE
01
F6
E9
F0
FD
F7
EE
FC
DD
FB
00
F9
EF
F8
03
F7
FA
FE
FE
FD
FB
F7
FD
FB
FF
FC
02
FB
FA
FB
FD
FB
00
FF
F9
00
FB
00
03
F7
01
FC
FD
FA
FA
02
F5
FA
FE
02
00
FB
FB
EC
F9
FB
F9
FF
F2
ED
00
F1
02
FC
F9
00
F9
F8
E7
F8
01
F8
F2
F5
FF
00
F5
F6
FD
06
FA
EC
FE
F2
03
06
FB
F2
FA
FB
FA
06
F4
FC
FC
FC
FF
FE
FD
F8
03
01
FD
01
06
FF
F8
01
FB
01
FF
EE
08
FF
03
D2
FA
F9
0B
07
D5
04
F3
11
01
CD
08
0A
0F
02
F5
FA
FA
FE
EC
0B
18
FC
02
0A
00
03
FE
FE
FD
01
F9
FC
FC
04
FD
00
F9
FE
FD
03
FC
FA
FE
FD
FB
FB
01
F9
FE
FF
FA
FC
FB
00
FB
FF
01
FD
04
FC
FD
FE
00
03
FF
FB
FF
02
04
FF
00
FE
FD
03
01
01
03
FE
01
FC
00
FE
00
FE
01
FD
FC
FF
FA
FD
01
26
06
FC
FC
36
FC
FB
F0
00
26
F7
05
FF
D3
28
FE
C7
FC
0A
07
F2
0F
14
01
FB
01
12
FA
E3
11
FB
00
FD
02
FD
FF
FA
03
00
00
FB
02
04
03
FB
00
FF
01
FF
FE
00
03
01
FC
01
04
03
01
FD
03
05
FF
04
F7
FE
01
05
F8
07
FB
F6
F8
FE
01
F9
02
FC
00
FC
FA
00
02
03
FF
F8
F6
02
FA
FD
F9
02
06
F5
06
FC
F6
13
0C
01
F7
FA
F8
E9
FB
0D
FB
F7
FB
EB
F4
01
F6
FB
FD
F9
EB
F8
01
FB
E7
F2
FF
00
F7
E5
05
00
FA
ED
F1
F3
FC
FE
F5
F6
F8
FA
F8
00
F9
F9
01
F0
FC
FD
00
F6
04
F4
EE
F6
FD
03
00
FF
FA
02
F8
FB
FD
FB
F4
F7
FC
F3
05
FE
07
F8
09
FC
F6
FC
F9
FC
FF
FC
FC
FC
FC
03
05
FF
00
FE
F6
FE
03
F3
F4
F8
01
FE
00
03
FD
01
FE
FF
FC
00
01
FD
FC
02
02
FD
FD
02
01
03
FD
FE
FC
FF
FB
FD
03
FB
02
03
04
FD
FC
FA
00
EF
01
10
FC
09
D8
EF
F0
04
F2
00
E7
FD
FB
FD
FF
04
EC
00
F7
EA
08
D2
D4
F0
FF
CC
DF
0D
FC
F4
01
07
EE
02
02
FD
F9
FF
FF
01
09
EF
02
F8
F7
00
02
EA
01
FC
00
01
03
F4
FF
04
FF
F5
05
F6
01
0B
07
01
01
E9
06
02
0B
03
E4
02
EB
07
FE
E1
04
13
ED
FB
EE
05
F7
E8
F5
0E
18
E7
F8
16
0A
FE
F9
14
FA
F8
07
F2
03
02
FD
F9
FA
F9
F4
00
F9
FB
FC
F9
00
01
FD
05
01
FE
01
03
13
FF
F0
FE
00
FD
02
06
03
F7
FA
FB
FC
FD
00
FA
05
FF
01
00
01
06
FD
FF
00
FC
00
FC
06
05
FB
00
FE
00
FE
FC
FC
FF
FB
02
04
FF
FC
05
00
FD
FC
01
FE
04
04
FF
FF
FE
01
FD
00
FF
01
02
02
00
00
00
00
FF
00
FE
FB
FC
F3
07
00
07
04
D2
02
01
FF
0F
F3
F7
0B
FB
05
F6
FE
05
06
D9
FB
04
1B
14
F2
FF
09
09
04
06
FF
FD
02
F9
FB
00
FB
FD
FF
FF
FC
00
FD
00
04
FD
FF
00
FE
00
FA
FE
FD
FE
FE
FD
FC
FD
01
03
FF
F9
03
00
FE
F4
F4
FE
EE
F8
FE
F9
FA
FE
02
02
FD
F5
FD
FC
EF
02
00
F9
FF
FD
FD
01
01
F7
FC
F8
05
F6
FA
FD
F7
17
22
D8
10
0B
EB
D7
EC
D0
1A
FB
14
F9
04
14
02
F5
EA
FE
FA
D7
04
05
F4
EB
24
1C
FC
ED
16
EB
F8
D8
0A
E8
0C
FA
ED
FC
07
E7
F3
08
F6
10
08
F0
0A
0C
05
E5
E1
07
03
0D
DC
FE
13
FF
FF
07
FC
EE
FE
02
01
FD
FA
F9
03
03
00
FB
01
00
01
03
FC
FA
FF
00
00
02
00
01
04
FE
FB
FC
FE
01
FC
FD
FC
01
FE
FF
03
FE
FE
FB
FD
05
FD
F9
03
FB
00
01
FF
03
02
F7
FE
FE
F9
00
FE
FF
FE
02
03
FE
FD
FC
F9
03
02
02
00
FD
FC
FE
FF
FF
FB
00
FC
01
03
01
FE
FF
FC
FE
00
00
FC
04
FD
FC
FD
01
03
03
FC
FF
FF
FE
FE
0E
00
FC
FE
FA
F9
FA
FC
01
07
F9
01
FE
FE
FF
F7
F9
FE
FC
F4
05
05
00
F0
01
00
FF
F2
01
F8
FB
00
FB
F8
F9
FA
FD
FF
01
00
01
03
02
02
01
FE
FF
02
02
00
FC
05
00
00
04
00
02
FE
01
06
FA
03
FF
FF
E6
F4
08
00
F8
FB
06
FF
05
ED
0F
EB
FB
F7
E5
F9
0B
F1
F9
07
FE
E3
FA
12
FE
F0
F7
02
F5
08
0D
FF
0B
FE
01
00
FA
02
FF
02
FD
FD
FD
01
FF
FF
02
FB
FC
FF
F7
F7
FF
02
02
FB
FF
05
00
03
00
FB
FF
FC
0D
05
F9
05
F7
FB
02
FD
F6
FC
FE
03
FD
FB
01
FB
FA
FE
FB
F8
FD
00
FE
00
FC
09
FC
FE
02
FA
FD
FB
02
FD
FD
FF
05
03
FA
01
FB
FA
FD
02
00
03
02
FC
FD
01
02
03
03
FC
03
FB
FD
FE
FE
FA
FA
00
01
02
E8
09
04
F2
DC
01
16
FF
FA
03
10
05
F7
F9
0C
FB
05
08
F6
FC
05
03
F9
1E
04
EB
F0
05
FA
E3
03
00
EB
01
FA
F9
FE
FB
FB
F6
01
F2
02
F2
F3
F8
EB
FD
01
FC
01
08
05
DB
F4
03
FC
F7
F2
FE
EF
02
F9
FE
FD
F8
FF
FB
F2
FF
05
FF
F4
F4
01
FC
ED
F6
F1
FD
FA
FE
F9
FF
01
F1
F8
09
FA
E3
E3
00
EE
E8
EF
02
FB
FC
FA
01
FA
FB
00
00
F7
F6
FE
FF
FF
01
FD
FB
FC
F9
FA
00
02
FC
F9
F9
FD
FA
FA
FA
04
FF
FF
12
00
08
03
10
CA
FC
FD
0C
03
EF
02
FB
0C
04
DB
0C
14
F9
FA
01
FE
06
FF
E4
07
0F
04
FE
14
08
FA
F2
FC
F4
F0
F5
FB
03
0C
FD
F9
09
FC
0A
FF
FF
12
F5
F7
0B
F5
09
FF
15
07
07
F9
F1
FC
FE
01
01
07
F8
F1
03
06
FF
ED
FD
F5
FE
04
F8
FF
FA
00
FD
EB
05
00
FD
FF
FD
F4
F5
F8
F9
FC
FC
00
FB
FD
FC
FE
D9
00
BC
04
0D
06
05
FC
05
06
16
F8
FA
FC
C8
15
FF
E1
06
09
DB
25
0D
07
F5
03
E3
0D
E0
FB
E6
F6
03
1A
0C
F2
FA
19
04
FE
F0
FD
27
F7
F2
FB
DE
25
01
DA
01
08
05
F8
13
14
00
F6
FA
13
F5
EA
07
01
F6
04
FF
01
FF
01
FF
01
02
F9
00
F9
FD
01
FF
02
FD
F6
FD
00
01
F9
05
03
FD
00
FE
FD
FC
FE
FD
03
FF
F4
FC
F3
04
FA
FE
01
F9
F9
FF
02
FD
02
FE
FB
FF
03
FD
FC
F7
05
FC
FD
FC
FF
02
01
F8
FE
F8
FA
FD
01
04
00
03
01
00
03
00
04
04
FC
01
FC
03
02
04
FE
00
02
FF
FD
02
00
FB
FB
FD
FD
01
01
FE
02
FE
12
05
FC
00
FA
F6
E8
FC
04
00
FB
FF
FD
F3
FD
FA
FA
E8
FF
F5
FE
01
00
F5
FB
02
08
F4
F4
07
FB
03
0F
01
FE
01
01
F9
FB
FE
FE
02
F1
0B
03
F9
FF
FD
FD
02
F7
F7
04
08
00
F3
F9
04
FD
F6
00
FC
FC
02
FC
FC
03
00
00
FB
FB
FC
FF
01
FF
FC
04
00
02
FF
FE
FB
FF
FF
04
00
03
FB
02
FC
FE
03
00
FD
03
F4
FE
E8
D9
EA
01
07
07
0C
D6
07
F7
FA
DD
00
16
06
F0
0B
F1
02
FF
11
15
00
FA
FE
E2
F9
04
00
FF
02
01
F3
FE
02
F6
FB
F8
F7
FD
02
EC
06
F4
FE
FB
FE
F6
FE
FA
FD
01
FF
FD
F4
F9
03
00
F8
02
FD
FA
03
F8
F8
FA
F7
F8
00
FE
FF
FC
01
FE
FD
F7
00
FA
F9
03
FB
F9
04
01
01
FC
00
FD
FE
FB
01
FE
FC
FC
FB
FD
DF
0A
FE
CE
FA
DD
00
08
0A
FD
08
E6
04
00
02
FA
05
F5
F0
01
07
0C
EA
09
19
14
EF
07
0A
EA
FE
F7
01
FC
00
04
F9
F8
F6
FC
0D
F8
FE
FF
FB
04
FB
F0
05
FB
FD
FE
08
08
F9
F4
F7
02
F4
F6
F4
FD
FE
F1
09
FC
FA
D6
06
13
04
F7
E4
07
FA
04
FB
F1
F0
00
FE
ED
FF
0C
E6
DB
1A
FB
F8
EE
06
FC
F2
07
EF
07
EC
F7
0B
F3
04
0A
F4
F3
FE
FD
09
0C
F6
F8
F2
FE
03
FA
09
04
06
F8
09
04
FA
FC
EE
03
EA
02
F9
DE
00
00
F4
F9
07
16
05
02
F9
07
01
05
F7
07
F0
00
11
FB
02
03
F5
E1
24
F8
FD
F0
03
EE
15
12
F3
F4
FA
0B
07
00
FE
08
EF
06
F1
0D
EB
E4
F9
F5
F8
0B
ED
08
FE
02
EA
EF
15
08
DF
FD
06
02
E4
08
FC
12
FA
F7
FC
FA
F9
05
F8
F6
00
F0
FB
02
F8
FB
F4
F7
04
FF
01
02
FF
00
FA
F9
11
04
F3
FE
02
F6
04
13
FC
E7
07
F2
03
0A
FE
F5
1D
EB
F8
16
F7
14
FB
F6
11
FE
03
10
21
2A
FE
FF
1A
01
E7
0B
02
0C
01
0C
FB
FC
FE
FB
FB
FD
FB
04
FC
F9
FF
00
03
FA
FB
FC
FB
F8
FA
F8
FE
FA
03
00
FC
FD
00
FB
FA
FD
FC
D2
F3
FC
02
D2
FD
08
04
F7
ED
19
ED
FE
00
EA
0B
0F
FD
F2
F5
FE
FB
FA
0E
0C
EF
F8
0D
08
E0
0B
F8
F3
00
FB
F9
FC
FD
F9
01
FC
FB
FA
FA
F9
04
F1
03
01
00
01
00
FC
FA
FC
FA
02
FC
FA
01
FF
FA
F6
00
0F
FD
F7
02
FF
00
FD
F2
F6
FE
F7
F9
00
FF
FA
F5
F9
F9
FD
F9
01
FB
FC
FB
F6
0F
00
EB
FD
03
F7
04
DA
07
F9
FE
03
F8
FC
EC
E4
01
0A
04
F9
02
FD
03
06
FE
FE
08
09
FD
FD
F2
01
EE
FE
01
0C
E7
F0
FF
09
F9
F9
FA
38
01
0D
FD
F6
27
FF
F6
FE
D5
27
00
E0
FD
09
00
00
19
12
14
FC
FA
0F
07
F3
07
08
FF
05
FB
F9
FE
F8
04
02
FC
FA
FE
FC
01
00
FD
FF
01
FB
FF
F6
FD
FC
00
02
FE
00
00
F8
FC
FB
FC
FB
F9
FA
F6
FC
F8
F3
FD
06
FF
FD
FF
FF
01
00
FC
05
FF
FC
FF
FB
02
01
FD
00
02
01
FD
00
FB
FA
F1
FD
FD
04
0B
FC
03
F7
FF
FA
FA
05
FC
FC
0A
FF
FC
F6
FC
F9
FF
FD
FD
F9
04
00
F0
FC
02
00
F8
F7
0C
FD
FA
FE
02
FB
FF
F9
00
FD
FE
FC
02
FA
03
FE
FF
04
FE
F7
FE
00
03
FD
05
FD
FF
03
FF
FB
00
00
FD
03
FC
08
FD
FF
FB
F6
FF
FA
FA
FE
0B
F7
02
FA
F9
07
00
FD
FF
FB
FF
01
03
02
F9
F8
FB
FE
F7
FD
F9
FE
FC
FF
19
09
02
25
F8
D7
DD
F6
13
FF
FE
E2
E0
15
F9
E3
F6
09
02
E8
00
08
FF
E3
14
0D
FB
D8
15
E7
FB
FD
04
03
FA
F5
F8
F8
01
04
FC
00
05
F8
02
F3
06
FC
FE
F8
02
01
FB
00
F9
FB
FA
FC
FD
00
03
F9
FF
FA
FF
01
02
F7
00
FD
FC
FA
02
F7
FF
F9
FF
02
04
F8
FD
02
01
FC
01
FF
F7
00
FF
FF
02
FE
FF
FA
02
FF
F9
FB
F6
02
04
04
FC
FD
F9
FA
FA
FE
FB
FD
01
00
04
FF
FF
01
01
FA
00
FB
FB
FF
04
FE
FA
FF
01
FC
FF
FF
03
FD
02
01
00
FD
01
03
FC
FD
01
FB
01
FF
FC
01
FD
01
FD
FD
FE
03
FC
02
FC
01
00
FC
FC
FA
F1
09
F2
EF
FE
E4
04
12
EC
03
F8
EE
F9
DF
02
00
DE
00
FE
F4
DB
E7
03
00
EC
F9
04
F2
FF
01
03
06
FE
03
02
FC
FA
FD
02
FC
01
FE
01
F9
FB
03
FE
FC
01
FB
FB
01
03
FC
01
FF
FD
00
03
FC
FA
00
00
FB
01
FB
FF
07
FD
FC
FE
FA
FA
FB
F4
FE
F7
FD
F6
FA
FE
FB
F9
FA
F7
FB
FE
F7
04
F9
F1
FD
FF
FB
FB
F6
D1
FD
02
DC
04
0C
00
E8
F7
0B
ED
0B
FD
F8
05
04
F7
F7
F9
03
FF
00
FC
07
E5
FC
FD
0B
D9
FF
FE
FD
11
04
F3
20
F5
F4
FC
13
02
F4
FF
E9
D5
06
F9
E8
F0
05
FE
E6
FC
F5
00
EA
ED
D8
F9
F8
09
04
FB
08
FB
F7
FF
F4
FD
05
FA
F0
F5
FC
FB
F7
05
F2
00
02
FA
FD
03
01
FC
F9
FA
02
00
FE
03
04
FF
FC
EF
E5
FE
01
FE
E3
01
F2
F6
01
EA
06
F8
07
EA
D5
07
09
FF
00
F8
F4
E1
E9
03
FD
FA
07
FC
F7
02
05
FF
EC
12
E6
1B
E8
F5
EB
E3
DB
0A
00
F8
E1
02
02
0D
02
FE
FF
F1
0A
04
FF
F0
E7
03
04
DE
E9
F0
F5
FC
FE
03
FB
04
02
F8
FA
00
F8
FF
F8
FF
FD
02
FF
FF
FF
FB
FB
FE
00
08
08
F7
FE
03
FE
FD
FD
03
02
FC
DA
FE
F7
ED
23
05
01
FC
FA
16
F9
03
08
D5
13
FF
D7
05
03
03
F6
07
08
07
F6
FA
05
F8
EA
07
06
F4
EE
FC
F7
F7
11
06
0D
02
01
14
F2
FB
05
E5
1C
EA
E3
FF
01
18
EC
1B
1B
07
00
E1
FF
F7
FB
03
0A
04
01
04
F7
EC
23
0D
FC
E9
FB
E1
F9
08
08
DC
EB
EA
D6
03
05
06
E3
EF
E0
0A
F6
FC
E8
F6
FE
11
FE
13
EA
FE
F8
DF
09
01
07
F3
E6
0E
FE
01
EF
FE
0A
EA
FB
0D
E0
18
05
F6
08
23
ED
FF
F8
0A
EC
24
02
00
02
FC
FD
FD
FA
03
04
FD
FA
FF
F8
02
04
FB
FF
FD
F7
07
01
FC
FF
05
FE
01
00
FB
FC
FF
F5
02
02
05
E4
09
FB
01
0A
EE
FD
F2
FB
F7
FD
F9
FC
FD
EB
FC
FE
02
EC
00
F8
E8
F6
FA
EA
05
FC
02
ED
11
F3
FE
1E
0B
03
02
FD
FA
F3
FB
0D
FD
F3
18
FE
FE
FD
04
F9
01
F0
EF
F7
EE
EE
DB
F3
0A
0A
FC
FA
0B
FA
FD
0D
08
F3
03
F8
F5
F2
F8
FF
FC
FE
03
F5
F5
FF
F3
F7
FB
FD
F9
00
00
FC
FC
F7
09
FC
F8
F4
03
F9
08
D5
F7
03
0C
DA
FF
06
01
FC
EE
0B
E3
0A
E6
E0
0C
07
F1
06
08
F9
E4
F2
16
04
EF
F7
FE
FD
F0
08
0B
07
F2
02
0E
EB
FF
F4
00
06
F6
F5
0F
F3
05
F1
02
F5
FA
F4
05
E3
05
15
EE
F8
F0
04
04
FD
ED
F5
02
03
01
ED
07
0C
02
FE
F9
FC
05
F0
F7
05
FA
0C
F2
F1
FD
00
FB
FD
10
FF
F8
01
06
FD
F1
03
09
01
FE
EC
F7
FB
F0
FD
FE
00
F8
F8
FB
FE
FB
FB
05
F5
F4
03
FA
F5
05
00
F0
F6
03
F4
F8
F0
07
F3
00
F6
00
F3
00
FD
F5
01
00
FA
00
FF
FC
FF
FC
FE
FD
FB
FA
FE
FE
F7
FE
01
F4
FB
FA
FC
FD
FF
03
F8
05
F4
FC
06
FE
01
FF
F0
FF
02
03
00
FF
FC
FC
FF
F6
F4
FE
FA
05
F6
03
00
FC
F9
00
06
09
FC
F7
FE
03
FE
FF
1E
00
0C
F9
18
00
EC
03
0C
14
F9
00
EE
E3
0C
01
E7
F1
08
00
0B
02
0C
FC
FC
0F
16
E6
E9
12
01
F6
F5
FD
F9
FF
E4
06
16
05
F9
D3
05
01
04
F5
E7
ED
07
11
F0
EF
11
EB
E9
1B
04
F5
E2
FC
FC
F9
04
0E
D6
E9
00
0C
DD
FE
03
0A
F9
E7
0F
FA
FD
F4
E6
09
1B
0B
FD
01
FF
F2
F0
FE
0D
0E
F8
F6
0C
F8
00
E2
14
D8
DF
FE
C3
F9
F1
E1
D7
0A
FD
07
F3
00
0E
07
FE
04
FF
D9
08
11
10
ED
0C
06
0E
EE
13
90
CD
FE
F2
FD
F9
06
F7
F7
F0
00
FB
FE
02
F4
F9
03
FC
FE
FD
FE
00
00
FA
FD
FF
EE
F6
01
FD
F8
FE
FD
F5
F7
BE
DF
0E
11
E4
FC
FB
0F
08
E4
00
D8
03
0C
E5
0E
07
F9
D9
DA
08
FB
ED
D4
09
E9
03
04
02
EA
F7
00
FC
FB
FF
00
04
02
FB
FB
02
02
FE
02
00
04
00
02
FB
01
FE
FD
FC
FF
FC
02
FE
FB
FE
FE
FB
01
FD
FE
FF
F8
F8
01
FE
FF
01
F4
FA
F9
FD
F9
FC
FF
FB
FC
FA
FA
01
01
03
FD
F9
FA
FB
FD
FC
F1
FD
FE
FB
F3
E0
ED
FE
0F
E5
FB
FF
0A
00
EB
12
F7
06
F4
E7
0B
14
04
FA
05
FE
F7
EF
08
0F
FB
F0
FE
0B
E6
FD
FA
F9
FF
00
F8
F6
FE
F8
FC
04
F7
FA
FD
F7
FF
F4
00
F9
FA
00
FA
FB
FB
FE
FE
F9
F6
01
05
FC
FA
FA
F0
FE
FB
01
F6
E0
02
09
00
FA
FA
04
F1
02
FC
09
F6
01
FA
F1
00
10
0E
09
11
01
01
00
FD
FF
09
FC
F3
F5
F2
F8
01
00
F8
E7
F5
05
EB
08
FF
F7
E6
F8
FD
06
E6
08
FB
F3
EB
E7
00
F7
E4
F5
F2
F4
F5
FA
FB
04
FD
FE
00
FA
00
FD
04
FE
FA
FA
02
FE
02
FC
FC
F9
04
FC
03
FB
FD
FF
FA
FE
FA
01
FF
04
F9
FF
FC
FE
00
FA
FC
04
FF
FE
01
FD
FE
02
FF
01
FD
FC
00
03
02
FE
FE
02
FE
FC
02
01
00
FB
01
00
03
FB
FB
FC
FE
FC
F9
FB
00
FB
03
FC
FE
FC
01
04
F9
F9
FD
FE
FC
FA
FA
04
FD
FD
FA
00
FE
FF
FA
F9
04
03
00
06
0C
03
09
D5
00
F9
06
0B
D0
00
FC
0E
FD
C9
0F
10
FC
F5
FC
02
EA
F1
EC
0E
1D
0C
FB
10
08
00
01
06
FD
FD
FE
FC
FB
FC
FA
05
00
FF
01
F9
FA
FE
F5
00
FA
F9
FF
FB
00
FF
FA
F6
07
00
F9
FB
04
F8
FD
07
04
09
F8
FD
FE
F7
FE
03
FA
FA
F9
FC
FF
03
FB
F8
F9
00
F5
FD
02
FF
F8
F5
00
F9
FB
F3
02
01
05
FA
06
F6
03
F8
00
F9
F9
F9
02
FB
FA
F8
FC
F8
FC
FC
F8
F9
F8
FD
FF
FF
FA
FB
02
FD
F1
F8
FD
FB
01
12
FD
F9
02
F6
04
FC
FD
FD
FF
F9
FD
02
F6
F7
FB
F5
FE
F9
FA
03
00
FE
F0
02
0C
FD
F3
01
0A
FD
FC
0B
EF
E8
16
CF
03
07
F5
E3
F3
EC
08
1C
FF
FE
EF
F8
F8
00
EF
06
10
EE
F1
FE
1B
08
E6
0D
0A
05
FB
24
01
FA
F7
31
05
03
F2
FD
26
F6
FF
FD
CD
26
FE
CC
02
06
FD
F4
11
14
08
F7
FD
16
F8
E3
10
01
FC
FA
FD
01
FC
F5
FE
00
04
FF
FF
F7
04
00
F9
01
FD
F6
03
F8
FD
FB
01
FC
FE
FE
01
02
F9
FB
F7
FF
FE
FA
F9
FF
FE
0D
06
02
F9
F8
06
F8
00
00
F9
03
F8
ED
FF
00
FE
FB
05
03
05
FC
01
F7
F6
F7
02
FD
FB
10
06
FE
FC
25
FD
FB
F6
05
12
F9
F6
F6
EC
1A
F9
D5
05
0E
01
FC
07
09
FA
F3
06
1A
F4
ED
10
FD
F6
F6
02
02
FE
FD
F6
EB
F9
02
F7
00
FF
F8
F9
E9
FE
FB
FF
02
F8
F3
E3
F8
FB
F9
03
06
03
FD
06
03
FC
04
04
03
FF
FF
FC
02
03
FC
02
FE
02
FC
04
FF
00
FE
FF
FF
FF
FE
02
04
FD
00
04
FC
FF
01
03
FE
F8
03
FF
02
FD
03
FB
F4
FD
05
FC
FB
03
F9
03
FF
00
FC
F9
00
F9
F9
F9
FD
FD
F6
FD
FD
FF
F4
07
FE
05
07
FD
07
FC
F3
FF
F7
FF
00
05
FC
05
F8
F8
04
FF
FF
00
F1
FB
FC
02
02
FD
FA
FC
F9
03
FE
FE
FF
F8
F7
FA
FC
F4
FC
FB
03
01
F9
FD
F8
07
F3
02
04
FD
FE
FF
F9
01
FB
FE
FC
F8
FC
FE
F7
01
FE
FC
F7
FB
0D
F0
FB
D3
1D
04
FE
FF
08
19
ED
0A
FF
DF
1D
FF
D3
00
0B
FD
14
10
12
00
00
E4
0D
EE
F6
0F
01
01
F5
FA
FA
03
0C
01
0E
01
FB
07
F4
EE
08
F0
0F
F4
EE
01
FB
01
FF
14
0B
06
FE
F5
DE
F0
09
02
08
01
00
05
02
F9
E9
FD
FE
F9
FF
04
FB
09
F5
FB
F3
FC
FB
00
F1
FC
FF
0F
07
F4
FC
09
01
01
FE
01
F7
FB
FE
FA
F9
FD
F5
FD
01
F9
FD
05
FC
03
FB
F8
09
FB
FD
03
FA
FE
FB
07
01
FE
FD
FF
FE
FF
01
F4
01
FB
03
FF
00
02
F6
02
03
FE
FD
FF
00
FC
03
FD
FE
03
01
05
00
FD
03
06
02
FA
FD
00
01
FC
FC
02
FE
01
DF
FD
00
08
FF
05
06
FE
F6
FB
11
D1
0A
EC
F6
06
03
FB
17
03
F9
E5
03
19
07
EC
FF
FC
FC
E6
0F
F6
E6
0E
08
FF
00
06
FA
0C
0A
DD
02
E3
EC
F7
DC
FE
02
05
FB
F2
FC
D7
E1
01
00
0F
F3
01
F5
EC
0A
FE
25
0A
05
F9
EF
00
FB
FB
0F
FC
ED
05
09
F8
00
F6
F3
F7
06
F9
03
F3
FA
E4
F9
0E
06
F4
F9
01
E2
00
FE
FD
F9
F8
01
FC
03
FD
F7
FD
01
F1
FF
F6
F7
FD
FD
01
FD
FC
FE
FA
F4
02
F5
FA
F7
00
F5
00
00
FF
FF
F7
FD
00
F8
00
03
01
FB
05
FC
FE
F9
05
FF
04
F8
00
FD
FA
FF
00
01
F3
02
FA
FC
01
05
00
FE
14
D6
DE
FF
09
E2
07
08
0E
04
D2
0E
F5
02
FB
D6
00
18
08
FF
06
06
EE
EC
06
07
07
ED
FC
11
11
02
FD
FE
01
FD
FF
12
02
FF
F8
FD
01
F3
F8
02
F8
05
F9
ED
00
02
FE
01
00
FC
04
FA
FB
FE
F7
FB
06
FD
02
0C
02
04
F9
F7
FC
FF
F9
02
FB
FE
FE
01
FB
00
F9
FC
FC
FA
00
FF
FE
01
FD
FF
FE
00
00
00
02
FD
FF
00
FE
FE
FD
00
FE
01
01
FB
05
00
FC
FC
FF
05
04
FF
03
01
FE
01
FE
FD
01
FD
FB
FC
FC
02
00
04
FA
F8
F6
F6
07
01
FE
FE
FF
F7
06
F7
F9
FF
00
02
FD
FE
FE
FE
F9
02
06
05
01
FF
F3
FB
F9
04
F2
FE
F5
0A
0A
FF
09
CF
01
FF
EF
F8
ED
02
ED
02
E7
E4
04
0E
09
F0
E6
0D
ED
08
F5
FC
FB
10
EC
FE
07
02
04
01
03
02
FC
02
FE
02
FC
FF
02
FC
01
FB
FF
FD
02
04
FC
FD
FB
01
FF
05
02
03
01
02
01
01
03
03
05
04
F6
07
02
D7
04
F9
0D
08
DC
05
04
09
FF
D0
06
0B
06
F4
04
FF
EA
F2
EF
07
01
01
FF
11
FE
02
FF
28
09
F6
FC
24
03
F5
F5
FF
28
F5
F4
FF
DF
2A
FD
CD
05
09
06
EA
15
1C
FE
EF
00
12
F2
E9
0C
FF
02
FA
FE
FF
03
F2
06
00
FE
F7
FF
FF
F9
01
F7
F8
FD
FB
04
FB
FA
04
FE
FC
FD
03
FE
F7
F9
04
FE
00
08
21
EE
04
FC
0A
FD
E5
F6
0D
03
F8
0B
FF
E9
04
ED
E8
0E
02
14
0D
F8
FB
FB
F8
03
15
ED
F2
11
F1
F2
FA
06
E6
01
03
E8
F4
E9
EA
0F
05
FF
01
E7
09
FE
FF
0E
02
FC
11
05
09
09
FB
EB
07
FB
F7
E4
FF
FA
F1
01
F6
01
F9
FB
FB
F7
FD
05
FF
F5
F7
F5
02
03
FF
FB
FE
00
FB
00
FA
01
F6
DD
00
F6
F8
DF
00
FF
0F
02
FF
FC
F3
FC
FC
01
02
FB
FF
00
03
FB
F6
02
00
04
FB
FE
00
FA
FF
F9
FC
00
FF
F7
FC
01
FE
06
E4
07
FE
F6
00
FA
E2
FB
01
FF
02
00
FD
08
ED
01
02
01
FE
07
F4
ED
01
EF
F6
04
0B
03
F4
09
EF
0C
E2
F2
01
EF
E5
03
F7
08
00
E5
11
01
00
FF
E1
06
0E
FF
01
05
F5
E5
ED
07
01
EA
FB
0B
02
F2
FB
00
FA
F2
F9
F7
FA
F8
FD
FD
EF
FA
03
F7
FC
04
F8
FC
03
FA
FE
03
FE
F9
F9
FF
01
FF
F5
02
00
FB
F9
02
01
FC
01
FD
01
03
FE
02
FB
FC
02
01
FD
FE
02
04
02
FC
01
01
FF
FF
FD
00
FD
00
04
FE
FE
02
01
E7
EA
09
F3
FC
E2
FE
09
FB
F7
F7
00
FB
0B
04
07
F3
00
04
E5
04
04
FE
00
1B
04
EC
E7
07
03
F5
03
01
FE
04
FE
04
02
00
FC
02
FF
01
FF
02
05
FB
00
01
FF
01
FC
FD
FF
FC
FD
FF
FA
03
FF
FE
FA
FD
02
F8
F9
06
01
E7
15
02
01
FF
F5
EF
FA
EE
09
F1
F0
F1
F1
FD
03
EE
FB
EE
F0
05
09
06
EC
FD
FD
FC
07
00
FD
FB
01
01
FE
01
FF
FF
00
FD
FC
03
05
FD
FD
FE
FE
FC
FE
FC
01
04
01
FC
FB
02
FE
FD
02
02
01
FF
0C
08
FF
FF
F7
03
FE
03
00
FF
FD
0B
F7
FD
02
FB
FB
06
EC
F9
02
0E
04
F6
F6
06
03
F8
FD
03
FE
00
CA
EA
05
0C
E1
03
08
02
FC
E7
17
EF
FB
01
E7
05
17
0B
01
F8
03
FB
F1
09
09
DF
F7
08
0F
D0
04
FB
F7
01
F7
FE
ED
FD
01
01
F6
F8
04
F9
FD
FE
01
FB
04
02
00
01
F6
04
F5
01
03
FB
F8
04
02
F6
FE
F7
F8
F4
F4
03
EC
02
FF
FB
F3
F8
EA
06
EF
F6
F9
F0
EB
03
F7
F8
EF
FE
E8
F9
EF
F8
FD
F8
EF
F4
FE
FD
FD
01
0E
14
D8
FA
E3
02
10
FE
01
07
11
08
FC
0D
07
F0
FA
ED
FB
07
00
C4
0A
10
0C
FB
0C
F9
EF
FA
E4
0B
00
FF
D6
02
F2
04
FE
E8
08
01
09
FA
D7
0D
03
02
FE
F6
F2
EB
FC
F5
05
FF
FF
FE
FF
FA
02
00
0F
00
E7
0B
F0
FD
F9
EE
F5
FC
F7
F4
FB
F5
F7
F7
FB
FB
F8
FB
04
FB
FC
F4
F5
1C
06
E5
00
F4
FE
FD
02
F8
F7
F6
ED
FF
01
00
F3
FF
FE
FE
F2
03
FD
FB
FF
04
FA
01
FA
02
FD
FE
F6
FF
00
05
F8
F8
FD
FF
C9
F0
FB
01
D7
02
0C
00
F0
E9
19
EC
F4
00
E7
0A
10
07
F5
F1
02
F2
FB
0A
0B
E4
F4
03
08
DE
01
F9
F3
02
04
0D
E5
FD
F8
0A
05
E8
03
FF
10
FB
D6
05
09
09
FF
09
FA
EF
FB
F9
03
0F
F6
01
0E
0F
F9
FE
03
00
F6
00
DD
06
00
FE
01
F5
F5
2F
FC
0A
EF
FE
FF
11
C5
FF
10
19
0C
F1
FF
12
05
08
05
1B
FE
FB
FB
D4
01
E8
05
00
09
FE
00
ED
09
F6
E1
FB
FD
EB
09
FF
02
F8
F5
EF
D3
17
FB
CD
E4
FE
EF
D7
0D
FB
1E
05
FD
FD
FF
F9
F3
F2
0A
01
F5
0C
FA
00
FA
F7
FA
04
F9
EE
FF
04
FF
F9
F5
0A
FE
F2
F9
00
F6
FD
28
13
FB
F5
26
00
FA
F8
FD
24
F7
FD
FB
DA
2A
FE
CD
09
03
06
F6
17
1C
00
F3
FA
0F
F1
E7
0C
FD
02
FB
FC
FB
03
FD
02
FB
03
FF
FC
FE
FF
FF
FE
05
FD
FB
FF
04
FC
03
01
FB
02
FE
FB
FE
FD
FF
01
FD
02
03
FE
00
FF
FB
02
04
FF
00
FB
FC
03
04
03
FD
FE
02
01
FB
03
FE
02
00
FC
04
FC
FF
FE
FF
FD
FC
13
E8
07
F9
E0
05
F8
06
F7
E4
16
04
03
E5
FA
13
F2
F3
01
DB
10
00
08
12
19
E1
07
F8
06
EC
28
FF
FF
FC
03
03
FE
00
04
03
01
FE
03
FE
00
FB
FF
FE
04
04
04
01
FC
FB
01
03
00
04
FC
FD
04
FC
04
01
05
1A
0B
FD
F6
19
FD
F5
F9
01
1C
FB
FA
F6
EB
1F
FC
E0
FC
03
02
E3
10
19
FC
F9
0C
0A
F0
EA
14
FE
F3
03
DA
EE
C9
03
04
06
0A
F9
23
F3
EA
F9
FD
1C
09
E9
01
05
02
01
17
1B
F8
00
E7
00
00
E5
EE
F9
FD
15
05
00
FE
01
02
FF
FC
02
FF
F4
06
F7
F8
FB
FD
FE
05
FC
FD
FF
04
00
E5
00
09
0A
FB
01
02
F8
EF
D0
FA
0D
15
BD
FE
EE
0A
05
F6
03
F2
F3
0A
F4
0B
09
DF
FB
EA
FA
FF
FD
D1
08
06
09
FD
07
FD
F0
04
03
F4
E0
B6
22
FD
00
FB
F1
09
FB
06
FE
D8
09
FA
D9
00
03
FC
1B
FD
EC
0F
FC
F2
E7
EF
F9
0F
FF
04
F9
21
FE
FE
1C
EE
F5
E2
F2
17
00
08
E3
CD
23
FC
EA
F9
01
02
DA
12
10
05
F3
13
07
F1
F5
22
EA
FB
FF
03
FC
01
00
01
FD
02
FE
FC
FF
01
02
FF
03
FB
02
03
FD
FD
FF
FE
04
02
FF
03
03
00
00
FE
02
08
F7
D9
F9
0F
F3
EC
FB
FC
F0
00
FC
FC
EE
0B
FD
FA
03
F6
F9
DE
08
F7
FB
EE
DD
E4
F8
FF
E9
F5
07
FB
FD
DC
FE
05
E4
07
08
0B
08
D9
06
F7
FB
ED
DD
07
11
0C
F9
F7
05
F6
F1
FF
05
F3
EE
F6
0F
F0
03
03
10
0A
F6
F9
21
FC
F9
F8
03
1D
FD
00
F9
E3
1D
FE
DB
F9
0A
FD
F1
0E
0A
FF
F3
0D
14
F2
E7
09
FD
03
23
18
0A
FC
0C
FA
F4
F9
1B
F9
F3
FE
FC
FF
00
F8
F2
F1
FA
FB
CE
EC
FD
F9
F7
00
F3
FB
FF
0E
F9
FD
F6
FC
F2
FB
06
FA
05
F7
F7
EF
01
F7
F9
EF
F4
02
01
FF
04
0C
EE
F4
F0
06
0E
D8
F9
FC
FB
EE
02
FA
01
0C
10
ED
EE
00
E3
05
1A
F2
02
F4
E3
03
E0
03
FD
D7
ED
02
E2
D4
F5
EC
F6
08
03
05
F2
19
EF
ED
E8
01
07
08
BD
FF
04
05
04
03
FD
FD
0D
FB
F7
EE
FF
FC
EB
ED
FA
00
0D
09
FA
EF
0E
02
F5
E3
08
FA
00
F9
FD
FF
FA
FC
FE
FE
FF
FD
F5
03
00
FC
FD
F9
FB
FE
FB
F7
FD
FF
FB
FE
FC
F8
03
FF
F9
F5
FE
FE
FB
FF
00
FE
01
00
FB
FE
00
01
FC
00
FC
04
FD
FE
04
FF
FF
00
02
FD
04
FF
01
01
02
FC
03
FD
03
FE
1C
F8
16
02
01
F2
F5
F8
0C
D3
F3
FD
0C
FD
F6
B4
E7
E4
04
D7
02
E8
CC
00
F9
01
E3
E2
F6
0E
FD
01
03
00
FE
FF
FD
FD
FC
FB
FF
FC
01
02
FB
03
FC
00
00
00
FE
01
02
FD
02
FB
FD
FC
FC
FD
02
FC
FB
F6
07
FC
04
02
D6
FF
FF
04
0F
FC
FC
0B
02
09
F3
FC
00
09
D1
F9
0B
F3
E8
F5
00
06
02
03
FE
F7
FD
F9
03
03
FA
FE
FB
FB
FE
F9
F3
FD
F9
F9
02
F4
05
F6
F7
00
F9
F5
FF
00
FA
00
F6
F1
F8
F6
03
F7
FD
F4
09
FD
FC
01
06
FA
FD
00
03
FF
FB
FC
05
FC
0A
FD
F1
FC
FD
01
FF
00
FE
00
FB
00
FF
FA
F6
FB
FE
ED
0D
06
0E
13
ED
07
05
FF
13
F7
F0
09
F7
F1
F9
F6
EF
10
FC
E2
FB
FE
FA
FB
EF
DC
0D
F7
E9
F9
06
00
C9
F9
F8
04
E8
07
06
FE
00
EF
10
DD
0E
EA
E6
02
07
03
07
06
00
EE
02
13
02
ED
00
FC
FF
E8
0E
FA
FE
00
02
0B
CA
03
FF
0D
08
D5
00
F2
08
01
C6
0F
0D
FE
F4
FE
02
F0
F3
EC
09
12
06
FE
18
05
FA
F2
EF
F6
F9
03
D3
01
FC
05
FA
E7
05
EE
08
FD
E0
0C
09
02
F9
09
02
F8
FA
F3
0B
14
FE
F9
0C
06
00
FE
03
F5
FD
FD
F8
04
FF
02
00
FD
F5
07
FB
FB
FC
FA
FB
06
FE
FC
04
07
02
02
FA
FB
FE
01
00
F8
02
FB
00
F7
01
01
FC
01
02
01
05
08
F0
04
F7
03
07
FE
F6
FF
F8
FE
FA
09
08
FA
04
FC
FE
FB
00
02
FF
F8
FF
25
F0
1B
12
FA
F5
FE
EA
04
09
FA
F6
EB
00
01
FE
F7
05
04
FF
F7
00
FD
F9
DE
01
0E
C9
EF
E2
FE
1F
11
00
03
FA
FE
FA
FD
05
04
E8
14
08
01
D1
F8
F3
05
FB
05
05
07
04
D1
F8
12
0B
F6
F8
0B
F3
ED
EB
F9
08
F1
E2
09
03
09
06
E7
09
FF
09
EE
E4
09
0D
F9
00
EE
FE
F3
E9
FA
0B
FF
00
F1
11
0F
07
FF
FD
FC
00
02
04
01
FE
03
03
FC
FB
FE
FC
FC
03
FF
03
FF
01
00
FD
02
02
03
FF
FC
02
FD
FF
FE
FF
F0
FE
05
FF
0F
EF
F2
10
F1
EC
F3
10
E9
0E
FF
FC
FE
07
D3
07
FB
F7
FA
F0
15
02
D1
F4
0C
0A
C6
05
F6
CB
FF
08
0B
FE
F4
F9
0F
07
EA
01
C7
0D
0D
D5
0E
08
F9
03
F2
09
E6
F7
DB
04
F4
07
04
00
FF
06
04
EE
ED
F8
E5
FE
05
0A
F9
F8
FC
F5
11
F8
FA
DE
F7
FC
15
04
0E
06
F7
22
12
F3
0A
EB
01
F9
07
01
00
F1
F3
01
02
EE
FC
F6
04
01
ED
03
00
F8
08
E3
02
0A
FD
09
F2
02
E7
EE
F6
F7
05
F8
04
FC
FD
F6
DB
10
D6
FE
01
17
02
FE
FD
03
18
F7
FE
FD
C7
1A
00
D4
09
09
FD
E5
12
0E
FC
FF
B5
0D
F2
F1
E0
01
02
F9
0C
06
FD
07
EB
05
F0
EF
EE
FF
F1
EC
05
E4
F9
FF
00
D3
12
18
E0
ED
0B
F0
0F
02
0A
F3
1F
F4
F1
E8
F8
00
04
F2
01
FE
FE
F9
FC
E6
02
E8
00
FB
01
F2
05
F8
FB
F9
06
00
F9
00
F7
F7
FB
03
FC
F8
EF
11
02
E7
12
D3
F9
FA
E7
F1
F7
FF
E1
0A
EC
EF
E8
F8
DE
FB
DF
0E
ED
02
F8
F1
F3
FC
DD
F2
E2
07
FD
03
FD
03
FE
FE
FE
FB
FB
FE
FD
FD
FE
FB
04
FD
FC
FC
FC
02
FA
FB
03
02
FC
FB
04
04
FC
FB
FD
02
03
04
03
F7
03
F7
FA
FF
FD
FD
FE
FC
FC
FC
00
02
01
FF
FF
F8
F9
FA
FE
FE
FB
F8
02
05
FD
FD
FF
FA
03
F1
E3
0A
F1
04
04
07
07
05
FE
FB
02
9F
07
00
06
FB
0C
EF
0E
03
09
13
02
03
F0
E5
0C
F5
F0
D1
FC
E5
FF
00
04
EF
FC
F9
01
FB
F7
FA
F9
F4
FE
F0
01
FE
FD
F3
FD
00
F8
FC
ED
F9
FB
FE
00
02
F2
FB
00
FB
01
FB
00
F7
FB
FD
FE
FF
FC
00
FF
00
FD
00
02
00
FF
FB
FB
01
00
FA
F8
FF
FD
FC
01
FE
FD
F9
00
FF
06
04
0D
DA
03
FC
09
02
E5
0A
EF
FE
FD
DB
0C
08
ED
FA
F6
FF
F7
FB
F3
05
00
08
FA
13
01
FE
00
F3
00
FE
FF
F2
FC
FB
FA
F5
00
FE
03
FF
06
FD
FF
01
FE
F9
04
FF
06
FE
FE
FC
FC
00
02
FF
FC
01
0B
EF
C0
F2
06
E5
09
01
09
01
01
02
F6
FF
FA
FE
08
0B
14
FA
05
0E
0A
05
00
0A
EC
F0
04
02
C7
01
0B
DA
0D
F8
EE
F4
05
0C
01
F9
E7
01
0F
FD
FF
06
F4
FB
16
FE
04
FD
FB
EE
1A
EA
00
EA
01
ED
17
0B
FF
03
01
FD
F7
C6
05
00
F5
FC
05
F7
0A
EC
03
F2
F6
FA
05
E3
FB
08
0F
13
FE
F4
FE
03
04
F9
FD
F8
03
DD
F3
EE
FE
EC
F8
04
00
E6
F1
08
03
F5
FF
F8
FB
03
FC
FC
FE
FF
F5
F1
0E
04
ED
FD
01
FF
EF
07
05
20
08
00
12
F8
F3
F4
E5
07
FA
FC
FB
17
FB
F4
F8
F8
FA
EC
FD
05
ED
FB
F5
FA
17
06
F1
01
11
EF
FA
02
FC
F6
02
F9
FD
02
FF
F8
03
FC
00
FF
F9
02
01
FE
08
01
FC
03
08
06
FA
FF
FE
02
FF
FD
FE
01
FA
F1
00
FD
FF
FA
00
FE
FC
02
F9
FD
00
F8
FB
FB
FE
FE
FA
FC
FF
FD
F8
02
FD
FB
FC
FD
FF
00
FA
FD
F4
FF
DC
FF
0F
ED
06
0A
FC
02
08
EE
14
EB
F4
EA
E6
E8
12
F9
FA
E8
08
BE
FD
EE
FA
FE
EF
E6
D4
0A
05
F4
05
0D
1A
CE
FD
F0
07
0B
D9
FA
0C
14
0E
CA
11
09
F6
DD
F6
02
0D
06
C0
01
1A
08
FF
09
0C
DE
00
EB
F2
ED
0A
FD
F3
FD
01
E6
EA
09
F7
02
03
DE
03
07
FF
EF
F9
01
F9
FB
E8
FA
09
08
00
04
09
F3
FD
EF
F6
FB
FA
EF
FD
FF
FD
FB
FA
02
FA
FB
F9
F9
F5
00
00
FD
FF
FD
F5
FD
0E
F6
F7
F4
FB
F5
F5
03
FD
E9
FD
01
03
E6
01
00
FC
F9
F9
00
F9
00
03
EC
07
01
FE
FA
F8
FD
FD
FB
FE
08
EA
EF
01
04
F4
FB
FF
EB
F9
F3
FD
F7
FC
FB
FE
F3
F6
00
F7
FD
00
FA
FE
FF
FE
FA
FF
02
FB
F8
FF
FB
F1
00
F8
02
F2
FD
03
F4
FE
B1
13
F4
E8
F2
F8
CE
02
08
EC
D3
05
FC
07
0A
FF
FC
FF
FE
00
07
00
F8
0D
05
F7
F9
E9
F6
FF
08
01
00
FC
FA
01
FB
FB
01
00
FA
02
FC
FD
00
FB
FB
FC
FC
F6
FB
FE
FF
FA
FD
FC
01
F9
FD
FC
FC
EB
FD
08
EC
0B
FC
F9
06
F4
EF
E1
FC
F6
F1
F2
EB
E3
FA
0B
E5
EE
DC
F2
DF
FC
E2
02
F9
FF
ED
F0
04
F9
FF
F7
02
05
01
04
02
01
FE
FA
F5
02
FD
FD
FF
01
FA
03
FC
FF
01
FD
FB
F0
F8
00
F3
FC
F8
01
01
FE
FB
01
03
01
FF
04
FD
02
01
04
02
03
03
02
04
00
FC
FF
01
FC
FC
01
FE
FE
FD
01
FC
FE
03
FD
FB
02
1C
0C
FA
F6
1D
05
F6
F3
02
29
F4
E4
00
DC
29
FA
D2
0E
07
FE
EF
16
1B
02
F4
F6
19
F1
E7
03
FA
F4
EC
05
FD
F5
EA
01
07
FC
04
E8
04
F5
FA
FC
DD
F2
04
FB
E8
12
01
E4
E5
10
F7
0B
EC
09
F3
05
05
01
F0
F7
F8
FF
EB
02
FF
FE
FB
01
F8
FE
F7
06
F7
F9
FC
FC
DE
F9
06
FD
FE
01
F9
00
02
02
FF
F4
FF
FA
FC
01
F1
05
F3
F8
00
F7
E8
02
F5
FD
08
00
FB
EC
FE
FD
FB
F6
04
F6
00
01
FF
FF
01
F3
01
FE
04
EE
FE
EE
EF
F8
0B
EC
0E
E9
F4
02
02
F2
ED
05
0F
F2
F7
CE
07
E1
B7
13
FC
0B
FE
B4
F6
DD
03
D9
05
00
02
02
FC
00
01
FF
02
03
FE
01
03
FD
01
FF
02
00
02
FE
03
FF
FB
FB
FF
FC
00
FF
01
FC
01
03
FB
04
03
F7
FD
F8
04
FA
00
FD
FD
0D
FE
F9
FE
FB
01
FE
F5
FF
F6
00
FB
01
03
04
F8
05
01
FD
FA
02
F8
FB
FE
FF
FF
FB
FB
FD
FC
FD
FE
03
01
FE
FD
00
04
FB
FC
FC
FD
FF
FD
FD
FC
03
01
02
FD
FF
00
01
04
FE
FD
F4
F9
FF
FD
07
0A
05
F1
F3
0A
EA
DB
01
EE
FE
FD
F1
E5
00
13
EF
F1
0E
F4
FF
E0
00
EF
ED
0D
FF
F4
FC
F8
03
FC
F9
FF
FF
FC
05
FA
00
F4
FC
01
00
F5
01
FC
FE
F5
07
04
F8
FB
F9
FB
01
FE
FB
FA
FF
07
FE
F9
FB
F7
FB
01
FE
FC
01
F0
09
FF
00
FE
FE
F6
07
F9
FE
02
01
05
FC
FB
F5
03
F5
FF
F3
00
E9
D8
C3
F3
04
0B
FC
0F
06
E8
03
05
E2
03
E9
09
0C
03
00
0A
06
0B
08
FF
07
0C
A5
FC
00
03
BA
04
E7
11
FC
0D
F1
01
FB
EF
00
0D
ED
FC
EE
F1
FE
DD
08
FC
F6
00
F1
F4
D4
F0
F8
FE
04
FD
FF
F6
FA
EA
FA
EE
05
EB
FF
F8
ED
F2
E7
EC
0E
0C
F1
F4
F3
0B
00
04
03
00
F9
1B
07
02
06
FA
EF
0A
FA
00
D5
F5
05
02
07
02
0A
E4
02
05
11
09
CD
06
F6
0B
FC
DB
08
10
01
F8
01
03
F3
E5
F6
0C
0B
F1
FE
0B
FE
04
F9
FD
01
00
FF
F3
00
03
FF
FC
04
FB
02
00
FC
04
00
FC
00
F9
01
FC
05
02
F9
00
00
FB
FF
00
F9
FD
02
FB
FC
00
03
FD
03
FE
02
FE
FF
FE
02
FA
FC
04
FF
FF
FE
FE
FE
01
FB
FD
FB
03
FD
FD
FB
03
01
FE
01
05
FC
00
01
00
FC
FB
03
FE
FF
FB
FD
01
FF
02
FF
FF
FB
02
00
05
03
03
FF
FC
03
02
FD
FC
03
FC
F9
1C
04
F7
F8
24
01
FD
F4
03
27
F4
FB
FD
D3
2C
01
CA
04
09
01
EE
19
18
01
F9
FE
0F
F3
E2
0D
FE
FA
FD
FC
F9
06
00
FF
FF
FF
FB
00
00
F8
01
02
FE
FB
02
FE
FF
FD
FD
FF
FA
FE
F7
F8
02
F9
FB
FA
FF
00
FF
0E
0E
F8
F2
F9
E2
00
16
F1
FE
07
EC
FE
E9
04
FD
EA
EB
F3
E5
D2
F9
EE
F7
FC
0C
04
F5
0B
FD
FB
FA
06
FE
0D
CF
05
F7
08
01
F0
01
FC
00
00
E1
0C
06
03
FB
FD
FF
FE
04
EF
09
04
09
FD
12
06
FD
F8
07
05
02
FE
EC
01
FE
07
01
F6
04
F4
FF
FC
EE
00
01
04
FA
FD
FD
F3
FA
01
FD
FC
00
FA
02
FE
00
FF
DF
06
F7
08
ED
04
EE
00
F8
FB
F9
F3
FF
F9
EF
02
01
FE
05
F5
03
05
FB
EB
FB
06
FD
FC
FD
FA
03
FE
00
FF
FA
FF
01
02
01
01
02
FB
FD
03
01
00
00
01
FF
FB
FD
01
01
00
01
FB
02
FF
FE
02
FC
FC
FB
07
BB
F2
03
0A
D9
01
08
0A
00
E1
19
F0
FC
F7
D9
08
1B
06
F7
FA
FD
E9
EF
14
0F
EC
F6
0A
0C
F0
0B
F8
27
F0
00
FA
22
01
FA
FC
FF
05
07
F1
E6
D3
09
03
F3
00
10
F8
22
F9
01
02
FE
D8
12
EA
F4
EF
FE
FC
01
FA
FE
FD
00
FF
01
FA
FE
06
FA
FE
FF
FF
02
03
FD
FD
02
02
01
05
02
03
04
FF
00
FB
03
FB
01
00
FD
FE
FD
FB
04
04
FB
FD
00
FC
FE
FC
FC
04
FD
01
01
FE
FD
00
01
FD
00
03
03
FE
FE
FD
FE
FC
FE
00
EC
FF
05
F9
05
EB
F5
F5
09
F5
FE
EC
F8
05
F0
01
FB
FF
ED
0A
F4
E8
F1
F9
F3
FE
FD
FE
F3
0E
FD
F8
01
FC
FD
F0
0C
00
FB
FC
01
02
FC
FD
02
F4
F9
00
FA
04
FB
03
FA
FF
FF
03
FE
FE
F9
FB
02
FF
FC
03
FE
FE
FF
01
FD
02
03
01
FD
03
FC
00
FE
FC
00
FB
01
FE
FC
00
FD
02
03
01
FE
FD
02
01
FC
03
FB
03
14
FC
03
FA
FC
F8
FF
FC
FD
01
FD
FC
01
F4
FF
F9
FE
FB
FE
FA
01
FC
00
FC
00
06
03
F6
FB
FF
02
05
06
FD
FB
FF
00
00
00
03
FC
FD
FB
FE
01
00
FA
FC
02
00
02
FB
02
01
03
FF
02
04
FD
FD
FA
FE
FA
01
06
07
08
16
F6
FC
E9
FF
10
FE
F5
08
18
0C
CC
0D
04
F3
FF
FA
FC
0C
02
B9
01
16
05
FA
15
03
E1
03
05
FC
FC
02
01
01
00
FB
01
FD
FF
01
FD
FC
FB
02
FB
FC
FD
FD
01
04
00
FD
03
03
FF
FD
03
00
FD
FB
03
FD
FC
01
FB
FC
FB
FC
02
FC
FC
02
FD
FE
FC
01
FA
FF
02
FE
01
FA
03
FB
02
02
04
FE
00
03
FB
FC
0C
F5
00
01
F1
07
04
FC
FC
FE
F3
02
F6
FC
FD
FC
FE
FD
F5
FF
02
02
01
FD
FD
F6
00
F5
05
F6
FD
FD
01
FE
FC
FD
01
FE
04
02
05
FF
01
FB
FD
FD
03
01
04
FB
02
04
FF
FB
FF
FB
FE
02
01
00
FC
03
FC
F7
FC
22
10
23
18
FF
EA
02
04
06
02
D8
E6
FC
FF
FB
FE
07
01
F3
FF
F7
F2
0A
F3
FA
05
11
F4
00
EC
00
FB
00
FF
01
02
01
FC
F9
FA
04
ED
04
FF
FB
FC
FC
FD
04
FB
F9
FE
FC
01
F7
FC
03
FF
01
FA
02
FD
00
00
FD
04
F6
FA
FA
F1
FA
FF
FD
F8
F9
F7
FA
FF
FE
F8
FC
FC
FB
FF
FB
FC
F2
01
F7
04
01
FD
F7
F3
02
FB
02
FF
FC
02
02
FF
03
FF
01
03
03
00
FB
FF
03
FC
01
FE
04
FC
00
00
FE
FC
FD
FC
03
FF
FB
FE
F1
F8
02
05
E7
CF
F3
06
07
02
FA
FB
E2
EB
01
FC
F8
01
D7
D6
CC
FD
F9
F9
FA
01
E8
FB
03
FA
C5
00
07
FB
0A
10
FF
0D
FC
E2
F5
12
03
02
F9
01
F2
02
F8
F6
FF
07
0E
F9
EC
FF
F6
F3
02
19
FF
EF
11
F7
FD
07
FA
F3
05
02
F6
FB
FB
F9
F9
F9
FE
FD
00
01
FC
00
FB
01
F3
FE
FD
FE
F6
01
06
FC
F6
FC
FE
FC
EC
04
0F
F2
F0
1B
FF
05
FA
FB
24
F3
F6
0B
EB
27
FB
CB
FF
08
00
DD
1C
1C
02
FC
FB
04
06
F9
11
02
02
FC
FF
04
03
FD
FC
03
02
FC
05
02
FD
01
FD
FC
03
FC
FB
FB
03
FF
02
05
01
FF
FC
01
FD
03
FF
FB
FF
1B
FF
09
01
FA
05
FC
FA
07
02
E4
12
FA
FE
EC
FB
FA
10
FC
FD
01
FB
F7
D9
F6
11
F5
F9
02
F6
ED
FA
1F
0D
FA
F8
FB
FB
F9
FC
02
00
F5
08
03
FC
FF
F9
F6
01
F3
F5
FE
08
02
E4
FC
0C
04
FB
FE
04
F4
03
DA
0B
FD
1B
F2
F3
E7
05
F7
08
03
D4
FC
05
02
04
0A
F9
01
F8
FF
FD
04
EE
04
F9
16
FE
0B
E3
00
00
02
FF
04
04
03
04
FC
FD
03
00
FC
FE
FD
00
FF
FF
01
FB
FC
FF
02
FC
FC
FE
03
FD
FE
01
02
02
FE
07
FC
0E
FE
0A
20
E7
F0
E6
FD
11
FF
EA
D7
F0
0E
04
F1
F5
F6
0B
FC
00
0B
03
EC
24
0B
08
EA
30
F4
F8
FB
02
ED
F9
13
FE
05
FD
F1
DD
06
EB
EF
E7
EB
F1
FF
F8
00
FA
FC
E1
DF
0B
02
F4
E6
05
EE
FA
05
03
00
FE
FD
FF
FC
04
FF
FC
FD
02
03
FE
FB
01
FE
FE
FE
02
FF
03
FE
FF
FF
FB
03
FE
FC
02
FC
03
FB
FC
FC
00
01
02
FD
02
FC
02
00
FF
00
00
01
FE
FD
FA
FA
FD
03
F9
FC
FF
FF
FD
FE
FE
FE
02
FB
FB
FD
0A
FA
FC
F1
FC
D0
FD
06
08
FA
E4
02
04
08
F9
E1
FE
08
07
FB
03
FE
F9
EA
FC
08
0E
F1
FB
0B
00
03
FC
FD
02
06
F7
EC
F8
ED
02
02
EB
06
06
F4
ED
E8
FA
FF
FC
FD
F8
FF
E5
F9
F7
FD
FB
03
F6
FA
05
00
00
0A
F8
FE
FD
F8
FE
FD
02
03
01
F8
09
FF
00
FB
FC
FE
04
F0
01
FF
06
04
F9
FD
FE
FA
03
02
F8
FA
F8
E5
E6
F8
0A
C9
08
FF
08
EE
FB
FF
E8
06
F1
EC
0C
02
E7
FC
ED
11
FC
03
F5
0B
0E
FE
FF
10
D5
FA
03
FB
FB
F4
E4
26
05
FC
DF
F7
F3
F7
00
1B
CF
FA
F4
CE
00
03
0A
00
E4
F1
06
FF
F2
F1
FB
F4
0E
01
FC
F9
F8
01
FB
FA
FD
FE
03
FA
FF
FE
07
F8
04
FE
FC
FF
00
FD
FC
FA
FD
01
FC
F9
FE
01
FC
F7
FF
FE
FF
05
00
00
FD
FE
02
03
02
03
04
FD
04
00
FE
02
FF
02
FD
FF
FA
01
00
FB
FC
FD
04
FB
FC
FE
02
02
FC
FE
04
03
FC
FF
FC
FE
03
FC
FE
00
01
FC
FC
00
FC
FB
FF
FC
FF
FB
FC
03
FD
FC
02
03
01
FD
02
00
F6
12
FE
F7
03
F8
00
FA
FD
F5
06
E6
06
07
FD
F7
F4
F1
01
F5
F9
01
07
03
F3
FB
0A
FE
F9
FF
FF
FD
01
FF
01
FF
FF
01
FE
FF
FD
04
FB
FD
FB
FD
FD
02
FB
FB
01
04
FB
FE
FF
FD
FE
00
FB
02
FD
FE
02
01
F8
E7
F9
FB
FB
E0
00
FF
04
EA
E8
00
EF
0A
FC
E7
FE
07
F2
FB
F4
FF
00
F4
FD
0C
DD
FE
FA
11
D7
F6

