03
00
F2
03
16
01
03
F4
F7
F1
FC
0A
E6
FB
ED
07
02
F4
09
FA
08
FD
FB
02
F4
EF
E8
02
0C
F5
FC
07
EB
E3
EC
0F
0E
FF
F2
FE
03
05
04
0C
14
0D
EC
0E
1D
0F
F8
08
FF
FA
03
12
E4
FE
09
00
04
03
04
0A
FA
F9
03
02
00
00
FB
FE
08
F8
F8
03
08
FB
FF
FF
FD
FC
F4
FA
F7
FC
FD
F9
FB
01
FE
FF
FF
04
04
FD
09
0D
FA
EF
FA
0F
03
01
0F
F8
F7
F2
F9
FA
11
0A
01
01
FE
F7
FE
FC
F2
F9
01
05
E5
F9
FF
00
F9
F2
FE
00
03
FC
FC
FD
FD
03
FC
FA
02
FC
FF
FC
FC
02
00
02
04
FF
FC
FD
02
FC
FF
00
03
FC
FB
00
FF
04
FB
03
FD
FC
FD
FA
FB
FB
FF
FD
FE
FC
02
FF
FE
03
00
FB
05
03
FC
FE
FC
FE
FF
FB
03
FC
FD
FE
02
FD
09
10
F6
FD
10
0E
F1
EF
05
06
F3
08
F8
01
F2
FF
0A
0A
FF
FC
06
0B
EF
FC
F4
F5
F7
FC
17
F7
0A
FA
F9
DC
06
E9
FB
D5
FB
10
0A
DE
FE
E8
2A
12
0E
F8
07
18
FD
07
F1
F7
FC
00
E6
08
07
FA
F7
00
07
F9
12
20
D5
05
E9
11
07
D1
E9
05
06
DE
FE
BD
BE
F8
04
0C
0F
F2
FC
FA
FC
02
16
F2
C7
0D
FC
C8
EC
03
FC
FC
02
01
01
FD
FF
FC
FF
FD
01
04
FF
FD
FA
00
FE
FE
00
01
02
04
FB
00
FE
02
FC
FF
FC
01
FD
01
FB
E2
E9
00
12
F8
08
FE
FD
02
09
03
07
07
F0
FC
06
1B
02
FD
06
F2
07
0B
EB
F1
03
F9
FF
F1
08
0B
12
1F
05
EA
03
14
FE
08
0E
08
FB
F2
B7
FD
12
F6
04
03
0E
F5
04
0D
FE
EC
16
12
EA
04
DB
F6
F5
F9
00
0A
F8
0B
21
14
F8
06
FA
24
F6
10
E3
F9
F9
07
F7
05
FD
F9
0C
1C
FA
08
04
10
F2
FD
1D
EC
03
ED
F7
F9
02
FE
FC
FE
FF
FA
FB
FD
FE
01
F8
FB
F4
FE
01
04
F7
FE
00
FF
F9
F9
F8
01
FF
FF
06
FD
01
FC
0E
1A
03
EE
00
14
01
06
21
10
00
EF
AB
FC
0C
F5
FA
05
10
F9
FD
0D
03
F0
EA
16
EA
FC
E0
CD
FD
F2
FE
F6
0B
F9
D0
F6
FE
0F
2A
C9
F9
EB
0F
14
0D
ED
F4
D2
0C
F9
FF
FC
FC
F4
F2
00
0E
FD
F9
07
0C
F8
04
02
FE
FE
02
FD
FD
02
00
FB
00
00
FB
FF
00
01
02
03
01
FE
FF
02
00
00
00
FE
01
FE
FA
F9
FC
FE
FC
04
02
FF
01
01
FC
00
FD
01
FB
04
FD
01
FB
FD
FD
FC
01
FF
FE
FB
01
00
03
FB
01
FF
04
02
01
00
F9
F6
FA
FB
EB
F8
FC
01
02
FC
FE
FC
FD
FB
F6
FB
FE
04
FA
00
F4
F7
FB
F8
FF
00
03
FA
F8
01
FB
FF
FF
02
07
FA
0A
F4
E6
08
02
FD
F4
F2
1B
F4
09
F9
07
FA
E3
FA
F3
FB
F0
F5
ED
0C
F9
F2
0F
0A
FE
F9
09
0C
F7
FF
21
00
FD
F1
DF
1E
F9
16
CC
F1
04
05
08
07
07
01
0E
14
02
07
FE
14
F0
00
10
FC
FD
FE
F0
E3
EA
09
08
FF
F5
06
00
06
06
01
E9
08
F7
13
0E
24
07
0C
FB
FA
05
07
EE
08
0D
F9
F1
FD
0E
08
03
08
F4
FC
FC
FA
03
FE
FB
01
FB
FA
F7
FD
FC
01
FF
F9
01
FF
02
FF
FF
FC
FD
00
FC
FF
FA
F3
F8
00
FA
F9
FE
03
FE
FC
F6
FA
03
F8
FA
07
03
FE
FC
FF
FE
03
FF
FF
FA
FE
00
00
FD
FF
00
01
FF
FF
03
FA
06
0C
F2
ED
F8
FD
09
10
F8
E6
01
C3
E9
ED
11
EC
E4
C3
02
02
FC
F8
00
E9
F8
0B
0B
FE
F5
01
E9
00
FA
19
F8
FE
E7
29
FE
01
15
E6
01
07
FF
FD
F2
F9
02
00
EB
F9
F9
F8
F7
F8
F8
FC
05
07
FD
09
05
FC
FC
FF
FB
03
01
FE
F9
F5
FD
FF
01
FB
F7
00
FD
03
FC
01
FB
FD
F7
02
01
FA
F6
FC
FC
00
FE
F1
FD
FA
FF
FD
F6
FF
12
FB
FB
01
EE
01
FF
05
FC
0D
01
FE
FE
01
04
F5
FC
FE
F2
FF
EC
05
F4
FA
19
F0
03
FB
FE
02
02
FD
03
00
FE
04
00
FD
03
02
FE
03
01
01
03
02
FC
FF
FE
00
FD
03
FD
03
FE
FC
00
FE
FE
02
FB
F8
FB
01
F6
FD
FF
FA
04
F3
FD
FA
03
FB
F8
FC
05
FF
FC
04
FA
FC
01
F7
FD
FA
FC
FA
FA
FE
FA
F8
08
12
F8
DE
F9
05
03
05
09
FD
F5
02
D4
F6
0D
E3
F4
0D
FF
EE
05
07
FF
E9
FD
1A
F0
01
FF
F5
E3
F9
0C
0A
00
08
0C
F9
09
F4
EA
1B
09
07
D6
EA
F3
09
F3
F7
FD
FE
10
08
08
08
0E
EC
F1
FE
0D
FD
EE
09
00
05
12
05
1E
0C
9D
07
11
F4
E4
09
0F
0F
EF
0C
FF
03
D0
FF
FA
1A
ED
08
03
02
F9
FA
21
08
1A
F4
FE
04
02
01
FF
09
FC
FC
00
01
FC
FE
02
05
FD
FA
FF
FF
F1
F9
FC
FB
F1
01
FC
01
FE
FC
0C
04
0B
F8
F9
0C
FA
03
FD
00
0A
F9
FA
FA
FE
03
F0
F6
F7
F9
FF
F7
F8
FC
FC
08
F9
FA
F9
FC
FB
05
F9
FC
04
FF
00
FC
04
FC
FD
FC
F9
04
00
FA
00
FA
FE
00
05
FC
FB
FB
03
FE
01
FD
FA
00
00
04
FD
F6
FF
01
07
F9
FD
F9
F0
01
04
FE
03
F7
01
02
04
01
F8
03
FC
FB
FC
F9
FB
F7
05
FB
F6
FF
EE
FC
F9
03
F9
FC
FB
FF
00
00
FD
FF
FB
FE
03
FE
FF
04
FD
01
FC
03
FD
FE
01
00
00
FB
01
FD
FD
00
01
FC
04
02
02
FE
FC
FF
FE
01
FB
FE
FE
02
01
FB
FB
FF
FC
FE
05
01
03
FE
04
FC
FB
FF
01
01
02
FB
02
FE
02
02
FF
FD
01
FC
F7
DB
E9
02
F4
F4
F7
04
FF
01
F6
FD
F4
03
FB
04
06
06
F5
06
FC
FA
FF
04
F4
0E
FE
FB
F7
FB
04
FD
FC
E5
F1
05
EF
FE
F6
00
0B
EF
09
F7
EE
03
E9
10
EF
03
E7
08
F5
FB
0A
07
FF
F7
FD
03
ED
F7
05
F2
07
EB
FB
0D
19
EF
FA
02
EC
EB
0B
FB
17
12
F8
F0
EA
07
0A
F6
02
E9
E0
EC
F2
01
FD
01
28
08
0D
01
F7
01
F5
F7
F6
FB
FD
01
04
F8
04
F9
FE
F8
F6
F2
F7
08
EE
F9
F9
F3
FB
F7
F5
F2
FD
FD
F0
F9
F6
01
EC
ED
01
03
ED
00
F3
FF
D7
18
FE
0F
EF
F1
0D
06
13
F7
FB
08
FD
F0
FE
08
0A
0A
05
FE
DD
05
F7
02
FC
FC
FE
03
FD
FF
FB
04
FB
FC
00
02
03
FC
FD
FB
FE
FB
FD
02
04
FF
02
03
00
FF
FF
FD
FB
FE
FF
FF
F5
F4
FA
01
FA
F9
F7
FD
FD
FE
F9
FD
FA
FB
01
FA
04
03
00
00
FE
FD
FB
02
F4
07
FD
FD
FC
F9
02
04
FB
04
00
01
04
02
FE
FF
FF
F7
FA
FE
04
05
05
FD
06
FE
FE
02
FB
05
FB
FE
FA
00
FE
FF
05
FE
00
FA
00
FF
FF
07
16
02
F3
FE
02
21
04
FB
F4
12
FF
08
DC
02
E8
F7
F5
FC
E9
04
FA
00
F4
F6
1C
F2
15
E8
04
03
FE
FB
FE
FF
FE
03
04
01
FF
FD
02
00
FD
FE
FC
05
00
02
04
04
03
04
FE
00
00
FE
FE
01
03
FE
FB
FD
F4
03
05
00
FD
F4
FB
07
FC
07
FB
FC
F7
FF
FF
07
F8
01
FD
02
05
FF
F8
F7
FD
00
FD
F5
FC
FC
E9
E5
F8
FC
F4
F4
00
0A
F0
09
09
F9
E6
F4
F7
01
FD
F6
05
FC
00
F3
00
03
FB
01
04
FD
FB
F4
F9
05
02
F0
DD
FF
FE
F0
04
02
F6
E1
04
09
01
FE
F5
0A
0A
09
FD
06
FB
F3
0B
0C
BD
FD
FA
01
FA
E0
F0
0B
03
FF
FF
FD
03
02
FA
FB
FE
FB
FF
00
FC
FF
01
02
FF
FD
FF
02
01
FB
00
FC
FC
00
02
04
03
FD
FC
01
11
0D
00
07
2A
04
F1
E0
10
2E
0A
1C
E6
FE
CC
09
05
20
F3
F0
14
11
F2
0D
05
C6
F1
FF
18
F4
04
F3
03
04
FF
01
01
01
FD
FD
05
00
FC
FD
FC
FC
FD
03
FC
FE
FB
F9
FD
F9
FA
00
FC
00
FA
FB
01
FC
F9
01
F2
F7
F5
DD
ED
F8
F5
F5
11
FB
FF
F0
1A
FD
F2
EA
16
0D
FD
07
FA
E6
07
F7
FB
E6
F6
FC
F9
03
FD
03
F8
0F
06
03
E4
FB
F8
FC
05
FD
01
01
F1
E9
E6
02
FE
05
00
07
E4
E0
00
02
0B
EF
00
FB
08
FF
EC
FD
0A
03
FD
EE
00
0A
07
09
F8
0B
FE
F2
04
09
13
FB
C2
D3
05
F4
0C
0B
FF
F7
FC
14
EF
FD
DA
FB
F3
FA
FD
01
F7
FE
F8
05
00
07
FC
02
01
FB
FA
01
06
FB
00
FF
06
F4
06
FD
FD
F7
FE
FD
FF
FF
FC
F5
FB
FD
00
03
FE
04
FD
FC
03
FF
FE
FF
FF
03
00
00
01
FC
00
02
FD
00
FE
02
03
FE
03
00
04
00
FF
FC
FC
00
FE
02
FF
FB
02
FC
FC
FC
FC
FF
FE
FB
FD
FE
03
FF
FD
FE
04
FE
FE
FC
01
FC
00
01
FB
FC
FD
FE
00
03
0D
0A
E9
05
D7
F1
07
DB
E7
0F
05
E3
05
CE
0F
01
07
1C
00
06
E5
EB
0F
FA
F9
EF
EE
FD
0A
FF
F3
0C
FF
EF
11
FD
F0
FB
08
17
1F
D0
04
E4
0E
10
0E
F4
FE
FD
05
04
F8
F4
01
F0
F0
F6
0D
FA
F8
04
00
FD
0B
12
07
EC
04
0B
FD
07
0C
FC
00
E6
B0
09
10
FC
00
04
12
FA
FF
07
00
F3
E6
13
F5
FC
F7
DE
FC
F5
FB
02
F3
FA
E3
F3
07
00
F8
EF
FC
E8
F9
EA
06
02
FB
FA
FE
FC
F9
FB
F7
00
FA
FC
FE
01
F5
FC
F3
FE
F1
FD
F5
F5
00
00
FC
07
FA
F4
FA
04
FC
06
08
FD
01
FB
02
F9
FE
FD
F6
01
F2
FF
04
00
FC
F9
06
F6
0D
01
F9
08
D5
EA
FD
EA
00
F9
F3
F7
09
E6
0D
0A
15
20
06
0B
EB
E6
0C
FD
0E
E7
F7
00
E6
00
E8
09
11
EC
14
FD
24
0C
C3
01
1B
FF
EC
0C
04
08
02
FD
0B
FA
D5
FD
EF
03
E2
00
0D
1C
F9
FE
1F
05
1C
E8
00
FD
FD
02
04
00
FB
00
FE
00
FE
04
FD
FC
01
FD
00
00
FB
FE
04
04
FE
03
04
FC
FF
FE
FB
00
01
FE
06
14
0E
E7
F5
08
05
09
0B
F5
F6
E9
C1
02
14
E5
F6
04
09
FC
FD
01
FD
F1
03
14
FD
04
DB
F4
FE
F5
FC
E9
E9
F6
F3
02
06
04
D2
E6
06
0A
0D
0C
FD
F9
07
03
F9
03
00
F6
09
04
EE
FC
01
05
F2
EF
00
0B
02
E0
E8
0E
19
DF
09
07
D9
F3
FC
AF
0D
F9
0A
02
04
F9
04
FF
01
CF
06
F4
F4
F8
FA
05
1F
09
18
11
FF
FB
FB
FF
03
01
FF
03
FE
02
FF
03
03
04
FB
01
FB
02
01
04
01
FF
02
FD
FC
02
04
FC
FC
02
FD
FC
01
FB
F6
FA
E3
F9
03
FD
F8
06
FB
F0
F9
E9
0B
08
00
05
00
FD
F6
F7
01
FC
FA
09
F6
FE
EB
FC
F5
00
01
02
00
FE
FC
FD
00
00
02
FF
02
00
FF
05
FF
03
FF
FF
04
FC
03
03
FB
01
FC
FE
FD
FC
FD
00
FE
FD
EE
E0
ED
F8
14
FA
FC
FC
FB
05
FD
0A
EE
04
F6
07
01
03
EC
03
01
FB
05
09
EF
FD
0A
FB
04
F5
18
F8
FF
02
FB
FA
FB
FA
FA
0A
F4
F1
FC
EC
0F
01
02
FE
0B
01
00
FD
F3
FB
FA
FF
F3
0D
06
F9
07
06
05
FB
00
03
03
06
05
FE
00
FF
03
01
FA
00
FE
FA
F6
FA
FF
03
F9
04
FB
05
FB
F9
FF
01
FB
03
05
02
00
FC
FE
F7
01
F8
FB
F8
00
03
04
F6
F7
FA
0A
FF
00
F9
02
FB
00
05
02
FF
FB
FE
F0
FB
FE
01
04
FC
FF
F8
FE
FB
F4
02
FA
FD
FE
02
03
FB
F9
F9
F5
01
F9
04
FB
FD
FC
FF
FF
FB
00
FD
F8
04
FB
02
FE
FC
03
FB
F9
F4
EF
F9
F9
F6
02
00
F0
FA
FC
F1
FB
F5
FC
F4
FF
F2
FA
F7
FD
FD
02
F2
FA
FC
F8
04
00
00
00
05
FC
FF
FB
FD
05
01
F2
00
02
F2
FE
02
00
FF
F7
F8
01
04
F5
FF
F8
04
FC
F9
F1
02
FD
FD
0A
00
05
03
FE
01
FF
04
05
04
02
FD
02
FE
FF
01
02
00
FD
00
FD
FF
FF
FF
FD
FD
03
03
01
01
01
FB
03
00
01
FC
E1
FB
F8
02
FD
04
F4
03
FA
ED
FF
06
F9
FC
0C
01
FA
F9
F9
FB
F4
FA
F0
01
F9
06
00
FC
FA
FC
FA
F5
0E
10
02
F6
E7
F3
FF
E4
FB
2D
FE
E9
F4
EF
0A
FF
09
0A
19
EC
FB
F2
00
F6
D2
D6
FA
F9
F7
F6
EE
F5
00
FE
FC
02
03
FE
01
FC
FB
04
FF
01
04
02
FE
01
FC
FD
FE
FD
02
03
FE
FE
FD
FD
00
FF
02
FC
FD
FD
04
FF
FD
FE
FB
02
04
01
00
FF
02
FB
01
FF
FE
FC
FE
FF
03
FD
FE
04
FF
00
FD
02
FD
FD
02
00
FC
FF
F9
05
FB
DC
F3
19
02
02
E0
F0
F4
0C
E8
EA
07
05
EE
E4
EE
FA
05
FC
F7
EF
F5
10
F9
00
F6
04
DE
06
FB
17
EF
01
F2
0B
02
06
07
E7
FC
07
DB
E5
F7
F5
E8
FA
F6
06
05
18
0D
05
0E
0E
06
03
F9
01
E9
F9
03
FD
FE
00
03
FE
FD
FF
00
01
04
FA
06
FD
FE
FF
FD
FF
FC
FA
01
FF
F9
03
F9
FE
F9
FD
0D
FC
02
FC
FF
01
04
01
02
03
FC
FE
FF
FA
00
02
00
FF
02
00
FD
04
02
FD
00
03
00
01
03
03
03
FC
FD
00
03
FC
0C
08
F3
F7
E7
07
06
EB
02
04
00
1A
E8
D9
ED
F8
F6
F8
FC
02
04
01
F5
F6
06
E2
F4
05
FF
F1
F3
01
ED
00
00
F7
E8
09
FF
11
0E
E1
FC
01
FD
FC
06
EC
02
02
0C
FA
FA
FB
F6
F7
FB
FC
00
FC
EB
FA
FA
F7
F9
F8
FB
FE
FE
FA
F6
04
FD
FD
FB
FA
01
04
FE
02
03
FA
00
02
F9
FB
FE
FD
F9
01
06
FB
FB
00
05
FF
FB
0C
F7
FD
F2
09
05
E6
08
04
FE
06
EA
F5
E4
F1
E9
EC
DE
FA
E2
F1
F4
F5
F4
E2
03
FF
F9
09
FD
05
F9
FE
05
FF
04
FE
FF
FC
FC
FF
F9
FD
01
02
FC
F8
02
FF
FF
FE
FF
FC
FA
FE
01
FC
02
FD
00
FD
00
F8
F8
FD
FC
07
FD
FA
F2
FA
04
FC
FA
FF
04
02
F8
F8
08
06
F5
FA
F9
FE
FC
FD
FA
01
FB
01
FB
02
01
00
FD
F1
00
F7
F1
FD
FF
03
F7
F6
01
FD
01
FB
00
F9
F3
02
05
00
FD
FF
FE
FF
F9
FD
FF
FD
EF
FF
00
FC
FF
F9
03
E9
E5
F5
F8
E8
08
E3
EF
FB
F1
F0
F7
0C
E1
09
D9
0A
F6
0D
09
0B
FD
0E
07
FB
DD
0A
F2
F9
FC
DF
03
F5
EB
FD
01
04
0C
F6
FD
F3
0E
04
FD
F5
02
FC
04
08
FC
F2
02
FD
F4
F4
07
FE
F5
06
FC
03
F3
D9
F5
09
ED
FB
03
0B
01
F1
05
BE
F7
0D
0D
F6
DD
F5
12
FC
FA
04
F2
F1
FB
14
0A
F2
F3
DC
08
F7
FA
E0
EF
0A
FD
FA
FF
04
06
17
0B
EF
FF
F8
F6
E7
07
04
04
FE
F5
F3
FA
F5
EF
00
F6
03
09
F3
F5
02
0D
18
FB
DC
DB
F7
0E
FE
04
CE
09
E1
E3
C2
0D
0E
EA
C5
F3
F8
FE
07
01
FF
FD
0D
00
05
F7
E2
C6
FB
FE
03
FB
02
04
02
03
FB
01
FC
03
04
FF
00
02
FF
02
FC
05
04
FE
04
FC
00
FE
FE
00
FC
00
FB
FE
00
EA
EC
EC
F5
17
06
F8
02
0E
08
F7
0E
EA
11
F9
06
F6
0D
F8
0A
03
00
03
03
F2
0F
0B
FD
FE
EF
19
02
05
02
0F
03
21
18
C5
00
10
FF
ED
0C
06
0B
FE
FE
01
05
CB
FB
FA
0B
EC
03
05
21
F9
02
1C
05
18
ED
FF
12
FE
0E
02
FA
05
DE
EC
18
FC
06
E2
F4
E9
0B
0A
F9
F6
FB
09
02
FC
FE
0E
F3
F5
FC
0F
F7
FB
03
FD
00
FE
FE
F8
FE
03
FF
07
FE
FE
01
0B
FB
F3
F5
02
FC
EF
FF
F5
FB
F9
F6
FC
FF
FC
01
06
05
FF
00
F7
00
F5
00
01
FB
03
F5
FF
FC
FA
FF
FE
FD
F6
F3
01
01
05
00
FD
FA
F9
FD
F6
F8
FB
04
FD
FC
F5
05
FF
FE
03
00
FE
EB
EA
F3
0A
FB
F3
08
F6
01
F8
04
0C
F8
04
00
E6
FA
F9
04
08
FC
FD
FE
05
01
07
FA
F3
E0
04
FB
EF
FE
09
0F
F9
E4
01
ED
0E
0C
01
E9
F9
01
FF
01
F8
F5
07
F6
F7
F1
0F
FE
EF
04
FB
05
F0
EF
FA
F7
F9
FB
F1
01
02
F8
FA
F6
15
FA
F8
F4
0C
04
FA
FD
F9
02
F7
F8
F2
FE
01
00
05
07
FD
03
FE
00
FD
FA
F4
FD
FE
01
00
FA
FF
FF
F9
FE
F9
F1
FB
FE
F3
FB
F7
FF
FE
F9
01
F8
FB
04
FA
06
00
05
02
FF
FC
F9
0C
FA
01
F8
FA
0D
FE
FF
F2
FB
03
00
F8
FC
0A
FB
06
00
FD
01
01
05
F4
FC
0B
F7
FF
FF
D5
00
10
EF
FD
02
DB
12
1D
BE
E6
FA
29
04
FE
00
2B
13
F5
00
D9
C5
FD
F8
08
0A
0C
05
04
0A
06
F8
F4
FE
F5
FB
F9
F2
07
FC
EF
FC
0B
01
F5
F7
03
F2
0C
08
FB
F5
03
ED
F9
F2
FB
08
05
FF
CE
FC
F7
03
F4
F9
F7
F9
F8
05
02
00
FC
FD
FC
FA
FB
F5
FD
FC
FF
FC
F7
FD
FF
02
02
FE
FD
06
FD
06
07
FD
FB
06
E4
09
0B
FD
E3
10
F6
02
19
F0
01
FE
ED
ED
0D
06
FA
FF
FF
03
E5
D5
05
05
10
03
08
FE
F4
FF
F0
FE
FF
01
01
FF
01
FB
FC
FD
01
00
03
FF
FE
FE
FD
FF
FC
FE
FB
FF
00
00
00
01
FE
00
03
FD
FC
01
FE
02
03
01
08
00
08
04
F3
FC
00
02
F5
00
FD
FF
FC
FC
F7
03
FD
00
FE
01
F9
FA
00
00
FF
FF
12
F6
01
FC
01
FE
F6
FB
F8
F9
FC
FE
FB
FA
FC
02
00
02
FC
01
FD
01
00
FA
FC
FB
00
FE
FB
FC
FC
FF
09
FF
FE
FC
F6
FF
FE
ED
EF
EF
03
03
FE
F5
05
FA
EA
FD
FC
E8
F4
F5
EA
F9
FB
F4
03
EF
E3
DB
06
00
F1
F4
F5
FF
0D
1E
FB
E4
0D
0B
05
FF
FD
EE
FB
DB
F9
FF
13
E3
EC
00
0A
F6
FD
FF
FE
E5
04
11
F1
FB
E5
FE
EC
F3
F9
EF
F0
FD
FA
F3
F8
FA
F9
F8
F9
ED
09
F8
F4
00
04
FF
FC
FC
FD
FD
F4
F6
FC
FF
F5
00
FF
F4
FB
04
03
16
F3
E8
F8
01
FE
E2
F9
EE
F0
F7
1D
F9
06
F0
F4
0C
C3
FA
BC
DA
01
DF
05
08
DF
03
F4
00
FA
07
11
1A
F4
01
06
08
09
F0
EE
FF
03
13
DC
F3
F4
03
FD
F5
01
FF
0F
0C
0C
00
03
E3
F2
04
03
F9
ED
11
FF
FF
FE
FD
F8
FF
F5
04
00
FC
FD
FE
01
01
FA
FA
FE
FE
01
FF
FC
FB
FD
00
FC
03
FF
FE
00
FE
04
00
ED
F0
FA
FA
F7
F5
F8
F9
E9
03
01
04
FA
F0
FC
F8
E8
FE
F9
00
F2
FB
EB
FC
04
FF
FE
F9
F8
06
FD
FE
EF
FB
05
F9
EC
F5
F5
FD
1E
D0
F7
F7
1D
03
02
F6
1B
1C
FA
03
E3
FB
04
F6
F8
08
0C
FC
FD
06
04
00
F9
F0
F3
08
F6
F2
F6
D3
F5
FB
F9
F9
15
F8
F1
F3
09
F9
FB
FA
F5
F8
FE
F1
FD
F4
00
03
F3
05
EC
05
04
07
F6
E8
F6
DA
FF
F5
09
10
EE
FA
DA
FB
19
FA
12
1A
05
FC
EE
F6
FF
F1
FC
FF
EF
F3
DD
01
F0
F2
0F
02
1B
04
24
12
C0
F6
14
FD
E9
09
13
15
00
01
FF
06
CF
F7
FB
1B
E8
FD
0C
F9
FC
00
27
09
15
EC
FF
FE
FB
02
04
FE
FE
01
FC
03
01
00
FD
03
F8
FD
FC
03
FF
02
04
00
FD
03
02
FA
FE
04
05
FF
FF
02
05
ED
E3
0F
0D
FC
FD
EF
00
F9
02
05
F3
FD
F5
03
04
FB
04
00
05
02
0B
02
D9
0A
F3
04
09
F3
EA
0B
01
FE
FB
01
00
FA
FF
FB
FC
FD
FE
FA
02
FD
FD
FC
01
FB
00
01
01
FA
FC
FB
02
00
FC
FD
FC
01
03
FD
FB
02
F7
FB
F7
F9
02
01
02
F9
02
02
F7
03
FE
F9
FD
01
FB
01
F8
F6
FF
FC
FE
FA
01
00
F8
01
F7
FC
00
00
FB
02
FF
04
FE
FF
FE
02
01
FC
02
00
FC
FB
03
02
FE
FE
01
01
00
FC
FE
04
FB
FD
01
01
02
F9
F8
E9
0A
F5
D8
F3
07
10
25
C0
05
EA
21
05
0B
F6
F8
D7
06
03
00
FB
FC
F8
F2
FF
0F
F9
F7
07
06
F7
01
F4
FC
FA
04
F1
FA
0D
FA
12
02
EC
0F
0F
18
FA
02
0B
0D
ED
F8
08
F7
F5
DA
13
04
F3
D3
E7
20
E9
EE
DD
F1
FF
E8
F3
04
FA
F6
FC
0D
04
15
F1
EB
EA
03
DF
EC
FC
F7
FF
F9
F7
F6
ED
0B
F8
F1
09
EE
08
FB
FA
DD
0B
00
FC
03
FB
FD
F7
06
02
0C
09
F7
00
00
06
02
F9
08
02
02
05
D6
EF
02
04
10
F3
FD
06
00
05
E4
F0
FD
FB
04
ED
FD
F4
FD
0C
EB
E0
F9
10
00
FF
08
04
07
13
03
12
EA
FF
F6
09
04
EF
EB
09
FA
F9
FA
02
00
00
FD
FA
F7
FC
FE
00
07
FF
FC
FF
F9
00
FC
01
01
FF
FD
02
F7
FD
06
FD
0A
00
04
F9
FA
05
EC
FE
F9
FA
FF
F6
F9
F8
FC
FE
FB
FF
F8
FB
0A
FD
FB
FA
01
FC
02
00
F2
FF
FA
03
FB
F8
FF
FF
CB
08
07
09
E3
0B
E7
03
24
A3
F4
FC
1C
03
F1
FC
04
EA
FD
03
D9
EC
F7
F3
02
EE
0A
FA
FC
FA
F8
FC
FF
02
FB
FD
FF
FD
FE
FE
F9
02
FD
FA
03
FD
02
02
FD
FD
FF
01
FF
FB
FC
FF
FD
02
00
01
FF
FF
FD
00
02
07
F9
FC
E2
F8
02
EB
F3
19
06
0B
FA
E8
FD
05
12
09
F9
EE
FF
F3
F4
EE
FF
E7
F6
FD
06
EF
FA
08
00
FE
F6
FE
F3
00
FB
FC
F9
FA
01
FF
FF
F6
F9
FF
F8
F5
FA
03
00
FB
03
03
F5
F8
FC
04
F1
F8
F5
FB
13
1C
F9
DC
F1
13
05
FD
05
00
F9
F1
F0
FC
1C
F5
F2
06
09
FB
06
0F
FE
EE
03
11
E3
07
EF
FE
FB
F5
03
03
00
04
FD
02
FB
03
FE
FD
FD
03
FB
FB
02
03
FF
01
02
FC
FF
00
FD
FD
FE
00
FC
FC
04
02
FE
FC
07
EB
ED
09
05
E4
04
E6
EF
FB
06
00
CE
00
E1
10
F5
F8
03
01
05
01
01
09
F2
F8
F3
FC
F5
FC
FA
07
07
F8
FF
F9
04
EB
06
F6
E4
F8
00
06
ED
FD
ED
01
FD
F7
00
F5
08
04
00
04
F8
F4
F3
FF
0C
F8
F4
02
FC
FC
08
FB
F9
F5
F2
FA
00
FA
F9
08
FE
FD
FC
02
FA
FE
F7
03
F7
FB
FB
FE
08
FD
FE
FB
01
04
FA
FC
00
FB
00
02
FF
FD
FD
FB
03
FB
02
FC
FE
FD
FB
00
01
FC
FF
03
00
04
00
FF
FF
FD
04
FE
FB
FA
00
FB
FE
FD
00
01
04
04
FE
00
FE
02
FB
FF
FF
04
FB
FE
FD
FF
FE
03
FD
04
FB
01
FF
01
03
02
00
FD
FD
03
03
FB
04
02
F9
FC
FB
FE
FD
FB
02
FF
FB
FE
FB
FE
01
FE
02
00
01
01
FB
FA
FF
FA
FF
01
FB
FE
FD
02
FF
00
F2
FC
FC
FA
01
FC
01
13
FF
FB
F7
FB
F7
09
F2
08
FB
00
01
09
01
07
F7
FA
F6
01
F4
FA
00
FD
F4
E6
EE
07
06
FE
FE
00
ED
F5
FF
07
07
0E
FA
0A
0E
15
02
04
07
00
04
08
EB
FB
04
01
06
F6
02
06
FD
F7
04
F0
F0
DA
E8
30
23
F7
EB
EB
26
12
F5
FC
FD
EB
DB
04
D5
E3
F8
F6
D5
E2
09
FB
08
05
13
FE
F7
FC
01
F9
FB
02
FD
01
FC
00
FC
FB
04
00
03
F9
00
00
FB
00
FB
FF
FD
FE
F6
03
03
FE
02
04
00
F8
01
FE
04
04
FB
02
FE
03
FE
FE
FC
00
FB
03
01
01
03
FD
FE
01
01
FE
FF
FF
FF
FC
FF
03
FF
FF
FE
FE
F9
F8
FD
01
FB
03
01
F6
FE
02
FA
FD
04
02
FD
FD
02
03
F5
FB
F6
FF
FE
FC
FC
04
FA
00
09
04
02
FC
F9
F3
01
01
FA
FF
E2
FD
F8
F5
03
FF
F4
EB
04
0D
F7
16
16
00
E5
EC
02
05
DC
FF
FE
F9
DB
F8
F5
00
02
FB
EF
FA
F2
FA
01
FC
F2
FC
02
F0
00
F8
06
00
FD
FF
FC
02
FD
FA
00
FB
FC
F6
F7
FD
FE
FE
F9
FE
FE
FF
FE
FD
03
FE
02
03
FC
01
00
01
FF
01
FF
04
02
01
02
FC
01
FD
02
FF
03
FE
FD
FF
FE
FE
FD
01
F1
E4
F7
F5
FA
0B
07
0E
FB
E2
08
F3
FB
0C
0A
F4
E7
F4
F0
EA
F4
EF
F6
E9
FF
01
00
F6
C8
F7
EA
EC
F8
FC
F7
FE
FC
FF
F9
FB
02
F3
FA
FE
FB
F8
F8
FC
F9
FC
EE
00
F2
FB
FB
F9
F9
05
FF
01
FE
FE
FC
FB
03
FB
03
03
04
04
00
01
FB
FF
02
FE
FE
01
00
FF
01
01
FD
FE
FF
02
00
00
FE
FC
FF
FF
FE
FB
FE
03
10
12
00
F4
F9
15
08
03
0D
02
08
F7
FA
03
0B
EA
DB
C3
06
EE
09
09
FE
F3
07
FE
EC
05
EB
FF
EB
FD
FF
FD
FD
FB
FE
01
01
03
02
FF
01
00
00
03
FD
FC
01
FB
03
FB
04
02
FC
03
04
FB
02
02
01
00
FF
FF
FD
FC
F9
FE
FD
FB
F3
F9
0B
F6
F4
03
FF
00
FD
FD
0C
03
FA
FF
FA
00
03
FC
F2
FB
03
FF
FD
FC
FB
FE
FD
E2
0E
F5
09
F8
EF
0F
17
06
E5
01
17
04
10
04
FE
02
0B
04
02
08
FA
FA
F3
16
FC
FB
08
06
1C
F0
F6
E1
F9
FD
FD
FF
04
0A
C6
DB
FC
D9
EE
06
03
FF
F2
FE
01
06
F5
F0
08
FE
DB
F3
05
FE
E5
FB
FC
02
0D
00
17
FD
20
04
C4
04
17
00
EF
0C
0B
0C
FF
05
07
08
D8
FD
F7
16
E1
FD
0C
0E
F9
F8
22
09
1D
F1
04
10
D7
DE
11
14
FE
07
04
FD
DC
F5
F5
07
05
E8
0E
0C
10
FD
09
1A
00
FD
EF
1F
F5
0A
E2
04
06
FA
17
24
FA
E4
01
0E
08
04
FD
F0
FE
E8
F0
FE
16
F5
EF
FF
0A
EF
04
0A
FF
EB
00
16
EE
FA
FC
FF
EF
F2
0E
22
03
EF
07
0D
FF
09
09
F8
F6
EC
F3
07
15
F7
FD
09
10
F9
01
07
03
EE
0A
14
EA
FF
F0
FA
F4
F2
04
FC
F7
F4
17
F4
03
F3
F4
0A
00
19
FA
04
F2
1B
D4
EB
FD
02
0B
12
03
17
00
E3
FB
F9
D9
DE
05
F5
00
FB
FE
FE
01
FC
FE
F6
02
06
FE
FE
01
FB
F6
FB
FD
02
F0
FB
FA
03
F3
FA
00
00
F6
FD
0F
FC
06
F9
02
01
02
FE
FF
FE
FC
FF
FC
FD
03
FE
FB
FE
03
05
00
03
03
FC
FF
01
00
FE
00
04
FC
03
03
02
03
04
FD
F6
06
FB
EE
FF
02
05
0C
F3
02
F6
FF
FE
02
F5
00
FF
FC
FB
F8
FC
00
F5
00
FD
04
FC
F6
FE
FC
F8
FB
F3
FE
02
F1
FE
08
05
ED
DF
02
06
09
08
F7
FC
13
04
FB
F7
08
F9
09
08
FB
EA
FF
04
EE
FC
FC
0F
00
01
FC
F5
F4
00
FB
EA
05
E9
03
07
13
F6
FC
F4
FD
10
DF
F1
CF
D4
FE
EE
08
14
F1
00
F7
10
CB
02
02
F9
E6
FF
0C
F3
07
F4
FB
EA
0A
03
F8
05
EA
0A
EA
0A
FA
FC
09
FA
0A
0A
E7
EA
F8
FB
01
F2
E9
0C
0B
1B
13
EE
FA
0F
01
06
11
FD
F8
EA
E0
F9
11
EE
FE
0D
0C
FA
04
03
FE
F3
15
19
EC
02
DD
02
F3
F1
0A
03
FE
0B
16
FF
04
E8
FF
29
FF
0C
E9
FF
CF
16
EB
F3
03
FB
06
09
F5
11
0D
FE
EA
F7
18
E1
05
EF
01
FF
00
FC
FD
FF
FC
FD
03
FB
FD
00
00
FB
00
FC
00
FD
FB
FD
FE
02
FC
01
01
FE
00
03
F8
F9
FE
FA
01
FD
FA
FD
00
04
FC
06
FB
03
01
F9
FF
03
03
F9
F8
FF
08
FD
04
FC
FF
F9
FC
07
F9
00
FE
FA
FD
FE
E5
E8
E9
F4
FF
F7
FC
01
04
DF
07
FC
14
05
F6
FC
16
19
06
08
FC
EE
08
FF
DE
04
12
00
FB
F7
0E
04
FC
FB
F8
FB
02
F6
FF
00
FC
FF
04
F2
FB
F7
01
FB
EA
FC
01
FE
04
F8
FE
00
F9
01
F6
FD
FA
FA
02
FF
00
02
FB
FB
00
FF
FC
00
F9
02
FC
02
F7
F8
FA
FA
FA
FD
FC
FC
00
05
FA
F8
FE
FD
F6
03
00
FD
F7
FF
03
08
F2
02
13
FA
03
E7
F0
FE
FF
04
E8
F7
E6
05
FE
FE
FD
FF
04
01
03
02
F3
F5
E7
FC
05
F5
E2
02
F9
ED
0D
F8
EB
FA
01
08
DF
F5
F9
E4
E7
F3
0E
07
F7
E5
FF
04
F2
EE
07
F4
0C
FC
0C
00
D8
F5
D6
06
0A
14
E7
02
D0
E4
0F
C3
F6
1B
05
EE
E9
BB
FE
D8
F7
D3
02
F4
F8
04
F2
F4
10
0D
D3
08
DE
E0
E9
FE
13
1F
F3
F0
06
08
08
02
00
25
FF
FB
F1
FC
01
F5
0A
10
12
F4
12
0F
FD
FB
00
06
F1
08
D6
FE
E6
FF
06
F3
FE
EA
F8
EB
06
F8
06
E1
08
ED
F7
F1
F6
E2
EC
EA
EF
EF
EB
F8
FE
F2
F8
00
07
F4
F2
01
D6
F5
E5
08
FE
B4
EB
08
FC
F7
FA
FE
E0
D5
10
01
08
E6
0E
03
06
00
06
D7
FE
F3
D6
20
DF
09
C7
12
06
0D
0B
EB
D5
F7
EA
FB
1B
FE
F3
0F
0A
F8
1A
FA
F0
E8
08
F4
FD
00
12
FA
12
EF
09
F0
F7
04
D9
F7
F2
0F
05
F7
11
FB
D8
FF
FE
0F
0C
B3
F9
F6
F8
0A
19
F8
FF
D7
06
FA
FB
02
F6
EA
F3
FC
09
01
08
F9
16
F4
08
FB
FC
06
0E
00
FD
F1
F7
FA
00
08
01
FC
F1
FB
FF
07
02
F7
FD
03
F4
FB
F1
FA
EC
FB
FF
FE
05
FA
EE
F8
F8
FC
FE
02
FD
07
FB
01
FD
FC
FF
03
07
FA
FD
00
FF
F9
F4
02
FC
F5
F9
01
FD
FC
FB
F6
06
FF
0C
14
F1
06
14
07
05
EA
F3
08
03
0F
DB
E3
FA
13
04
03
05
F8
0F
15
FE
08
F9
0F
F0
05
22
ED
01
03
F1
F5
07
02
15
F9
EF
04
F3
10
FE
0D
E9
FA
01
05
E3
01
F9
FC
04
01
F4
03
F8
03
F3
EE
FD
F0
EF
00
FF
01
FE
FB
FB
03
00
03
FD
FD
F9
02
FE
FA
FE
FC
FD
03
01
FE
04
FE
F9
F7
00
03
FF
05
FC
FF
02
05
FF
02
FC
FC
04
FB
FC
FE
F7
0B
F7
00
F6
F6
FD
02
F8
F5
FF
00
02
FB
01
FE
03
FA
F3
04
00
F8
01
F6
EF
EF
F7
FB
F1
00
01
04
FC
FB
FD
ED
02
01
01
F7
FE
00
FF
FE
F8
F7
FB
FA
FA
00
03
F7
FA
F9
FE
F8
F2
E0
FA
11
04
07
F4
04
0B
02
05
00
1B
02
EA
02
19
02
F2
05
0C
01
03
08
F2
09
02
06
02
04
00
09
F9
FA
03
02
FB
FD
FD
FD
02
FE
FD
FB
FC
FC
FD
00
01
FE
FA
FB
FE
FC
FF
FC
00
FA
FD
F8
00
FD
FE
FA
FE
FB
FF
FC
00
FC
02
FC
00
FA
FD
FC
05
FD
FC
FC
FD
04
FC
04
04
FE
00
FD
04
FD
FE
FB
FF
03
04
03
12
2A
00
E2
07
17
05
00
00
08
F9
EE
E8
05
13
EC
FE
03
0B
F6
04
0A
FF
E8
0C
12
E4
01
EC
FB
F4
F5
00
FC
04
FE
FD
FF
FB
FF
01
03
03
FD
FC
FF
01
02
FD
04
FE
FB
00
FC
03
FF
FC
00
FD
03
FE
01
01
04
02
06
FC
FC
03
01
01
FE
FF
01
03
FF
F6
FF
01
FF
FD
FC
FB
FD
02
03
FC
01
04
02
F9
FA
01
F8
02
FB
09
00
F8
03
14
00
F9
F9
FA
06
F8
03
00
01
FC
F6
F5
F4
EC
ED
04
02
F3
F7
F3
05
DE
FF
09
F8
FA
F8
FE
FD
ED
FC
FA
FF
FA
FA
01
F0
F5
FA
F2
FD
FB
03
FF
08
F8
01
F8
F5
FC
01
EB
00
02
FD
F3
F9
F7
FA
FD
EC
00
FC
F3
FE
FD
FC
00
FA
04
F6
08
F9
F1
F5
F2
FD
FF
F2
F6
F6
F7
F8
F9
F9
F9
F4
F2
FD
F8
F3
00
FE
02
01
FE
03
FE
FE
01
FF
00
00
FF
03
00
02
02
FE
00
02
FC
03
01
FF
FF
FC
FE
00
03
FC
FF
FB
08
0D
E8
FE
FC
F0
08
F9
F5
04
03
DD
03
E2
05
F5
FC
DD
03
EC
E6
E3
FD
E5
EF
F9
CE
02
09
F4
F4
04
04
03
FE
FA
FA
FC
04
FB
FA
05
FE
09
F0
FC
FF
FE
FC
F9
F4
FE
F6
00
01
FD
05
03
F7
02
06
FF
FE
FF
F7
E3
E8
0D
09
FF
01
FB
F8
F4
05
03
F2
07
F1
06
18
19
FB
08
03
06
08
0C
E8
F4
12
FE
FF
FD
18
0B
F5
F3
FD
FA
FE
00
F9
00
00
FC
00
F6
14
01
02
FC
07
03
FC
00
01
FF
01
FB
F7
01
04
00
0A
04
FE
00
02
FB
02
FD
F6
01
F9
03
04
FE
02
FB
FE
FC
FE
00
FF
FD
02
01
F9
FE
FA
00
FB
00
04
F9
FB
02
FE
F9
04
FB
FC
00
FF
FE
01
04
03
02
FC
FD
FE
FB
00
FD
02
FF
FC
FD
00
FD
FE
00
00
03
FB
FB
FD
FF
02
FC
CE
05
FC
04
03
00
EA
03
08
08
FC
0B
ED
08
0F
FD
EA
05
F1
05
EC
13
FA
04
FF
13
FF
FE
FE
03
08
FF
05
FE
02
04
02
FA
FD
00
02
00
FB
04
00
00
FF
FE
FF
02
00
03
02
03
02
FD
02
FC
FA
00
00
FE
03
01
F9
00
FE
01
FE
F4
FB
FF
FC
03
FA
04
F8
FA
F4
F6
F7
FD
F0
F9
F9
02
02
FC
04
F9
FA
FD
FE
04
FA
FF
0C
15
DE
FC
FA
E6
F7
ED
FA
1F
F2
E6
E2
11
0C
F6
27
17
0E
F6
F0
FA
02
F9
04
F4
F0
08
29
DD
1B
01
EA
F0
FB
0A
EB
EB
CE
F6
10
21
F7
F7
FF
FF
EB
0D
13
00
F6
06
ED
E5
FE
03
D7
13
01
FE
E3
FC
E2
07
01
02
01
00
03
FE
FF
FF
FC
F9
FC
FC
00
04
02
FB
FF
03
FE
F9
00
FD
FD
00
FE
03
FF
01
FD
02
FB
02
FA
01
01
FB
FE
01
FD
FF
FE
F8
03
FC
01
05
FB
FE
FD
02
03
01
FB
FF
FD
FF
FF
01
05
FC
04
FA
06
00
FB
FC
02
FE
00
04
FE
04
01
00
FD
02
00
FF
05
FD
FE
00
00
01
FE
FC
03
01
FD
01
FB
FD
02
FE
FE
FF
F9
FA
00
F7
FF
FE
FC
FD
02
F5
F6
FA
0A
FE
F9
F9
F6
FF
FC
01
00
FE
FD
02
EC
F9
FC
FB
09
FD
05
FA
FF
FE
01
FD
00
01
FC
FA
FF
FF
03
00
FB
FA
FC
FF
FF
FD
F7
FF
01
FC
FE
FA
FE
03
FE
FF
00
FD
F9
00
07
00
ED
FF
0A
F0
0D
F1
F8
0C
02
06
FA
E3
F9
E8
ED
FE
F4
F1
F5
FA
02
F4
F4
00
F1
05
E9
EE
02
0A
F8
FB
FD
01
03
02
FA
02
03
FF
FC
FB
03
FF
01
F9
03
02
FC
02
FF
FE
FA
FC
FF
FE
FC
00
0B
FB
06
F9
F2
FC
FF
FB
00
00
FD
FE
06
01
01
FD
00
FC
05
00
08
00
05
FB
F9
FB
F8
FB
FA
F7
FC
FB
FB
FD
03
00
03
FD
00
FF
FE
01
03
01
00
00
02
00
FD
FA
01
FC
02
FC
FE
FD
FE
04
FB
FB
00
03
FE
FF
FF
FF
FB
FD
F9
F7
F3
F4
E6
F4
0B
FD
FB
00
09
09
F5
FE
FD
E3
F4
FB
FB
F7
F9
F1
08
F6
08
EB
06
06
D6
01
F9
0D
FC
04
F1
F7
FE
03
04
FC
01
FB
02
01
F8
FD
F7
F2
FB
F8
F5
F7
FC
02
01
F9
F3
FB
FE
06
FA
FC
F9
01
00
F9
EC
FA
F8
ED
06
E9
00
05
03
FA
09
E3
E7
E7
FB
E4
EF
F5
FD
01
01
F7
EF
F5
FB
00
00
00
E8
F8
F8
F8
01
FB
FB
F8
F8
F9
00
FC
01
F7
FF
FC
F4
00
F9
FD
FF
01
FF
FD
00
FC
FC
02
FF
00
FA
FE
FC
FC
EE
DE
FE
0C
0A
FE
F5
F9
10
F5
03
0F
1E
0A
F5
06
20
01
00
06
04
FD
0B
0A
F7
08
06
FD
05
05
05
04
F8
FC
FD
FA
F5
F5
F9
0C
FB
EB
F8
EB
F0
F3
11
EC
EB
F3
F9
FE
F7
FE
01
E8
FD
03
00
FE
DE
F7
E6
F5
FC
F7
F4
03
0B
FA
F8
FA
FF
02
02
07
F2
FE
FF
06
08
08
05
FC
00
FE
FE
00
F5
07
F6
FD
F8
F3
F8
05
04
FA
FD
E0
FF
FC
F9
09
F4
FC
FE
F9
10
08
04
F7
E0
E2
0D
03
0B
15
00
00
FF
04
F4
06
E5
FC
E2
01
0F
16
FB
F3
FA
0C
FD
06
1F
28
FA
ED
B0
F8
0C
F0
04
04
13
FA
08
13
01
FC
FC
16
EC
FD
DC
C8
F2
F7
FC
FB
FF
FC
FD
FF
FE
FC
01
00
FD
FA
FE
02
04
FA
FA
FD
F7
F7
F9
FC
FB
FE
FC
FD
FE
F6
F6
F9
FB
F8
F6
FA
FE
FA
FB
FE
FC
00
FC
FB
F9
FD
06
02
FF
02
00
FC
FD
FD
FB
00
02
05
FA
01
FA
01
F6
05
F4
04
FF
FF
01
00
FF
00
03
FF
02
01
01
FC
FD
FE
01
02
FE
00
03
05
04
FB
03
05
02
04
FB
02
FD
FC
FB
FB
06
02
F9
F9
07
01
FF
FA
FF
F3
F1
00
FF
F6
F9
F7
02
03
FD
F7
0C
FD
F7
FA
F2
01
F6
FD
00
FE
06
04
FC
00
02
FF
05
FD
FB
FD
04
F7
F7
FC
07
03
00
FA
FE
FC
F6
FC
F5
FE
F4
FD
F3
03
FF
02
05
FE
02
F7
03
02
FF
FF
FC
FE
03
03
FB
02
FE
00
FE
00
FC
FE
FF
FF
03
02
04
00
FE
FF
01
FD
FF
03
FD
FD
03
FE
FE
EE
FA
01
E9
F8
FD
00
02
EA
04
E9
FD
0B
16
E7
05
0F
0A
F2
F1
E1
F6
DE
F3
E4
FC
F1
15
FB
F4
F9
F2
FC
01
F8
02
00
F3
FE
FD
F7
FA
FC
01
01
FF
F9
06
F6
FE
F8
FB
00
F4
F9
FD
FE
FE
FB
05
01
01
FA
01
01
02
02
F5
FB
FA
FA
FF
F9
FD
FC
FB
F8
FC
01
FD
02
F8
FE
FF
FF
01
FE
FF
FA
03
FF
FB
02
FA
00
02
F2
F5
EB
F8
EB
EA
F2
0C
07
E5
05
F2
00
FB
14
0B
16
06
07
FB
01
06
12
F5
DC
F5
FF
00
FD
1D
00
03
F9
05
01
00
01
FE
02
FF
05
FD
FA
03
FD
00
FE
01
FE
05
FA
F9
FE
F7
F8
00
FA
F4
FF
FB
03
02
F9
F8
FE
F2
F7
E1
02
14
F6
F8
09
10
0C
EC
F5
EF
E1
F3
F4
EC
FB
01
02
05
F6
FC
E7
06
06
ED
05
F5
08
F9
F1
ED
F3
FD
F3
06
0B
F6
E3
04
F0
02
FD
01
EC
F3
E9
F6
FA
FA
F8
04
F6
E6
07
05
FE
F6
FA
EA
FF
F5
0A
F5
EE
01
14
15
FF
0F
0F
0D
07
F5
FE
04
DE
E0
FC
01
F5
04
F7
FA
F3
0E
EF
FF
02
EF
06
F6
03
0B
01
DE
EC
F6
E9
13
FA
FD
07
01
FF
FA
DD
FF
F3
EB
E4
ED
08
07
0C
07
F8
FE
04
FA
07
DB
FB
F0
09
FB
FF
04
F4
03
F9
FF
06
03
00
FA
F3
0B
03
FF
FE
03
06
00
FD
FB
FA
03
FA
F6
FD
05
F9
FF
05
04
F5
FD
D4
12
F5
F7
E3
FF
0F
25
DB
FC
DF
25
0B
09
F6
ED
0B
0E
03
F5
FB
FA
FC
E8
10
0C
F5
F5
01
06
EF
F6
FD
FB
06
0B
FC
03
FF
FD
02
F9
FD
FE
FE
FA
03
FF
02
FA
FB
00
03
FA
01
F8
00
FB
F9
09
FC
FC
FE
F5
E5
EA
01
E2
0A
07
01
F1
15
0B
FD
FA
F1
F4
FF
FE
FD
FD
07
FD
EF
0C
00
F6
F8
05
FF
DC
F6
EE
14
FE
F8
FF
00
03
01
F2
F9
FA
FD
FA
FC
FD
FF
F7
04
FD
04
01
FF
01
FE
FF
00
F8
01
FC
FF
FF
FE
F9
F8
FA
03
03
F7
01
F5
F4
01
FD
FB
F7
F7
0D
04
FC
02
04
03
FD
04
F9
FA
00
FF
FB
FF
FC
F8
09
01
FF
F9
FF
FF
06
02
CA
F4
FE
F6
E0
15
FF
FB
DD
F0
0F
06
03
03
06
0B
EE
E6
05
05
0C
01
07
01
D5
02
EF
01
0F
1A
FB
DD
E9
0D
0E
05
06
14
03
E9
FC
00
13
DF
ED
0A
08
EB
00
07
06
EC
FE
0F
F5
05
E3
00
EF
F9
F8
F1
FA
FD
FB
00
F8
00
F8
00
00
FC
FE
00
FC
F8
FF
FC
FF
FA
F6
FA
F9
FC
F7
FD
01
FE
F8
FF
03
F7
F7
F8
FC
F9
F8
00
03
01
FF
FE
00
FB
04
F6
F9
F5
FD
FD
F2
FB
FB
00
FE
FD
F6
F9
FE
FE
EE
00
FA
01
06
05
FE
01
05
06
FB
F5
08
FA
F5
01
F9
05
FC
FC
09
03
FD
FD
00
00
F8
FF
FA
01
F7
00
0C
FB
05
FF
03
F9
FB
01
FA
00
FD
00
FD
F8
02
FF
FF
00
02
FF
FC
FB
07
FE
02
03
FC
FE
FE
02
FF
01
FF
FA
02
00
FD
FE
F9
02
01
03
F6
FB
F8
03
01
03
FF
00
00
FC
FD
FB
F0
F7
FE
FE
F2
FD
FE
FB
FE
FF
0C
FB
06
F9
0F
19
FA
FC
00
F6
FF
EB
07
34
FA
00
D1
FA
11
E1
13
0C
0B
EF
04
06
03
ED
FB
10
FD
02
FB
03
F6
FA
FB
FC
FD
05
02
FC
FA
FA
FB
FC
FC
06
F7
F8
00
05
FF
F9
03
FB
FF
04
FE
FE
F9
03
F8
FF
01
FF
03
02
00
FD
01
02
FB
FD
F6
FF
FF
FA
FC
00
FF
01
FD
02
FD
FA
02
F9
FF
FD
F8
02
FC
03
FA
01
07
01
FD
FC
FE
FA
00
FF
FA
FD
01
FE
FF
FC
04
FE
FB
FE
FD
FD
FD
02
03
03
F9
00
FD
02
01
06
05
FA
FC
FE
02
FD
03
FE
FB
FD
05
04
FD
FD
00
FD
04
01
02
04
01
FD
FE
FF
FD
00
02
FD
00
02
FE
FC
FC
03
00
FE
02
FB
FF
08
F6
FF
16
00
01
EC
FD
10
02
16
E1
F3
F9
09
F2
E6
08
F2
0F
0D
01
02
FD
EF
EF
FC
1B
F7
F9
01
F9
FD
04
FB
FC
02
FC
FC
FC
FB
FB
05
FC
FB
02
FE
03
FE
03
FC
00
00
FE
FC
FF
02
FF
FF
02
04
04
02
FB
00
FD
FC
F6
00
02
01
FE
F6
FC
F7
FD
FB
FF
FD
F8
FC
F7
FD
FA
FE
01
F8
F8
02
FF
FB
F7
FE
FB
F8
FA
D8
F9
F1
EF
E0
00
06
CE
F5
02
E9
05
00
FC
FD
F4
F4
04
01
F9
F3
0A
01
EF
0C
FE
00
F1
F8
02
04
05
10
F8
FD
16
F5
03
F1
FA
14
07
E9
EC
E3
0E
12
FA
E7
0E
F4
05
07
ED
00
05
10
D8
06
E8
FC
F2
01
FB
00
03
01
F1
00
F6
FF
07
F6
03
FD
06
F8
F6
FE
FD
03
F7
04
F3
00
FB
FB
04
FA
05
FE
F9
FA
F7
FD
04
FB
DC
F7
FC
0A
06
F7
F5
02
FB
09
01
FB
F0
07
FC
F7
F1
FF
07
F7
06
04
E9
05
FD
08
FD
E8
C7
0F
FF
F5
EF
0D
DF
E9
FA
F2
00
EA
FD
EF
14
C7
05
E6
18
00
1A
FB
01
E8
05
F2
EF
E9
F6
FF
06
F9
FA
04
FB
FD
02
FC
FB
02
F8
05
03
FA
F7
FF
02
05
FA
FD
00
FC
03
02
01
FD
FE
FA
F4
FD
00
FE
FF
FB
05
03
07
14
F5
EA
F5
07
02
04
FF
FB
FE
F0
EE
FB
0D
ED
EA
FE
07
F8
04
00
FE
E5
02
16
EC
07
DF
FC
E2
F8
FB
FD
FA
E7
F0
F4
01
0E
D5
CA
06
DE
D3
09
09
D1
DD
05
FA
FE
01
05
03
EE
00
0A
0C
F8
EC
04
EA
F4
0D
12
F5
DB
03
05
0B
D6
FB
18
02
E3
E9
FD
10
01
04
07
04
F5
F9
FD
EE
F4
08
F8
DD
03
FB
FB
00
FB
00
1E
17
F6
DA
20
14
EE
1D
D5
01
F9
EE
E8
05
EA
F8
08
FB
F3
E3
E9
F6
E9
28
FE
FA
FC
EB
12
ED
F7
01
FE
01
03
FB
03
02
02
00
FF
00
F5
FB
02
00
F8
FD
FB
FE
FF
02
FA
FF
FE
F8
02
FB
FA
F8
FB
FA
FA
FE
06
F5
F8
F9
F6
FA
EF
FD
F8
F6
FC
00
00
07
F8
08
05
F9
F3
E3
E6
FE
F8
F5
FE
F0
FF
FC
FA
FF
FB
FF
FA
05
05
18
0C
D4
F4
11
0A
F9
03
07
0A
F8
0A
FB
EA
EF
FC
0C
1C
F2
05
F0
01
F0
FC
26
FD
0F
F5
00
06
01
F8
0D
03
FF
FC
06
FA
F3
F7
0A
F5
FD
F6
06
03
FF
FF
01
F4
FC
F5
F7
05
F7
FF
03
02
00
04
02
DE
DB
F6
E2
EB
1E
FC
F4
14
04
F5
16
F7
F5
EE
05
EB
FA
FB
0F
EC
09
FD
FC
FD
FC
04
D4
FD
F2
0D
EC
F3
00
0B
12
FF
FA
F8
01
18
02
FB
E7
FC
14
02
1A
05
0D
F1
04
FC
F2
FF
07
08
EC
02
18
FE
07
ED
F7
01
FE
F1
FF
01
FF
0A
06
F9
00
EF
11
0A
0A
F8
06
00
06
00
FB
00
F1
F3
F7
0D
03
F7
01
05
00
F8
FA
04
FD
FB
F2
F5
F4
04
FA
F3
FE
FF
EF
FB
FB
F7
F9
04
F6
FE
F6
FC
FF
F3
FC
01
FC
02
F9
FB
EF
03
FE
03
FF
FC
FC
01
F6
00
01
01
FB
04
F6
FB
00
FB
FD
04
FD
01
FF
FD
FF
FE
04
FD
FC
06
F8
FE
FB
FF
F7
FE
FA
01
04
FD
FE
FD
05
FA
05
FC
F7
02
FF
FB
FB
01
FC
01
05
FA
FF
02
ED
04
01
FF
FD
04
02
02
0F
1E
EB
FD
0C
12
FE
FD
02
FE
FF
FF
EE
F5
01
F0
FF
16
17
F5
0C
0D
FE
FB
03
04
EA
03
DB
FF
DD
FF
F7
01
EE
EF
EE
08
07
F6
08
09
05
0C
EA
FB
F5
E1
EF
EA
F0
FA
0B
FB
03
F0
EE
E3
08
04
DF
07
00
0D
FA
E7
FD
01
EC
01
07
FC
02
F7
0A
00
1F
0C
EF
FA
0E
15
FE
06
04
00
05
0C
F7
F1
09
FD
DB
FF
FD
10
EF
B6
FB
EF
E5
F7
EF
15
F7
07
EB
E1
F5
EA
06
04
E3
FD
02
08
02
FE
07
06
FA
E0
FD
02
01
F9
F2
00
FE
FC
F6
05
F6
FB
F8
FE
FF
FF
F9
F8
FC
F6
FA
00
03
FD
04
02
FF
F7
F9
FE
FA
04
F8
FE
F9
F8
F5
03
ED
E7
01
0A
04
F5
CE
18
19
FF
03
ED
E8
F0
F9
0F
F2
EF
08
06
CC
E6
FA
07
DC
02
FB
FE
C1
01
0B
03
FC
03
FE
00
FE
00
FB
FD
FF
00
FB
FC
01
FB
03
FB
FF
FB
FE
FD
00
FF
00
FD
03
FD
FD
FC
02
FE
01
02
FF
F8
FD
F5
F9
FB
FB
FD
FB
FE
FC
FA
FF
FA
FC
02
02
02
FE
01
F8
F6
FA
FB
00
FA
FF
04
FE
FD
FC
FA
F9
E8
E7
F9
FC
FD
07
06
DA
D7
03
FA
FF
02
F8
FD
0A
02
00
04
00
F4
0C
08
E5
EF
07
06
E8
FB
FF
09
FB
F8
F8
02
03
00
02
FF
F9
0B
03
FE
FB
FB
FD
03
FB
FE
FC
FE
00
02
FD
FC
01
01
FF
02
FD
FF
FC
01
02
FF
F6
F1
F3
00
01
F5
09
07
04
09
F3
EF
F0
EE
F1
FC
F8
F9
00
F8
04
F3
FE
F3
08
00
E2
09
F9
01
06
00
E2
F6
04
06
FF
F6
F1
01
F5
FE
E8
EE
FB
FA
E5
EB
09
FB
0D
00
01
FC
FE
10
E4
03
F8
F6
EC
06
FF
FF
F9
FF
04
FE
FD
FF
FB
FD
03
FF
FC
FF
01
FE
FF
FD
FC
03
00
FF
01
03
FF
FC
FD
00
FD
FE
FE
FE
02
FF
01
00
03
FD
FD
03
FF
FD
01
FD
FF
03
04
03
02
FD
FC
00
03
FD
FF
02
04
02
FB
FF
03
FD
02
FB
FF
FD
FE
F9
FF
FD
03
01
FE
FE
00
00
05
02
01
FE
FE
FC
F9
01
04
02
00
FB
00
FC
F9
FA
FC
FD
FB
F8
F3
DD
EA
11
15
02
F6
FB
FC
11
05
01
09
07
EA
14
17
26
FF
0D
FD
F5
04
0A
D7
04
0C
04
03
F9
13
04
00
01
FD
FA
0A
01
F6
F9
00
FF
FE
00
FF
00
02
FD
00
04
F7
FC
00
FB
FE
FC
00
FE
F7
FE
00
FF
FF
03
FF
04
02
FF
06
01
FD
F7
00
00
F9
05
FE
FE
FD
FF
01
FA
F8
F8
F9
F7
F9
FD
00
00
FB
00
04
FE
FD
FC
F6
FD
FE
F9
F3
00
F6
FD
02
F9
FD
F3
07
FB
FC
01
06
08
04
FB
FF
F8
00
02
00
03
01
FF
F8
04
FA
FE
F9
00
06
F5
01
FC
F3
FC
0D
F2
FE
F7
0E
03
FA
F8
04
0A
01
FA
00
F9
F9
F9
FD
FB
FD
FF
03
02
04
F7
DA
FA
04
EF
E9
E3
E9
19
0F
FC
F4
EA
19
08
0C
00
EC
14
FB
09
F9
EA
05
F8
E9
12
07
F5
01
07
0D
FD
15
29
F7
E6
07
13
06
07
03
FE
02
E5
F1
FA
18
F1
F5
07
09
F2
08
05
05
EE
07
14
EB
06
00
F9
F6
F6
F7
F8
F4
01
FB
FF
FA
00
FF
01
00
FA
F7
FF
03
FC
F9
02
00
FA
00
FC
F6
FE
FC
04
FD
FE
05
F4
05
F9
03
06
FC
F8
FD
05
FC
01
07
F3
03
F3
FC
02
07
F3
FE
01
F8
F7
FB
01
FC
F2
F8
FA
F9
FA
F4
FF
FB
F4
0C
19
E1
E5
FC
06
01
05
07
06
00
F5
D8
F3
10
FC
02
04
06
F8
06
13
FF
FA
F8
16
ED
03
DA
F2
EB
F7
01
0A
EE
FE
FD
FF
FC
F8
F3
07
FC
F6
FB
FE
FD
06
05
04
FF
F5
FB
0C
01
05
F0
00
F2
02
00
F0
00
F7
03
FF
FC
FC
02
FF
03
FE
FC
00
FB
FC
FF
FC
03
00
FC
FF
FC
FE
FC
FD
FD
03
00
03
00
FF
00
01
04
FD
04
00
04
03
0B
05
03
00
01
05
00
00
FB
FD
F9
02
FC
02
FD
F8
04
08
FA
FB
02
03
F3
02
08
FA
FB
F9
FA
02
FD
00
00
00
FA
F3
F5
00
F9
0A
FB
02
FE
FF
FF
FA
F5
02
FB
06
FC
02
F9
02
FF
02
0A
FE
05
FF
F8
FE
00
00
F7
FC
F0
F3
02
F6
01
F8
FE
F8
F6
FB
F8
FA
F9
FF
FB
FA
FA
F5
05
FD
06
F6
F1
FC
FA
F8
07
11
F6
F4
08
15
FD
05
05
0D
01
FD
03
09
02
EF
D0
DA
04
FB
0A
16
03
00
0A
F6
EF
02
E0
07
F4
F6
FD
EA
0A
FB
EB
F9
02
0B
0C
CB
07
EA
0E
06
04
D7
E9
01
FB
F3
F4
F7
F4
ED
FA
F9
06
F1
FD
F9
02
F2
EF
FF
FE
FF
FE
00
F0
FE
0A
F5
FD
09
FF
01
FC
FF
02
03
F2
02
F9
F8
F7
01
FB
F9
FE
00
F9
04
05
FE
FD
F6
01
F8
FE
01
FB
02
FE
FA
FC
F8
F5
F8
01
F6
F9
06
FF
FD
FC
F3
00
FA
F9
01
FF
F9
F4
F9
FB
02
FD
FF
F8
FE
FA
FE
FD
04
03
F7
02
FB
04
00
FC
00
00
FD
01
FB
FD
FF
04
FC
F9
FB
02
FE
FD
01
01
04
10
E7
DB
F5
E7
FA
23
FA
ED
11
03
EF
1D
F6
ED
EA
08
FD
08
FA
1A
F7
0C
F8
0A
F8
F7
02
E0
EF
EE
0B
FE
FD
E8
04
05
EF
07
E0
F5
0E
05
01
06
FD
F4
00
0C
00
06
0A
02
E8
F5
ED
FF
DD
FA
FD
EC
E5
EE
00
09
FA
0D
F8
13
15
D9
FE
1C
00
F9
0E
11
09
01
FF
03
FB
FB
F7
FB
EC
EA
FF
09
0F
01
FD
0A
07
0D
F5
F8
FE
FF
FC
FE
FA
04
01
FF
02
FF
FD
FE
FA
FE
F9
FB
FA
FA
FA
F5
FB
01
F5
00
00
FE
F8
FA
FC
F4
02
FB
FD
FC
03
FC
FE
F8
FD
FB
F9
02
FF
FD
FC
03
FC
04
FE
03
F6
FC
02
FB
00
FC
01
00
03
FD
FF
FF
F9
FB
DE
E3
03
F1
04
08
04
F0
09
07
0A
07
10
EF
FA
FA
17
FE
09
02
F8
08
0A
F2
EE
0D
FF
E5
F7
01
0B
03
03
01
F3
FA
03
03
05
02
F6
F9
F2
00
FA
08
FB
F9
F8
03
FC
F7
FB
F8
F6
FA
FC
FF
FC
00
FE
02
FA
02
FE
01
FE
00
04
FE
F8
01
01
FC
04
00
FF
FA
FB
FE
02
F4
FB
03
07
FC
FE
01
04
FD
FA
03
03
00
01
FD
FE
FB
FC
00
FD
01
05
03
01
FB
00
FF
03
03
FC
FE
FF
03
00
01
FB
FF
FC
00
00
FE
02
FB
FD
01
FF
01
F8
00
00
F8
FF
FB
05
FD
00
01
FA
08
FF
08
00
FC
FA
04
FA
FA
FC
FB
FC
F7
04
FE
FB
02
03
02
FA
F0
F4
E6
F8
01
0B
F6
F8
0D
F6
F6
03
EF
F3
FA
FF
0C
FA
02
0A
06
E3
0A
05
EE
09
08
03
03
F7
FB
06
02
00
FE
03
FC
04
03
FC
FC
03
FA
03
FF
FC
03
02
03
FC
02
FB
02
FF
FD
FC
01
01
01
01
03
FB
03
FE
EF
E3
EE
07
0E
FF
F9
FE
F4
04
FD
10
D9
03
F4
11
F7
0F
FB
07
FD
00
02
12
EB
07
08
02
F8
FC
08
09
0B
20
08
EF
FC
10
FD
00
0B
06
FA
ED
D9
FA
16
F1
07
07
0E
F7
03
07
FB
E9
12
14
EE
01
EF
FC
F1
F2
F7
F1
FB
FB
FC
FD
FD
02
FA
F9
07
F9
04
FF
FF
FC
04
01
F8
02
00
FB
00
02
FB
F9
00
FB
F6
04
04
FE
FF
0C
CC
EB
18
0C
F9
01
09
12
F9
06
EB
01
FA
EA
EF
0F
06
07
0E
19
03
04
00
18
EF
09
DE
EB
F4
FE
0E
14
F6
FF
F5
23
07
E1
9F
E4
00
F9
06
E3
13
F5
FC
00
04
F4
ED
F3
02
F6
FE
F4
E9
FD
0F
F5
F5
FC
07
FB
EE
FC
F7
ED
06
F2
E1
FE
F6
F6
03
EF
08
F3
F5
EF
08
F9
F7
F8
04
F3
FD
F5
F0
03
F7
FE
FF
01
FF
F9
FC
FC
07
FE
00
00
01
F7
01
FE
04
05
FA
FE
04
FC
FA
FE
FF
01
FE
FE
F4
FC
00
01
07
02
01
02
0B
02
FA
FF
FA
F0
F7
FA
00
1D
02
FF
E2
E7
FE
07
FB
0A
F8
01
ED
06
04
04
05
FC
EE
FC
F4
FB
00
FE
00
FD
FD
05
FF
FD
0C
FF
EA
0A
06
07
E5
06
F4
0B
01
05
01
F8
07
05
0D
0B
0A
F6
F7
02
FE
F8
F7
0F
F4
FD
FE
FB
F3
FC
EF
F9
00
EE
FD
F7
02
F7
FD
02
FB
FE
FC
00
FE
FE
03
F9
03
00
FF
FB
F2
FF
F6
FA
FD
FE
01
FD
00
FC
FC
FF
03
FE
FC
FD
FC
FB
FE
FF
FC
04
03
FF
00
02
03
FF
FE
FF
00
FD
FF
02
03
FF
FF
02
F1
F4
F8
FB
09
03
12
13
09
FE
F8
F8
FF
F2
F9
D7
DD
F7
F6
F6
FD
F1
FB
F8
05
05
E4
FF
F6
01
FC
FC
FE
00
FC
02
FE
FD
FF
FE
FC
FC
FE
FF
FE
FE
00
F9
01
00
FA
02
FD
03
FC
05
FC
FB
04
FC
03
02
02
08
F9
FF
F4
04
06
FE
F9
0E
FE
05
EF
F1
04
FE
11
FA
FE
F3
05
F4
F3
F2
F4
F7
FC
00
FF
EF
E7
FC
FD
01
FB
FC
07
FD
FD
04
01
F9
02
00
FA
00
03
F9
FD
FB
FB
05
FC
03
FF
04
FD
FD
FF
03
FF
05
01
FB
03
05
F8
FE
FB
05
03
F5
FF
F9
FD
05
04
05
F7
F8
FD
06
E4
FD
FD
04
FB
FA
FA
FF
FC
00
0A
00
0B
FB
F8
E0
F6
FF
E0
F8
0B
09
F6
16
10
FF
FA
F9
F1
00
F7
F3
FF
0A
FF
F8
0D
05
03
F3
08
00
D9
FD
EC
0E
F7
F9
FD
F8
FD
02
03
01
F8
FF
FF
F4
FC
00
FD
FF
07
FC
FD
00
02
FF
05
FA
05
02
04
F9
F6
01
FC
FE
E3
EB
F3
F8
F1
F9
FA
03
F8
FD
FE
F1
F1
04
09
FD
F5
FA
0B
F2
F4
FC
EB
FD
F7
04
F1
FA
0B
F6
02
F8
03
E7
03
0C
1D
F0
D1
07
0A
04
F7
FF
04
07
0F
1C
19
0C
13
09
E3
EF
03
11
F5
10
FB
03
16
F9
17
FF
02
EB
E5
14
03
09
FB
FE
02
EF
FF
02
0A
07
F4
03
07
06
00
03
04
08
04
08
EC
FF
05
03
04
EC
00
0D
F1
EA
03
F8
08
FC
F7
04
02
FE
F7
EF
10
F3
F6
F9
0F
FB
F6
01
F9
02
FE
FA
EC
FE
FC
03
FF
01
FD
FB
FC
00
07
F8
F4
01
FD
03
FC
F6
FD
F8
FF
F8
F3
F2
FB
02
F9
FC
F7
FC
F8
F2
05
F9
F8
FC
F7
FF
F8
FC
F7
EC
EB
FF
DA
FC
08
FF
F5
0F
0F
F8
EF
EE
F1
FB
F8
EB
02
04
01
F4
06
00
F6
FA
06
04
E4
FB
F3
10
F8
EA
E6
00
00
FF
FA
08
EE
F0
FE
03
03
02
FC
08
05
18
FF
03
08
03
04
0B
DB
04
01
03
FB
FA
00
04
E0
14
0D
0A
ED
0E
E6
ED
1E
FB
FA
15
FD
0C
01
09
F5
08
F3
06
EA
F9
F6
01
FA
0A
05
01
1E
0B
0D
F9
FD
F9
09
F1
F8
ED
0E
E8
FA
F9
06
05
FB
DD
EC
D3
D5
DF
DF
F6
05
F7
00
EC
05
E9
F9
04
FA
FF
DB
09
FF
01
00
FF
13
FE
FA
02
FC
08
FB
FE
11
03
F8
FB
00
FD
FA
FE
01
FE
F2
02
F3
00
F7
FD
17
FD
03
F9
0E
21
FA
F3
03
13
FD
04
14
0D
FF
F1
B0
00
13
F5
FF
FF
0C
F4
FE
06
FD
F1
E7
14
ED
03
E7
CF
FF
F5
04
FE
FE
FB
FF
03
FE
00
FB
03
FB
FF
03
FC
FF
00
FE
01
FF
00
FD
FB
FE
01
03
01
03
FF
FC
01
00
01
02
01
04
FC
FC
01
00
FD
04
00
FF
00
FD
03
01
FC
00
FD
FD
03
00
FC
03
FD
00
05
FC
04
04
02
02
FC
FF
17
1B
F3
E3
28
08
F6
1C
D8
FA
FB
E7
E9
0F
E8
F8
05
FB
EA
DF
DF
F6
E2
35
0E
FD
FB
DE
11
FB
FC
FF
FC
03
FC
FB
FE
00
FD
FC
00
FE
00
00
00
FF
FB
04
03
02
04
FB
01
02
FD
FE
03
02
FF
02
FE
FC
02
08
16
E2
EB
FE
0F
03
01
0F
02
FB
EC
FB
FD
0D
04
0A
0D
09
F2
05
0B
02
F5
DC
0E
F4
FF
EF
0C
EF
F8
0C
DD
02
13
F9
FB
04
06
FC
FE
0B
E2
03
07
FE
05
EE
F6
18
DA
F9
E5
FD
F9
CF
F5
D0
E6
FC
FC
F7
EF
F9
01
FE
F9
09
FC
EF
FD
03
F9
FE
FA
03
02
00
FC
FC
00
F4
FA
01
FE
F7
FF
F5
F8
FD
FA
05
FB
06
02
F4
E2
03
0C
0F
DB
E4
FF
09
F4
F3
FE
F5
F9
0F
17
05
06
12
07
F3
F6
04
10
E4
0D
01
01
D3
FD
1B
02
02
1B
F9
DA
F8
17
0B
FE
12
DD
06
DA
FE
F4
0C
EB
FB
08
D9
F4
00
FB
00
D7
02
E8
F7
FE
F9
05
DB
F8
10
21
02
E4
FC
E7
03
EF
DC
16
EC
12
E2
F7
17
DE
0D
16
07
F1
F5
FC
00
E8
F9
F3
03
FA
07
08
FC
F9
FB
FD
01
FD
00
03
00
03
FD
03
04
FE
FE
FC
FF
00
FC
FF
01
02
FE
FF
02
FA
FE
FB
FF
00
FC
FB
01
FC
EA
FA
FF
0B
F9
E3
E0
EA
E7
F0
FD
EF
11
F3
F9
F5
01
FA
D2
F0
F7
04
DD
E9
0B
09
E6
F9
11
05
DB
FF
F9
EB
E5
05
F9
FC
08
00
FF
FC
0B
09
F8
0B
F7
FD
13
FD
F9
00
07
FB
05
0D
E4
F6
10
00
F2
F9
09
09
0E
20
E5
EA
00
07
04
FF
0E
00
FF
F3
DE
00
0F
FC
08
09
09
F4
0A
0A
00
F4
E6
14
ED
FF
D7
EF
E3
00
07
10
FE
03
25
C5
01
DB
CE
20
F8
05
03
06
FB
07
15
FD
0C
02
EE
FE
EE
04
FD
03
F6
FA
1E
F2
0C
FC
08
FC
E9
F1
F4
F1
05
FD
F0
0E
06
EC
FD
E8
03
E3
F1
E1
F3
F6
EE
F5
04
F5
00
F7
F6
FF
F1
EC
ED
03
08
0A
FC
05
17
FD
F2
F0
0B
20
05
0D
E7
F4
FC
0A
08
1E
E4
FA
0C
20
F6
09
09
FC
F3
FD
11
F7
0D
FC
CB
F4
FC
FA
F3
FB
FC
26
02
04
00
07
E7
F6
2E
ED
DB
17
EE
F4
EB
DF
EA
F9
FF
13
05
F4
FF
05
F8
FF
FD
F3
FC
FB
FA
FD
FD
03
FB
FB
00
FB
02
00
07
FD
00
03
04
02
FA
FB
02
02
FD
FB
FE
F9
00
FE
00
FF
01
FB
01
03
02
03
03
02
FB
01
FB
00
FC
03
FC
FE
04
01
FB
00
04
03
FF
FD
FE
03
FB
FD
04
01
FF
03
F0
0F
05
F6
FC
1E
01
01
11
03
D8
1A
FD
01
F9
B8
FC
04
D2
FF
09
11
F6
06
03
FC
FE
FF
00
ED
10
FC
FA
FD
FE
FD
FD
03
04
03
02
00
01
04
03
FC
03
FB
FB
01
FF
00
FF
FB
FF
FF
FB
02
02
FF
02
00
FD
FC
DC
00
FC
0A
FF
06
EA
F0
06
00
FB
11
F1
00
FF
05
E9
E4
CE
06
EB
0A
F4
07
04
23
02
00
06
03
0B
FA
FB
FC
FC
EF
FD
F5
FC
09
02
FB
F7
FA
F5
F8
07
FB
F7
F7
05
F7
FF
EE
FB
FA
FC
FA
00
FD
F6
FA
FE
FE
FD
04
FF
00
04
02
00
03
03
00
FF
FF
FD
03
03
F5
FF
FB
04
FA
04
05
02
F8
FB
07
FE
FE
05
FC
FB
FF
F4
04
EE
0A
00
06
03
07
FC
07
08
07
F7
06
03
F1
04
0B
0C
EF
F7
F8
EE
05
F6
09
EC
01
0B
ED
0A
FA
02
E4
E0
F6
E6
FE
19
FE
FF
0D
03
F8
05
FA
F0
EE
F9
F7
01
FD
13
E9
0B
F8
06
E7
FD
FE
D7
F4
F3
09
EC
DD
E5
0E
10
01
EF
FC
FF
05
02
04
0A
0B
ED
14
16
11
F7
0E
01
FC
04
13
DA
09
0C
03
07
FA
0E
03
F2
E1
EB
07
01
FD
FD
FD
FF
ED
01
F7
08
06
F5
14
0E
16
04
06
FD
01
07
0C
E2
01
08
01
FF
FB
09
05
00
F6
F7
02
FF
01
FF
FF
FE
F6
F9
FB
FC
02
FB
FC
FB
FA
F6
FB
F9
FB
F9
FD
F7
05
FE
FE
00
FC
01
FC
FA
F5
FA
FB
FF
01
FB
FF
FD
FF
04
FB
03
07
02
F9
FF
FA
F7
FB
FE
FB
FB
F8
FE
01
FD
02
06
FB
02
FD
12
0D
F0
07
DD
01
08
D3
EF
0D
09
F5
F5
A5
E8
E1
F5
D9
10
F1
08
F1
FA
F4
F0
06
D0
04
F9
F2
FF
07
0E
FB
12
02
19
0D
CF
FF
0F
04
E7
0D
08
0E
00
00
00
04
DD
FA
ED
FF
E9
FE
0B
13
00
FF
1C
03
13
EF
FC
EA
E3
F7
0C
F8
02
0E
13
F6
01
09
F6
0F
F5
07
FA
01
FF
0D
0B
FE
08
12
F5
FC
0F
05
EF
F6
0E
0A
FF
05
FB
FD
03
00
02
FD
FD
04
FD
04
FC
00
00
02
FB
03
FD
00
04
00
04
03
01
00
00
FF
FD
02
03
00
03
F7
E8
F4
0D
D1
14
FE
F9
1A
01
E2
01
83
08
F4
E7
DD
F3
03
00
EE
06
F9
0F
0D
F5
00
DD
01
03
0D
05
FF
FC
07
10
F2
D9
E7
0B
12
01
F5
DE
F6
FA
0A
F2
FC
0E
08
E4
04
04
06
DB
15
FF
FD
CE
FB
F5
07
E9
08
09
F4
E1
30
0D
FF
23
FA
02
FD
0C
EF
E9
EA
F1
2F
EF
F8
FD
F6
EC
E9
15
EC
04
FF
F2
0C
F7
F8
EC
E1
FA
06
FF
01
F5
EC
02
E6
FB
0B
01
FD
E7
05
07
E8
EC
0A
01
08
01
0A
E1
EE
FB
00
02
05
F5
08
0C
FE
FE
F6
04
00
01
06
F7
F4
FE
FF
FE
03
06
F3
C9
C6
09
F6
06
12
FA
03
FF
0F
EF
FC
D9
06
F4
F7
02
0B
F9
F9
F9
05
FC
F4
12
F6
01
0E
00
FA
FB
EC
FE
07
E7
F3
D9
DE
FD
F3
13
1F
FE
FE
E9
00
DB
FD
F1
F9
F2
03
FD
FE
EB
03
FE
F6
01
FD
07
02
10
02
06
F1
06
FB
FE
00
F1
01
F4
FC
FA
FC
07
F6
04
F7
DA
F8
F5
F8
F7
12
F8
FF
DF
FA
E6
FE
07
F9
FE
F7
FD
F7
F5
F5
06
E3
F6
EE
F8
12
FC
06
D7
02
05
08
FF
02
03
01
FF
00
03
02
02
FD
00
FC
FB
FD
04
FC
FD
04
03
00
04
00
02
03
03
00
FD
FB
FE
FC
FC
02
FE
FA
FF
02
F8
FC
FC
FF
00
00
F7
FC
08
FC
00
FB
02
FD
00
FE
F6
FC
FE
01
FE
01
00
F8
03
FE
03
00
FD
F0
FE
05
08
F0
00
F1
FB
16
0F
F4
FD
02
F5
02
FB
F6
F2
E6
F0
E2
FD
F7
0D
0A
FE
ED
EA
FB
05
E1
FA
F2
F9
FE
FA
FA
F4
F8
FD
06
03
FA
F7
F3
FC
01
05
FE
08
00
FE
F9
FA
04
F7
03
FF
FE
EE
F9
F7
FE
03
FE
02
03
00
FB
FC
03
FE
02
03
FD
FA
02
01
02
FF
FA
05
FC
FC
00
FA
03
FC
FF
01
FD
02
00
03
FA
FA
D8
DF
0A
03
FE
FC
F8
FA
08
FE
04
02
01
FD
09
09
0B
00
0A
03
F9
0A
0A
DE
01
06
02
E9
02
11
06
F6
01
02
00
F9
FF
FE
00
00
FC
FB
00
03
F9
F8
FF
FC
02
FC
00
FF
01
FF
FE
FC
FE
01
02
F7
FF
F8
FF
F2
C0
F6
10
01
12
05
0B
00
EF
02
F7
01
00
00
F4
F0
00
09
06
03
F3
01
05
E2
01
FD
FA
F8
FA
E7
08
F7
07
06
F7
E6
24
0B
07
09
F7
04
00
F4
F9
FD
E8
E3
DF
F5
F5
03
E8
EF
EA
1A
E8
F6
03
E6
09
F6
05
DE
05
F2
F3
F5
13
F5
F6
05
FA
F9
0E
FA
07
E8
F9
FC
05
DE
03
F9
E9
F9
FC
FB
F9
F7
04
FB
0A
03
FB
FF
F5
ED
FE
EF
08
06
F4
E6
F0
07
FA
DE
EA
FE
F9
F5
F5
ED
04
FF
FD
01
F5
F9
F6
FD
00
E7
F3
F0
06
F0
02
0A
F6
23
05
E6
02
1B
18
EE
F9
1D
0F
FF
FE
1B
1A
04
FD
F8
CF
F5
F5
09
14
F5
00
18
01
16
03
FC
F2
02
01
F6
04
F9
FD
FC
FA
FA
F2
FD
FC
FE
FD
FC
02
FD
01
FA
FE
FC
01
F9
01
03
01
F8
03
FE
F8
00
03
F7
FC
03
01
FA
FC
FE
F9
FA
01
F4
FD
F8
FF
F9
00
F8
00
FC
FF
00
FF
F5
00
FB
00
02
01
F9
FE
C6
D0
E6
F7
FA
E8
FA
17
FB
F7
04
FE
FC
04
16
FB
ED
04
05
D4
04
F7
E9
F4
F6
1B
DE
F8
C6
F5
0E
FC
EE
F4
0A
0B
04
E4
B7
09
12
0F
FA
FE
FD
06
EE
1C
19
0F
10
0E
DA
F0
FF
14
F5
1D
05
FD
02
FA
0A
F3
F9
FE
FD
0B
FA
FB
DD
14
10
EE
FC
EA
F2
FF
F9
02
08
0D
FA
08
FD
E6
FE
FA
E3
03
F8
FD
F3
FE
D3
06
FD
F8
F2
F7
F8
01
01
FD
FC
FC
00
F8
FB
F4
F5
F0
F6
F9
F8
FA
05
F4
FB
F7
FB
FF
FC
00
F5
F7
F9
06
F5
E1
E5
FF
F8
F9
F2
FD
F2
06
FE
FE
F8
FD
F1
FD
08
00
F9
04
F9
00
FC
F7
F4
FA
04
FD
E6
F2
FA
F9
FB
FF
FD
FE
EA
F8
FB
FD
F5
FF
00
FE
FC
F6
00
02
F7
FB
02
FF
FC
F7
06
FD
FF
F6
02
02
ED
FD
F7
01
FF
02
F5
12
F5
02
FA
F5
07
D9
FD
DC
1F
EB
05
05
1D
13
01
00
F8
E5
08
FD
15
F4
F0
FC
03
FE
D9
0C
FB
01
FD
02
FA
01
03
F9
00
FC
F9
FA
FC
03
F8
FF
02
FD
FA
01
FD
00
F6
00
FF
06
FF
05
0C
00
03
FD
E3
F4
CD
F9
E6
D5
05
0B
0A
0B
FC
DA
00
EA
12
27
10
FC
08
FF
F0
03
EC
0E
F9
10
B9
FE
D2
F4
FC
07
FE
FF
FC
02
01
01
FB
FC
FA
FE
02
FA
00
05
F9
FB
FD
FC
02
FF
04
FA
F3
FD
FC
00
F8
F8
0B
FE
FF
FB
FF
03
FE
01
00
FC
FB
FD
FD
FC
FF
01
FF
00
FF
FC
FE
FF
FE
03
01
FD
FB
02
FD
FD
FC
01
05
FF
FB
00
0E
1B
04
EF
02
15
04
00
12
10
F9
EF
A8
FD
14
F4
05
06
0E
F4
04
0E
05
EC
01
16
E9
01
D4
C6
F9
F7
FE
FB
E7
F6
E2
F2
02
F6
F2
F5
02
0C
DD
F6
FF
DF
01
09
F6
F1
05
FD
FE
EF
F7
F1
01
FF
E4
FA
FD
01
E9
FF
F9
01
F2
01
F8
F6
01
F8
F8
03
FC
F5
F1
FC
F5
03
E5
02
F0
FA
FE
FD
F8
0A
03
03
FB
08
FB
FE
01
F8
02
F2
EC
F0
F0
10
FD
F7
EC
F7
F8
01
05
F2
FD
FC
F5
F8
E5
ED
F4
FA
F7
07
FE
F5
F9
F9
05
F5
06
01
FE
F8
02
E3
02
0C
FB
FC
F0
D1
FF
E3
15
E8
E2
D7
F3
FA
FB
E5
00
DD
04
00
FA
FD
F7
E5
E3
04
01
00
01
01
FE
04
04
FE
FE
03
FF
FD
01
FF
FD
00
00
FF
02
FB
FE
05
FD
FD
FB
FF
FD
03
02
01
FF
FB
02
02
F8
F5
FE
FF
F7
FC
05
F1
F9
F9
FF
FC
FD
F6
F7
08
F2
F2
F5
FB
F9
F4
FC
06
FD
F8
F2
01
FE
F9
FD
FF
FF
FC
02
00
FF
FC
01
FB
00
FF
FE
03
03
04
FD
FF
01
FF
00
FE
02
FC
FC
FC
FE
FB
01
00
FD
00
01
F7
E5
FA
F1
F6
07
DD
EB
0B
05
F6
FA
D8
05
C4
06
0A
03
F8
09
ED
03
D2
F8
FE
FC
FD
CD
FB
01
08
FA
FE
FC
04
00
FF
F6
FB
F9
FC
FC
00
FB
00
FD
FD
FE
02
FA
00
FC
00
00
01
03
FD
FE
FF
08
FB
03
FA
F8
FB
FB
FF
F9
0A
FC
F9
F1
F8
F8
FF
01
01
F8
F6
FF
00
FE
FA
FA
FB
F5
FD
F7
05
FE
00
06
02
04
FA
07
CA
C7
FA
D4
04
0E
0B
26
0A
0A
E8
F1
F6
F8
05
CF
BF
0D
07
0A
FF
03
04
12
FB
01
01
F4
FB
E1
08
FF
FB
00
08
14
FF
01
FA
F3
1E
FF
0C
DB
EB
F4
0C
FD
F6
06
F4
08
02
F5
08
FF
F4
EE
F8
09
E4
FD
F7
07
0D
FA
F8
EF
19
02
E2
BC
CD
FA
F9
0E
E8
09
00
FC
FF
06
00
F0
F5
05
FA
FD
EC
F4
FF
F9
04
EF
FF
F6
EA
E7
13
10
04
F7
01
03
FE
07
08
04
0E
EB
05
07
1D
FD
08
02
FA
00
10
E3
ED
09
03
FC
FD
10
06
F9
EE
F6
07
FF
FC
FF
FC
FF
00
00
FE
01
FF
FD
F7
05
02
04
F8
FF
F5
FE
FD
FD
02
FB
00
02
03
FC
FD
FD
FF
FE
FB
04
04
00
00
FF
FD
FD
FE
FE
FE
FB
05
02
FF
FF
FC
FB
FB
FE
FD
00
FF
FE
00
FD
FC
01
FE
FB
FD
00
02
03
00
FE
FD
04
FD
FB
FC
FF
FD
FB
FB
01
04
FD
FF
FE
FC
01
04
01
FC
FB
FF
FD
FF
FD
FE
13
18
08
F1
00
10
00
09
11
0C
FF
F7
B3
FF
10
F4
03
04
0C
F9
FD
0A
FC
EF
FA
14
EC
01
E0
E0
FD
F4
02
FD
FD
FB
FF
FB
01
FF
00
04
01
FA
00
F8
00
01
02
01
00
FD
03
FE
FB
FE
FB
01
FE
FE
FD
FF
F9
FA
0C
02
F6
07
15
0A
F4
EB
00
27
02
11
DA
F0
0C
0C
15
14
03
FE
13
1C
FB
09
02
F2
EC
0B
19
F9
02
01
F4
E2
F0
0C
02
08
F6
FF
08
03
FD
07
03
00
F4
06
09
0A
F8
07
FE
FC
05
0C
EB
09
09
FF
FE
FF
15
07
FF
F2
EE
04
00
FC
FA
FD
00
05
FD
FC
F6
FC
F9
FD
F9
02
01
FF
01
02
FE
FE
F7
00
FC
01
00
F6
FD
00
FE
ED
FE
FC
FE
EF
FB
FD
FE
02
00
FA
0E
09
FF
00
00
F5
05
F6
00
F9
F9
F7
EC
08
EF
FE
F8
FD
F9
FD
FE
FB
FB
02
01
04
FC
03
04
03
03
FC
04
FB
03
00
01
FD
FB
FB
04
02
03
01
FE
FD
04
FF
00
FC
FD
FE
FC
E7
E7
FD
E7
03
10
FE
F1
0D
0E
01
FA
FA
EF
F5
FA
01
FB
08
02
F4
0C
01
EF
EF
0C
01
DB
FD
EE
1A
11
1A
FA
F5
02
06
07
F5
03
11
05
FC
EC
EE
FD
03
E4
E0
0D
06
0F
12
00
07
0C
F5
EE
04
EB
FE
D7
02
04
FD
FA
00
FD
FD
FE
00
FA
01
01
F9
02
FF
02
00
01
03
FB
FA
00
FE
FB
FA
FC
03
FE
01
01
FE
FE
02
FF
FE
FB
02
01
FB
00
02
FE
FD
FC
FB
FE
FC
01
FC
04
FC
FD
FE
00
04
04
02
00
01
00
FD
03
FC
FB
FF
FB
07
FF
FE
02
FF
F3
F8
03
04
FB
07
F0
F9
08
07
F8
01
F6
FD
EC
E3
F8
02
01
0D
ED
FE
F0
F7
F6
FC
02
06
FF
FB
01
02
FB
FE
02
FC
00
F7
F4
FD
FE
FD
FA
F8
00
FE
00
03
FE
01
F9
FB
FC
FF
FD
F7
04
F3
00
01
01
02
03
FE
FB
FE
04
00
03
03
04
03
02
FF
03
04
FE
FC
00
02
FD
FE
02
FC
04
03
02
FD
02
00
FE
FC
04
FA
05
04
F6
01
03
F9
FE
02
01
01
FA
FB
04
04
F9
03
02
04
FE
02
FA
02
00
01
FD
03
07
FC
FC
FE
FD
FB
01
FC
FB
FB
04
FE
FD
FB
01
FF
00
01
FF
FE
FA
02
02
00
FB
03
FC
02
FF
02
03
04
FF
04
FE
ED
05
14
1D
DC
BD
05
0E
04
F5
04
0E
06
F2
26
17
08
05
12
D8
F9
FA
1A
EB
3F
04
04
1E
F9
13
FD
01
FD
04
05
02
02
FC
02
02
FC
00
04
04
00
04
02
02
FF
FE
02
02
FE
FD
04
01
00
FD
FB
FD
04
03
01
FE
FF
FE
FC
FB
01
FF
02
FE
FD
FB
01
FE
FD
02
FC
FE
FD
FE
01
FC
FE
FB
FC
FD
01
01
02
00
FD
02
00
F4
EA
01
F2
F7
FD
F6
03
F9
01
02
F9
FB
FE
F7
00
ED
FE
F3
FC
FA
FA
FF
02
FD
00
08
F4
FD
FE
03
F3
04
01
FB
01
02
01
FE
04
04
FD
FB
FC
FE
05
FE
FC
FC
FF
00
FF
04
04
FE
00
FE
03
FC
05
02
FB
02
FE
08
23
CA
07
DB
F3
09
E0
F4
1E
0E
E9
FE
D8
0D
DD
04
0B
FC
09
FA
FA
03
EF
0B
25
DE
05
FB
E3
ED
02
FA
06
04
FB
FC
FC
FD
F7
FA
F9
F8
FB
06
07
FF
FD
FC
FD
F4
FE
00
00
F7
00
FB
F7
FC
F8
0A
FE
05
FE
02
F7
FC
FB
FD
F6
FE
F9
05
FE
FB
FF
FF
00
F2
00
FD
FD
01
FC
FE
04
F9
02
00
FD
FB
FD
FE
01
08
F4
00
03
FD
FB
04
04
FC
FE
03
FF
FE
04
FF
FD
00
FB
FB
04
01
FF
FD
FB
03
FD
FD
FD
02
FF
FB
FF
03
FF
C3
D9
FD
07
FE
C3
FF
F4
F7
01
08
01
DB
D8
EE
01
F2
04
E7
F4
DE
FC
E3
FC
0B
F2
00
EE
D9
04
EF
01
0C
0F
F6
E5
1B
04
FF
FB
FB
03
F1
0D
E7
FA
00
07
0A
07
0C
FA
0C
16
04
0A
08
1D
F8
0B
D3
FC
02
06
01
FD
FF
FA
F6
FA
FD
FF
FD
03
F6
F8
06
FA
00
01
F9
FE
FD
02
FD
02
FF
00
FD
FC
FF
FF
04
FA
FF
FC
03
FD
FC
F3
F9
05
FE
13
E0
E9
03
E0
DD
06
1C
F7
00
01
0F
ED
01
06
FD
E9
F9
0D
01
F8
D6
F5
04
EE
FF
FE
FE
FF
FF
03
FF
01
FD
FC
FC
FF
03
03
FC
FE
FD
FF
02
01
03
FB
FB
FE
FD
01
04
01
FF
02
00
02
00
EC
0B
00
15
F9
DB
FD
FF
0C
F5
0A
07
05
0D
FF
04
DF
DF
FD
C9
EE
DE
03
0A
2B
00
F8
15
04
17
EB
F8
F5
0B
01
0B
FB
EE
08
0C
07
F9
FF
0C
06
02
FD
05
F7
F1
FE
FE
F6
EF
FB
F7
FF
FA
FB
11
01
0E
F7
03
02
F1
0B
E8
EC
FA
E8
E8
08
FD
F2
0F
EE
0B
0D
00
09
06
09
F1
F0
0C
05
04
F6
F9
FE
EA
ED
F8
03
FD
00
04
04
FE
00
00
FC
FE
03
FE
02
00
01
02
02
00
FF
FF
04
02
FD
FF
00
FF
FF
FB
FC
02
02
FC
03
0A
16
EA
EC
FE
11
00
E9
F6
13
F8
F9
FB
EB
0C
F0
11
19
FE
F5
D7
F1
02
F2
F0
21
DF
04
FB
08
FD
F9
0A
04
EE
EB
E0
F3
09
E4
EF
0F
0A
ED
FC
DC
03
FE
F8
EE
FB
ED
02
E5
F9
F0
F8
F2
F8
00
F9
05
F6
08
00
01
FC
03
FC
FC
FC
02
01
02
FC
02
FF
00
02
00
FC
03
02
FF
FE
01
FF
FF
01
FF
FF
01
FD
03
FF
00
FA
FE
02
FE
FD
FD
02
01
FE
FD
01
01
FB
01
FD
FF
FC
FB
05
FE
FC
02
02
FF
FF
FF
FA
FA
FD
04
FE
00
E3
EE
F2
09
FE
0C
FB
0A
0C
F6
FF
01
12
06
FC
FB
09
19
01
04
07
04
06
06
F3
05
0B
FE
F0
FF
0D
02
04
FE
F3
F9
FD
FB
FC
F8
00
F1
FE
01
EE
FB
F7
06
FC
FE
03
FB
03
06
FF
09
EF
FE
FA
02
02
F6
FA
01
F9
F9
F3
00
05
04
F4
FD
FE
FF
02
FE
FD
03
00
FC
01
00
F5
F7
F7
FC
F9
FA
FD
04
FD
00
FE
FD
05
FD
EE
C9
D4
07
F2
04
F7
08
12
16
09
ED
FD
05
07
0B
FC
18
FB
0E
FC
EC
05
05
FF
04
0D
FA
FC
F5
10
06
0B
15
F3
D7
FF
1A
0B
D1
0A
F6
FD
D9
F7
EC
16
00
07
F7
0C
F4
E3
FF
E0
FF
04
0C
B8
01
F3
01
01
F8
F9
FE
02
FE
01
F8
00
FC
FF
02
00
F9
FB
F9
00
00
FC
00
F9
F7
FC
FF
01
F8
04
FE
F7
01
07
FC
FE
FD
FB
02
00
03
FE
FC
01
01
FD
FB
FD
03
FD
00
00
F9
00
02
FC
02
00
00
FF
FA
F6
FE
FD
00
FD
01
03
FB
FE
FD
FC
FE
FD
FF
03
FB
FE
FF
04
FD
FE
FF
03
00
03
FE
04
FE
FF
01
FD
02
03
02
FE
03
FF
FC
FC
01
F7
FA
FF
F5
F8
FB
F2
05
FB
F9
F3
FB
FE
08
FA
FD
F9
FC
E4
F7
ED
00
EA
F6
F9
00
00
F6
0C
FE
0F
F1
00
FE
FB
04
FF
FE
FC
00
FE
FE
FD
02
FC
04
FF
01
FD
FE
FD
02
FC
00
04
FD
FB
FD
01
00
04
01
05
FD
F1
EE
FC
FD
DB
0F
06
07
E1
F8
06
FF
E3
FC
FD
0B
EB
F5
FD
06
05
EF
0A
FE
F3
FA
08
FB
EC
FD
08
01

