04
FF
03
01
FA
00
02
11
FD
05
FE
00
FF
01
00
01
06
00
FF
FD
03
FF
F7
03
02
07
09
FE
01
FE
FF
01
03
00
FF
FE
FA
FA
FA
04
01
FE
F9
FD
02
FF
FF
FF
FF
01
00
00
00
01
FC
FC
FE
FE
F9
FD
FB
04
00
FE
04
01
FF
00
FE
01
FC
09
07
02
F5
00
03
FE
FE
05
FE
FF
00
01
FF
03
F2
EF
FF
FF
04
10
FB
04
01
01
F9
FE
00
FE
F7
00
09
04
F5
FD
01
02
03
02
00
02
F4
FE
00
FE
FE
03
0A
00
FF
FD
00
FE
01
02
03
01
FA
FE
00
03
F6
00
FF
00
F4
00
03
02
FF
03
FF
FF
F6
02
FF
02
00
04
FB
FD
00
00
03
FC
03
FF
FF
03
FC
00
F9
FF
E0
00
03
0E
E6
04
02
FE
FE
00
FD
F9
05
03
00
FF
FE
03
FF
04
FE
09
FD
FE
FD
03
FF
FE
FF
FD
03
01
03
02
F9
01
FF
FD
F2
01
FC
FF
FD
07
FE
03
04
FF
FF
02
EE
F3
02
02
09
02
FD
00
FF
FD
FC
00
00
01
E7
00
FD
00
E8
01
01
03
FF
02
01
08
FB
01
01
01
FE
03
08
05
02
FE
11
04
01
04
FE
FF
FC
FD
01
06
ED
01
FF
E9
E7
00
09
01
FF
00
FC
00
F7
02
02
01
00
02
08
00
01
05
02
06
07
02
00
FE
FF
FB
FD
F9
FD
01
FD
01
02
FE
FF
01
FB
FF
00
FD
00
FE
FF
FE
01
FB
00
00
00
FD
0A
FF
FC
00
FE
02
FE
0C
FB
FC
E5
FB
05
0B
E0
01
02
FE
07
01
FF
EB
07
06
FE
00
00
00
FF
FF
01
06
E8
03
FE
03
00
01
FB
02
01
00
FF
FC
FD
FE
FD
FE
FE
01
FF
01
FF
FE
02
02
00
00
00
00
FC
FC
03
FC
01
FC
04
FE
02
FE
02
FE
01
08
FA
00
EB
FC
F7
00
FD
FE
00
01
02
00
06
FE
FD
FF
03
FE
00
F2
FD
F5
01
FA
01
FF
00
00
FE
FF
00
05
E8
00
FC
FC
E7
00
03
FF
00
00
03
F8
03
00
03
02
00
00
06
F8
FF
FD
00
00
02
01
FE
00
00
FE
FC
FF
02
01
FF
FE
01
FD
FD
FE
02
01
00
02
01
FE
FE
FE
01
FD
00
00
00
FE
FE
FE
FD
FF
01
FE
FE
F6
02
F8
00
05
FF
0C
01
01
FE
01
10
FE
02
08
07
FE
02
00
05
03
FF
01
FD
0C
11
08
FE
FB
FF
00
02
FB
00
02
FC
FE
FE
13
FD
07
FD
01
02
02
00
0C
06
FD
FF
01
00
02
05
02
00
02
FD
06
01
02
02
00
02
06
FD
FC
00
FD
00
FF
04
FC
FF
02
00
01
FF
01
FF
FF
FC
00
02
FC
FF
FB
00
01
FD
FE
00
01
00
FD
00
FE
FF
FF
01
00
FD
FE
FE
FF
FF
01
FA
01
02
00
FB
00
FE
01
FE
FE
00
FA
FF
FF
FF
02
FF
FF
01
FE
FE
00
FD
00
FD
01
00
00
FF
00
FD
FE
01
FF
FE
00
01
FF
FE
FF
02
01
00
FE
00
00
01
00
01
01
03
00
FD
02
01
FE
01
FE
FE
FD
FD
FF
02
00
00
00
FD
02
01
02
FD
FE
FE
FD
FF
FF
FE
FE
FE
00
FD
FC
00
00
01
00
00
01
FD
01
FF
FF
FC
00
01
01
00
FD
FE
FF
00
00
FE
03
01
01
02
FC
02
FC
01
FE
FE
FF
FF
FE
FF
FE
01
FA
FF
03
FB
F5
07
01
07
01
FA
03
03
FD
04
00
02
FD
FF
02
0D
FF
00
03
F6
3D
04
01
FF
FD
F5
FB
04
EA
29
03
F3
FF
32
FB
FC
02
FE
FB
FF
04
FD
FF
FE
01
FE
FC
FC
F4
FF
D0
09
08
00
FF
FE
03
FF
FC
FE
FD
00
FB
00
02
FA
FD
FF
03
00
FC
01
FC
FE
03
FE
FD
FE
00
FE
FE
FF
00
00
FA
FE
FD
FE
02
FE
FE
FF
00
00
01
FC
FD
FF
01
FE
00
01
01
FE
00
00
01
FD
01
FD
FE
00
02
00
FE
FD
00
02
01
00
FF
04
07
FF
F9
10
0B
06
F8
09
00
00
FD
0A
FE
04
FB
FC
03
FF
FD
04
FF
07
00
03
FE
02
13
F9
03
00
00
06
FF
01
00
00
FB
FD
0C
05
03
03
FE
01
00
02
F4
00
FC
01
00
FD
02
01
03
FE
03
FC
F5
01
00
01
FE
F6
FD
00
0C
E2
00
00
04
DD
02
01
FF
F6
FF
FF
FA
F3
FF
02
01
03
FE
FC
05
FF
F9
FD
C0
FD
FD
00
FE
04
FF
02
FF
FD
FD
F5
12
FF
02
FE
00
FE
FF
01
06
03
03
02
FE
03
FD
FC
FD
FF
F9
0D
F5
FC
FF
FF
02
03
FD
02
FF
00
FF
FE
01
FF
FF
00
01
FC
00
01
FE
01
02
01
FF
FF
FF
01
FF
00
FD
03
FF
01
03
01
FD
FD
03
FC
0C
FC
02
FF
F2
FB
01
02
02
FA
FE
02
F7
09
00
02
00
02
02
06
FE
FF
04
F6
F8
02
02
FD
FE
05
00
FF
FA
EC
FE
05
01
E9
01
FD
FE
FE
FE
03
03
00
FE
FD
FD
02
FC
05
F3
01
F9
0B
FB
00
01
01
02
01
FE
00
03
F4
02
FC
0E
FA
04
FE
01
F8
F9
FF
0A
01
04
02
00
01
01
FB
03
01
01
07
F6
FE
FF
FF
FD
FC
04
04
0F
FF
FA
00
05
01
00
00
FF
F8
FF
01
FB
04
FD
00
FE
02
00
FF
04
FF
05
F5
F5
FD
02
02
FD
FF
05
FF
13
F4
FC
00
FE
F9
FF
02
02
F9
FE
04
FC
E7
FF
00
FE
FF
00
01
05
FE
B2
06
E1
FB
FF
01
FE
01
FD
02
FF
F8
03
03
0B
04
04
FF
00
01
FE
FF
06
04
01
FF
FE
02
03
F9
FD
00
FD
FB
03
01
FF
01
00
FD
00
01
FD
F4
FF
00
FE
F1
FD
05
03
FD
FE
03
FC
F8
01
FF
00
02
01
FD
FF
02
F5
0B
F3
00
01
FF
00
FD
04
00
00
F5
07
08
FD
F9
01
00
FF
07
01
FF
F7
FF
01
04
00
00
02
07
07
02
04
0E
18
F8
05
01
FF
FE
00
01
02
08
02
FE
F5
0B
01
03
FF
FD
FF
02
F7
F8
00
01
00
00
FF
04
05
01
02
04
2E
01
04
FF
FF
00
00
FE
FD
FA
FF
08
0A
F7
04
FE
02
05
FE
01
03
FB
03
00
00
FF
03
FB
06
00
03
F8
FF
03
03
00
FD
FE
FF
01
01
01
FE
FB
02
01
01
FF
01
02
02
00
FD
01
00
00
FE
01
02
02
FF
03
02
FD
02
FD
00
FD
00
FE
07
FC
08
FA
FF
04
00
EB
03
01
FE
02
FC
FF
09
F7
00
04
01
01
04
01
07
FE
08
0B
CA
FA
03
FE
FF
FC
00
01
04
FC
00
03
05
01
FC
FE
FF
FE
01
00
FF
FB
04
FF
FF
05
FF
FF
F6
FF
01
FD
EE
FD
03
00
FF
FD
FE
00
FE
FE
FD
FF
01
FD
FF
01
01
FE
01
02
00
FE
01
02
01
FE
FE
FF
FE
FE
F9
FC
00
01
FE
01
01
02
FA
FE
F8
02
02
F8
FB
04
FC
00
FF
FF
FD
03
FC
FB
02
01
FF
FE
FA
F9
D0
FF
FD
0A
01
00
FE
FF
FE
03
01
FF
FD
FD
FF
FA
00
02
02
FF
FD
FE
FF
FE
FE
FF
03
FF
FD
02
01
03
00
FE
FE
02
FF
FF
FE
00
FE
FF
FC
FF
0C
05
00
FD
FA
01
FD
FE
FE
FD
FE
FE
FB
00
01
00
FF
FE
FE
FF
D6
02
FC
0A
06
FC
02
01
00
02
FF
01
00
02
FD
FB
FC
FF
00
02
FF
00
FF
00
FF
00
02
FD
FE
FD
FD
00
FE
03
FE
FF
01
01
FD
02
00
FC
01
03
00
FF
FD
01
04
FF
00
FF
00
01
01
00
F0
FC
FD
FD
FF
01
02
FF
FF
02
FC
FF
EC
FF
00
00
02
02
FD
FE
01
01
FF
FC
01
02
FD
FE
02
00
FF
00
FD
00
FF
00
02
02
FF
01
FC
01
01
FF
00
01
FE
FD
FE
F8
12
04
03
FD
03
0A
0C
FF
FE
FC
FE
FD
00
00
0E
05
02
00
FF
FF
03
01
E4
01
ED
F6
FC
03
FF
02
FD
FE
06
02
0F
FB
F6
FE
F7
06
04
FE
02
FB
00
FF
F4
FD
00
FF
FE
FB
00
EC
03
02
FB
15
D0
FE
07
00
03
FC
FE
01
01
F7
05
03
04
F7
02
03
FF
00
FF
FF
F6
F9
FF
FF
01
07
02
00
02
01
EF
F7
CE
05
F9
FF
01
FC
FA
01
F6
07
01
06
08
06
00
02
FE
0A
FB
FD
F8
01
02
03
01
03
05
F3
FD
01
01
FD
FB
FE
01
03
01
F9
FA
02
FF
F0
FE
FE
05
F5
FF
02
01
F8
FF
01
00
F2
04
01
00
01
FE
07
FC
02
01
04
07
03
FF
FF
02
02
FE
FD
01
FF
FD
02
FD
FF
02
FF
01
FE
FE
FF
FD
01
FE
02
FD
FF
FF
01
FC
FF
FE
FF
FF
FE
FF
02
02
F8
04
FE
06
E3
01
06
F9
DD
FE
02
FE
02
00
FC
05
F8
FE
01
03
07
00
0B
06
02
07
05
FD
02
01
FE
03
02
FF
00
02
FD
FE
01
FE
00
FD
00
00
FD
FE
01
FC
FE
00
FE
01
FE
01
01
FF
FE
FA
00
FA
FF
FE
03
FE
F6
FB
02
F3
00
04
03
01
FB
00
F2
FF
06
01
FE
05
0C
00
01
01
00
02
FD
F8
00
FB
08
FD
FE
FE
FE
02
F8
01
02
FE
00
FD
01
05
FB
01
FD
03
02
00
03
FF
01
FE
00
02
FC
01
FF
00
03
FC
01
F8
02
FE
01
FF
FD
01
FF
00
01
FE
FF
01
00
FF
FF
FE
02
02
FD
FE
FF
00
FE
02
FF
01
FE
FF
03
01
00
00
FF
00
FE
FD
00
0C
FE
11
F5
F9
00
FC
FB
01
01
03
FB
FD
00
F4
F3
01
FE
00
FC
FE
F1
03
01
F6
07
E0
FC
06
01
00
07
01
03
0A
FC
04
F9
01
FC
03
00
02
FB
FF
FF
FB
F2
02
01
FE
FE
FE
06
FF
00
BF
04
F5
00
02
02
FE
06
FC
FE
F6
FB
00
FB
05
FF
FB
FD
FD
FC
00
02
0C
F9
02
00
02
FD
FD
F9
F3
02
FD
0A
06
FE
FD
02
FF
02
FF
FD
FD
01
FE
02
00
FE
00
FF
02
FF
FC
01
FE
00
00
00
FD
FD
02
01
FD
00
01
FE
FF
01
FD
FE
FF
FF
04
01
FD
FE
FA
FD
FD
05
FA
FE
01
00
02
02
FD
01
01
00
FF
FD
FD
04
FA
FE
FC
03
03
FE
FF
00
FE
F4
10
03
FB
01
02
0B
FE
FE
01
00
FD
FA
FF
01
01
02
FF
04
02
FF
01
0A
F7
FF
F3
0D
FA
00
FF
FD
03
00
FD
FE
00
FF
00
01
FC
03
FD
FE
01
FE
FE
00
00
FC
00
FF
FD
03
01
01
FC
FD
FD
FF
FD
FE
FE
FF
FE
FC
04
FF
07
FA
06
06
F5
0F
05
04
FF
0C
FD
01
FE
FF
02
FE
FE
04
FA
01
05
FE
FE
03
1F
FA
02
02
02
F5
06
03
F6
05
06
06
06
07
FE
FC
00
12
00
01
05
FD
FE
05
01
03
05
FB
FC
00
02
E5
0E
FA
FD
FE
00
F8
00
05
FE
00
00
F5
00
FC
FD
03
00
F5
02
03
ED
FA
FE
00
FE
01
00
FE
E6
FE
F2
00
FF
00
FD
00
FF
FD
FE
00
02
FE
03
03
02
01
04
02
FE
11
FC
04
F5
05
01
02
FD
03
FB
04
08
02
FE
1C
F7
FB
04
FE
FE
00
0E
FE
FF
FD
F9
02
0C
FA
00
03
01
06
00
00
00
00
01
01
FF
04
FF
F8
06
02
04
08
DA
F9
FD
02
00
00
0A
01
FB
EB
03
06
0F
E7
07
FF
00
0F
FF
FE
FD
02
FC
03
FD
04
00
F8
0F
02
03
F9
B8
FE
00
01
02
01
04
00
08
10
F2
0F
FF
FA
00
FF
FF
16
FA
00
FB
F4
FC
03
00
F9
00
FC
03
FF
03
EF
CF
F7
FC
FE
01
01
05
FE
0F
00
00
F9
00
00
02
01
02
00
02
FF
00
FD
00
FF
00
02
03
01
F8
FE
FD
01
04
01
FE
FE
FF
FD
00
FF
FD
FC
02
FD
00
FB
FE
FF
00
02
03
FE
FD
FE
01
FF
02
FF
FD
03
FE
FF
FF
FE
FC
FC
FE
FF
00
00
FE
01
05
FF
FE
FF
03
FD
04
03
02
FC
02
FF
04
10
FC
FF
FF
FC
01
04
0C
FF
0C
FB
FE
01
04
00
FD
FE
02
00
FD
01
FC
FB
FE
FB
FE
FD
FE
FC
00
FD
FB
FC
FE
02
02
FE
FF
FA
FA
00
FD
04
F7
00
FC
03
FF
FA
01
04
FD
FF
00
F8
F1
01
00
04
FF
F9
FF
03
E7
0C
FF
FF
FF
01
01
0A
F8
02
FD
E8
01
05
02
02
FD
FE
FF
FE
FE
F6
FB
07
13
F7
04
FE
FE
0B
00
02
01
FF
01
03
FF
FE
02
FE
0E
01
0B
FE
02
F6
03
FE
FD
FF
01
FD
01
00
03
FD
FF
00
FC
00
00
FC
01
02
03
FC
01
01
FE
01
FC
03
FB
FF
FF
FF
00
FD
FD
FE
FF
03
01
02
08
FF
00
FD
00
FD
FE
00
FF
FF
01
01
F9
03
02
FD
FF
FF
FD
FD
00
00
FA
07
F4
01
FF
FF
FE
01
FD
01
FD
02
FE
FF
FD
00
FF
02
00
01
02
00
FF
FE
FE
FF
03
02
01
FE
FE
01
02
01
FF
02
FD
FF
FE
FC
FE
FD
02
02
0D
04
FD
05
02
02
01
04
FF
03
03
FF
01
03
03
07
FE
FF
07
02
02
0D
2D
FC
05
02
FF
FC
09
00
0D
03
03
F9
EA
00
00
04
FF
FF
01
FE
FE
04
05
FF
FF
02
02
13
00
01
05
F9
03
01
FD
00
00
F7
FA
F9
F8
FD
FB
FA
02
02
03
01
03
F3
02
FE
F6
06
01
FC
01
FA
01
FF
03
01
00
F7
FE
07
00
00
FE
FC
01
FE
FA
F4
04
FA
FC
F4
FD
03
FD
FC
02
FF
FB
F6
FE
02
FE
00
02
03
FC
00
D7
FE
F2
FE
00
FE
FF
03
02
03
02
FE
02
F6
0B
00
FE
FC
00
FF
02
00
03
FD
FF
FF
FF
02
FF
04
F6
01
FB
FB
FC
FF
02
FE
FD
02
04
03
F4
06
02
FC
F7
0B
F7
FE
01
FC
00
01
00
FC
03
FF
01
FD
F7
FD
D4
FF
FD
0C
08
FE
FD
01
FF
FF
FC
00
07
F1
FE
FF
FD
EF
FB
FD
02
02
00
FD
05
FF
FD
FD
02
00
02
FE
06
00
F5
09
FD
02
FE
02
02
03
FA
F9
09
FC
FA
E1
00
02
FF
FB
01
F4
04
FC
06
02
FF
FB
FF
FF
FF
FA
03
FF
00
01
01
FB
04
03
03
00
02
FF
02
F0
01
00
FF
F6
FE
FF
02
00
FD
01
04
F8
02
00
FE
FD
FE
FE
F4
03
FC
13
FC
FE
04
03
00
FF
FC
06
0E
10
01
0C
05
13
FF
FC
FE
0E
01
01
01
F1
02
05
FD
FE
FB
F4
F9
FF
FB
F6
FE
FA
FB
00
FF
FF
F2
FF
FE
05
00
01
FB
00
FA
FD
01
00
00
00
FB
FB
FE
02
01
FD
FC
F4
E5
FD
FF
01
07
FE
FE
01
FE
02
FD
00
03
03
FE
F1
FE
01
FF
FF
01
FD
FC
00
0D
02
02
00
01
02
FC
FF
F8
FD
F9
08
FB
F9
01
FF
00
06
02
FC
01
05
06
FE
0A
06
01
03
00
00
01
02
F3
FE
FE
01
FD
03
03
0C
00
FD
F7
F4
F7
FF
FF
02
FE
05
FE
01
F2
F9
FD
FF
FC
04
02
F5
FE
03
01
00
01
07
00
00
FE
00
00
FD
F8
02
F9
F1
FA
01
02
FE
01
02
02
02
FD
00
FB
FF
00
00
01
FD
FF
01
03
FE
01
02
FE
FD
FF
FE
02
00
00
FD
02
FD
00
FF
00
02
FE
FF
01
00
FE
FF
02
FB
01
01
00
02
FE
00
00
01
FF
FF
FE
00
00
02
02
FF
FB
03
FE
04
FE
FE
FF
FF
FE
FE
04
01
09
FD
01
02
F2
FA
03
04
01
FB
FF
02
F4
F4
00
01
FE
00
FC
F7
05
FE
FB
03
F2
FE
FF
02
00
FD
FA
FD
F7
02
00
F2
F5
02
02
01
FD
FF
02
03
FC
03
FE
FF
FF
FF
00
04
FD
00
01
00
F8
00
00
FE
00
08
08
02
07
F8
01
01
FE
F7
03
FF
FF
00
04
FF
FE
F0
FD
03
FE
01
04
02
03
FF
C8
02
D4
03
01
FF
FF
FC
01
FE
02
FF
FF
FC
FF
02
00
01
01
FB
00
FF
01
01
FE
01
01
00
FF
02
FF
00
FF
FF
02
02
FD
FD
01
FE
01
FE
01
FD
01
FF
FD
03
01
FD
FF
01
01
00
02
00
FF
FF
03
FE
FE
00
FF
01
00
00
FC
02
00
FF
01
FD
FF
FF
00
02
00
FF
01
01
00
01
FF
00
01
FE
02
01
03
FC
FF
FE
01
01
FF
03
FC
FD
FF
FC
01
03
FE
02
FE
02
00
F7
02
F2
0C
04
FE
FE
FD
FD
FF
FF
08
FE
03
FF
02
02
01
FE
FE
01
F9
0E
FE
FE
02
FF
00
03
03
03
FA
FF
FE
00
0D
FF
04
02
00
FB
01
FE
07
09
FE
04
FE
04
FF
FF
03
FE
09
0C
FD
00
02
FE
FE
FC
01
01
08
0A
FA
01
FC
0C
FB
FD
FE
00
FF
02
00
FD
FF
FE
FE
FC
00
F6
04
00
FC
FF
F7
F8
01
FE
03
FF
00
FF
00
FE
01
00
FD
FF
FD
01
03
00
01
FE
FC
FC
FF
FD
03
FF
FF
FD
FD
FF
FD
FE
FD
01
02
FE
FF
FB
03
01
02
E9
00
FD
EE
EA
FE
05
FE
FE
03
03
FA
0B
03
01
FE
03
01
05
05
FF
05
F7
08
02
04
02
FF
F3
03
01
FD
FF
FD
FB
FF
01
03
FE
FE
FB
01
FD
EC
03
FE
FE
02
FB
03
02
F9
FF
FC
F4
FA
01
FF
FE
02
FB
FF
FF
F8
FE
FA
04
01
01
01
04
01
00
02
FF
F7
FD
FF
02
FF
FE
FF
00
FE
FE
00
FF
F6
00
FC
FD
FE
FA
0C
F9
F9
00
EE
03
0F
01
05
00
02
03
01
03
FF
FD
00
01
01
01
04
F9
03
00
02
04
E8
03
05
FF
FF
FF
FC
F9
06
F6
FA
D3
00
F7
01
F2
FF
F8
FD
02
06
15
FE
FE
FD
FA
F9
F0
07
02
FD
F4
EC
FA
FE
00
00
F5
FF
00
FE
FD
FE
03
0A
01
04
08
00
E5
02
02
EA
FD
00
FC
03
FF
02
04
01
00
02
FC
05
07
02
FE
FD
FF
04
02
F7
F6
FC
0D
0A
F3
FB
00
00
FD
01
06
FF
E7
00
01
01
00
02
FC
FC
02
03
F8
D1
03
00
FE
01
F7
00
FD
01
FA
F1
04
06
FF
01
06
00
FC
00
FE
EF
06
FD
02
03
FE
02
09
08
00
0D
00
DF
03
01
02
FD
FE
01
FF
00
FE
FD
FE
01
FC
02
01
00
02
00
01
01
01
FE
FE
FF
FF
00
02
FE
00
00
00
FD
02
02
01
FE
04
02
00
FF
01
03
FD
FD
FD
FF
FC
FF
00
FF
FD
02
FE
01
FF
FE
02
FE
02
FE
01
FC
01
FE
FD
02
02
FF
FA
09
04
12
F9
FF
02
02
FD
02
00
FF
FE
FF
03
EE
E5
FF
01
FD
00
00
FC
07
FF
E2
0B
EF
FA
06
00
FD
FD
FF
01
02
0B
FF
FF
0D
05
04
00
FE
04
FE
02
09
01
FE
02
FF
08
04
F8
00
FD
06
06
F7
FE
01
02
FE
FF
FF
FE
FE
01
01
FD
00
01
00
00
FF
00
FD
01
02
00
02
FE
01
01
FF
FD
FE
FF
02
02
FF
FD
FD
02
01
FD
00
FC
01
E1
F6
01
F5
DF
03
02
01
00
FF
03
FF
00
00
FE
FF
FE
00
F9
04
03
FD
F3
F7
02
03
FE
FE
01
00
00
02
FD
FE
01
FF
02
01
01
01
01
00
00
00
FD
01
FE
FF
02
02
02
FE
00
00
FE
00
FF
FD
01
00
FE
00
00
FE
FD
02
FC
FE
00
00
FE
FF
FE
FF
FE
FE
FF
FE
FC
FF
FE
FE
02
FF
FD
00
02
00
02
00
FF
FF
F5
01
FD
09
FD
F2
FF
04
00
01
03
01
0A
FE
FF
01
16
FA
FB
00
FD
00
09
0F
02
1C
03
D9
04
02
01
01
FD
01
FD
00
02
01
02
FE
01
FF
FE
FD
FC
02
FD
00
01
02
FE
02
02
00
FF
FE
FF
00
FE
01
FD
FF
00
02
F9
01
FE
03
F9
00
08
FE
F4
FB
FD
00
04
FC
00
0A
FA
01
03
01
04
FF
08
07
00
07
07
02
02
00
01
FF
FE
01
01
FB
EE
03
FD
F7
EC
00
06
00
00
03
FF
01
FD
01
00
01
02
FE
01
FA
02
02
00
00
04
FD
FF
FE
FE
02
FF
00
00
FF
FD
FE
00
FF
FF
FE
00
02
FD
FF
02
FE
FD
FF
01
01
02
FD
01
FF
FD
00
00
FE
01
FD
00
02
FE
FF
FD
FE
01
00
FD
00
02
FF
00
00
02
FF
FF
02
00
02
FE
FD
FE
FC
01
FF
02
FD
FE
FF
FF
FD
FD
FD
FF
FE
01
02
01
FF
01
02
01
FD
00
FE
00
00
FD
00
FF
01
FF
01
FF
FD
FF
FF
01
02
02
FD
FF
00
FA
02
01
05
FA
00
01
06
02
02
02
03
04
FF
01
F3
FF
01
02
02
FE
01
FF
FE
01
FF
17
FB
FB
01
02
00
FC
FE
01
FB
FF
FD
F9
FD
02
00
FF
FE
FD
FD
02
FF
FC
FF
02
FE
02
FE
FD
F8
01
FD
FC
FB
FF
00
02
03
F9
F8
00
FD
00
04
05
09
06
03
FF
00
06
03
00
04
0E
FB
03
03
01
06
00
00
00
0C
05
04
00
FA
02
FF
FC
08
03
F6
06
04
FC
FE
06
00
05
00
F5
FF
00
F1
07
01
FC
01
FE
02
03
F8
00
FF
F8
02
07
FC
FF
01
FD
FE
00
F5
F2
FD
FC
08
FE
02
FA
00
FE
00
FD
00
F7
FC
02
FF
05
FD
F4
FE
00
E3
15
EE
FF
FD
01
00
0A
FC
FF
02
FE
FA
03
0A
FD
03
F9
FE
04
FF
01
07
0A
FE
01
FE
FF
04
FC
05
FF
02
08
F6
FF
00
FE
FF
FC
01
FD
FB
CF
00
05
EE
CE
00
05
01
01
02
FD
02
03
02
01
FE
01
00
0E
FE
FE
09
F6
00
FF
FF
FE
FE
01
08
00
F5
07
FE
F9
F7
04
FB
00
FE
FE
FD
01
FA
FF
01
FD
01
FD
FA
00
DB
00
FC
0D
07
FC
FD
FF
02
F6
02
FE
0C
E8
03
FF
02
E4
03
00
01
01
00
FD
F6
F1
FD
02
FF
FF
FF
00
02
02
CD
F7
C1
01
FA
FE
FE
FD
07
FF
0A
E8
FE
04
F6
ED
02
03
FD
FB
03
FF
FB
F4
01
FC
03
01
FB
FC
08
02
F9
FA
FD
FD
00
00
FD
FD
F6
01
06
08
02
00
03
09
F9
FC
FE
FF
FF
01
F6
EC
01
01
00
01
03
F7
FC
00
EC
04
08
05
01
00
01
FD
FE
FC
FE
03
02
FE
02
FE
00
FF
FF
00
FF
01
FB
FD
FC
FE
FE
00
00
01
FC
FD
F9
04
FB
FC
01
00
FE
03
0A
02
01
F3
FC
FE
F4
EF
01
FF
01
FC
01
02
F6
F8
FF
FC
FE
FC
FF
FE
03
FE
FC
0B
F6
FB
05
01
FE
00
04
FF
01
F4
FB
00
0A
F8
05
00
FF
FD
00
FF
F7
00
FF
02
FF
FF
02
FC
FF
FF
02
FB
F7
02
03
FF
FF
F8
FB
00
01
00
FF
F2
FC
07
FC
01
FE
F9
00
03
F0
FD
02
FE
FE
02
FC
FE
E5
00
F5
04
00
00
FE
FF
00
FD
02
FF
02
F6
03
02
FB
F0
FE
04
FD
09
FD
01
F3
00
03
02
FF
02
FB
0A
04
00
01
03
09
FC
01
01
03
FA
0C
FB
FC
FF
F7
02
10
FC
04
02
00
FF
03
FF
EF
01
01
FC
02
FE
01
FB
03
02
08
01
F3
FD
04
FE
FE
FE
FE
FD
FD
00
01
FB
02
FD
FF
FD
00
01
01
FE
02
01
04
01
FD
03
FE
FF
FE
01
01
01
02
FE
01
FF
01
F8
F8
01
F5
03
FF
FB
FC
04
00
F7
01
02
01
00
02
06
FF
FE
00
02
02
FA
FA
03
FB
ED
06
00
FC
00
00
FE
01
02
FF
03
00
FD
00
06
FC
03
00
00
FE
00
01
FB
04
FD
FF
FF
FD
FF
FB
02
FC
FF
02
01
FD
01
01
FD
FE
01
FE
FF
01
FC
FE
FC
FF
01
00
FC
02
FF
FC
01
03
01
02
FF
FE
00
FD
02
FE
FB
FE
FF
00
FE
FE
01
FF
FD
01
FF
FF
01
FB
01
00
FC
FD
FE
FC
03
01
FE
01
00
FE
00
FF
FD
00
01
01
02
00
02
02
01
03
FD
F4
01
09
05
01
F4
FB
04
FC
02
01
00
FB
00
12
F3
FF
FE
00
02
FC
00
F5
FE
FB
00
01
F9
FF
01
FD
01
FD
FE
02
FE
01
01
01
01
01
FF
FE
00
00
01
01
FF
FE
FD
01
02
FE
00
00
00
01
FE
00
02
00
02
FE
FD
FF
01
FE
FE
00
FC
01
FE
01
FE
FF
03
00
FF
00
FD
FE
FD
00
00
FE
FD
FD
03
FE
00
FE
02
FE
01
00
FC
07
FF
07
FE
FD
00
EE
F8
01
07
01
F8
01
00
FD
04
01
FC
01
03
04
0F
FE
00
0A
05
03
01
FE
FE
02
04
09
00
14
FD
04
04
04
03
02
00
01
FF
02
00
F9
F5
00
FF
FE
01
FF
FC
03
FF
DE
0A
EA
FD
00
01
00
FE
0A
03
05
03
FB
06
FE
04
01
FF
FF
0B
FA
00
FA
FD
FF
FF
01
04
FD
08
06
FF
02
00
F9
F9
06
FE
03
01
FD
02
FF
F4
FC
05
09
F4
FE
01
00
00
FF
00
02
FA
04
02
02
02
00
0B
F9
00
FA
09
FA
FE
03
00
FE
00
01
FD
10
FB
00
FE
F7
F5
03
03
FE
FB
00
01
F0
03
06
FE
00
FF
01
00
FD
01
02
FA
00
00
FD
FE
FF
02
FE
FD
01
00
FE
FF
FD
02
02
02
FD
02
FD
FE
01
FE
FE
00
01
00
FE
00
FF
FF
FE
02
FF
02
FF
FF
02
FD
01
FD
FD
02
00
FA
FC
03
FF
01
00
FD
01
02
F9
03
01
FD
01
FE
FE
02
F9
FE
FF
FD
00
02
02
FF
01
FF
0A
01
FF
FB
00
02
07
06
01
05
FD
01
FD
FF
F8
F7
01
02
01
01
02
FE
FF
02
F3
FD
F7
FF
FE
03
01
00
0D
01
08
F4
00
02
FE
ED
FF
01
FE
FD
00
03
0B
FA
00
00
02
03
02
FE
02
FF
FB
FC
01
F8
01
FD
FD
02
03
03
01
01
FB
0A
0A
01
FF
03
02
10
02
03
FD
FC
02
03
00
00
FC
00
01
FF
05
F5
F7
FD
FE
00
FF
05
FF
FD
F7
F6
03
04
0F
04
03
FE
00
FE
FF
00
0C
07
FD
FE
FF
FF
04
F9
0D
FD
02
FC
FD
01
FD
00
02
FE
FD
02
EA
23
00
FC
02
29
FB
FD
FE
FC
FD
FE
FC
E6
01
FD
FE
FE
FA
FA
F9
FD
C1
FD
06
FF
04
FF
FE
04
FB
FE
09
F5
06
02
06
F0
01
02
02
FE
02
FF
FD
F8
FE
FE
FD
04
00
FE
05
01
EA
F4
C0
04
FF
03
FF
03
03
00
FB
FD
FF
F6
09
03
FE
00
00
FE
04
02
03
FE
03
03
02
FB
01
04
F6
02
FD
00
F7
03
04
02
01
FD
FD
02
F5
FE
FD
03
0E
FA
02
02
00
09
02
01
07
FF
00
00
01
FF
FC
FD
FE
FE
06
0B
03
FE
02
01
FF
FD
F8
F8
F8
FE
FB
04
0B
00
02
01
03
00
00
02
FC
06
FE
FE
FF
FF
03
F8
00
01
06
EB
00
03
01
FE
03
04
02
00
F8
04
00
00
04
02
01
FF
02
FD
02
00
FB
F3
FD
03
FE
05
03
0A
F8
02
F2
09
04
06
F6
00
FF
02
F4
03
03
03
03
F8
FA
02
F8
FE
FD
FC
FD
00
FA
FB
04
FE
FD
01
FA
F5
CD
01
FD
0A
02
FA
FE
FF
FF
FD
0A
03
12
F6
01
0E
07
F6
FC
01
FF
0C
FF
03
FD
E7
00
05
00
03
FF
02
01
FE
FD
03
F4
FB
03
FF
00
01
FA
01
FB
05
02
F3
FB
04
FB
FF
FE
FD
FD
FF
FC
FE
00
00
01
00
FA
F9
CF
00
00
09
03
FD
01
FE
FD
07
00
03
08
F4
00
FD
FE
F4
FD
02
FE
FE
01
FF
05
FA
FF
01
01
FD
00
08
F0
FE
F9
F9
FB
04
01
00
02
FC
FF
FD
03
01
FE
00
FD
02
01
FD
02
FB
01
00
FE
FA
FE
FE
00
FD
FD
FF
01
00
FD
05
00
01
01
FE
FD
FA
00
FE
09
FA
03
FC
F1
F1
FF
02
00
FA
03
01
02
00
05
FD
01
FF
00
11
FB
02
02
F5
07
FF
00
FF
FD
FD
00
FE
FF
FF
01
FE
FC
FF
00
FF
FE
FF
00
01
01
FD
02
FE
02
FD
FD
01
FF
FF
FD
FE
FE
FE
00
00
02
FE
FE
FE
FD
FB
00
FC
00
FD
03
04
01
FD
FF
FF
FF
FD
02
FD
01
FA
FF
01
FA
02
FA
F9
FD
03
00
00
FE
FF
F6
01
0B
04
01
FA
F9
01
FC
00
FF
F9
00
03
FC
FD
03
FC
FD
02
FB
F6
D1
FE
FA
07
08
FB
FF
00
FF
FD
05
FF
F9
F5
02
01
F1
F0
05
03
02
03
01
02
06
0E
00
FE
FE
00
04
0C
00
FE
04
F4
07
FF
FE
FE
00
FD
FD
FE
FE
FE
FE
FF
FC
FF
FF
FF
00
FE
00
02
01
01
02
00
01
FE
FF
00
FE
FF
02
FD
FE
00
00
01
02
02
00
FD
FD
02
FD
FE
FE
01
00
01
01
FE
03
FD
00
FD
FE
FD
02
FE
FE
FD
00
03
00
FD
FD
FD
01
02
01
00
FA
FE
FC
05
04
FB
FD
02
01
FC
FE
09
FE
01
FE
E8
FD
01
02
FE
02
07
01
01
E7
13
06
FF
FC
01
FD
05
02
FF
0B
DF
06
04
00
DB
00
02
FF
FF
02
02
FA
02
FE
FE
02
FD
02
05
FF
02
00
F8
08
FF
FE
02
FE
F6
00
00
05
FC
F9
05
08
00
FF
07
01
FF
01
02
F7
04
FF
FF
00
FE
02
09
08
FD
07
00
EA
06
FD
FE
02
05
FB
00
0D
E8
FF
07
02
DF
00
05
FE
FF
03
01
00
F4
FE
04
FE
05
01
02
10
01
06
FD
02
03
01
FE
FE
FE
0D
FF
FC
FD
EB
05
13
00
04
FF
02
0E
FF
FE
EF
02
FE
FF
FE
FE
05
FF
04
02
08
FA
E8
FE
03
FD
00
FB
02
FC
0C
F4
03
06
09
F3
00
F8
03
00
FE
01
06
FB
FF
01
01
00
FE
FA
02
02
04
03
DF
FA
03
03
FE
FC
10
01
05
FE
01
0A
03
03
00
00
01
07
FC
FF
FA
FB
00
00
02
FE
FC
07
FF
01
F8
0A
F9
FA
07
FF
02
00
0B
00
16
E6
FA
FD
01
E9
02
03
00
F8
FD
02
FF
E8
FE
02
FE
FF
00
FC
08
01
A9
07
DF
01
FE
FF
02
FC
09
02
F4
06
04
07
FC
09
03
FD
02
09
FD
FE
FF
04
07
00
02
FF
FF
14
FC
FF
02
08
11
FB
05
FE
FF
F8
06
FE
00
FB
FC
FC
FD
FE
01
06
02
F8
04
02
E9
FE
FF
FB
01
FD
03
06
FD
FE
FD
FC
FE
06
01
FF
FF
FE
00
FD
FF
00
FF
01
02
01
FD
FE
02
FF
FF
01
00
01
03
01
FF
FD
FE
01
FB
01
FE
FD
03
FE
01
03
02
FB
01
03
05
F5
03
03
F7
F4
02
00
01
FB
02
FE
F7
F8
02
01
FE
FE
00
04
03
01
FE
01
0E
00
02
02
FF
F5
0C
03
05
02
04
03
09
04
00
FE
FE
FD
02
02
04
F5
FD
01
02
00
01
03
ED
00
F1
FA
01
FC
FA
FE
01
FD
00
00
FD
FE
02
FC
F3
FC
05
03
00
FE
FF
00
FA
0D
03
FE
00
03
02
0B
FE
FF
08
FE
07
01
FE
02
01
FC
FE
FB
FB
E2
00
04
FE
DE
FE
FB
FD
00
FF
FD
FE
FE
00
00
00
02
FE
11
F3
FF
02
0C
FC
FC
02
FD
01
02
00
FE
01
FE
FD
FE
02
FE
01
01
FE
FF
FD
FD
FF
00
FE
01
01
FF
00
FF
02
02
01
01
00
01
00
FF
FE
FF
00
00
FD
FE
FF
FE
03
FE
FE
01
FE
FF
00
00
FE
FF
FE
01
FE
FE
02
01
00
FF
00
FE
FF
01
03
FF
02
F1
07
FF
FB
02
FB
00
08
01
00
FE
02
F9
01
02
D2
00
FF
FF
02
00
04
05
FB
01
F4
F1
07
02
FA
02
01
01
01
FF
FF
FC
FC
04
0A
01
03
FE
01
FB
01
FD
0D
03
00
00
01
02
FE
02
04
FD
07
06
03
00
FB
FE
FE
FB
06
00
F0
EB
03
FF
F8
DB
01
04
FF
08
03
00
E8
0C
02
02
00
01
04
04
00
01
08
F6
02
02
03
FD
FE
FD
01
02
FF
FF
FE
FC
FF
03
00
FF
02
00
02
02
FD
01
00
01
01
01
00
FD
01
FE
FD
01
01
02
FE
FF
02
02
FC
00
00
03
03
F7
FB
04
FB
01
FF
FA
F9
04
F9
FD
02
FE
01
FE
F9
F8
CE
01
FF
09
05
F9
01
00
FE
FC
09
00
05
06
FD
02
F9
0A
00
02
FE
0C
FD
01
FC
07
05
02
01
03
FB
04
07
00
04
03
F6
FB
05
02
FE
FA
00
FD
FF
FE
F3
04
04
FD
05
03
FE
04
03
FE
F6
1A
FF
01
FE
FD
01
07
10
00
24
04
D9
02
01
02
FD
00
01
01
0C
FE
FF
D7
F4
FE
01
02
03
F8
02
01
03
0B
FF
FE
01
01
FC
F7
04
01
02
F8
06
FE
F8
01
00
FD
01
FF
FA
E3
FE
09
FD
E1
04
02
FE
FB
02
01
F6
FB
FD
00
00
07
02
FE
0F
FF
04
FE
C0
02
01
FE
FE
FC
08
00
07
FB
EF
04
11
FF
02
02
02
0B
01
FF
01
05
FB
FE
FF
FE
00
FC
0B
FF
11
FF
DE
F9
03
03
FF
00
FD
00
FE
FF
FD
FC
01
FE
FF
01
02
FD
02
FF
FF
02
00
FF
FF
01
01
02
FE
FE
FD
FF
01
FE
FE
00
FD
FD
FA
FD
0F
06
05
FB
F8
00
FF
01
FE
FC
FF
FE
0B
FD
02
FC
00
01
FD
F9
D0
02
01
0C
05
FE
00
00
FE
FB
FD
FF
F2
F3
FD
F9
FB
F1
01
FF
03
FE
02
FE
00
FD
FF
04
00
00
03
07
FE
00
02
02
FB
00
01
FF
02
FE
03
FE
0D
05
FF
FE
FB
08
FC
04
03
FC
02
FE
F7
F7
00
FF
FD
00
FE
02
04
02
D4
F5
EE
FE
01
FF
00
07
FF
00
FF
02
05
FB
01
02
FE
FD
FE
00
01
00
FC
0A
FF
00
01
FF
03
FD
03
01
FE
11
FD
FF
FA
00
02
00
05
FF
10
F7
FB
FD
FB
02
01
00
FF
FC
FC
03
F2
EF
02
FF
FE
FB
FD
F2
04
FE
F5
0C
F4
FA
03
01
FE
05
00
01
01
FB
01
FC
06
05
05
FF
FF
01
00
01
03
FE
01
02
00
00
04
FE
FE
FE
01
02
FF
FF
FF
FE
02
FC
FE
F9
04
01
FF
E8
F8
01
02
04
FE
FD
01
FF
FB
07
01
FE
01
FF
FC
FB
FA
01
FF
FA
FE
04
FF
01
FE
00
FC
00
FE
FF
02
F5
F7
FD
F6
FC
FD
01
FD
01
12
EF
02
01
FE
02
FA
FD
E9
FE
FA
FF
FF
FB
01
00
FD
FF
02
FE
FA
00
FE
FB
02
00
00
03
00
FC
04
02
02
04
01
FE
FF
FD
FE
02
00
00
03
FE
FC
02
00
00
01
08
0B
FF
0A
00
03
FD
03
FD
00
FC
FF
08
FF
FD
0B
05
00
01
FF
02
01
FD
01
01
F4
0B
FF
FF
02
FD
00
01
02
02
FF
FF
02
FE
01
00
01
FF
FE
FE
01
00
FF
FE
FD
01
01
01
FD
FF
FF
00
FE
FE
01
FE
02
FE
01
FD
FE
FD
00
01
FB
01
00
FD
00
01
FE
00
FD
00
01
02
01
00
FF
FE
FF
02
01
02
FD
01
00
FF
FF
00
01
01
FF
02
01
00
FE
01
FD
FD
02
01
FE
FE
02
FF
FF
01
00
01
02
01
FF
FD
00
02
FE
01
00
01
FD
02
FF
05
00
FD
FC
FC
FF
02
0B
07
01
FE
03
07
01
FE
05
08
FC
FF
03
FE
03
FD
08
00
09
05
FF
03
02
FF
FD
04
F5
01
FE
01
00
FF
07
FF
01
FB
00
FA
FF
00
04
FD
FE
03
FD
01
00
09
FE
02
FD
0A
00
01
FB
FD
01
FE
02
FF
FE
01
FF
01
02
02
01
00
02
01
02
02
00
FD
02
00
00
03
FE
01
01
FE
00
FF
01
00
FE
01
01
01
F9
FE
03
03
03
F4
FB
06
FA
02
01
FC
FF
FE
07
FC
00
01
01
FF
FB
F5
CB
FF
FD
06
07
FD
FE
01
02
FE
FE
FE
FB
FF
F6
FF
06
FD
FF
05
FF
0B
04
FE
03
FF
FD
02
00
01
03
FF
07
00
03
00
E5
FF
03
00
02
FA
03
FC
FF
F2
FC
FD
FD
F4
FF
07
FF
FE
03
02
00
FA
00
02
FF
00
FF
00
FE
00
00
04
FC
02
02
01
FE
03
00
FC
0B
FB
01
FA
07
FF
01
FF
FF
01
FF
FE
06
FB
FC
00
00
FC
02
FD
02
01
FB
02
FD
FF
03
FD
01
F7
01
FF
FE
EE
00
F8
F9
E9
FE
02
01
FC
04
01
FF
FA
FE
01
03
04
01
03
F9
02
02
03
04
05
04
00
FF
FC
0B
FE
FE
00
FC
06
F8
FB
00
04
FD
F7
FF
01
F1
FD
01
00
FF
00
FE
FE
04
00
FF
00
0C
01
02
01
02
03
0A
FF
10
ED
FB
00
FD
EB
02
FC
FF
FB
01
00
F5
EE
02
FE
FF
FC
00
F1
05
02
F8
09
D6
FD
01
01
01
07
FF
FE
F9
05
04
FC
0C
06
01
FF
02
0A
00
04
10
07
01
00
03
04
07
FE
FC
FF
0B
06
FB
FF
FB
01
01
FE
12
03
FB
03
02
0E
0B
05
FF
03
FF
0E
FD
FF
FE
F2
00
02
FF
01
00
0A
F8
00
FC
F5
FB
03
02
FF
00
FA
FC
02
FD
FF
02
01
FC
FE
FF
FD
FF
FD
00
FF
FA
FC
FE
00
01
FF
01
00
FD
01
FC
FE
FC
FE
FE
FF
01
02
08
FD
FD
F7
02
06
10
F5
01
00
00
07
FF
01
03
FF
03
01
00
01
02
FC
03
00
09
01
13
00
00
00
00
03
07
FE
0C
FC
03
04
0B
FE
03
FC
03
01
01
00
FF
FC
FB
02
01
04
04
FC
06
FE
F9
00
D0
FF
FC
00
FE
FF
08
FF
00
02
03
09
FC
0A
03
FF
02
0C
FD
FE
F9
FE
02
FE
FF
04
FF
02
07
FE
FC
04
0D
F9
00
01
01
FF
10
01
10
F2
FA
FF
FC
EE
00
FF
02
01
FC
00
F9
EF
03
02
00
FF
FA
EF
04
01
F4
09
E1
FA
03
02
FD
FD
02
05
06
03
04
FE
0D
01
02
F3
02
FE
FE
FE
08
02
FF
02
FD
02
04
FD
FC
00
FC
FF
00
FE
FE
FE
02
FE
04
FC
F8
00
FD
00
FC
FF
FD
01
FE
03
FF
00
FC
00
02
FE
01
FD
FF
00
F7
FE
FB
FD
FF
00
FD
01
FE
03
FF
00
0E
F9
F9
F9
0B
F9
04
FD
02
FE
01
FE
08
06
FF
01
FE
01
01
FF
00
01
FA
FE
FE
02
04
01
FD
FD
FE
FF
00
00
FF
00
FE
FD
00
FB
FE
01
FE
02
03
00
FE
FC
FF
FF
01
00
FE
FE
01
FC
01
01
FC
00
02
02
F6
FD
FF
F9
FA
06
0B
FF
05
01
02
06
00
02
FA
0E
FA
01
03
FF
01
06
08
01
0E
01
00
03
FD
FD
FD
01
FC
02
FF
EA
00
FA
FE
E5
01
01
00
02
00
01
06
FC
FF
01
02
FF
02
07
FD
01
FD
04
FF
00
05
FE
00
02
10
00
02
FC
04
0A
05
FD
FE
01
00
FD
03
FE
FD
EB
01
04
03
FF
00
09
06
FE
F1
EF
FD
04
FF
FE
02
F6
F8
00
FB
27
02
EF
F4
33
F8
01
FD
F8
04
00
F9
F2
00
02
FE
FF
FD
FD
DF
01
EB
0C
08
05
FF
00
01
F8
0B
01
F9
02
00
0D
0C
05
FE
FF
02
0E
FF
02
02
EE
01
FE
FF
03
01
03
FE
00
04
F3
F7
FF
FE
02
03
07
FC
00
EB
1F
02
F8
01
24
01
FA
01
FF
FE
00
F8
EC
01
01
00
02
FF
FB
FF
FD
C5
07
04
01
01
02
FF

