02
05
72
0A
02
06
6A
0C
7E
0A
03
77
00
06
06
02
7C
78
00
4C
61
11
01
7F
78
78
7C
76
05
03
03
77
00
00
05
00
00
00
7C
01
7C
00
7F
00
00
00
00
00
2D
77
00
7B
7C
0B
78
76
0B
0F
7C
65
70
0A
7F
0E
57
13
00
1D
7B
7E
0F
6E
0B
7F
07
2F
20
15
00
5C
7B
1A
09
7B
7D
04
7A
0B
7B
79
00
22
1A
01
7E
09

