06
02
F3
06
F9
EC
F0
F7
F4
FF
00
F4
06
F9
06
F7
03
F9
00
0A
10
EA
01
ED
09
00
F9
00
01
FD
01
F8
F8
03
F0
03
FC
FC
FF
FC
E4
E0
0F
06
FF
FE
04
0A
EC
EC
0B
0C
05
FF
19
E9
F9
E8
07
03
FF
FD
02
02
F0
F9
00
F8
01
FC
02
F8
F8
FD
FB
08
01
FA
FE
FD
FE
FB
FC
F7
02
08
FC
00
01
FE
FB
FD
00
F6
F9
FC
F9
F5
FE
F9
F9
F6
0E
F5
FB
08
FB
04
F0
FE
02
FE
FE
03
DA
F7
FC
08
FF
07
07
FC
FD
FA
F8
05
02
F4
FE
03
00
00
00
04
02
FE
01
FD
05
FF
FF
FD
FC
01
04
01
FE
FC
05
FE
FD
03
FB
FF
02
FC
00
FF
FC
FE
04
00
02
03
01
FE
FC
FF
FE
FF
01
FD
00
FD
FE
FE
FF
03
05
FA
03
04
03
04
03
FB
FF
00
FD
03
00
FE
F9
FA
F8
F9
FF
F2
03
F9
F7
F8
05
FF
01
FB
01
FC
04
F9
FC
11
09
FD
08
09
0A
02
01
F6
FC
14
EF
FE
FC
FF
15
F9
FB
08
FC
02
04
0B
0D
FA
02
03
CD
04
D2
0F
E9
F1
FA
1B
FD
FD
AB
14
0B
E1
F3
C1
02
06
02
00
FF
01
FF
FC
FE
02
08
F1
FD
13
E4
F6
ED
FC
19
01
0B
FB
FB
FA
00
06
12
02
F7
0E
FE
0A
07
02
FA
00
03
02
FF
FE
02
01
FC
00
FD
01
FF
FD
FB
FE
FB
01
03
01
02
FC
FD
01
01
FB
FB
FF
FC
FD
02
FF
03
FD
04
08
F1
F5
09
FE
F1
F6
0D
0B
F8
01
FC
08
ED
06
0A
04
15
12
09
F6
E6
F6
05
00
FC
FB
09
07
03
06
04
02
FC
FF
0C
06
13
18
01
05
10
07
00
ED
16
0A
EB
10
F5
02
FD
18
1B
13
08
F9
09
EE
03
12
FA
01
DF
04
06
ED
1C
08
0D
F5
0C
17
F9
FD
0B
FB
14
F5
00
1E
1B
EA
F7
0D
25
FA
02
FA
0A
23
07
04
F1
FC
F9
F9
02
00
00
F5
FC
F5
00
00
ED
F1
FF
FF
FF
FD
02
FE
FB
FC
F9
03
09
F0
01
F7
FE
00
ED
FE
FF
05
08
01
F6
0A
09
02
17
19
FE
05
0C
00
00
F3
16
08
EF
0D
F8
07
FF
1A
1C
14
06
F6
F9
03
FD
12
00
FF
07
01
04
08
01
05
11
0D
FD
FB
15
09
00
02
F7
15
ED
DF
0D
14
E1
FA
E3
0A
EC
E1
FF
F2
EB
FC
FF
FC
FB
03
FB
FC
04
01
FC
00
03
FD
00
04
FE
FC
FB
FB
FD
FB
FF
FF
FE
00
FF
FB
FC
01
FC
FF
04
02
FF
03
02
00
04
02
01
FF
FE
00
03
01
FD
03
FB
FD
FE
02
02
FB
03
03
FD
FF
05
01
FF
02
FD
FF
FD
FE
ED
F5
F7
F1
07
07
FD
F6
FC
FC
FE
03
FD
F6
FC
F9
FB
FD
FB
F7
FC
FA
FE
02
01
FF
FE
FA
FC
ED
F6
FF
03
F6
0F
E5
04
0B
FA
FE
FC
07
05
FD
EC
FB
E1
E8
EA
03
F9
FF
F7
FF
FC
EF
F3
03
01
EA
FA
EC
F0
14
05
07
F2
08
04
F5
1F
04
FA
00
09
1E
01
F9
0C
FC
10
04
08
29
23
F8
01
20
1E
FC
07
04
10
18
03
04
04
FE
EF
04
F6
F5
F9
02
E7
F4
10
09
FB
FF
FA
07
EC
EB
0A
02
0B
07
0B
F1
EB
EB
10
00
02
07
FE
01
FD
FC
FC
FE
FA
FE
FA
00
F9
FE
FF
FA
F5
F6
06
FD
01
FA
05
F8
02
F7
01
F6
F8
FC
FF
01
F8
04
FE
FF
FC
FF
00
F8
05
01
02
FD
02
F6
FA
03
03
00
FF
01
F9
FA
FD
04
00
FC
FD
F6
FB
00
FE
FB
00
FA
FE
FC
FC
FC
0A
01
FB
10
FB
01
FD
EF
F0
D9
F4
05
F5
FA
FA
18
ED
D6
E8
FA
D8
07
FA
FD
DD
FD
F2
04
F7
F0
EC
F7
02
F4
0D
05
0E
F1
E9
19
F0
1D
E7
F0
04
06
1B
0B
FD
F6
FC
12
FF
02
1F
ED
05
08
08
DF
00
F7
FD
FE
FE
00
F5
F8
00
03
FF
FF
F9
F6
FD
FA
FF
01
F6
F8
05
03
00
F4
01
FC
F1
04
FE
00
F6
0A
FE
FB
05
F4
FA
FF
F9
F3
07
F3
FB
00
02
FF
02
FD
F8
FE
07
F9
04
06
04
01
02
F7
F6
00
FA
F5
FA
11
F6
FB
FF
03
FF
FD
FF
FC
02
FF
FB
02
03
04
01
FE
05
02
04
02
FE
03
01
03
01
00
04
FC
FD
FB
04
02
00
04
00
FB
F9
FC
FC
FA
F9
F7
F9
FE
F9
01
FB
F9
FF
FE
F9
01
FD
F8
FB
FD
FC
FD
FA
FA
01
FF
FD
EB
00
04
FE
FE
06
00
FB
E9
05
04
12
05
FC
10
03
09
04
F7
0F
F8
EC
10
02
08
FD
11
1C
07
04
F8
FD
FD
00
0E
07
07
F5
0D
02
F3
08
07
FB
00
F9
14
F6
FD
0D
FB
0A
FB
0A
11
18
E4
FC
07
07
01
04
08
07
1F
09
EC
EC
FB
0A
E0
0C
FD
0D
CB
F0
E9
0A
05
01
F4
02
F8
0F
DC
FC
15
EC
16
FF
E8
12
02
06
F2
0E
0D
EF
06
F1
F4
01
F5
02
02
07
F5
FA
F2
FE
03
FD
FD
F8
00
FE
00
FF
02
00
05
FE
00
04
04
FB
F6
01
06
FA
FF
F6
F8
FD
FB
04
FA
F7
FA
F4
F6
FE
00
EC
F4
00
03
08
FF
02
FA
06
04
F4
FE
0D
FC
FC
FC
FE
F6
F9
FC
FF
00
00
02
02
FE
00
00
03
F9
FC
05
03
03
FE
FF
02
01
F7
FD
FC
FC
02
FA
FA
04
03
FE
FB
02
00
FF
FD
02
02
FE
F5
F9
F9
FC
F9
F5
FC
FA
00
FB
FD
02
FC
FC
05
00
04
F9
02
FB
F0
FB
FE
01
F7
FE
FB
FE
01
FD
03
FE
02
FD
FC
04
FF
03
02
FC
03
FC
FD
FC
00
04
00
FD
01
FC
02
01
00
FD
03
00
00
FE
01
02
FC
FF
01
FF
FF
FE
02
FF
00
01
FC
00
01
FD
02
FC
FF
03
01
01
FC
FE
03
FF
00
FE
03
02
FB
FC
00
01
04
01
F4
02
F5
E8
FE
F2
F7
F6
04
FE
11
FF
FF
FE
EF
EB
FC
FC
FB
F9
07
F9
ED
07
11
F4
F2
FF
FE
FC
00
01
F7
05
FB
F4
13
00
F8
FF
FB
0E
FC
F5
FF
0F
E5
00
FA
F0
FB
F8
02
01
03
03
F5
0D
02
06
0C
0E
07
FB
03
FD
00
FD
D3
EE
F5
E0
08
FE
FA
04
F0
FC
01
FF
0B
03
03
0D
F1
F5
FD
F0
FB
DD
FB
E4
C2
08
EF
F9
05
FB
FF
03
02
FC
FA
FE
FE
01
FD
FC
FA
01
E9
03
F9
FC
FC
FD
04
FD
FA
03
03
02
EC
F2
05
FA
0A
FB
EA
02
F1
04
F8
F2
F4
E3
E0
02
07
FF
07
0E
FB
F2
00
05
E5
E5
02
02
EB
FF
FD
0B
FD
00
05
00
FF
01
FD
02
02
02
FF
FD
01
05
04
FD
03
04
02
03
01
FE
FD
01
FC
02
01
02
00
FC
FF
03
FF
FE
04
FC
FE
FB
01
FC
FD
FB
FF
FA
FA
FA
FF
03
FD
02
FD
01
F8
F7
FA
03
01
FD
FF
00
F0
FD
00
F8
FC
FA
FC
FD
FA
01
FD
FB
FD
FF
FB
FE
01
FE
04
FC
FF
FE
00
00
FF
FE
FC
03
FB
FA
FD
00
FB
01
FC
FB
FD
FF
FD
FF
DC
F2
F7
F6
0A
F4
05
F0
FF
E2
0B
0F
F5
F3
FB
07
00
F6
03
0A
0D
17
E9
FF
05
EF
ED
F8
08
19
EF
F8
FC
FC
01
01
FD
02
00
FF
FD
FB
FD
FC
FD
FC
03
04
01
FC
FF
FD
00
01
FF
00
03
04
03
00
01
FD
FC
03
FC
FC
03
FE
FA
F9
FF
FB
F7
F6
FA
00
00
F8
04
FF
F2
FD
02
00
02
FC
00
00
F2
FC
02
00
FD
FD
04
FC
05
FF
01
03
DD
EC
02
02
EF
05
FC
01
EE
01
F6
05
E7
0B
03
02
01
EC
FF
F4
E9
F2
FB
06
E0
F1
03
F6
0B
07
FB
07
F3
04
FE
FA
F5
02
02
02
FD
03
F6
FE
FB
E9
06
EF
FB
07
0F
F8
F7
FE
07
03
EB
F8
08
06
03
FD
FC
FE
FD
00
FD
01
FC
00
FA
FB
FE
03
00
00
00
FC
FB
02
00
FF
FE
04
00
02
00
FC
01
FD
03
02
F3
00
DD
12
F8
EE
F4
04
F9
DF
00
15
F4
FC
1F
0B
15
FD
0F
13
16
E6
12
F8
1C
E8
FE
02
06
33
F9
F5
FA
00
FB
FC
FD
00
FD
FB
01
FF
FC
FC
F8
FC
FE
F9
01
01
FE
FF
FE
00
03
F5
FC
F9
FB
04
FF
01
FD
F7
08
FF
FB
F8
F7
FF
01
F6
F3
F7
FA
FD
FD
FB
DF
FD
02
00
EB
ED
FD
FF
0C
08
06
FF
11
F7
FD
E7
FD
11
FB
FD
F0
FC
FE
04
F1
FD
DD
DD
C3
FF
FE
EA
0A
FD
FF
FD
04
F5
E2
EC
09
E4
05
F7
1A
0A
FB
F6
04
F9
05
00
03
06
DF
F6
14
09
16
F8
FC
27
06
08
E6
FB
17
09
F5
00
09
0B
E2
09
19
09
F2
E1
03
FC
DE
09
03
FD
03
02
00
F6
FE
01
FD
FA
05
05
06
02
FF
F9
01
FB
FB
02
01
04
01
00
05
00
01
00
01
04
04
01
FC
FC
FC
FA
FC
FB
FF
FB
FF
00
FE
FF
FC
05
FE
FC
FC
04
FB
03
FB
FB
FD
FE
FC
03
FD
FC
03
03
FB
FD
FB
FB
FB
FF
00
01
FC
FD
00
FD
FD
FF
02
FB
FE
00
00
FF
FC
03
02
01
02
FC
FE
00
FD
FE
00
01
03
00
01
FD
02
F8
E5
05
EB
03
05
D3
F6
DF
0D
F7
F9
DE
F5
F3
08
FA
F9
E6
FC
0B
E6
0F
0D
14
E7
FE
12
F2
FF
00
10
FE
01
07
E8
FC
08
04
FF
F2
02
07
F7
06
E2
03
F2
DF
04
1E
FC
F4
D1
0A
FF
FE
FC
E1
06
EC
FE
FD
06
FF
F5
18
FC
06
17
15
FF
EC
11
09
F5
F5
0D
03
F6
01
13
09
FE
11
0E
10
03
FD
E1
00
FC
04
01
FA
02
F7
F9
FF
EF
FC
EC
EF
F1
F3
F3
01
F8
FD
F5
01
F7
F6
FA
E4
01
ED
ED
F3
00
FB
F7
F6
04
FB
FB
FD
05
F8
03
F8
FB
F7
FC
FC
03
FD
FB
F9
FC
04
F7
02
F8
02
FF
03
02
FA
F8
FD
FE
F5
FC
FC
FA
FC
0B
FD
FA
F8
EB
02
F7
FC
FC
E0
DE
F9
15
F1
F9
00
03
DB
FF
E6
FA
E0
16
06
F6
0D
10
11
EB
F8
16
FD
E7
F7
09
DB
11
04
10
D2
FF
F2
0A
18
FE
DF
FF
FC
1A
F5
F5
0F
07
1B
04
FE
18
F8
F9
F0
14
06
EE
FF
FD
FB
FC
FC
FB
FF
03
01
04
00
04
FD
FF
02
FE
FE
FF
03
04
00
FD
02
01
05
FE
00
FC
01
FE
FF
FD
00
01
FD
07
04
F5
F7
FC
03
13
0F
F7
F0
13
0B
FB
F7
0C
0B
F2
F1
0F
05
F9
15
06
0E
FA
FD
F5
E8
03
FF
01
FE
00
02
E8
EC
F1
06
F0
FF
06
E9
03
00
E3
04
ED
FA
FE
F9
20
02
0E
F8
E1
F7
06
0B
E1
F2
0D
00
0F
02
04
07
E2
FB
ED
02
FB
CC
06
E8
01
05
F1
F8
FA
D9
0D
03
09
EF
FF
01
E1
FB
02
FE
E1
22
FF
F2
FC
03
FB
03
FE
FB
04
FC
04
FD
02
01
03
05
FE
FC
FE
FF
02
01
FB
FD
00
00
02
FF
01
02
02
02
FE
02
09
FE
FB
F7
F9
F7
F4
FD
F5
F7
E8
FB
01
FC
00
FE
01
F4
FD
F9
FE
EE
FC
FD
F0
F8
01
01
FC
01
02
FE
03
01
FC
03
00
03
00
FC
FD
00
04
FF
FF
FF
04
01
02
FF
FF
05
FE
00
FB
FB
03
FF
00
FB
01
04
04
FC
F3
FA
03
01
F8
FE
10
0B
E9
0B
0A
FD
F9
FA
0C
0D
ED
FB
01
11
12
FD
FD
E9
FF
FC
02
FD
EA
04
F4
F7
FD
FC
07
F1
01
FD
F4
ED
FE
09
06
F0
13
FA
F8
FD
E4
0C
E3
F3
FE
FB
09
F0
C8
02
FE
DB
EC
D5
FB
EC
01
FF
FD
FC
FC
FE
00
FF
FC
FB
FB
FC
FE
02
FB
00
03
FF
FD
FA
FC
00
FF
FC
02
FE
FF
FB
FF
06
FC
02
F8
FE
FC
FC
00
FD
FD
FD
00
F5
FD
FF
FC
01
F2
FC
F7
FD
F2
FE
FE
02
FE
01
FB
02
FF
F3
F9
EC
FB
09
FF
FA
FD
FC
FD
F9
03
01
FC
FD
FD
02
05
FB
FB
04
01
FB
00
FF
FD
FC
FF
FE
FF
00
FD
F7
FA
04
00
FD
03
FD
F9
FE
F4
FA
FA
FB
FD
F9
F8
FC
03
FD
F5
F6
FC
F8
06
FA
FC
F3
F9
FC
F1
FB
FB
F6
FB
05
FF
02
F4
F8
FA
FB
01
05
00
02
F8
F2
06
FD
02
F6
FA
FE
F9
F4
FB
05
05
03
05
00
FA
FE
F9
F3
FA
01
01
02
FF
04
FE
FD
FD
03
00
FC
00
FD
04
03
FC
03
00
00
04
FD
FC
FC
02
FE
FE
04
FC
FC
FD
00
01
FC
00
00
EF
FB
FD
F1
06
FE
02
F2
ED
FE
F3
FE
F8
EF
FF
FA
F5
F7
F8
00
FC
0C
FE
FC
FA
F7
FC
F5
FC
EA
FE
F9
08
FF
01
FD
FB
FF
0E
FF
19
FC
F2
F7
0B
06
03
00
15
F4
F7
F4
F9
E8
06
02
EF
11
03
FF
FF
1A
04
ED
04
04
00
FD
FE
03
FC
FD
FC
FF
FF
FD
FC
FC
FB
03
03
FC
FF
FE
FF
02
FF
FC
FC
00
02
FC
FC
03
01
02
04
02
01
02
03
02
FF
FE
FF
FE
04
01
FE
FF
FE
03
04
04
FD
FE
FF
03
FC
FF
FD
FB
00
FF
03
01
00
FD
02
FC
FC
FA
E9
0C
FC
02
E7
0B
F5
FE
F0
02
FD
D9
0A
F2
F0
06
FC
E1
CE
04
0F
F4
FE
E8
FE
F6
F1
FA
E0
02
F8
08
EF
F9
0E
09
F4
F9
ED
F5
F5
F6
11
02
F4
FF
02
FA
F5
DF
F3
1A
0B
DC
04
03
E6
D4
EA
FC
00
FC
FC
02
FB
FF
FD
FE
FE
01
FE
FC
FF
03
00
FC
07
FF
FE
07
05
00
FF
00
03
FC
FC
FC
FD
FF
FD
00
04
FF
FB
FB
FF
FA
FE
FE
FB
00
01
01
FC
FB
01
FC
FF
FE
FC
FF
FA
01
03
FC
FC
FB
00
00
FE
04
03
FF
FC
FC
F3
08
E1
F3
EA
00
F2
F3
E8
01
F9
FD
0F
EE
05
03
0B
13
EA
E4
F0
DD
F3
DF
04
00
F0
F1
FC
10
FB
EF
07
ED
04
FC
02
EF
F2
04
FB
01
F4
FB
02
FE
0A
01
F5
FA
FD
05
F9
FD
0F
F7
02
F6
FB
E7
01
F8
01
00
FA
00
FA
FC
FD
FB
FF
FD
04
03
02
FD
FE
FF
FB
FA
FC
FF
02
FD
03
FF
F0
01
FF
FB
FD
01
01
01
E3
FB
D4
FC
19
0C
02
F3
F7
CF
03
01
F5
C8
0C
05
09
0B
02
FE
04
02
D7
11
1F
F4
FB
05
07
D7
F0
F3
FD
00
FF
F9
02
04
FC
FC
FB
00
FF
FF
00
F9
01
FE
F8
FF
01
00
FC
FC
00
04
03
00
FE
FF
03
FC
FD
02
F8
FD
FF
FD
FC
FC
07
FF
FE
F3
04
FD
02
FF
01
FB
F7
F4
FD
FC
05
FA
01
FD
FD
06
03
FA
03
F7
03
FC
00
FC
03
02
FA
03
FF
FC
02
FC
FD
FF
FC
02
F9
FB
FB
01
F7
FA
FF
FF
04
FB
F6
FE
FD
FB
FB
F5
04
FA
F9
02
EE
07
F4
F8
F5
05
08
FE
E4
F7
04
FE
F7
0B
E7
D3
F4
09
00
F3
FD
00
F5
09
09
05
EF
D8
05
00
05
FF
12
01
F6
02
00
00
FF
04
F6
FD
FE
07
F0
01
E5
01
EB
F8
F8
09
FA
EB
D9
04
F9
03
FB
ED
0B
FD
01
00
07
FA
01
09
FB
F7
FF
08
05
00
0B
0A
C0
02
FF
15
F6
D5
F8
17
EB
EF
EA
08
DF
F5
04
FC
F5
17
09
FA
02
01
06
F2
F7
F9
01
F5
EE
ED
06
FB
EA
FA
EF
00
FF
F5
F5
FF
FD
FC
F6
02
07
FB
F2
F4
F9
FD
01
00
0C
FF
F6
F7
04
0A
06
04
E9
03
CA
02
F7
FF
06
FF
FA
F9
03
EE
DF
01
F5
EF
CE
FE
F6
EC
F5
F3
00
FE
03
03
00
FC
FF
00
FD
FF
03
FC
03
03
00
FE
04
02
01
FE
FE
00
02
FD
FB
04
03
FF
01
FB
03
02
00
FE
EF
00
F9
EC
F3
03
E9
E4
16
11
09
FC
02
0B
F0
01
F6
1B
12
09
09
F2
FC
E0
02
EC
F2
FB
00
03
EC
F8
0D
E5
10
03
0E
DC
F6
F3
12
1C
FA
E2
03
FA
11
F3
FB
12
09
1D
01
EF
18
F2
FE
EF
0D
06
F4
FD
00
F8
FA
02
02
FB
08
03
F0
03
FF
07
03
F5
0B
FD
06
FE
11
01
0B
E8
07
F1
FD
03
FD
11
0E
22
0B
F4
F0
F8
F7
F9
FF
F9
F4
FE
F8
FA
FC
FE
F9
F6
00
F5
FE
F7
FE
F1
F4
F5
FC
FD
06
FD
00
02
FE
FF
F9
00
F9
00
F9
00
03
FA
FB
01
F5
F9
FB
F9
F4
FF
F8
02
FF
FD
00
FD
01
FC
F9
FC
02
FA
FE
FC
F9
04
FF
FD
F0
FE
F9
F2
00
F5
07
DE
EC
F4
F0
09
F0
F6
07
FA
05
F0
04
03
F5
04
07
EF
01
FB
01
03
FE
0D
07
FC
06
FF
09
04
F6
02
F5
02
FD
FE
FD
F5
FE
0C
F9
06
E4
06
FA
DF
0A
13
F6
FC
C9
00
02
FB
F8
D7
05
F8
FD
FE
FB
FA
FF
FA
05
F6
F8
ED
05
0B
FE
FC
EE
FC
F9
F5
F2
FB
FF
FD
FD
FB
FB
F9
EF
F3
FE
D9
01
03
F5
FF
03
F7
03
FE
FD
F7
FD
EF
F6
01
FB
F9
04
01
00
03
F8
F5
F9
F8
01
FC
08
02
FD
FD
FA
EF
01
F9
02
00
F5
02
00
FE
F8
01
F9
F5
FE
FF
FD
FC
07
FF
0B
00
00
FF
07
F5
FE
00
05
FB
F7
FB
00
07
F9
02
16
F7
F4
E1
F2
02
F0
F7
FC
01
F5
FB
10
E5
05
05
19
FC
EC
07
DA
F8
2A
DB
0C
E3
FF
F3
F3
EE
08
20
F8
EB
0A
EB
D6
F9
FF
E6
D0
FF
FC
DB
FB
E4
F7
03
DD
0F
FC
F5
FD
EA
0F
FE
F7
E1
FD
0A
D3
F0
07
F3
02
FC
F8
F8
FF
F8
00
02
01
F4
FA
04
F9
01
FB
FD
00
00
F8
FD
FC
FA
01
06
0A
F6
01
FD
03
01
F9
05
F6
FA
FE
F8
08
03
04
EC
D7
FA
D1
15
FB
C1
05
FF
05
04
FB
EE
DC
FB
17
E9
02
E9
0D
0C
03
ED
00
01
01
FF
FC
FC
FF
01
FF
02
FC
FB
00
FB
FD
00
01
03
01
03
01
FE
00
FD
FC
00
FC
FD
02
FF
FB
FE
FC
FF
FB
F6
F4
F1
03
00
FE
F8
FF
F5
04
02
FA
FE
FE
FE
FE
F2
00
03
FC
FA
FE
00
FC
01
FD
F4
08
05
F4
02
01
FE
00
00
FD
F7
FB
01
FE
00
FD
02
FE
FF
F8
03
02
FA
FA
00
FE
00
FC
FD
00
01
02
FD
02
00
00
00
EC
F5
05
04
07
03
FB
01
F8
05
00
ED
EB
FA
02
FB
EF
08
F5
EE
03
FB
05
01
F9
EA
FB
F8
F0
E6
F6
FB
02
FB
11
00
F2
07
FD
09
13
12
F7
EE
0A
06
00
F7
13
08
FA
D4
F2
0B
EF
14
F5
16
FB
FD
F9
1C
06
FE
FB
F7
FE
F5
F8
F0
FA
F6
FB
F5
F9
F8
FA
FA
FD
F6
FC
F8
06
F9
FF
E3
04
FD
EC
FA
F5
FB
FE
06
02
FE
FB
04
F7
FF
ED
EF
CB
FF
F0
EB
FC
E7
F0
EA
FE
F7
F7
E6
FE
FB
F9
F6
02
0F
FF
EF
03
0D
EE
F1
09
DE
07
06
EC
0C
11
FB
E4
01
FC
02
FC
01
00
02
10
FE
21
02
13
05
03
F5
EA
14
19
FA
08
02
0E
F1
F4
01
F4
F9
FA
F8
FD
FE
02
FD
FA
F9
FD
00
01
FA
F6
03
02
FA
FC
01
01
FB
FB
FB
02
FD
FB
FF
FD
FF
FC
FA
EC
ED
F4
00
FF
04
FB
F4
F6
EC
F3
F6
01
F9
FE
F7
FE
00
02
F9
01
EB
F8
EF
F5
FD
FB
FB
FD
F2
F1
FD
01
04
FF
F5
FE
07
F5
11
EE
FB
07
F0
F3
FC
F7
FE
EB
F1
E8
F7
03
EF
12
02
F1
01
07
FA
FD
CE
0E
19
00
FD
EA
F1
F0
F0
0E
F1
FF
FB
F6
FE
D8
D3
FE
ED
F1
FB
FF
F4
FE
F7
09
EB
05
F2
FC
00
F9
1B
05
FF
09
FD
04
FC
EA
09
06
04
06
FD
F6
FC
14
08
ED
F6
06
EE
E7
FB
FF
06
05
07
CD
11
09
FC
F2
FF
0C
F2
E1
FA
F9
DE
0F
03
09
DC
FD
00
0A
11
F6
F0
0A
F9
14
F1
FC
19
04
12
FF
F9
17
08
FD
F5
14
09
E1
03
FC
04
00
00
FF
FC
04
02
02
FB
FF
FA
02
00
03
FD
01
FC
FF
FE
FC
FD
FD
04
FE
00
03
FE
FD
05
FD
FF
08
04
FB
0C
06
EF
19
04
F5
EC
FF
12
FA
01
F8
F8
09
EF
FF
06
12
FF
FE
F4
0C
FF
FA
00
0C
0F
09
0D
FC
01
02
FB
02
FF
FC
00
FD
FE
FC
FF
FD
FE
FA
01
F9
FE
FC
FE
01
FB
02
FE
FC
FE
FF
FA
FE
FE
FF
04
FE
FB
FE
F7
FE
02
F7
F4
F7
07
00
FB
F7
F9
FF
FB
F8
01
FB
FE
00
FA
FF
02
EF
F7
00
FE
F0
F6
04
FE
FB
02
01
00
02
00
02
02
FB
01
FC
00
FA
F8
FF
FE
03
FC
FC
01
02
FF
FC
FB
00
01
FF
00
FB
FF
04
FF
07
FB
10
FD
F2
05
ED
01
0C
0A
FF
F2
04
0D
FB
FD
EB
0F
E2
DA
09
13
D2
F2
D0
03
EC
E7
F0
C7
F4
F9
03
00
09
F6
FD
E1
0F
FA
11
E2
09
0B
0E
09
DC
09
04
12
FB
00
08
15
FD
04
E4
0F
05
F9
F6
F9
05
10
E2
F8
0E
FF
03
08
0C
04
F9
E1
03
F3
F2
F9
09
05
D2
0D
00
F9
FB
01
F2
D1
EB
FA
F2
01
FA
ED
05
E5
FF
03
FE
0C
FF
EF
03
09
F0
F0
04
0E
EC
06
F9
02
F3
FA
07
04
FF
06
02
DF
F4
EE
FC
FE
06
0D
FF
EA
05
05
E7
05
F3
07
09
08
00
18
EA
05
08
FE
04
03
16
F4
05
07
ED
DC
E5
13
1C
03
09
ED
00
E8
D7
13
FC
02
F8
01
06
00
FE
FF
03
F7
07
00
FC
FC
FA
01
FC
FB
02
00
01
03
03
01
ED
01
F0
F4
FF
F8
F7
FF
00
FF
F4
FC
FD
F6
FE
03
F9
F1
01
FB
03
F8
F6
01
FF
FD
FB
FC
01
FA
00
04
06
FB
09
F8
FD
FA
00
02
E6
ED
F2
E3
F9
06
E4
E6
F7
06
ED
F6
F1
E1
FB
F9
01
F4
F6
EC
E7
ED
0E
E0
01
E9
0D
09
FB
EE
FD
07
FC
00
FC
FB
FE
01
FB
FE
01
02
01
04
04
FD
FD
03
02
00
FE
01
01
FE
FC
FF
FE
FD
FC
FF
FF
F7
FC
01
FD
FC
02
00
F1
EE
EE
00
F0
F1
F5
04
F5
FD
08
F7
F9
0C
06
0E
EF
F8
09
F3
F7
C4
F5
02
F0
FF
EB
08
FF
F9
01
FB
FE
F7
FA
F8
FB
05
F6
00
FD
00
FF
FA
F8
00
01
FF
FF
F4
FB
FA
F2
F6
FE
03
F8
FC
02
FE
03
05
10
04
F9
FC
FF
05
17
12
F5
FD
0E
06
FC
F3
18
05
EF
FF
FD
02
FD
14
0F
18
05
F7
FF
E0
01
0E
FE
FF
FC
02
FB
FB
FD
FE
00
FC
FC
FE
02
02
01
FD
FC
00
FD
01
04
FB
03
FD
00
FC
FE
FF
03
FC
FC
01
02
FF
F6
07
E7
F3
EE
01
FB
F2
EF
ED
05
FF
04
03
FE
F4
10
09
F1
FA
F7
FA
F3
00
F8
01
EA
11
FC
DE
05
02
F3
07
06
F5
FE
02
FB
02
0C
FD
00
FB
00
FB
FE
FA
06
0A
12
FA
F9
F8
06
02
F9
F9
08
FB
F1
F4
F0
F8
F6
FD
FE
FE
FD
F8
FB
F6
F7
04
F5
F9
07
01
FC
F8
01
F8
03
FC
00
FC
F8
F8
01
02
FC
F5
FB
FE
00
FE
F7
FF
FD
FD
FD
FB
01
01
FB
FE
FD
FB
FB
03
FF
FE
01
FC
04
03
FF
FE
F9
FB
FC
01
01
FD
F8
FC
03
FD
FC
FE
02
FB
FE
FC
FE
FE
04
FF
FB
FD
02
02
FB
FB
FB
FC
03
00
FE
FC
01
FE
FC
01
02
FC
FF
03
FC
01
FB
FE
FB
03
FF
FD
00
FD
FB
01
FB
FC
02
FE
FD
04
F9
F8
00
02
01
FF
00
00
FE
00
01
FA
FF
F8
F7
02
F1
FE
F4
F8
F6
FF
FB
03
FF
FC
FD
FD
FB
04
F2
F8
02
02
FF
F8
FE
FE
FB
FC
01
02
FB
03
FF
FE
04
01
FA
05
E4
F1
F9
FE
E8
FC
0D
11
FC
02
06
06
EA
FE
0C
0D
FD
0B
16
F5
F1
F5
10
FE
E5
F2
03
02
E2
F4
FA
EB
08
08
12
08
F4
06
12
FC
00
DC
D7
02
EB
FC
DF
FF
05
0A
E2
F2
22
F0
E9
BD
F8
D5
DF
35
02
03
FD
FA
FA
00
01
02
FB
01
07
FA
01
FC
F5
02
F7
FD
F3
FD
FA
FF
FA
02
F1
FA
06
F7
F9
F3
FE
00
FB
03
03
00
FE
04
FE
FF
FB
FE
FE
FE
00
04
03
00
00
FD
FD
FB
FE
FD
01
FC
01
FB
FF
FC
FF
01
01
FC
ED
FD
FF
FA
06
FE
01
FC
FE
00
F9
FE
FC
F6
04
FB
F4
02
FE
01
FE
06
FE
FB
02
FD
FD
00
FF
06
02
FE
0D
02
FD
FA
F6
FF
07
FD
FC
ED
E4
00
09
F4
F1
F3
EC
E6
00
0B
EB
EC
06
01
E2
09
0A
FD
E9
F5
06
01
FD
03
FD
FA
F3
FA
F6
FF
FA
FF
F5
FC
FF
FD
F7
01
F9
F1
05
FB
FB
F5
FC
04
EC
FF
05
F9
F5
09
FE
FA
04
FC
FE
01
FC
FE
00
FA
FE
02
01
02
00
01
00
FB
00
00
00
FB
01
FF
FD
03
00
FD
03
FF
00
00
FB
FC
F5
F3
10
F3
FB
FC
0F
F0
EA
26
0E
13
FA
04
FC
FF
E5
0F
F9
F2
19
1C
FC
E7
F1
FA
F7
FA
E8
E7
02
F8
E6
F5
FD
FB
09
FB
00
F2
FF
F6
F4
0A
F3
EE
FC
FB
01
02
F9
FD
FD
FF
FD
FE
0D
00
FD
03
03
EC
FB
FE
FD
FC
00
FD
03
FB
01
FE
02
03
02
04
01
FF
FF
02
03
03
FE
FC
00
FF
01
FE
FD
02
00
FD
FD
00
FE
FB
08
FF
0A
02
FB
FE
13
02
13
0E
F9
12
F9
05
FD
F7
14
0E
FB
FE
DC
0C
CF
09
1B
FF
BD
EE
FF
F2
E9
00
FC
00
03
02
04
FF
01
03
FD
03
01
04
FE
FF
03
FB
04
FB
00
01
02
01
FB
FD
FE
04
FE
FC
FE
FC
00
FE
01
03
FD
FC
FC
F7
FE
FE
FF
FB
F8
FD
08
02
01
F9
05
F7
FA
FE
03
FF
FC
06
08
FF
03
FD
FD
F2
F9
06
00
FD
E6
F7
F9
06
E2
FE
0E
FD
0E
03
13
05
FF
F4
0A
FA
E8
0F
00
F7
FC
0D
00
16
04
D9
EC
F5
EA
13
01
FD
03
00
FA
FD
F0
03
F4
0D
FD
09
0E
07
DA
FC
EA
06
EE
EB
EF
11
F1
00
CC
05
02
FC
F8
F1
FE
F5
E5
FA
10
E1
15
FC
14
D7
F9
F0
11
13
FA
E6
0C
FC
16
F8
F8
1B
0B
15
06
EF
18
FD
FD
EF
16
0B
EE
00
05
02
EC
FF
DF
03
00
02
13
11
0E
F2
07
FD
EE
EE
0F
DE
CF
24
23
0A
02
17
29
11
0E
FB
F3
E2
04
15
02
04
07
FF
F3
FF
08
04
17
17
FE
FF
09
08
FC
F9
18
05
F4
E8
F4
03
FB
12
06
11
05
FD
FA
04
06
04
03
02
08
FC
FA
FE
01
02
1B
14
FB
03
16
07
03
F3
1D
07
EB
0A
F5
0B
00
20
1A
1A
09
F8
00
DC
04
14
FE
05
EB
08
EA
FC
08
08
0B
0A
01
F3
10
FC
15
08
0F
04
0A
17
08
F2
DD
14
17
06
02
F7
F2
EA
E1
18
F1
FB
FF
FA
02
F8
00
F9
FB
00
FF
FB
F7
F4
06
FD
FE
01
02
03
FF
00
FA
FF
05
FD
01
01
06
0A
FB
00
FC
FF
00
FE
FB
04
03
FE
FB
01
FD
FF
FC
FC
04
01
FC
FB
FB
04
03
FD
FE
FF
FC
FB
03
03
FD
02
03
00
FC
F7
01
FB
FC
FC
F6
FC
FA
02
FE
F8
FE
FD
02
FE
F7
05
F5
F9
F6
FE
01
FE
F8
FE
FE
FA
FC
EE
FA
04
05
03
FA
04
EE
F6
08
02
F1
0C
0B
E7
F6
02
FC
0A
F4
FD
07
05
00
FF
12
EF
EC
F4
09
0B
F8
10
0C
F7
FF
F9
07
F0
EA
F6
14
F2
F5
EB
FA
14
FD
CE
04
01
ED
04
EC
D6
FB
D1
0B
F9
0D
FF
05
0B
EC
DC
0A
F4
06
02
07
0A
F0
F0
08
09
F3
F1
0F
F0
F0
FB
F5
02
F1
FA
0A
1A
0A
02
0D
EA
F8
FC
FE
09
E9
FE
0F
EF
00
00
08
02
FA
02
0D
04
13
12
F8
FF
10
06
09
F1
1D
03
F4
FD
F7
03
04
1C
1D
15
02
F8
02
ED
00
18
FC
FF
EF
07
01
EE
0A
FE
09
F0
FD
1C
EF
F7
15
07
08
0A
0D
0D
0A
EC
E4
E2
06
04
E7
02
05
2D
FE
F2
FB
FD
05
FC
00
02
06
FF
FB
FA
03
04
04
01
FF
FA
FD
04
FE
FB
FC
FF
03
03
FC
04
FF
FF
FE
FC
FE
02
05
FE
FF
00
F9
FE
02
02
02
01
FD
01
FE
FD
FC
F9
FE
03
FA
00
02
02
FD
02
03
03
02
FF
F8
01
FC
FF
06
00
F8
FE
F1
01
F1
F8
E8
ED
0F
00
FC
FE
E9
0A
F3
ED
F6
F5
09
0A
0E
FE
F0
F4
08
F5
EC
DA
0A
06
FF
00
00
05
F2
F2
F2
01
FB
EF
FE
F9
FB
03
FD
F2
FA
00
02
F3
00
FB
F5
FE
EF
FC
FD
03
F7
FE
FA
F9
F9
FE
FC
FD
FE
FC
05
00
00
FE
FD
07
FC
FA
FC
FA
FB
FE
FC
02
FB
FB
03
F9
FE
FE
01
06
03
09
02
FB
05
04
FB
07
F9
EC
F6
08
F6
F9
FD
F1
FF
F9
FC
F3
F8
F9
08
F0
FB
F7
FB
E8
F3
03
EE
02
F9
0B
0B
EF
07
01
0B
00
E5
F8
ED
FF
F7
02
E8
F0
01
06
03
00
ED
0E
E5
F6
E3
F7
E8
00
EB
F9
F6
06
F0
F7
00
F9
FB
FC
0D
FD
F4
DC
E3
FA
FF
EA
F7
F3
E6
FD
0F
03
07
11
0A
EE
EB
E4
E6
FF
EE
F8
E3
04
02
04
04
0F
0C
08
F5
02
F4
01
E4
03
14
FD
F1
28
07
02
0B
FC
20
FF
F8
0C
DA
FA
07
13
2C
06
12
F2
00
D4
F8
10
E8
F6
0F
FF
FE
F5
F6
05
FB
EE
FB
F0
E5
FA
F6
FF
EA
0F
E8
F9
FF
01
E9
EE
F4
FA
EC
07
F3
00
04
F9
11
02
E1
DE
E8
D0
FE
D3
F8
E7
07
00
0E
FA
F1
05
13
E2
EB
DF
F2
EE
FC
19
17
FA
16
EF
EF
FD
F2
1B
0A
09
0A
11
C7
F3
F0
13
F3
17
1A
E6
FD
1E
F6
F9
DA
03
FF
00
FF
F0
F4
F8
DA
FF
00
06
D3
0C
0F
F2
00
F9
08
FC
02
03
F9
01
08
18
FF
F7
14
09
F8
01
01
0D
E7
F5
0F
0F
E6
FC
E4
0B
F0
D9
04
F0
F9
F8
00
F6
FF
FB
FF
FD
FF
FA
FF
F8
FA
00
F8
00
FA
FB
03
F9
03
0D
09
FB
01
0A
0D
FF
FF
FA
FA
FD
F8
00
F7
FA
00
FA
FF
FC
02
FF
FD
FF
02
06
FF
FD
FA
03
F8
03
FB
F9
FC
07
FC
FD
FA
FD
01
F8
03
FE
00
FB
09
09
E3
07
09
F6
FF
06
FB
EB
FE
E2
04
FC
08
02
14
F0
0E
13
1A
C8
FB
0F
11
FB
FA
FB
0C
0F
FF
FA
E1
F6
FE
02
EC
FB
10
EA
FF
FA
FD
02
FB
FB
FF
02
E4
E3
04
08
04
E4
E9
FF
E5
FE
FA
03
FE
0B
FD
DA
FE
FF
FD
00
03
02
00
FE
FD
01
FA
00
FD
FD
01
03
09
00
00
02
FE
FC
FB
07
04
FB
00
FD
FA
FD
FF
02
02
02
F6
FE
FA
F3
F5
FF
F7
FC
F8
04
F9
FD
05
FA
00
F6
01
06
05
EB
FD
FD
F7
F8
F7
00
01
0F
02
F9
F9
00
00
02
EF
FB
F9
FE
F6
01
FF
F9
FE
00
F8
01
ED
03
F4
F3
FC
07
03
FD
DE
FD
FD
F6
F1
02
FD
01
FE
03
F2
0B
FA
F7
08
04
F1
E1
0C
08
EB
05
04
00
ED
E7
0B
0C
0E
F9
0C
EC
EB
F0
10
FF
FC
01
00
FF
01
01
04
FD
02
FF
00
F9
FA
FC
FD
FD
F8
FF
FD
01
FF
FC
FB
02
FD
04
FE
FC
FD
01
FB
F8
FF
FC
F9
F9
FC
FD
03
FD
03
FD
00
FE
01
FC
FD
FA
FD
FF
04
FC
FB
FB
FD
03
FB
FE
02
03
01
FF
FF
00
04
04
FB
02
07
03
08
FD
F7
F7
01
04
16
13
05
FC
18
06
FF
F7
1F
05
EA
10
03
08
FD
1F
15
19
04
FB
03
F9
07
12
FD
00
04
FD
FC
FF
FE
FE
FD
03
02
03
FE
FC
FD
FC
FF
01
01
FF
02
03
01
04
03
FC
03
03
04
04
FF
FC
FF
FD
00
FF
05
F9
08
FC
03
01
FE
07
00
FE
03
FC
06
04
04
03
01
02
FD
03
FA
03
00
03
05
FB
FC
00
F2
FC
F7
FB
FC
F7
FC
EB
FB
EF
F4
FB
F8
FD
FF
F9
06
F6
FE
0A
07
FF
FE
F9
10
FC
FD
F4
F4
04
FC
FF
FA
FD
FA
FF
FD
F4
FA
05
F8
FB
F3
EF
FD
FD
F6
FE
EF
F7
FC
FB
FA
F0
02
FF
ED
FB
03
FF
F9
FF
05
F7
F7
F5
05
FB
FB
FC
06
FD
FC
F7
F7
F8
FD
00
00
FE
ED
07
FF
FA
FC
05
FE
F3
F7
FA
F2
FF
F8
F3
FE
FF
01
FB
02
00
FE
FC
00
01
04
FF
00
FD
FD
02
00
FF
FC
FD
FF
02
FF
01
FE
FE
02
04
FF
00
FD
02
00
FB
06
F8
07
FE
E8
EF
E9
FC
F8
D4
F0
02
EB
F8
EC
EB
FD
F4
F6
F4
FD
D9
ED
F7
E9
F0
F1
FE
DC
01
01
F8
01
FC
FA
FA
08
FC
14
F8
FB
02
FB
11
FC
F2
08
FD
0C
03
01
FF
03
06
FE
01
14
FC
FD
FE
04
FA
04
FE
FA
02
F8
0B
FA
FC
FC
01
F2
F2
0B
FD
F3
FE
F4
0E
ED
FC
0A
08
09
05
FD
F0
EF
EE
FA
FD
F5
EE
01
00
03
01
FE
03
F3
01
F9
FE
FF
FB
FD
FA
FF
01
EE
F8
F7
FB
F4
FC
F7
02
FD
00
EF
00
01
F2
FE
EC
F6
03
05
FC
03
00
FC
02
00
FB
FF
FC
FE
FF
06
FC
FB
FC
00
03
F8
FA
00
02
00
FD
F2
08
FC
00
00
FC
00
05
04
FD
03
FB
FB
03
FC
01
FE
01
02
FD
04
FF
00
FC
01
FC
02
FB
01
02
04
FB
FE
FF
FD
FD
FD
03
04
01
D9
FD
F8
F3
10
03
0E
E7
E1
F3
FE
1B
15
D6
04
0C
12
00
07
0A
0B
05
1A
F6
1C
02
15
FD
02
00
FC
06
FC
FF
FF
FC
03
02
02
01
FF
FF
FE
FE
03
01
FC
FD
FF
FF
02
00
01
01
00
02
FE
FF
FB
FE
04
01
00
04
F6
02
F3
03
02
FD
04
02
FA
F5
FC
01
FE
F9
07
FB
01
03
02
F5
FC
FE
F8
00
06
F8
FE
FC
07
FD
F5
FF
0E
07
F6
FF
12
F8
FC
04
0E
F2
1F
03
0E
FA
05
DF
1F
F1
F5
F9
F8
FA
1D
11
0A
0D
15
FF
13
02
0B
13
19
F2
EA
DD
03
F6
08
EA
F9
FA
EF
FE
0F
E4
F7
E5
E5
DE
03
E2
ED
FC
29
E8
01
07
07
05
EF
15
02
FF
FD
FD
FD
FA
FF
01
FF
FA
FB
F6
FE
04
FE
00
FF
02
05
00
03
FC
01
FE
FD
02
FC
01
02
03
FD
FB
02
FF
FF
FA
FF
FC
FB
03
FD
FF
02
00
02
FB
03
FD
FC
03
FA
00
F8
00
F9
FF
01
00
F5
FD
F9
F9
FC
F5
02
02
03
01
04
00
FC
03
02
03
02
FD
01
FF
FF
04
FF
00
FC
04
FC
FF
02
FD
00
02
02
FE
FB
FF
FC
03
FC
00
FA
FE
FD
F9
FD
FB
FD
FD
FC
F4
FF
01
FC
02
FA
F9
F9
F3
FB
04
FE
FC
F6
FF
06
00
FD
F0
F6
ED
F7
09
F6
F9
01
03
FF
FB
08
FD
FA
F7
00
FF
01
FB
02
FC
FC
FE
00
FD
01
FF
01
FC
00
FC
01
04
F9
F6
00
01
08
FB
02
06
F9
F5
06
09
F6
E6
19
E6
F0
F4
FE
EE
F5
FC
09
F5
11
E9
F5
00
02
FC
FD
0A
EC
FB
07
E8
FA
FD
01
FA
04
01
FC
FF
FC
F8
00
FE
FF
FA
FC
00
F7
01
FE
05
FB
03
FB
FA
FF
FE
FE
F9
03
FE
FB
FB
FB
FA
06
FA
FC
FD
FC
01
FC
FA
03
F5
FE
FF
F8
FC
04
FF
FD
FD
FC
00
FF
FB
06
FF
00
FE
FC
F8
00
05
FE
FE
01
FD
02
03
FB
00
FD
FE
03
01
FF
00
FF
03
FF
FE
02
03
00
FF
FD
FE
04
FE
FC
00
FD
01
FC
FD
01
FB
10
00
02
05
0F
04
F7
FC
FB
03
FD
FD
0C
05
FB
11
01
FD
03
04
F0
01
08
02
07
08
FE
F6
08
02
FB
FB
03
04
F6
F8
FD
FF
FB
F9
FA
F8
E7
F2
FC
FB
F2
FC
F6
FD
FA
F3
FB
FB
F6
F4
F7
04
EF
F8
02
F9
F4
F6
08
FE
EF
F4
FE
00
F8
DF
F1
F7
FD
FC
04
02
E8
09
FE
EF
F3
F4
F7
F1
E6
F4
F5
02
ED
00
05
FF
FE
FC
F9
02
FF
00
FC
00
FF
01
04
FF
FF
FB
F9
FA
01
01
F9
F7
F9
FB
F8
FD
F8
FD
FB
F5
FB
F4
F6
FC
04
0A
EF
09
09
FE
FF
02
F3
DA
0D
06
14
03
FF
FF
FD
F2
09
08
01
F9
0E
FC
FA
FD
15
FE
01
FB
04
08
F8
F7
04
F2
04
FF
12
FE
05
F7
F2
13
FB
FC
FD
F0
FA
0A
E3
FA
FA
0C
F4
0E
00
04
01
FC
FE
E5
FC
F7
FC
FE
01
FF
F5
F8
00
FF
FD
F1
FE
02
FF
F9
03
F9
FA
F9
06
00
04
F7
FD
FD
F9
FF
FC
FD
FC
09
00
F6
01
0A
EE
02
FE
FC
EF
01
14
01
F4
14
10
03
DE
F6
12
FE
F5
ED
09
13
08
10
26
02
03
C9
F5
DA
CA
1B
01
06
07
02
F2
F9
08
06
19
FB
F7
0D
0C
01
F6
F3
21
FF
EC
09
05
03
FF
15
23
0F
07
FB
02
FE
02
16
FA
FC
00
01
00
FE
06
FF
FD
FF
FB
02
FD
01
00
02
F8
01
01
F9
FE
FB
FB
FC
00
02
F9
FE
FC
FB
FD
FD
FD
FC
F8
FB
F9
00
FE
FC
01
F8
FF
FA
FB
FE
FB
FF
FE
F9
F7
FD
FE
FF
01
FC
FD
FD
FE
F9
FC
EF
FA
FE
03
FF
03
FD
FE
FE
FF
FF
03
00
FF
FC
FD
FD
02
FC
03
03
03
01
FC
FB
FF
FB
FE
02
05
02
FE
FD
FB
00
03
F8
DE
F9
F8
FB
02
F7
F5
F1
FE
FF
F9
FE
01
FF
10
EF
FD
00
05
F4
F3
09
0D
FA
03
F4
F7
00
F7
02
F1
FB
02
F7
01
FA
05
F9
FA
F3
06
09
FC
00
FB
FB
F8
FB
F9
05
FF
05
FF
00
03
FD
F9
F8
FB
FD
FA
FC
FE
FF
FE
01
FC
FC
03
FC
FB
FF
03
FA
FC
FC
01
01
FB
FD
FF
FC
02
01
FE
FF
FE
FA
00
FF
FA
FD
FB
FD
06
EB
0D
F3
DF
EE
12
F1
EF
FD
DE
FE
09
08
EF
FA
EA
07
FA
FB
FD
11
0A
D6
FC
0D
00
03
DD
14
01
FE
FA
F6
00
F9
FF
FC
07
F9
FC
00
02
02
FE
F9
FC
FC
FC
FC
F9
05
FD
01
FF
FC
FC
FC
0E
FD
FE
FC
FB
01
F7
FE
FF
FB
FF
FF
01
FE
FA
FA
F9
02
F9
F8
01
00
F7
01
FF
FD
FC
FF
03
02
03
FC
FD
03
FF
F5
01
FE
03
07
C1
03
05
FE
ED
FD
01
07
03
FD
14
F5
FB
06
10
FB
EF
06
0B
02
1E
10
07
12
1B
F5
F8
01
FF
06
04
FB
FE
FD
F8
FA
04
FB
02
04
FB
FD
02
FA
F8
F6
0B
00
F9
FE
FF
FD
06
04
FE
03
02
F5
FD
03
F7
02
EF
FE
0E
0B
04
07
13
0B
F2
E0
FE
FB
CE
F7
0D
06
FF
0B
FD
0C
FC
00
E2
06
17
D7
DA
02
FD
FD
06
04
01
03
0D
03
01
F7
F4
04
04
FF
05
F4
EF
03
E0
F6
E3
06
D4
F5
07
04
DD
EF
D2
FC
E7
F9
FF
E8
00
FD
ED
FB
1B
00
0F
07
1B
02
F8
0C
F9
07
ED
F8
09
04
03
25
FF
01
13
05
D5
0D
1B
E8
08
05
05
E7
FA
F9
FF
FF
07
07
F1
ED
F6
0E
03
0D
E6
F4
F8
FD
10
06
F1
09
F5
F7
F6
E3
ED
F8
F1
F9
FA
00
FA
FC
01
02
03
FD
01
F7
FF
04
FA
FB
FD
07
03
FE
F5
FD
F3
FF
FD
FE
F0
00
F8
03
F4
FE
F6
FF
FE
EB
FD
DF
F7
08
FB
01
10
F7
01
08
F0
FC
04
09
0C
F1
09
0B
DC
FD
D7
0B
E8
F2
05
12
EB
EF
98
12
F7
E7
FA
D1
FE
FD
F7
FA
FB
FA
FF
FB
FB
02
FE
F9
FB
FC
00
F9
FB
00
02
01
03
FB
03
FD
FF
FF
05
F8
FE
F9
02
0B
F8
00
02
FE
03
06
F3
04
F6
01
F1
FC
F3
F9
00
FB
03
00
EF
07
09
FA
03
F2
FE
F2
F0
FD
F8
0D
EB
FA
10
03
FF
FA
F8
FD
FD
F9
FF
00
FB
01
FA
01
FD
FF
F9
FD
03
FD
FE
01
04
F5
05
FD
FB
02
FD
02
01
04
FF
00
03
FC
FD
F6
FF
02
F7
FF
FF
03
02
00
F2
01
ED
F8
02
01
EE
01
F4
FF
F2
FA
04
F9
00
EF
F5
EC
F0
0A
0C
00
FE
FE
F2
04
F5
F9
00
EF
DA
05
05
FD
FA
FA
01
EF
FB
F8
CD
F8
FD
FD
E1
04
06
04
EF
FD
0E
F0
01
05
13
01
F6
FE
FC
0C
11
0C
F4
F8
11
0A
FB
F9
15
10
F5
EE
E4
12
07
15
0D
12
0B
FA
FD
E4
FD
06
01
00
FB
FF
FF
FC
02
FC
00
FA
FC
03
F9
FE
FD
02
F9
FE
FD
FD
FC
FD
FD
F7
F4
FB
F9
F6
FB
F7
FC
FC
FE
FB
01
FB
FD
02
FF
03
00
FC
FC
FC
FF
FD
F7
FA
F2
00
F4
FD
00
FE
01
FD
F8
FB
01
03
FB
F3
02
FC
FE
FF
FA
F8
06
F9
0B
FB
FE
F8
05
06
00
FA
01
FE
04
FB
FF
07
FE
02
07
FD
0A
02
FF
FE
04
0D
03
F8
F8
FA
FE
FF
04
FC
04
00
FC
FE
FC
FF
FE
00
FD
02
FC
00
FE
FE
FA
04
FD
00
00
FD
FA
FC
FD
FC
FF
FD
F4
FF
FE
00
01
FE
00
01
FA
F4
02
01
FB
FD
F9
04
FB
00
FF
FD
FF
01
04
F9
FF
00
FE
F9
00
03
FE
02
04
05
FB
FD
FA
F6
0A
02
0F
FB
FB
10
07
07
FF
EE
15
F2
FC
FE
FF
FA
09
19
21
0D
0C
FD
F9
E9
03
0D
FC
FF
FD
FD
F8
F9
07
FC
FD
F6
FC
08
FE
FB
04
FF
02
FB
01
07
00
F9
08
03
01
00
FC
04
FD
06
06
FF
FB
FF
FC
FB
02
FA
03
00
00
03
02
01
05
00
FF
01
01
FD
FD
02
FD
FD
04
00
FC
00
FD
00
FC
01
FB
FD
F9
FE
01
FD
FE
03
00
FC
FD
06
FA
00
00
01
FF
03
06
04
FC
00
FD
FD
FB
01
FC
01
FD
02
FF
FA
FA
00
01
00
02
FD
FC
01
FD
FE
03
03
FE
00
02
03
03
01
03
03
FC
FE
FE
FE
03
FA
FD
03
02
FF
00
02
04
FE
00
04
ED
0F
02
F6
FC
07
F7
EE
FF
F7
FE
02
12
F6
FB
F5
0D
0E
15
E1
F2
E3
0A
F9
FF
FC
0B
18
F7
F0
02
FB
FC
FE
FD
02
02
01
03
FF
FF
FD
02
FB
03
FC
FE
02
FF
FC
00
03
03
01
06
01
FD
01
01
FE
FD
FB
FA
FE
04
F9
FC
FF
FF
F4
03
07
FF
00
03
03
F8
F8
FB
FB
F9
FC
00
03
FC
05
F4
FB
00
F3
FA
F8
F9
FC
07
06
02
07
F6
01
FF
FE
FD
02
05
00
04
FF
F9
FC
EE
03
E7
F1
FE
FE
F0
E8
E7
FF
FE
00
F0
E2
04
02
05
FB
03
F7
FC
F2
FA
F0
FF
0B
F3
09
F3
FD
08
F3
1A
FA
0B
0E
FC
F3
EE
04
02
F1
DC
F9
02
10
FA
F8
F2
F6
FB
FD
02
FA
F9
FD
FB
FD
EF
01
F9
FB
00
05
FC
FB
F9
F6
F7
F2
FC
F8
FF
F7
FD
FE
FC
F8
FD
02
FC
00
F0
03
E5
F7
F4
FB
E8
EC
05
EF
F9
F8
02
F2
FD
F6
06
06
09
ED
FF
E9
01
FA
F5
02
F1
F7
FB
09
15
02
FB
F8
EC
E7
ED
EA
FA
03
CC
FC
10
01
CB
C9
18
F5
EB
E4
F8
EB
09
06
0B
06
05
F4
F9
F7
FB
0F
00
FB
FC
F6
02
FE
01
FF
FC
FF
FB
02
00
03
02
04
00
F6
FB
FB
02
03
FE
FD
FE
02
FF
FB
FC
FA
01
02
00
02
04
01
F7
FD
08
04
0A
13
F4
02
FC
00
FC
EE
12
03
FC
F3
EF
02
F9
12
09
0B
03
F1
F9
05
F7
00
F5
FA
0D
00
F3
06
EB
05
03
0F
F0
CF
FF
08
F8
01
F2
12
F7
D5
0B
15
E4
04
E9
07
F5
DB
F9
F7
E7
0E
02
F4
05
EA
F4
F5
0E
EE
E8
0F
01
0E
F3
FD
08
F9
0F
05
D6
FE
FB
0F
09
17
0B
F0
FD
FD
04
05
02
EF
FA
F9
15
EB
01
0E
0D
F7
F8
2A
EB
02
FE
F3
0A
F3
00
14
F3
F9
F0
FE
FE
08
16
0D
0B
0E
0B
E0
0E
03
00
FA
00
FF
00
FD
05
00
FB
FD
FC
FF
FE
FD
FB
FF
F9
06
FB
FF
FC
04
FC
FD
FF
FC
FB
02
F9
F8
01
01
FB
F7
FC
F6
FB
F3
FC
F5
EF
FE
00
FE
FD
EF
FE
F3
F8
F0
F2
FD
01
F8
FF
00
FA
FF
FF
05
F9
01
02
FF
D1
01
E1
F9
08
EE
06
02
F7
F4
05
17
C2
F6
FB
FA
01
00
07
03
F3
0F
FD
EF
14
F9
F6
F7
10
18
EA
05
08
FD
EF
F7
F6
F6
F9
F7
F1
F1
FC
01
FA
04
F7
FC
0C
F7
F1
00
FA
FB
FC
09
08
F3
04
FD
02
04
FA
08
09
03
0C
16
C8
F5
F6
0F
EF
1E
14
E3
FE
1B
F9
F4
DC
02
F8
FD
E7
FC
F4
F2
D8
FE
FA
08
D7
00
0C
FC
09
FD
FC
F7
06
F0
1A
F0
F1
FD
06
10
10
F6
F3
01
FF
FA
02
02
00
03
24
FB
08
00
0D
00
0B
1D
13
0B
01
FA
FB
F9
F5
FA
FC
FB
02
0B
03
F9
FE
FE
F6
F5
FA
FD
EC
F9
FB
0F
FA
01
F9
FB
02
E8
F5
DB
F2
08
F8
F8
01
F9
03
02
FC
FA
F1
ED
FB
F7
F8
F9
FA
FC
F1
F4
00
FC
FD
F4
FE
01
FA
F9
00
08
02
F4
01
FB
FA
03
F7
FE
FA
FE
F9
01
FB
FD
FC
FD
FC
FF
07
FD
FA
00
FE
FB
F9
FA
01
FE
FA
F9
FD
06
FF
FD
00
FA
FE
FD
06
01
FA
FA
07
01
FE
EB
FD
FF
FB
FC
FD
05
F4
04
04
04
05
04
01
FE
02
F8
FD
FD
F4
F3
01
01
01
05
FB
05
F7
F7
02
01
0D
02
F3
0C
09
FF
04
F3
17
FB
FB
19
F0
FF
08
21
2E
09
10
EA
F4
EB
EF
0C
EE
04
07
04
04
05
19
FE
E6
FA
06
00
EA
F9
08
FF
00
05
F3
0C
09
FE
F5
FA
17
D6
F0
FD
F6
07
04
03
FF
FE
FD
05
E8
F7
0B
06
F3
EC
09
F3
F9
02
EE
08
EE
02
05
F8
06
0C
0D
EC
E8
F8
05
09
F1
F0
0C
F7
08
00
DA
02
02
EB
0D
04
02
EB
D0
1A
15
0A
FA
02
06
E7
CD
F0
02
00
1B
06
EB
0D
0C
F2
08
22
F8
16
01
00
F8
FC
F8
F8
FA
F8
00
01
FC
F8
FD
FE
FF
F7
04
F1
00
FD
FB
F3
03
FD
F6
FE
FC
FD
F8
00
F9
03
0C
FA
E8
FB
FF
F9
02
05
D7
FA
EF
14
16
06
EC
FF
E5
E3
0B
F9
F6
EC
FB
07
0E
EA
FA
00
E4
F0
F7
06
00
01
FC
02
00
FC
FF
03
FE
00
FE
FE
03
FC
FE
00
FD
FD
00
FB
FD
FE
FD
FB
FF
FD
FE
FF
01
FD
03
FC
00
FF
00
F9
F9
FE
FF
FB
F7
02
FB
02
03
FE
F6
F8
FB
FE
F6
FD
F8
FC
F8
FC
F7
01
FF
F9
FB
EE
FC
05
00
04
FD
04
F0
F8
F9
06
F5
F6
00
FE
F3
FF
E9
07
F1
F7
F9
F9
08
06
09
EF
E1
F7
FB
09
EC
F2
0D
F6
FA
F9
FB
00
F7
FC
FC
FA
F7
F5
F9
F9
02
F8
05
FB
04
FC
08
03
05
F2
03
01
FD
02
01
FF
FF
0D
00
00
F5
FB
0C
FD
FD
06
14
00
F2
D7
03
0C
F7
E1
07
02
07
03
FA
0D
07
FF
F5
00
11
FE
ED
03
F2
FF
09
FB
08
FD
E9
03
FF
E6
F6
FF
FC
DF
F6
FB
F9
03
E7
EF
12
F1
00
12
08
D6
E2
03
1C
FD
F9
F0
02
FD
E3
12
00
FE
FD
FF
03
FF
FC
FF
FB
FC
FE
02
00
02
FF
FE
FE
01
FE
03
01
FE
03
00
FE
01
FD
FF
FC
FC
02
FB
FF
04
03
00
FD
FF
03
FF
01
02
FD
01
FC
FD
03
04
01
03
FE
FC
FC
FC
03
FC
FE
03
FF
FE
FD
FF
FF
FB
00
01
FF
00
03
02
00
FB
FB
FB
00
00
FC
01
FB
FF
FF
FF
03
03
FD
01
FD
FE
FE
F8
01
F9
02
FD
00
FB
FD
FD
EE
00
F7
FB
01
01
E8
D5
11
06
F2
FC
01
04
F2
E9
07
0A
18
01
09
EB
F7
E9
FF
00
F3
16
01
07
02
04
00
FA
01
FB
FB
01
FC
FA
FE
FF
FE
F9
FC
FC
08
FB
F6
05
03
00
01
02
02
FE
01
FB
00
FC
FC
00
FC
F9
F9
F6
00
00
FE
F9
FB
FB
FE
FD
01
FE
00
FC
02
FC
05
01
02
F9
FA
00
06
00
02
FC
03
FF
FB
FD
07
FB
F9
FD
FA
FE
FF
F7
FA
FF
FE
FC
03
F7
F7
00
0C
FC
F3
FC
01
FE
FE
01
0D
FB
06
FC
FD
FD
FA
05
01
FF
FA
FC
00
00
FA
FE
FA
FB
03
08
F3
00
EE
FE
FA
F6
F2
02
FE
01
F9
02
03
F4
FE
F3
FD
DE
F4
04
00
05
F6
EF
07
03
01
FF
EB
E7
0A
09
0D
00
E3
FE
F2
FA
E1
F5
00
F8
EC
0E
F8
F5
10
D2
FD
CE
E5
21
02
FE
08
01
FC
F8
06
03
12
19
F7
FE
09
07
04
F3
1F
0B
EC
F9
ED
0A
F8
1E
18
12
0B
F9
FF
DF
FF
0A
FC
00
01
FB
03
FE
FD
F8
FC
06
04
05
FB
FD
FC
05
FF
02
FB
FA
05
00
04
03
01
02
FE
FC
FD
F9
FE
FE
FE
FC
00
F6
F7
FE
FF
FA
04
06
00
FD
F7
01
FC
F7
F6
04
F3
F5
02
02
FB
01
00
FF
FC
FC
F7
F7
F9
F7
06
03
FF
03
F9
F2
FE
07
14
02
F0
2E
02
00
FB
F6
1A
02
F7
17
F8
FD
03
1D
31
0A
07
E9
FB
D4
F2
19
FE
02
ED
00
01
F7
F3
04
03
FD
F8
02
F2
F3
FB
FE
02
FC
01
00
FF
F8
02
FD
FA
02
01
01
FF
0A
01
FA
02
FF
FE
FB
FC
02
FF
FB
FD
03
FD
01
FF
03
FE
FF
04
02
04
01
FF
02
04
FF
FE
FF
05
FC
FB
FF
FF
03
FE
02
FE
00
FE
FB
07
05
FD
F8
00
02
FF
00
07
01
0C
FF
FC
FF
03
F8
05
FD
06
02
FF
FF
06
0C
00
00
EF
FC
F9
00
FD
FB
08
01
F4
F9
FD
01
04
FC
01
FC
FC
FD
03
03
00
03
FF
F8
08
FF
FD
01
FE
FE
02
FC
EF
F4
F8
FB
01
00
01
FB
05
F2
F6
0B
F6
FF
FC
02
FF
FC
FC
F5
F9
FD
FA
F9
FA
FC
F8
01
03
F4
03
F9
FF
FF
04
03
FD
F5
1E
05
17
0B
FE
16
00
06
FA
F2
18
07
F7
09
F4
13
E1
0D
30
0C
EC
E6
03
E1
EF
0C
F4
F4
0C
F8
FA
0F
F5
FE
03
FE
02
E9
EC
09
C9
FF
EC
0F
F0
E2
04
14
FD
F1
DB
05
F8
EC
F3
E3
05
F4
F7
FC
FF
FE
08
02
07
F0
EA
F8
FD
06
05
F2
03
03
11
FC
FC
01
07
09
FE
FB
0B
00
FC
FD
F7
FA
FF
01
FD
FF
06
F6
FC
F5
FB
F8
FF
EF
FC
FF
05
00
F2
F7
F7
FC
FE
F8
FD
FF
02
FE
E9
03
03
FF
F9
F3
02
F9
03
FE
FB
03
F9
FF
01
FD
F7
F7
FC
02
05
FD
F8
02
FC
F9
00
03
FD
01
FF
FC
F9
FE
02
F8
FC
FA
01
01
0F
09
0B
1A
C9
F7
F0
16
FD
11
14
E1
00
29
F3
F3
E5
00
FD
02
FC
F0
FA
00
E2
0A
05
04
CE
0A
0E
FC
04
FB
00
FC
FA
E9
EB
EE
EC
F3
F1
F0
E5
FC
06
F8
FC
0D
0A
FE
03
00
0F
F7
F0
E9
03
FF
F7
F9
FB
E6
ED
EF
EA
E7
04
03
FA
D4
00
06
0D
03
F6
FA
07
01
12
00
F8
15
0F
F7
F8
FE
0C
FB
01
EF
0A
06
DB
0A
FB
FC
02
F9
F2
FA
FC
FB
FC
04
04
F7
FA
00
F5
F5
F8
F8
F6
FB
01
FF
FE
F8
EE
FD
FE
05
F1
F5
04
F6
01
F9
02
FB
FA
FC
FF
FA
00
FC
FB
FF
00
FE
FD
FE
FA
FC
FD
01
FA
02
03
FC
01
05
03
01
FC
02
FE
02
07
05
F8
05
EC
F8
0A
02
E9
FE
FD
09
E7
08
F9
0E
E7
FB
08
FD
F4
0C
0A
E7
E7
EA
01
03
F6
08
09
F0
FE
F7
02
F8
F8
FD
F9
FE
05
09
FE
FA
F7
FB
FB
FD
F6
03
F4
F7
FB
00
00
05
FA
FA
F7
F4
FB
FD
F6
F5
FC
FD
FC
02
FE
04
FE
FC
FC
FF
F9
FE
FE
FB
03
FE
07
F9
02
05
02
F9
01
01
08
01
FB
FE
00
00
FA
FE
FE
04
02
01
FC
03
03
FE
00
FB
FB
FD
01
FE
04
FC
FF
FB
01
00
FC
03
FD
FF
FC
FC
FD
FC
FE
01
02
FB
01
FD
FE
FD
F9
01
FA
00
00
FD
FC
01
02
01
FF
F9
FA
FA
FF
FF
FD
FB
FC
FD
F5
FB
04
F7
FC
FE
FE
04
03
04
EB
FD
FA
0A
02
FE
E7
EB
01
02
07
F6
EF
EA
03
F9
F6
04
04
09
00
0B
07
F6
00
ED
06
E8
EE
1C
FC
FB
FC
00
FB
01
04
04
FC
03
FD
03
04
FC
FB
FE
00
FB
00
FD
FF
FF
FF
02
FC
FB
01
FC
03
FF
FE
01
00
04
F4
03
F7
F7
FE
F9
EC
E8
0F
0F
F4
F9
00
04
F1
ED
08
12
1B
08
F5
E1
F8
F5
F8
07
EF
0A
05
02
06
FF
0B
FC
F3
FB
08
04
17
0F
FE
FC
0A
04
FF
F4
15
08
F2
05
F3
04
03
1C
18
16
09
F6
03
F5
05
14
FD
FD
FE
04
FB
FC
FE
00
FB
FC
00
F9
FD
02
FD
00
F1
05
FC
FA
FC
01
00
F7
F2
FF
02
F7
FD
F2
FB
FC
FE
05
F3
01
09
F5
08
02
0D
F9
0D
09
06
F9
E4
F0
13
F3
E2
2B
21
09
FB
25
33
FA
06
F4
06
F0
FB
1B
08
03
0B
FC
E2
FE
05
FE
0A
F4
FA
F3
0E
FF
E0
FD
FD
DF
FE
FC
FD
E9
E2
05
E6
12
01
09
F1
DF
11
F4
06
FB
FF
FB
EF
F8
F3
01
05
FD
FE
FB
07
FC
FD
F8
F9
F6
FA
FF
FB
E9
EB
FF
EC
03
FC
FA
F5
F3
03
FA
FD
01
00
01
FD
F9
04
01
FF
F8
FD
FD
F8
FC
F6
05
F8
FB
03
06
01
FE
01
FC
FC
F9
02
F4
FE
FD
F7
FD
F3
03
EA
01
0D
F9
FA
FD
06
FB
E8
F5
F4
EF
01
FF
F6
ED
01
03
FE
F4
0A
FE
F4
06
FF
02
07
10
07
EE
0B
01
F5
0D
00
FA
F4
03
F5
07
0D
E7
FB
03
08
FF
05
00
0F
07
04
F5
00
FD
FA
FD
01
0B
07
11
08
FA
F8
F3
F8
F4
FB
F9
F9
F2
FB
F8
FE
FF
FE
FC
F8
02
F4
F4
FC
F3
FA
F2
00
F8
F6
FA
03
01
FD
F7
02
FA
01
01
FC
02
FE
01
02
FE
03
FF
00
FF
FE
FE
FD
01
FB
FC
FB
01
03
01
FE
FC
FC
FF
FF
04
FC
05
FE
FE
F3
F7
05
00
0C
05
02
03
F3
D5
04
01
FE
F6
08
04
FC
0B
FB
FE
FE
EF
DF
ED
14
F6
DD
FF
09
EC
08
FA
FF
02
FD
00
02
FE
FC
FE
FB
04
00
03
00
FF
01
03
05
FB
02
FD
01
01
03
FE
FD
01
01
01
00
01
FB
03
03
F1
09
FF
F1
F6
00
F9
EA
FA
06
04
EA
FE
05
FA
08
02
06
04
F6
FB
0D
00
FC
EF
F4
FE
E8
EE
04
F6
F8
FF
FE
F9
01
04
02
FA
01
F8
04
00
01
FC
00
02
FA
F9
FC
04
FF
FB
FD
FD
FA
FD
FF
FE
FF
FB
FC
FA
F3
FC
FC
F6
06
FD
00
F6
F4
01
FE
00
FC
F0
01
FF
09
02
FE
00
01
06
F8
05
0F
FE
01
F8
05
01
F6
03
06
07
04
0F
F1
01
FA
05
F5
F1
F8
EF
FC
04
FE
06
EF
FD
06
F3
06
F5
F5
ED
E4
FB
F8
08
F0
F8
0B
F6
FD
FD
01
00
F6
F8
F7
FE
00
FA
FA
FB
02
FD
02
00
F3
FC
FC
FA
F4
FC
FF
FA
F9
F5
FD
FE
00
F5
FC
FC
FF
FA
00
EE
06
EB
FE
F3
F9
FA
00
FD
F1
FB
F9
F9
02
05
F6
F7
FA
04
FC
FF
06
F4
FD
F3
FE
F2
FB
02
18
09
DC
FD
FC
F2
EE
F2
09
E9
FD
06
10
FE
F4
FB
07
D9
08
0C
F7
EC
1F
09
F3
08
0F
FC
F2
13
02
08
02
06
F5
09
EA
E2
F5
FF
F0
E7
03
EB
F7
FF
F8
FD
FC
F5
05
0D
03
FF
0F
FA
02
F6
04
02
EF
01
08
03
03
FB
F5
F2
F9
FD
02
FC
FD
F8
FC
FA
FE
FB
DE
F4
EB
FB
EE
FD
F9
FB
03
F4
F6
01
02
E9
FD
E2
F2
0F
F0
FB
F9
FD
00
FC
00
F9
01
F4
FB
05
FB
02
FE
FC
F9
02
FB
F8
FE
FB
01
FA
FF
FF
01
04
00
EA
02
FD
0B
01
F5
0C
F7
02
00
05
F0
FE
F1
F6
03
FF
05
03
F9
FE
03
EF
09
F0
F7
EC
F7
F8
F5
0F
E9
06
08
07
02
03
F1
09
E2
EF
F7
04
F4
F2
0D
FB
F0
06
FD
FE
F1
F0
02
01
05
02
0E
EC
E5
F5
05
00
DF
F8
06
F3
CF
F8
F9
E9
1E
0F
18
EA
E5
09
ED
1A
09
CE
0B
07
0C
05
04
01
0F
15
19
E7
23
F5
0E
FE
19
06
FC
06
02
F9
05
03
F4
02
0D
FF
FF
F7
EB
15
E1
03
F5
FB
EE
01
FD
E7
EE
E8
F5
F2
ED
EB
F0
FC
EB
EC
FC
ED
EA
F5
01
F4
FC
F1
0D
FA
FF
F3
03
0B
F2
FC
F6
FF
FC
FC
F7
07
02
04
02
F9
01
00
F4
F1
FD
06
F8
09
00
FF
09
FF
F3
02
04
03
12
13
06
F9
0D
09
01
EF
13
03
F4
11
08
09
00
19
17
16
01
F9
FC
F4
FE
14
FE
03
FD
FB
00
01
00
01
FE
00
FD
FD
01
02
FB
FF
02
FE
01
00
FF
01
02
FF
01
FD
00
04
FE
03
FC
FD
FC
03
FF
00
FC
FD
01
FC
FB
02
FE
01
FC
FD
05
FF
01
FD
FC
FB
00
FC
FC
FE
03
FD
00
01
03
04
FC
04
F9
F8
18
E4
0B
14
1E
F9
00
0D
EF
12
07
F9
0B
FA
FF
0A
F9
F2
EF
03
FA
0A
24
10
08
13
17
D4
0A
ED
04
FC
FD
00
03
00
FE
FD
FF
FB
FE
00
03
03
FE
01
01
00
03
FB
FB
00
00
FC
FF
00
FE
FE
FC
01
02
FF
04
FF
00
FE
F4
F1
02
04
17
0A
F1
02
04
09
09
FB
13
F8
F2
14
FE
0B
02
0D
21
0F
04
F7
F6
E1
FC
08
FF
FC
0D
03
F9
FC
12
FD
12
EE
04
FD
14
04
D8
04
FE
12
01
17
F7
14
00
E6
C2
16
EF
04
D2
0F
09
F1
FA
F9
FB
FA
04
F7
09
F2
F8
03
01
02
02
FE
FB
FE
FF
FF
F7
03
FF
08
FF
01
0D
03
05
F2
FA
F4
F6
04
14
04
E4
FE
FB
F3
F1
F8
FB
F7
DF
13
11
FF
F8
FD
03
DB
00
12
F6
E9
0E
FE
F2
04
0A
01
E8
FA
FC
FF
F4
FD
0B
03
F9
FD
0D
04
F9
11
E3
00
F6
04
FD
F6
F1
02
EE
B9
DF
0C
EE
10
06
F5
FA
ED
FA
FE
01
D4
04
06
07
FB
F6
FA
EC
04
0F
F7
FA
F2
16
04
23
EE
10
EC
F6
F5
F6
F6
06
11
DF
15
11
03
F1
D4
08
02
03
FB
00
FC
05
03
02
03
FB
00
FD
00
FB
01
FB
FF
03
00
FC
FB
FE
FC
FB
02
FF
01
04
FF
04
FD
03
FF
F8
F0
02
EA
07
00
1B
FA
00
C1
DF
13
F8
08
F3
F4
D9
FB
07
0D
07
F5
11
F1
E9
F8
F5
07
0D
06
08
DF
02
06
FC
05
F3
F2
13
04
EC
FE
03
11
EB
00
F9
10
F3
FF
05
08
06
0F
FD
E6
F9
E9
FA
05
EF
16
0A
FD
07
06
02
06
F6
FE
FD
05
17
04
F7
03
0B
09
02
F4
21
FD
EE
0F
F9
06
05
18
28
11
0B
F8
00
DB
02
13
01
FE
00
F8
FC
DE
F7
00
0C
FA
14
05
CA
E7
FB
FF
01
07
03
1D
17
EB
06
F2
D8
FD
F7
FE
0E
22
05
EF
FE
FD
09
01
EC
E8
F0
00
FE
DF
01
F2
FF
00
F8
FA
F2
02
F7
F3
00
EB
E8
FB
E2
F9
EE
03
EB
02
04
E1
F1
FF
CD
0B
02
F5
F3
F6
FD
DF
03
12
DA
F6
17
02
08
FB
0B
0A
1C
DD
1B
E6
0F
F2
08
05
06
2B
13
F1
E9
E6
FF
F2
0B
0C
FC
F9
FA
EA
00
F5
14
F5
0C
FD
F2
05
03
01
05
F5
ED
03
17
FD
19
01
09
DC
07
E6
04
00
FC
FC
03
FE
FF
01
FF
F5
FA
FB
FB
FF
FE
F9
FD
01
FF
FD
FF
04
FF
04
01
FC
07
F8
FC
FB
FC
FF
FF
FD
FC
03
FF
FB
00
FB
FC
00
00
FF
04
00
FE
FB
FF
FB
FE
FC
FB
FC
FB
01
00
FB
01
FB
02
FD
02
02
E1
02
E4
04
EF
F6
FC
07
FE
F3
11
FA
F2
02
FA
01
F6
CD
D7
2C
16
DD
FA
0F
1F
C1
00
F3
FE
F9
F7
FA
00
FC
FF
02
FB
FC
FB
03
02
FB
00
02
01
FE
FD
04
FF
FD
01
FE
04
03
FC
00
03
FE
FE
00
FC
04
FD
04
D5
FB
FE
F6
1A
09
0C
EF
F2
F9
FA
12
F3
CE
08
05
06
01
04
06
0D
07
02
F3
21
E0
04
03
10
FC
F8
F8
FD
FE
FE
FB
02
FF
F7
FA
FC
F5
F2
FE
FF
03
00
F7
00
FA
FD
F9
00
FA
01
FE
F3
FE
00
F6
FE
F7
F3
FA
FD
FE
FB
FA
F8
01
01
02
03
FB
FF
00
FF
01
FC
00
05
00
FB
FF
FF
FC
FF
FA
04
F7
F8
FB
03
FC
FF
00
FF
F3
10
FB
05
F0
FB
EE
FF
07
F9
F4
02
00
F8
FD
FE
07
05
05
0B
17
FC
08
FF
F9
FC
F6
04
06
05
0C
08
03
07
13
CD
F5
F5
13
EF
18
11
DF
FE
13
FB
F4
E6
03
FE
FB
03
FA
F6
F1
E2
07
03
05
CA
0E
0C
ED
00
FE
EF
09
FE
F6
00
FE
E8
D8
0B
07
F2
F7
FE
0B
E8
E6
0D
07
0D
FC
07
E9
F3
F0
07
00
F5
0D
FA
FA
FD
03
F7
09
E8
EC
EB
FD
F4
E6
FA
07
EC
01
FE
0B
F3
F3
03
F0
E2
05
02
EA
EA
FC
FA
05
E9
F0
FA
F6
F0
FA
FC
F8
FE
FB
05
FB
FF
FC
01
03
FF
FC
FB
02
01
00
F8
FC
00
00
FC
F7
FC
FD
F8
F9
02
F8
FA
F8
F4
FB
FF
F7
02
02
02
FE
01
F8
07
05
00
FE
F9
FF
F7
FF
FB
03
04
09
04
FE
00
07
FB
F9
01
FF
FF
F8
04
04
01
03
F4
EE
F6
03
09
E3
F5
ED
0C
03
1C
F5
19
08
08
FE
F6
E9
D5
05
1B
09
E7
03
F7
2B
05
19
E5
F8
04
E4
0F
01
09
E2
F6
F5
0F
0E
FE
EB
04
00
15
F7
FB
0A
0E
10
04
0C
14
FB
02
F1
08
02
EE
FE
00
06
FB
0F
F5
EE
E5
07
F4
FA
07
02
EE
01
F4
07
F5
F3
0C
07
10
08
04
F0
F4
ED
F0
F8
F2
F8
00
FF
03
FC
04
03
04
00
FC
FD
04
04
01
FC
04
04
FD
02
02
01
01
FE
FE
02
00
02
03
02
FF
04
FC
01
04
FC
08
00
0C
0A
E0
E2
F4
02
FB
88
02
FF
F7
06
0E
0A
F2
02
FF
E2
02
C6
DF
FA
EA
F7
ED
0C
E3
F0
01
FA
00
FD
D3
F2
F7
FF
E4
0F
03
FE
F4
F4
EE
EE
F8
E2
F5
CE
03
EE
01
D9
0A
F8
F1
04
F8
07
EB
0F
FE
EE
DB
EE
04
E6
05
0A
0E
F9
F0
21
E2
11
16
FD
09
FC
F8
13
F4
F5
F4
13
01
09
0D
10
1F
FB
13
F1
F3
F8
EF
03
F5
05
02
FD
EE
FA
F2
F8
01
FA
EB
00
FA
FC
DF
ED
07
07
07
F5
07
03
01
ED
E8
FF
05
FE
02
E5
05
04
04
06
F6
F6
04
05
15
F8
FB
0E
0A
08
F5
F7
15
00
F0
09
16
13
E2
09
1F
09
F2
D2
FB
DF
D9
0B
F1
FD
06
F3
F3
EA
FB
F5
E8
E4
FE
03
FC
CA
0B
00
F6
08
F4
D2
FE
DE
05
FB
05
F6
FE
08
F4
D8
0C
EF
FF
E2
FD
EE
03
F3
02
E5
F7
F2
FE
FE
05
FE
F2
FA
FD
FC
01
0A
02
06
FF
FE
03
02
08
F8
02
03
F9
FB
00
FD
E3
F3
E8
05
FE
FD
04
EC
F8
00
F8
FB
F2
01
06
F5
E9
00
04
DE
D8
0D
0F
FE
FB
ED
EF
00
DF
1C
FC
FE
04
03
FB
02
FC
FE
03
FC
FC
FD
03
FB
FF
FB
FB
00
FD
01
FD
FD
03
FF
03
FC
FE
02
FA
02
03
01
F9
F8
FB
FA
00
FA
FA
FB
01
FB
00
FD
FC
04
F7
FE
00
F7
00
FF
FF
FB
00
02
00
02
FE
F9
00
FF
FB
FD
EC
ED
10
FC
04
F6
24
F8
FA
05
FB
1A
01
FA
0C
0D
BE
21
02
F3
0D
07
17
E5
0D
02
F9
0D
FA
13
0D
FD
04
FE
F8
F7
F4
FB
04
F8
F8
F6
F2
FA
FD
FB
F9
FD
F9
F7
FF
FA
FB
FA
02
F7
FA
04
03
FA
F0
FE
FF
06
04
FF
FA
01
FF
FB
F9
00
FE
FF
FF
F8
FC
FF
01
FF
06
FB
03
02
02
FF
FD
FD
FF
FD
FC
01
FE
0A
FF
FF
02
02
ED
02
FA
FB
01
FD
ED
F4
01
09
03
FB
03
06
F4
F3
06
13
16
FA
F9
00
FA
FE
10
FB
F5
09
01
08
F6
FD
01
FC
FF
04
05
FB
FB
F4
F3
02
FD
FB
FF
FF
05
00
FC
FA
FD
02
FE
00
02
05
01
02
FE
FD
02
FF
04
FF
08
FF
DF
F9
08
03
FD
05
F9
EC
0A
0D
D0
FA
E5
0F
0C
D3
16
0F
FD
F9
C6
0B
F3
04
D8
0A
02
FC
EB
F5
0B
FC
02
06
19
03
FA
0D
F4
06
EB
FB
0B
F9
F8
15
F7
F0
EF
0A
E8
E2
1E
E3
FD
00
0A
E6
FE
E5
DA
F4
FD
F6
02
FB
0D
F7
F2
F6
F0
13
FA
EB
0A
09
06
FA
FD
06
FD
11
FD
FD
18
FB
05
04
FD
F4
F4
03
FF
01
04
03
F1
08
EC
FE
FA
F8
F2
EF
0A
00
FC
EE
EA
E6
02
ED
F0
FF
01
F6
F2
FB
05
FE
EA
EB
04
E8
15
FA
F2
EE
DD
F8
FC
EB
F4
0D
04
FE
01
0A
FB
0C
15
01
F5
17
EB
00
1B
13
11
E8
0A
EF
E9
08
FB
18
FB
FF
FE
FD
FE
FC
00
FE
05
09
FF
FD
00
04
F7
00
FE
FF
F8
FE
F8
02
02
FE
F4
04
00
FE
F9
FD
FF
04
F9
FF
F8
05
FA
01
03
FD
FA
F9
F9
FF
00
F8
FE
01
F9
F9
02
FE
FA
FB
06
FA
F9
FC
FF
01
00
0B
FA
F8
0C
F9
0B
F5
0F
ED
07
DC
03
08
ED
FF
FF
03
E3
D9
10
07
D5
01
FD
19
E4
F7
E2
FA
00
F7
0A
B4
01
FB
17
F6
E5
F1
FD
F7
F7
D5
BA
DF
00
06
02
D8
FD
04
01
DC
06
FB
D0
FB
22
E4
F4
F4
FD
FD
F3
1F
FF
0A
07
FB
E4
F4
FE
FA
ED
0D
F1
FD
E3
ED
03
DF
EC
D5
F2
E1
FC
F7
F9
F4
19
06
FD
EB
06
09
F3
06
05
0A
00
FC
FF
01
F7
00
00
00
F7
F1
F5
01
FB
F7
FB
F6
F8
00
F8
FB
FB
F0
FA
F6
05
FC
FD
FF
FD
F4
01
FD
F7
F5
FB
FD
F3
FA
01
FB
F7
02
F5
06
04
F8
FE
02
FA
FF
F4
FB
00
FA
01
EA
F0
FF
01
FA
F0
F9
07
F9
06
FA
FD
FA
FA
FD
F8
FB
FC
FC
F7
F8
01
00
FC
FE
FD
F8
FE
F5
F8
F6
FE
FD
F5
FB
FE
FE
F7
F6
FB
F8
0C
FF
FC
01
F7
EC
EE
03
FA
F8
E3
E9
06
F8
D4
00
01
D2
04
E6
F6
D8
19
08
FE
05
03
02
FD
0A
0A
04
FD
00
00
FB
02
F9
FF
FD
F9
FF
01
04
03
F7
F9
04
01
FA
FF
FF
02
02
03
01
0A
FD
FB
FD
01
03
FF
02
07
EE
0B
F0
EA
D8
DD
F2
F8
E5
00
F2
EB
01
EE
F9
F3
0C
F0
FC
FE
F1
09
EB
D2
ED
FF
FD
F9
1F
06
05
FB
FB
FE
FE
02
FB
00
FC
FD
F5
03
FB
FE
FD
FD
00
03
F8
FF
04
FF
03
FE
02
00
02
00
FC
03
F9
FD
00
FE
03
01
FE
FE
FC
03
FD
04
03
FE
00
04
FE
00
00
FD
01
FC
FF
01
03
FF
01
FE
FF
03
01
01
FE
FD
03
02
FD
0A
00
F5
09
04
05
14
1E
FF
03
13
01
06
EE
18
05
F0
0B
F3
04
F9
1B
19
14
07
F7
FC
05
05
14
FB
F6
01
F6
EF
02
04
EE
D3
00
01
FC
FD
EC
11
FB
E4
FF
03
E7
F7
ED
0E
E3
05
ED
05
07
E3
DF
0C
E7
D9
F3
F9
F4
06
FF
00
F9
ED
F7
F1
09
F5
DE
00
03
01
FA
F9
FC
F2
04
FD
FE
0A
FB
00
FA
FB
F8
F4
FD
01
F2
FA
F3
00
03
F8
F5
FF
FE
FD
F6
F0
F4
FA
FD
F8
F6
EF
F8
FA
F5
FE
FA
FD
FF
FC
EC
FF
F6
F8
F9
04
FF
0F
00
FC
DF
EA
06
00
E6
D2
F3
FD
02
FB
E6
FE
CE
EF
F6
FF
EF
D3
0A
E3
09
F5
F4
FD
FA
FC
F6
FB
FD
02
FB
FD
01
FD
04
03
FD
FF
FC
FB
00
02
FF
01
FE
02
FD
FE
01
04
04
04
02
02
03
FE
04
FB
FB
F6
F7
FE
FA
F9
00
07
F5
02
FD
FC
FD
FA
F4
F6
F1
F5
F2
FB
F7
FE
FE
FD
04
F2
03
04
FD
F6
FB
FE
00
00
01
01
FD
FD
00
02
FE
04
02
FF
01
03
FD
FE
FD
FF
03
02
FD
FF
02
FD
FD
FC
03
01
03
02
FD
FF
FB
FF
F0
13
E5
E3
D8
FF
ED
DC
C8
FE
EF
03
EA
03
E5
EB
07
F9
FF
FA
F8
10
F3
D4
F5
12
07
E8
EB
0A
E1
FE
01
FB
FF
07
FF
07
02
03
05
05
01
04
01
F9
FA
FC
02
F8
F9
F8
04
02
FA
FD
02
FA
F8
07
06
FC
FB
F8
F5
00
F7
FF
FD
02
FD
01
FB
FA
05
01
FD
F4
FE
08
FA
F5
06
04
02
01
00
0B
03
FE
F5
01
F9
02
FB
0A
05
0A
0C
DF
F4
E2
08
06
FE
E5
ED
FD
0A
FB
FC
0A
03
FE
D6
D8
00
E2
F4
00
F6
E7
F3
C8
38
DB
12
F6
FE
F6
02
F7
F1
DF
04
F8
E6
FA
08
EF
F8
0C
FC
F8
FB
0B
0B
06
DF
06
FC
FF
E9
FB
05
04
22
04
F4
07
FD
03
FC
FB
FE
ED
06
07
F2
EB
E3
0D
FA
FF
03
03
CD
EB
F7
F6
D3
EE
FF
F4
0F
05
0B
F8
D5
0E
F5
FD
04
EF
01
FF
F6
08
01
ED
EC
0B
09
FB
FB
FF
09
ED
F9
0B
0E
07
0D
07
F3
F8
E7
15
02
F2
08
08
F7
06
01
FC
FA
FB
FA
FC
F7
FA
F2
01
01
06
00
FE
00
01
02
FF
FA
02
FB
02
FF
FE
06
FA
FD
F9
08
FF
FC
01
FD
FE
01
03
01
01
FD
00
FF
FC
01
FE
FD
FC
FD
FD
FB
05
FB
03
FF
FB
02
02
01
FB
FF
00
01
02
02
FB
03
FD
00
FD
FB
02
FE
FF
03
FD
FC
FC
04
01
02
FF
FD
FD
00
05
01
FC
01
FE
02
FF
FB
FC
FF
FF
FF
08
FE
0A
01
F0
F8
06
01
1C
12
FF
FD
10
07
05
EF
17
09
F2
07
0D
07
FA
1C
20
11
07
FA
01
F8
01
17
04
01
FC
FB
FD
FA
FE
FD
01
FC
FE
FF
00
02
FC
00
04
FD
F7
02
FE
FC
01
00
FC
FF
04
F9
F8
F4
FD
05
F9
FE
E9
09
FF
F3
0C
FA
FF
E4
01
1C
DD
E9
12
04
06
F7
0C
13
18
E3
10
F9
0C
FE
07
05
12
23
0D
FF
03
07
ED
09
FC
FA
04
05
EC
EB
05
0F
08
02
FD
0B
F8
F5
06
05
06
FF
FC
FD
FC
03
12
FA
F8
02
FA
03
01
FE
FD
FE
FD
FC
FD
FC
FC
F7
FE
F8
F8
F8
FD
01
FF
FA
05
FF
FE
FC
03
F8
F7
F9
FC
01
FA
03
00
F8
09
FB
EF
FD
05
00
F5
F7
F6
FD
F9
F4
FD
02
FE
F8
F4
F5
00
F7
FE
FB
01
F2
01
FF
ED
FA
F1
FC
F2
03
FE
02
FF
FE
FC
01
01
FF
00
FB
01
FD
FC
03
FA
FF
00
FF
00
00
03
FC
FE
FF
FE
FF
FC
FF
FB
02
02
FC
02
03
FA
0E
E6
01
F7
06
E9
11
F5
F1
FB
FA
07
03
EC
0B
07
F9
FE
02
FD
E9
E6
F7
FC
0E
E3
FE
0C
F3
00
06
FE
07
FA
08
00
09
15
0F
DA
1C
EF
08
05
F8
1A
03
02
05
EB
02
C2
10
28
01
ED
E8
07
F7
DF
08
01
FF
FC
01
F8
02
03
02
03
02
FD
02
03
FF
00
03
01
FC
FC
FB
FB
FF
FF
FC
FD
01
FC
FF
FA
FB
01
01
FD
02
FD
FD
04
FC
FF
FD
FB
FB
03
FC
02
03
FC
01
04
01
00
03
04
FF
FD
05
01
FC
04
FF
04
FC
FD
01
F5
F9
02
F4
FA
F8
F7
F6
FA
FE
F5
F4
F7
EA
FE
FB
EE
F1
FF
FD
F3
E5
01
02
E8
FE
02
09
FA
01
02
F0
FD
01
00
01
FE
FB
09
FD
FF
00
FE
04
F9
00
FC
FF
07
FE
F8
FA
01
05
FF
FA
FF
F9
FE
FB
FA
FA
FD
FB
01
FC
FC
01
01
FE
FD
FE
01
02
FC
03
03
FE
01
03
FD
FC
FE
02
03
03
FB
02
02
FB
00
FA
04
FF
FB
FB
F6
FD
FE
FD
00
03
02
F9
FC
F6
07
FD
FA
F9
FC
FA
FE
F7
FB
03
00
FA
F7
FD
07
FA
04
F3
FA
F8
F5
06
FE
FC
FC
01
02
FF
01
FD
FD
FF
FB
FB
F9
FC
FF
FC
FE
00
F8
FD
02
FC
FC
04
05
FC
00
00
FC
FD
F6
FD
18
00
E5
F3
FC
EB
FA
DC
1E
E2
FE
02
06
E5
FC
00
01
D6
08
01
D9
EC
1E
DB
F9
F9
FA
04
F1
2A
05
01
FE
01
FE
01
FF
FC
02
FB
04
FF
00
00
03
04
FD
01
FE
02
FF
FE
00
01
FE
01
04
02
00
00
FE
03
FF
FB
01
02
00
FD
FC
04
FF
FA
FD
FB
00
FF
FF
01
02
FD
03
FB
FE
FC
04
FC
03
FE
01
FC
04
FE
FD
FF
02
03
F6
FC
F8
FD
FC
FB
FE
FE
01
01
FE
06
FB
FC
FA
00
EE
FB
FA
FE
01
01
F0
00
E7
05
01
F4
FC
EE
FC
FB
FD
05
FD
04
FE
03
FC
FF
FE
00
02
02
FB
FF
FD
02
02
02
04
00
04
FB
FE
FE
02
FC
FD
FC
04
FF
04
FD
FC
04
FE
02
00
D9
D0
07
07
F3
FA
B3
0A
F7
0E
FF
08
09
0D
F5
F3
01
F4
28
F5
08
08
05
0B
00
09
1B
F1
F7
01
FC
05
FC
00
FD
FB
F7
FF
02
FD
F9
FB
02
02
FC
FB
01
FC
00
00
00
01
FD
F6
F7
03
FD
F9
01
01
FF
F2
FD
FB
FD
F5
F9
FD
F4
FE
FA
FE
FE
01
00
03
F5
04
01
01
F7
F7
FC
02
04
FE
F9
FF
FE
F8
06
03
00
FC
01
03
01
FF
02
FB
FD
01
FC
FC
FC
01
FF
FB
05
FD
02
02
04
FF
05
03
FE
FC
FD
FD
03
FC
FE
F6
E0
F1
00
0C
0A
06
DD
EE
DC
F1
F7
FC
E7
08
00
EA
03
02
F4
FA
E4
FD
F8
DD
F7
FB
FE
06
F9
F8
FC
04
04
E3
00
F6
EC
E2
02
10
06
04
0E
06
FF
07
FC
1B
F4
00
1B
16
EE
FB
10
24
08
0B
FC
EC
E6
FD
0D
F8
F8
FC
F9
03
FF
F6
F8
FB
00
FF
02
FA
FD
FC
00
FA
00
F9
00
F9
00
F7
FA
FD
FA
01
F9
FE
FC
F7
04
02
FD
10
FC
E9
F9
0D
04
0E
0D
FF
FD
10
0D
ED
00
07
17
F3
F5
0B
0D
06
09
FC
15
FC
F8
EE
0B
FC
05
02
02
FC
FD
00
FE
01
02
01
FF
00
02
FF
FD
00
02
FF
FB
00
FE
02
04
FE
FD
FC
FD
00
02
01
FF
FE
03
E1
EA
0D
E4
08
FF
0E
C9
FF
F4
09
1A
F8
E3
0B
FB
F8
08
FB
13
0C
15
04
FC
E7
D4
EC
F7
12
0B
FD
F7
EF
FB
F9
F3
01
F8
05
EE
F9
F8
03
04
F5
FA
FD
00
FF
F8
FD
07
F9
05
FD
00
09
02
FE
F5
04
03
F4
04
0C
02
DE
01
F7
00
CD
04
07
F2
E8
DD
11
FD
FE
F3
08
DB
0B
F2
00
DF
FE
06
E1
0A
04
05
F6
FA
FC
FD
FF
FF
03
01
FE
04
00
FC
01
03
FB
FD
01
04
FF
FC
04
FF
FB
05
FD
03
01
FB
FD
FE
00
FD
03
00
FD
FC
04
FF
09
FB
05
DD
0F
FE
0A
E8
FB
02
0D
F3
F5
F4
0D
F3
F8
FD
FE
FD
11
0F
F4
09
14
09
F4
F9
14
09
FE
FA
06
FC
E3
EF
E5
04
F1
ED
F5
F4
EA
02
FE
F6
FC
03
04
EF
E8
EC
FD
FC
E4
EB
FA
01
E6
12
00
0A
FE
FE
FD
02
02
FB
FC
FE
00
02
01
FD
FE
FC
04
03
01
FC
00
FF
05
04
02
01
02
FC
FF
03
FC
FE
FE
00
FA
FB
FC
00
01
FE
03
FA
FE
02
FB
03
FD
FF
00
03
02
FC
05
FB
FB
FB
FB
FE
01
FB
01
FF
FE
02
FC
FE
FC
02
FC
FF
F7
F3
10
FE
F2
E2
0B
06
FE
FE
F5
02
EE
FA
F4
15
02
09
08
F6
02
F3
11
FF
F6
FD
02
04
FE
FE
F4
05
FE
EF
F5
01
FD
F8
F8
02
FA
FA
FD
02
09
F7
05
06
F7
F6
03
01
0E
F9
03
FA
F8
EE
F9
08
F6
F4
FD
FB
04
FE
0A
F9
FC
02
FF
04
02
F4
FF
FE
F5
01
FD
05
06
0A
FC
FC
06
03
FF
FB
F9
FB
FD
FD
04
05
EA
05
EC
EA
FE
01
F4
F8
00
14
0B
06
ED
0A
F1
0A
03
EE
EE
05
00
0E
DB
01
10
F2
F4
0D
FD
0B
FD
EF
0D
05
F9
FF
0A
F0
F1
12
01
FE
E1
FF
FF
FA
FE
05
BF
F9
FA
12
FB
02
FC
FE
F4
F4
F6
F7
FD
D9
FB
00
F7
FE
02
03
FF
04
FD
F8
FB
00
FE
FF
01
FF
00
FA
FB
FC
FA
FC
FA
02
FF
03
04
FF
08
02
FE
FE
FD
FB
01
01
FF
FC
05
01
FB
F5
FF
02
04
04
FD
04
FE
FA
FF
FF
03
01
03
FC
FC
00
00
00
02
F9
04
03
03
FC
FC
FF
FF
FB
01
FB
FF
FE
02
05
01
01
FD
FE
04
00
01
FF
02
FC
02
03
00
03
02
02
04
FD
FE
FB
E1
EE
F6
ED
04
04
FD
FC
FB
00
0C
06
F9
F3
EF
FA
FB
FA
F1
FB
FF
0B
F8
F9
06
FB
F1
F0
07
FD
F3
03
FF
FC
00
03
03
03
FF
03
FF
04
00
04
03
FC
FB
FC
03
FC
03
FE
FC
FE
02
04
FF
FE
02
FD
FF
FD
01
FB
02
02
EC
07
F3
FA
F5
05
F1
06
0C
F5
0A
01
ED
09
F1
03
01
0C
EA
F1
EF
06
EF
FB
F9
00
F1
01
F2
02

