0A
FC
FF
02
FC
F5
FF
F6
01
F4
08
FD
E8
E5
FB
F9
00
FD
FD
FB
01
F1
03
F9
F7
F6
F4
05
0B
F4
01
FE
F8
0C
EF
0D
03
FE
F9
02
02
08
FD
E8
FB
F9
F6
D8
FA
03
F8
EB
0C
F8
11
0E
02
07
EA
FE
09
FB
05
04
FF
FB
00
00
F5
FD
F6
F9
F8
FA
F8
F9
FE
FF
FF
FF
00
FD
05
FC
F6
00
F8
FE
01
FC
FC
FB
FF
FD
01
00
FE
01
F8
FC
F4
07
0C
06
F9
06
F8
08
04
0C
05
00
02
08
F3
F7
F9
F6
F3
FF
F9
F7
F2
07
FE
E4
F5
F7
00
FF
00
FE
FB
FE
FF
FE
03
01
05
02
FC
03
FE
05
02
00
FF
FB
FC
03
FD
FD
FE
02
03
04
FE
01
00
FB
FB
FB
03
01
F9
00
FE
FE
01
FE
FF
02
FB
FB
FB
FE
00
01
FE
02
01
04
FB
04
FD
FC
FE
00
FE
03
FE
FF
15
FC
0E
0C
ED
06
EB
01
E6
E2
06
FA
FA
04
EF
07
FD
08
F7
FE
F1
F5
FE
FC
05
EC
FA
FF
15
FF
FA
FD
1B
0E
E1
F5
0A
16
FE
01
0A
32
F3
00
1D
10
E9
E7
FC
E3
E5
FB
09
06
EF
09
1A
0E
03
E2
DB
01
08
DB
04
F8
1A
0A
EB
EC
0C
E0
FC
FF
0D
02
F9
D0
D4
10
F9
00
EF
E2
F5
F9
0A
C5
F8
EF
FA
0B
24
EB
00
11
FC
01
FB
FC
FC
00
00
03
FF
FC
FC
FE
02
FF
02
FB
01
FD
FE
FF
FB
01
00
FE
FE
FF
00
FD
FE
03
FE
00
F6
04
F1
0A
04
FF
01
10
02
0B
FC
FE
07
FA
14
DE
EF
06
E8
F0
07
F4
0A
0B
EE
09
E5
F8
FD
EF
08
00
13
15
1B
F1
03
0A
05
06
FB
F8
05
14
FE
08
07
28
0C
10
07
15
FA
08
ED
F1
0E
FB
0C
04
1B
F3
FE
FC
18
03
18
07
03
FE
F9
00
E4
C2
17
FD
EC
E5
13
17
0E
13
01
12
EC
FF
FA
F7
0B
EA
0E
16
1A
09
F5
F8
FC
FE
FB
02
F8
F8
F9
F8
F8
F4
FA
F9
00
FE
FC
FD
FE
03
FB
F8
F5
FE
FF
01
FB
EE
00
00
04
F5
FD
FB
0C
0E
15
F2
FC
08
02
09
01
F6
0A
0D
05
09
00
22
06
0D
0B
10
F7
FF
ED
EE
24
01
FB
05
11
F9
FB
F8
03
ED
F7
F8
07
0B
01
F3
F5
1A
F9
FC
12
13
E1
F9
06
E9
FC
FF
FA
09
E9
04
16
04
F5
F8
FC
F5
05
F7
FD
05
FC
00
02
03
04
FD
FE
02
00
FE
01
03
FE
00
FE
05
01
FE
04
FE
FB
FE
FC
FF
FB
01
FD
FD
03
00
FD
FD
FC
FC
02
FE
01
01
02
FB
04
00
FE
00
04
FF
FE
00
03
FE
FB
02
FF
FD
FC
01
FD
FB
FF
01
00
FE
FD
F5
F9
F4
FB
F2
FF
FD
F8
0E
FC
FA
FF
02
EF
FF
FF
F9
FD
FD
F8
02
F7
FC
00
03
FA
F3
E9
FE
FB
02
F4
13
F6
F1
E8
02
FC
FB
00
0F
F6
E6
F2
E2
FA
EB
FB
04
F7
FF
FB
0C
F3
05
16
00
0A
F3
F7
FC
EE
E5
19
04
15
0C
F8
F8
FC
1C
FD
F8
0A
03
E5
E7
1A
1A
07
11
FD
15
FA
FF
02
F1
05
04
05
06
12
00
F1
00
F9
01
EF
0E
0A
FA
FD
03
FF
10
FD
FE
0E
FE
FC
DB
F7
01
F6
F6
0A
F3
0E
09
F0
0A
E9
FF
03
02
08
01
FF
F5
FA
FD
F3
FB
FE
FB
01
F9
FD
FC
FC
F1
04
F4
F2
FF
FB
FD
02
F3
03
FC
F8
FA
F5
01
FF
FC
FC
07
01
02
FC
FC
F6
FE
FB
05
FE
F8
00
FC
FD
05
FA
FF
03
FE
FF
FA
FD
04
FE
F7
F9
FF
FD
00
FB
FE
FF
FB
F1
E1
F8
F3
0A
F7
04
FA
F0
FA
EA
03
02
0E
F9
02
F4
FB
F4
05
04
E5
F9
FB
F5
01
EB
F9
FB
DD
F5
04
FC
FF
F1
FE
ED
F9
F3
07
04
E1
ED
EF
0E
0A
F6
03
1F
1D
07
D1
F6
FE
F9
F5
D6
EF
FC
12
F5
F9
01
01
F7
F8
FF
00
F9
F5
FA
02
FA
01
FC
FD
F1
FE
FD
FC
F6
FC
F6
FD
FD
F2
04
FF
F9
00
FE
FE
05
04
F7
F5
06
FC
F9
05
EF
09
FF
05
E9
E8
FC
09
03
02
F4
EF
FD
FA
F5
EE
FC
F3
FA
FD
06
F7
FD
F9
17
03
03
FD
FE
FE
FB
00
FD
FC
FE
FC
04
00
02
01
FD
02
FE
FE
02
02
01
FF
FD
02
02
FE
03
FB
FF
FF
FF
02
FF
FC
00
00
FC
F7
02
F2
F9
FE
00
FE
FD
02
FB
FC
F8
FF
F9
00
FA
FF
06
FD
00
FA
F7
03
F8
FF
F4
03
F8
F5
09
18
1A
D7
FE
05
08
F9
FE
E0
0A
FD
F4
09
EA
20
00
07
00
0E
FA
F8
EB
F9
F8
FC
FC
FD
D6
F9
04
F8
F8
E5
10
06
0A
FB
0B
EE
FD
EF
15
F7
CF
D7
1B
0B
00
00
03
09
03
FB
13
F3
F6
03
09
09
0C
03
F8
06
16
08
0E
04
E2
12
C0
09
ED
0D
FE
F4
26
13
E6
0F
08
0D
09
D9
F1
0D
F5
FA
19
F0
22
FF
13
0F
F3
F0
01
01
F8
02
F7
03
F3
FD
F4
FE
F0
FE
0A
08
FC
00
07
06
00
FF
F6
03
FC
FB
01
F6
04
FB
05
00
FA
F9
FD
F8
FD
06
F1
FC
FE
FD
FA
EE
FE
FD
E3
F9
F5
FD
FB
F9
06
FD
F1
EE
FB
F1
E9
EB
F6
FC
FA
F0
02
07
00
00
03
01
FC
02
01
FD
F9
F8
01
05
FF
08
FB
FD
02
FD
FF
04
FF
04
FC
FC
03
00
FD
F8
02
01
02
FD
01
FD
01
00
FA
FB
02
FC
F4
FF
FD
02
FB
F4
FB
FB
F4
01
F8
FB
FE
FB
03
01
FB
FD
F8
01
FC
F9
05
01
01
01
FC
FB
00
FE
FF
FD
02
00
03
FB
01
02
FF
FC
FC
FC
FE
00
01
FD
03
FD
03
00
04
FC
FF
FE
02
FC
01
FE
FC
FB
FE
FF
FE
FC
02
00
03
FD
FD
FC
01
01
02
01
FF
03
02
00
03
FE
FB
FB
01
FC
FD
02
FE
01
05
F4
F0
03
00
08
FF
FE
F4
1E
F9
ED
00
09
FC
F6
F1
EF
FF
01
00
FA
F9
06
0F
09
EC
F9
FF
0B
FE
F2
07
F7
F9
FE
01
08
0C
10
F5
FC
F4
F2
01
0C
EA
F1
EA
0D
FF
F1
FF
F7
0A
FF
E9
01
EB
09
F8
0D
05
03
F6
00
F6
0F
EE
02
05
FC
EC
E9
03
15
11
02
F3
EE
F9
FF
FF
ED
F8
FB
07
09
09
DC
03
ED
1D
ED
08
02
FA
EC
EF
F1
FE
F6
FC
FE
00
F9
F7
F6
FE
01
F4
F2
F8
FC
F9
F4
F9
F3
F7
FA
FC
FD
F1
FE
E8
FB
07
FE
FD
FC
E9
FA
01
DD
EC
F2
08
0A
F2
02
EF
01
21
FD
03
F8
0D
02
06
08
0B
F8
EC
09
E8
F4
F1
0A
F2
F9
02
01
FE
FB
FE
FD
FF
03
02
FF
FC
FC
04
FD
FF
02
FF
FB
00
FD
FF
FE
FF
00
FD
FE
03
03
04
FE
01
FD
03
FD
FB
FF
FE
F9
F6
FF
F6
FD
F7
FF
FB
FD
F8
F5
F9
FB
FC
FA
02
FF
F9
00
02
00
F5
FD
FF
F5
FE
FF
01
00
01
FD
04
FC
FD
00
FA
08
FE
04
02
FF
02
FB
FC
05
F9
FD
F9
02
FA
FC
03
FF
01
FE
04
FE
01
F8
06
FC
02
0F
E3
05
FA
00
CD
F5
F2
FF
15
0F
07
FA
0C
FE
FD
FD
F4
02
FC
FA
0F
E6
17
FA
1B
FF
09
00
00
FC
FD
FE
FD
02
01
00
FC
FE
FB
04
02
00
01
00
00
00
FB
01
04
02
FC
04
FC
FF
01
FF
FC
FF
FC
00
03
F2
F8
01
04
FB
04
FC
01
FC
03
00
F6
FC
03
01
F8
F7
01
FB
05
F3
04
F2
FD
00
F5
00
F9
FC
02
03
FA
F6
E7
F7
08
EA
04
04
08
0A
EC
FE
03
F8
09
F3
DA
F4
03
FC
02
DB
05
05
E2
0B
E8
ED
E2
03
05
00
F6
0C
F5
01
08
F5
FE
FA
F7
F4
F8
F9
FF
03
F3
F1
F3
E4
DB
F9
0E
E4
0D
0C
D7
0A
DC
06
02
F2
03
FD
01
04
04
FE
FE
FB
01
02
FC
FB
FD
01
01
04
FE
00
03
FF
FA
FB
FF
00
03
04
01
FE
02
01
04
02
FD
FD
1B
F4
1E
18
D9
08
09
0E
DF
09
3D
F0
BF
F4
30
FF
F3
04
0C
EE
E8
F1
0C
D9
F3
DA
04
1A
21
F9
01
06
FC
02
FF
FE
FA
F8
FC
FB
02
FD
01
02
01
FA
FF
FA
02
FB
00
FE
FE
00
FD
FD
FB
F9
03
05
02
01
FB
00
FF
0C
F5
F9
FE
F9
DF
02
F5
FE
E6
F0
FF
07
F8
00
00
0B
DB
03
03
FD
FC
FD
F0
06
FC
F1
F4
E4
FC
ED
F3
08
EF
EE
F1
D4
FC
FC
06
F2
E3
E8
F0
FF
04
E6
0F
FB
08
D4
FC
03
04
F3
DB
03
09
00
FB
13
F6
07
0A
17
16
03
09
10
03
FC
E5
16
0E
F7
11
13
10
1E
08
0C
F1
0D
F9
00
F4
00
45
F9
FF
FE
09
B6
04
FE
FD
05
FB
FB
FE
FE
01
01
FA
FE
FF
00
06
05
FA
FC
01
01
F6
04
FE
FC
F4
01
FB
02
FD
FD
00
FE
FD
F8
FC
01
03
02
FD
FD
FF
02
FF
04
04
00
FE
01
01
FD
FC
FB
02
04
FF
00
01
01
03
FF
FC
FF
03
FD
FE
01
FF
01
FC
FE
FF
FF
FC
00
00
FD
00
FC
01
00
00
FB
FF
FC
FC
FD
02
03
01
FF
FE
FE
FF
FF
FE
FC
FF
04
06
E9
03
FA
04
EB
0F
F3
17
07
F6
0D
E2
F6
20
04
D6
D9
F6
01
10
00
0A
FA
F9
0D
E3
FC
F7
FC
F5
F9
0D
F7
E1
FD
0C
1C
05
F5
11
16
F1
09
13
13
EF
E6
FC
F4
00
F7
06
08
F9
0B
04
0B
FC
F4
F9
01
0E
EF
0A
01
0E
04
FD
17
07
06
FE
05
05
18
0D
1F
FB
1A
F1
0E
0F
0C
FB
D4
F2
F9
32
01
FE
02
1D
F6
02
F6
FE
FC
E4
EC
FE
EA
FE
FE
03
EA
E8
06
F1
E8
FD
EC
EF
EF
F3
F9
02
F7
FE
FB
EE
01
EF
F9
F4
03
FB
F6
FA
02
02
FB
F9
FC
F2
02
FA
FA
F9
00
09
03
F9
F7
01
00
F2
F9
01
FF
F7
01
00
FA
F4
01
FD
FA
FE
F7
09
F8
01
F7
05
E4
00
06
19
1A
ED
09
EC
FE
21
FF
DF
E0
05
04
11
F8
11
FF
E4
16
EB
00
F1
0A
E9
F4
02
0A
0F
03
DF
10
D6
0C
EF
06
F5
ED
1F
11
0E
04
0F
1A
0B
EC
F5
0D
F2
F5
1D
EA
2C
00
13
07
F9
F7
FD
03
04
01
00
04
00
FC
00
FE
FC
FD
00
FF
FE
06
04
04
FE
00
FD
03
FD
FB
03
FF
FD
03
FF
03
FD
FF
19
02
0D
FC
05
0B
FF
03
03
FF
01
0A
0D
0E
FF
16
FD
EF
0E
12
FD
EC
F0
FB
04
01
FF
04
10
FB
02
FB
F5
F7
EE
06
0C
F2
01
FA
00
13
F7
F7
0A
FB
E6
EA
DB
F8
EE
FF
0E
E2
07
08
F1
0D
E3
05
E7
F1
05
FB
EE
E5
F3
0D
07
FF
06
F1
02
F1
E9
04
F7
F4
FC
FE
D6
CB
FA
04
0A
F2
01
02
03
05
D6
CB
15
FE
03
FE
FF
FF
FC
FE
01
05
05
03
FE
FB
FE
FB
FD
01
FC
01
00
01
FD
04
03
02
FD
FE
04
03
FF
FD
FB
04
02
FC
03
EE
F4
F6
F9
EF
FD
EC
FA
03
F1
07
F5
F4
FE
FD
F5
E7
FE
00
00
FA
01
FB
E7
03
E8
F6
F4
03
FA
FE
FE
00
FE
FE
00
02
FB
FC
01
01
02
FE
FC
02
FD
FE
03
03
FF
FB
02
02
FD
FD
01
01
04
03
FD
03
FD
FC
FF
F1
E6
00
02
F3
01
04
F6
F1
08
F6
06
17
FD
E6
F4
02
FD
EB
F4
E4
05
F2
F4
01
D7
07
F9
EC
02
07
06
FB
F0
FA
03
F7
FB
F4
FC
21
F7
0F
14
0B
D0
E2
EA
F8
ED
F6
01
02
EA
00
17
04
F9
E9
F7
07
FF
EF
FF
05
00
FF
F8
02
FF
F7
01
FA
00
F8
FD
FE
FF
02
FF
03
FA
FE
FA
FD
00
01
FD
FC
FE
FF
02
01
FF
00
00
0E
F9
F9
00
FF
F9
00
FF
08
FF
00
FF
03
F7
FF
03
FC
F8
FF
00
FC
F2
FE
06
FF
05
FE
00
04
FC
F5
FD
00
FC
05
FE
0B
F4
FC
FC
F9
FD
03
FB
07
F7
FB
FF
00
FB
02
FE
FC
FA
00
F4
03
F2
FD
07
01
FF
FE
F4
F3
FB
FC
03
F8
FE
FB
04
FC
FB
FC
F4
FC
FA
FA
F7
F0
FA
00
FC
F6
FA
FB
FE
FD
F1
FB
FC
ED
F8
FD
FA
0A
04
00
FA
06
F9
02
F4
FF
F7
FE
00
02
F6
02
FE
0A
F9
FF
F9
F8
F9
00
03
F9
FA
FC
07
F8
02
F9
FD
FE
00
FB
FF
FE
02
FF
02
FC
02
04
FF
01
02
04
FB
FD
FE
04
03
02
FD
01
04
02
FD
FD
FF
FB
FE
FB
00
FA
F7
FA
F3
E6
EF
02
FE
EA
FA
05
0F
0C
EB
FC
02
01
FA
F3
F7
FD
F6
F9
FA
FB
F8
FE
FE
02
FD
F6
00
D1
11
FF
FD
26
04
10
F1
1C
FA
19
EC
14
F7
0F
F9
FD
F8
05
01
FE
F9
F1
FD
F8
03
04
0B
04
ED
DD
FC
04
FB
FF
FE
00
03
FE
FE
03
03
00
00
00
FE
FB
03
FD
FB
04
FF
FC
FF
FC
FD
FD
03
04
FC
00
02
02
FD
FD
02
FF
00
02
00
FF
03
FE
03
00
03
01
05
FC
FE
FE
01
04
FF
FC
FC
02
FE
FB
FF
FF
03
03
04
04
03
06
FE
EE
FA
DC
F5
01
FF
1B
FF
EF
F5
D7
F6
FF
FF
1F
FF
F6
F1
F6
EA
00
0A
FC
01
06
F0
F8
EF
04
F7
F1
08
FC
02
E4
06
EF
06
03
02
E9
EE
DF
E1
01
DB
F8
08
06
EE
E0
FF
EF
FC
06
D3
11
F8
E9
F1
0B
FF
0B
04
FD
FE
04
FF
FD
F5
03
02
FB
01
FF
01
01
01
FD
F9
FB
FD
FE
FE
02
01
FE
01
00
06
02
FE
FF
FB
FF
01
FB
FE
04
FD
FD
02
FF
FB
02
FC
FD
00
01
03
00
FF
00
FE
FC
FC
01
00
FE
03
FB
04
FB
FD
FF
0A
0C
0D
E3
F9
D3
0A
19
EB
F6
10
0B
CC
EF
01
E8
D5
F5
0C
F4
E1
F5
03
FA
F1
C7
EF
06
DE
F9
FB
10
F7
F6
00
EF
F7
F8
E9
0B
F7
00
F8
03
09
03
F8
01
04
03
00
FA
F9
02
F2
F6
FC
F9
FF
FC
EC
F7
FE
F9
FB
FB
FA
FF
FF
01
01
FF
F5
04
FC
02
FA
09
FD
F8
FD
01
F8
00
03
FF
F8
03
02
03
FB
FD
FE
FC
FD
F7
F9
FD
06
10
EF
FB
01
FD
FF
E2
FC
FE
FE
D9
09
10
05
EE
02
DE
F2
FC
FE
01
F3
F4
E6
0D
E4
B2
02
08
00
04
01
F9
FF
FE
00
FD
FE
FB
F8
00
00
FD
FC
FF
FD
02
FC
FD
01
FC
FA
FD
04
FA
04
00
01
FB
00
01
04
00
FF
FE
F8
FB
FA
02
FC
EB
FF
F8
00
01
F6
FC
FA
07
FF
FF
FD
FE
FB
05
02
01
FB
FC
00
FE
01
02
FD
F9
F8
F9
FF
FC
00
03
F9
FF
F7
04
FC
07
FE
FD
FD
FF
FF
FC
FA
00
F9
FD
00
FB
F4
00
EE
FC
FC
F6
0D
00
FD
EE
04
06
FF
E8
03
F9
05
D6
ED
FD
05
01
DB
FE
07
06
FB
EA
05
F5
CA
08
E7
FD
EA
10
FD
F6
02
07
E6
00
0B
FB
03
FB
0F
21
F4
04
FB
03
FC
E6
FE
01
EB
F5
10
06
04
0A
07
0F
F6
EF
EC
00
03
F1
0E
07
F6
0D
02
05
FC
10
F5
F5
E9
12
18
0F
D2
EE
05
F8
F3
FD
FF
FB
F2
0A
05
F6
ED
F9
05
ED
0D
F5
FE
05
FA
02
F7
04
08
F8
F3
F5
FB
02
FB
09
F5
F1
FB
03
E7
F6
03
E3
FD
07
F8
01
F0
01
08
F1
01
EB
FB
EC
03
C1
06
FC
09
E7
F4
EB
02
06
F2
E5
DD
07
F9
F4
EB
FD
F8
F8
F4
EA
E8
FC
F7
FB
E0
ED
F1
10
04
FF
FE
FF
03
FC
FF
03
FC
03
FE
FC
FC
FC
FE
FD
FB
01
01
FF
01
02
FC
02
FC
FD
FC
FD
FE
FC
FE
FF
02
0B
F5
08
02
02
FC
EB
F7
FA
02
F8
17
0B
10
EA
FD
0D
F3
F8
FD
E8
F9
07
F4
02
DE
16
00
EB
09
FA
FD
0A
13
0A
DC
10
CF
0B
E8
04
ED
E3
24
18
0E
14
0B
1A
0A
DD
ED
0F
F8
FD
1A
E8
28
FF
12
07
F9
F9
E6
E2
00
06
FD
EC
03
E0
F7
F5
0B
FC
F9
EA
10
F8
FF
F8
0D
FF
02
01
10
F5
F5
F3
08
10
12
0C
F3
0B
00
01
FE
FB
01
00
FA
F8
F9
03
FD
F7
FB
FA
FA
FD
F9
04
FD
F9
FB
FA
FA
FD
01
FE
05
03
FF
FA
FB
03
FC
FD
04
FE
F9
FD
01
FE
FC
EF
FB
01
F7
F4
FA
04
F7
FB
F7
03
F6
F8
FA
F5
FA
F4
FC
04
00
FB
03
05
F6
F9
FB
01
DD
01
EF
FF
F8
F8
FB
00
FD
02
0F
E8
08
E9
06
F4
F8
03
FE
F4
FC
ED
00
01
10
02
FF
FE
03
ED
DF
05
0F
15
00
F7
12
11
F0
FE
02
0C
F2
EC
F5
EE
F2
FB
0B
03
FD
0C
08
14
FA
FD
EF
F2
10
F2
FE
09
F9
FB
00
F6
F1
FB
F6
FB
F5
F8
FE
05
00
F6
02
0A
F2
FD
00
FB
F1
08
06
FF
00
F8
F5
F2
F8
F4
F8
F5
FE
FC
01
FE
FA
FD
00
F7
F8
FB
FA
FD
FD
FF
00
F3
03
FC
00
F9
FF
F6
FC
03
F9
FF
EC
F6
FB
03
F7
F9
04
FB
FC
F6
FD
02
F3
F8
03
06
F4
F3
07
08
09
FE
04
00
F5
03
FC
FB
F7
F4
02
FC
02
F8
F6
04
04
1E
EA
F7
03
DA
BA
DD
FF
27
DF
D3
05
15
F4
F7
05
13
FF
EC
FF
02
EE
FA
00
04
07
02
FD
0A
F8
F1
FF
F3
D9
EC
F3
F8
FE
02
0D
F4
DB
10
F4
F8
EA
E3
DE
F5
FC
E7
00
DB
FF
F5
F4
02
E7
E9
E4
F4
F8
01
FB
05
03
04
FD
FF
F7
03
FA
F7
FF
FC
F3
F9
00
08
03
04
F8
04
00
F8
FB
FD
FB
01
00
05
00
F9
FC
FF
E7
FE
ED
F9
F6
CF
E7
0C
09
FC
DD
07
00
08
04
E4
17
09
0A
DE
FF
04
07
F4
DA
FF
02
FD
FB
15
FC
01
FE
03
FD
FF
FB
FE
04
02
03
01
FC
FC
FD
02
FE
FF
FE
FF
02
03
03
03
02
01
00
00
01
01
FC
FD
FB
02
FF
04
FF
03
F5
FE
F2
FA
F5
FC
01
F8
02
FE
00
00
05
04
01
FC
F6
05
FD
FD
0B
FA
08
FD
08
00
FA
F6
01
04
FD
FF
FC
02
F6
FC
F9
F7
FE
02
FE
04
FD
FF
FD
FC
F7
F9
FC
02
FF
02
FC
FB
F8
02
08
FD
01
FD
F5
D8
F7
F4
05
FD
FF
F8
0A
02
FB
DF
F9
FE
FB
EE
02
F3
F9
F3
F4
EB
FE
FB
E2
03
E3
05
E6
F8
FB
03
E4
EE
13
FC
04
0F
0A
02
00
0B
0D
1A
0B
07
02
12
00
F1
F7
0A
FB
FC
F3
F3
04
04
01
05
13
EC
06
FE
F9
FA
F0
03
F1
F9
F7
F5
FC
EA
F6
F9
F2
F8
FE
F2
F7
F4
FF
F5
00
FC
FF
F8
F4
F7
F4
EF
FE
FC
FA
FA
F9
CF
01
F9
00
E3
01
E6
13
17
05
EA
FD
E1
03
FE
ED
FC
FF
F3
01
EE
FE
FD
EF
0E
EC
0D
F9
F6
EF
0B
04
F9
16
F6
02
EC
08
DF
FE
E3
10
F4
D7
B6
16
16
14
FA
00
09
01
F3
14
F6
EF
F9
F3
0B
ED
EC
FB
07
F8
FD
FD
FA
FF
00
01
FE
FE
03
FD
FE
FB
FD
F7
FC
FD
FF
FF
FD
F8
FF
FE
03
02
00
FE
FC
01
FD
FE
FB
F5
F2
01
F5
F6
FA
FD
FF
F7
02
F3
FC
EF
F8
F6
01
FB
EF
03
FC
FB
04
02
FB
F9
FA
03
FB
EE
F1
FB
05
18
13
DE
F7
08
ED
FB
E1
0F
23
EB
1C
02
00
E4
F8
07
FB
F2
05
0B
0D
F3
02
13
11
0F
FF
E7
0A
01
E5
F8
F8
F4
FC
F8
F4
FA
ED
06
04
FA
E9
ED
DA
02
E5
F6
EF
FF
EE
07
E7
01
01
04
02
E2
F0
02
00
FC
04
04
C6
05
FB
FE
1D
FF
06
07
F5
00
16
01
14
03
0F
FE
FA
E7
08
00
FB
F4
EE
F4
07
FB
F6
01
FE
FB
D1
08
06
10
0A
E0
09
DA
05
EF
0E
03
D9
26
0E
04
13
0C
1C
0D
EE
EF
15
F0
F4
27
E0
2C
04
1B
06
FD
F8
FC
02
FF
02
FE
00
FE
00
01
FC
00
FB
00
FE
03
FE
FD
FF
FF
FE
F9
F9
00
FA
FB
FF
FB
FE
04
FB
01
FF
0D
0C
01
04
05
E7
00
F1
F7
EA
02
FB
F2
FA
E6
F9
03
04
E5
F9
0A
F4
06
03
F8
0A
EF
04
11
01
FF
FB
FD
F9
00
00
00
FF
FA
FB
FC
FD
F8
FC
02
FD
FE
00
FF
01
02
FF
02
01
FF
03
FF
FC
FF
FC
FF
02
03
00
FF
F8
F2
FF
F9
F7
02
F9
07
FC
F9
F9
02
F4
FB
F2
F9
FA
FA
FB
03
F3
FA
01
F5
FC
F0
FE
F4
06
FE
06
00
04
FD
FB
F8
FF
FD
03
00
FD
03
FB
01
01
FD
00
FE
FC
FF
FD
FB
01
FF
FF
FE
FD
02
01
02
00
FA
01
03
F8
E8
F6
10
FF
01
FF
01
2F
F3
FC
0A
0B
E5
E9
F7
DF
F1
03
0C
05
F0
0E
0A
11
02
F5
E9
00
07
ED
17
1B
03
05
03
21
02
0D
FC
EB
05
1D
16
1D
10
0D
07
E7
06
05
FF
F0
F0
02
EF
02
DA
EE
01
FE
05
EE
F9
D5
E8
F8
0A
FF
04
F4
04
02
FF
E8
E7
0B
01
A1
F8
F7
03
D3
02
F3
FB
04
04
04
EB
FF
F1
F2
03
01
F6
FC
FA
0E
05
F7
05
F4
FF
E9
09
F6
06
FA
1B
EA
F9
05
DF
FA
07
F9
07
07
0B
FF
E5
05
0D
F9
07
03
11
10
11
FF
FF
FB
FE
F2
EC
1B
0A
F5
C8
D8
06
14
04
F9
F6
05
01
F9
06
F5
E9
FA
D3
03
F3
05
F6
0A
00
04
F9
FE
02
07
FA
01
EA
FE
F9
FC
FE
00
F8
F3
01
FF
F6
FC
FA
FC
F8
01
00
F8
00
FE
FE
FB
FD
F6
01
05
FD
00
FD
FA
F8
FE
FA
F4
FF
04
F6
F0
FB
05
FA
01
EE
01
FC
F8
FF
FA
F7
00
F8
04
FD
F3
FA
FE
F4
FD
E3
FA
FB
B4
E6
D8
08
0E
E8
D3
FB
F8
DE
D3
06
00
FA
C0
08
08
04
07
F9
0C
0A
F9
05
14
FC
FB
FF
00
02
FD
FF
FB
FE
FA
FF
03
FE
01
FF
01
FE
00
00
FE
02
02
01
FD
FF
01
00
03
00
FB
FF
05
02
FA
EB
FA
01
F5
F5
E1
03
13
ED
F2
08
07
E7
E7
0C
DD
EB
03
FB
F5
FA
EF
03
F6
EF
F3
FF
05
D0
F0
FF
0A
FB
FB
F9
FA
FF
F3
00
FE
FD
FC
FE
F8
F1
F6
03
F5
F4
FB
F7
F8
04
F9
04
01
FA
06
EC
FA
F8
FE
FC
FF
0C
0C
18
F5
05
09
05
0C
01
11
05
14
FB
02
0C
25
09
08
FE
16
F5
FD
F2
EF
04
FB
02
02
F6
EC
01
FD
FD
04
FB
01
FD
04
FD
FB
FB
00
03
FF
FF
FB
04
FE
FD
FD
00
03
FE
FF
01
FB
FD
02
FD
FB
02
04
FD
FE
08
F3
FF
0D
F7
F7
01
00
F8
02
06
FC
EA
F6
FE
F3
EE
F7
F8
F1
07
E2
09
EE
F0
EC
EE
FC
FD
EE
03
09
06
02
07
04
FA
F5
FF
E4
F7
BC
03
F9
EB
DD
08
FC
00
FC
F3
0A
00
FB
0B
FA
F8
F4
FF
00
03
F2
00
FE
F6
F1
00
F5
F8
03
F2
FB
00
F3
FD
F5
FB
04
F8
FA
FE
F4
01
F6
FC
06
FF
F4
F3
FE
00
07
00
FF
F7
01
04
00
01
03
FC
02
FA
01
FE
01
02
F8
FF
03
04
FA
02
FB
FD
F8
FB
FE
03
00
03
00
03
FE
01
01
FE
04
03
FE
02
FF
03
FD
FA
04
FA
00
FE
01
01
01
FD
FB
FB
05
04
FE
02
00
03
FF
03
FF
04
01
FC
FF
00
01
FC
01
FF
FF
FC
FD
02
02
F9
FB
FB
FD
FE
02
FF
FB
FC
02
FE
FA
F9
02
FC
FF
FC
FE
02
01
FC
03
FD
F9
08
FA
FF
F7
00
FB
04
FA
FD
04
05
F4
FC
ED
03
F9
F6
F3
00
FF
02
F9
04
F2
FA
04
F0
05
F0
08
F8
F8
FE
04
EF
0C
01
FD
FA
F8
FF
F7
FE
F9
0B
FD
22
E7
F2
06
EA
FB
06
E4
0A
0C
F8
02
E1
F9
FD
F2
06
FA
27
25
F2
F8
18
ED
D5
EA
F9
3A
EF
E8
1C
09
15
E2
FC
F8
DF
DF
01
09
DE
0E
20
0C
09
E9
F3
05
FB
DA
03
01
FB
00
FD
F8
FC
00
FD
0C
F7
03
03
00
FC
F9
F8
F8
F3
03
01
FB
FD
FF
08
00
00
F9
F5
FF
FA
EF
01
FF
FD
FD
FD
01
03
02
01
02
FF
02
FE
03
03
00
04
FF
03
02
FF
03
03
FC
02
FE
02
02
03
FC
FB
FD
F9
FA
00
03
F6
FB
FB
03
FA
00
FA
FF
01
08
FD
FD
02
FD
FE
F9
FB
FF
F9
FD
06
00
05
04
07
FE
FF
02
02
04
EA
EF
FA
F4
F5
FF
FA
0E
FE
01
F4
F6
0B
F2
F0
FC
F9
FE
09
FD
03
06
EC
0A
E8
F4
E4
09
EF
F3
05
F9
F5
00
00
00
FB
FD
FD
00
F9
FF
F4
F6
FA
F5
F2
ED
00
04
05
FC
00
FD
FC
06
F3
FF
F9
FC
FF
F6
FB
00
00
03
FD
FB
00
FE
02
02
FC
FB
FD
FB
01
01
03
FC
FB
FE
03
02
FC
01
FC
02
01
FE
FF
01
02
01
FF
EF
DF
08
03
F3
FD
0C
FF
E0
EB
FB
15
12
FD
E0
01
0F
FA
EB
FD
ED
F4
FA
DD
F8
F0
F2
F4
00
06
F7
FA
08
02
02
FD
FE
F6
F9
FD
EE
F8
F2
FE
03
F7
02
02
FF
FD
F7
00
FD
FF
03
FB
FF
FC
F9
FB
F8
FE
FF
FD
05
FB
FE
FE
04
01
FE
FC
02
00
02
FC
FC
FB
01
03
FF
00
FF
FD
FD
00
FF
FC
FE
01
00
02
01
02
03
F5
1C
12
01
01
0A
09
11
F6
06
0C
10
F6
11
18
16
06
14
FF
0E
E9
FD
F3
F8
FB
DE
FD
FF
0B
A2
09
01
01
01
00
FE
FC
FF
02
FE
01
FF
FB
02
FF
FE
FD
03
01
FB
FD
FD
03
FD
03
FB
FC
00
03
02
FD
02
04
FB
FF
FE
02
FE
01
FA
FA
02
FC
FE
00
FE
FA
06
F6
03
F8
FC
FA
01
01
02
F8
FD
00
FD
F5
FD
F8
FE
FA
FF
1F
1D
05
05
02
16
FA
E9
E2
16
F5
07
05
0F
FB
12
ED
17
FC
0E
F8
02
F0
03
0C
F7
10
00
08
00
F7
EB
F1
F1
E4
08
0F
06
00
FB
08
00
EC
F7
08
0D
E1
EE
01
FE
DE
07
0D
EE
03
06
F3
0E
E0
EA
F7
F8
04
EC
04
0B
1B
03
DF
0C
CE
14
EA
0C
01
E7
26
0D
06
0E
0F
10
09
E4
EF
15
F3
F6
20
E8
34
02
16
0B
01
F9
00
16
1B
F3
FE
00
F6
E0
01
E9
08
0C
0F
E8
FB
1F
ED
2D
D5
10
FB
E3
E9
FA
1E
F9
EF
0F
F5
FD
FB
F5
F3
06
17
EE
FF
0C
06
08
FE
10
0D
14
04
01
09
1F
01
F8
F7
0E
F3
FB
EA
F4
03
F8
FC
00
0F
EE
FC
F9
0A
0F
1A
F5
FF
0F
02
04
FC
03
07
0D
0C
02
14
2A
07
10
FD
0D
F6
00
ED
F1
FC
FF
FF
FD
15
F2
FC
F6
11
11
16
0A
FD
12
07
EB
D9
EA
14
CE
DE
D2
1E
11
EA
E0
04
09
FE
E6
06
EC
FE
FA
DE
07
F2
BE
01
03
01
FF
02
06
EF
FD
FA
FA
F7
F4
02
01
FE
03
FC
04
07
FD
01
01
FA
FD
FC
FB
FF
F9
05
FA
0E
FD
FA
FC
03
FB
04
01
04
01
FD
FB
FB
FC
03
03
02
FC
FB
FF
FD
03
01
FD
FF
FC
FF
FD
04
01
03
01
03
FE
FE
03
FA
F7
F6
FF
03
FB
FE
FD
FB
FD
F9
F7
FA
03
FA
F7
F9
F6
01
01
00
FD
F6
FA
FF
FD
FD
FE
F4
FB
01
FA
F7
F4
EF
02
06
FB
03
0C
09
E1
02
03
FA
EB
0C
EF
FC
FA
F7
F3
0A
F6
12
03
EA
FD
F6
FE
FB
F5
FE
00
EF
FF
E2
EA
F4
0F
FC
07
13
0E
E9
F7
F6
1B
FA
EE
F1
E4
FE
D8
00
F4
04
F6
F8
03
D6
12
CD
03
CF
01
08
0B
F9
0C
0A
F2
07
F0
09
E0
03
F5
02
ED
FF
EA
F0
05
E0
F3
0B
E0
10
06
FA
05
D7
FF
04
F1
08
00
09
0A
17
F6
04
0A
02
03
00
00
08
0E
03
0B
06
21
01
05
06
10
F7
02
EF
F3
10
04
05
03
10
FA
02
FD
18
01
12
10
F4
0D
09
13
EA
08
15
00
DE
E7
2B
01
04
05
01
FA
F1
FB
0A
E9
00
D0
07
12
1D
02
FC
FE
FB
02
FF
FF
FC
FB
FB
04
00
FB
FB
04
00
00
02
00
01
01
F9
00
04
FC
FF
FD
FD
FD
FC
FF
F8
01
FC
FB
FC
FC
03
03
FD
04
03
FB
00
00
03
01
06
05
FC
05
FC
02
FB
00
FA
FE
FD
FD
FF
FA
FC
FC
06
FA
01
01
0E
06
EC
00
0A
FD
EF
F8
04
10
EA
07
06
FF
EE
EC
F6
06
E5
FB
0D
F5
02
0D
ED
0D
E6
E8
EB
F9
05
EE
02
FA
FA
FD
01
F1
01
F8
FB
FB
FD
F9
00
F3
FE
FA
F4
ED
00
03
FD
F4
01
04
F4
FE
F4
03
FD
FF
00
FE
FF
F9
FE
FB
FB
FD
FB
04
05
FD
FD
00
F2
FD
09
F5
FF
FD
01
02
FB
FB
01
F5
F9
FD
04
01
06
FE
01
01
01
F7
02
FA
FD
EF
0B
EA
06
F7
0A
F9
EE
E4
FE
EC
ED
FB
F9
F0
01
F8
0B
EF
F5
00
00
10
F6
F2
F6
04
F5
E7
E6
F2
0E
E3
04
08
01
D5
DF
01
F8
08
E6
F2
EB
F7
16
00
0A
F2
F8
FD
EE
0D
DE
F7
EA
F4
F9
00
FA
F5
02
04
F1
05
0C
06
01
02
0C
0D
FC
EB
0E
F5
E5
F4
0C
CD
F3
CE
FD
B2
ED
FC
F2
04
EB
00
FC
09
FC
11
26
F7
F9
02
06
F8
F3
F7
0D
09
F1
EC
07
23
02
10
F8
10
F7
E9
FB
FA
F2
F1
EE
07
01
FD
04
0A
F6
F5
F2
01
05
FE
09
FC
05
F4
ED
E9
FF
0C
F7
E0
F2
F9
F7
EB
FF
EF
FF
E2
F3
05
F1
FB
EB
EF
F5
FF
F0
13
F8
14
F6
11
BD
EE
07
03
CA
FA
07
01
03
13
F2
18
E1
F1
06
D2
F5
FC
F3
0A
D4
FF
FF
D6
FB
05
08
F5
E1
F2
1D
EE
1A
EF
0D
11
FB
FB
E4
EB
04
EB
BD
F4
E4
FC
0D
DA
05
09
FD
14
00
08
EF
02
00
03
F6
DA
F2
02
09
04
00
06
F1
19
F7
05
0A
13
CF
FB
FF
E8
FB
FA
05
0B
E8
02
07
07
F1
FA
FD
01
FE
FC
02
07
02
04
F2
00
FC
00
EB
E2
03
F8
EE
F7
F4
06
F9
0E
F7
F6
F5
FC
00
F9
F9
E9
03
FD
04
F1
FC
FD
FF
01
00
FF
F9
FA
FC
02
FC
F1
00
03
01
00
F8
FF
01
FF
F8
FE
FD
F8
F3
F9
FC
FD
FA
FB
F9
FF
FC
FE
16
F6
0F
02
F8
F8
00
FB
E7
E2
11
F8
AF
C3
F7
08
FA
F8
FA
06
FD
FD
08
F0
F8
F3
04
0B
14
FE
F2
09
FD
F0
FE
05
F8
FB
EF
FF
EC
04
FB
FC
F3
F5
F8
01
F9
E8
03
FC
FD
F6
05
EC
F6
E9
FB
DC
FE
FB
E4
05
F8
FD
FE
FD
FF
FC
F9
F9
FE
FF
F9
01
FF
FD
01
02
03
07
FF
FF
FE
F9
F9
FE
FC
FA
F8
FD
01
FF
F9
00
FE
F6
FB
FE
F8
F6
00
FC
FD
F4
02
05
E9
EC
08
FB
FF
F3
03
FE
00
F3
06
EF
F1
01
03
03
FF
02
F7
FD
FD
F8
F0
F9
02
F7
FF
00
FA
FB
EF
02
0C
05
F4
EE
EF
F3
FB
FB
FE
F2
F9
FF
FB
FF
FE
FF
F1
F9
FE
F2
FA
FE
FC
FF
05
FC
F8
E5
FF
02
00
E8
03
FE
E7
DD
EB
FE
F8
F7
09
F9
0B
07
01
FF
FD
F9
FA
E7
08
02
03
00
FE
04
01
FF
FF
03
01
FE
03
FF
FD
02
04
FB
02
FD
02
FB
FD
FB
FF
F8
FF
FB
00
FA
FB
FF
03
FB
FC
FD
03
FC
04
04
FB
FC
FC
FD
FD
02
FC
00
FE
FB
FE
FF
FF
FC
02
FD
02
03
05
FD
01
FE
FE
01
FC
00
01
11
22
F3
00
06
05
00
00
08
0D
0F
05
FD
15
2C
08
0D
FE
12
F4
FF
EE
F0
FF
FA
FF
08
17
F0
FE
FE
FE
00
FE
03
FC
FD
04
04
FC
FC
FF
FC
03
FB
FB
03
FE
00
FD
02
FC
FF
FD
FF
04
02
FC
FC
FE
01
FD
FB
FF
F5
07
00
F8
FC
02
FE
FE
FE
02
FD
01
F5
0D
01
07
FC
06
FD
FB
FD
FE
FA
FE
FB
04
02
FB
FC
FB
FE
F8
06
08
FC
F2
FE
FE
F9
EC
F1
05
FF
FD
03
FB
FD
F2
07
FC
00
ED
F2
FD
FF
FF
DB
FC
01
10
EA
F7
FF
01
F4
F1
F8
03
ED
F9
00
06
F5
F0
FB
F7
F2
01
F6
E6
FC
EC
FB
03
FB
FD
F6
F6
03
EF
00
F8
0B
FA
F5
F8
F0
EE
FE
F9
FA
02
04
F6
F7
FC
FC
F7
01
FC
EB
EE
FE
FE
F3
F9
F4
01
F5
FD
F8
FF
FA
EC
FA
00
01
FE
00
00
FF
FE
04
FC
FC
FD
00
FF
03
01
01
FC
00
FB
03
FF
FF
FE
FB
FB
03
01
FC
FD
01
02
02
03
FC
F7
EB
FE
DB
FB
EB
08
F9
08
04
EA
0E
EC
F2
02
F5
E8
F0
E7
E2
FE
EF
F9
DD
06
FF
DA
F4
02
F1
EB
FF
FB
FD
02
FF
F9
F9
FA
02
FF
F9
FC
08
F3
04
0B
03
0B
FE
08
F8
F6
FF
FC
F6
F5
F9
FF
04
FE
F8
F5
FE
ED
02
F3
0B
03
02
01
DF
F9
00
01
F5
FC
FE
FD
E5
EA
FC
F1
F3
01
F6
0E
13
FD
04
E9
02
05
F1
06
FE
01
04
F8
F5
05
FC
F9
FC
F2
07
F7
00
02
02
FD
FA
FC
FE
ED
FD
FA
F8
F5
03
00
FC
02
FC
F6
FF
02
F2
03
F8
FE
FB
FC
03
03
FC
FD
FD
FB
03
FA
03
FA
02
FF
03
FE
FC
00
FD
FB
02
04
FC
F7
F8
FA
FD
FB
FB
FC
FE
FB
03
00
00
FC
FD
FB
FD
04
03
03
FB
FC
FD
01
04
00
FD
FD
00
FB
FD
02
00
FE
FB
01
00
FE
FE
03
11
0A
07
F1
F7
EF
00
FF
E3
FF
F4
16
0D
07
0F
12
12
0A
DE
FB
08
FD
FC
F0
FA
EB
FF
02
FA
03
05
FE
FF
03
02
FD
FD
FE
FB
02
F9
FE
02
FC
FC
01
FF
FE
FD
05
05
FD
FD
FE
02
FA
02
FC
FD
FB
FC
FD
FC
FF
F7
04
02
FC
02
F8
FF
00
F8
05
F8
F4
FC
00
FA
00
F7
06
01
FA
FF
01
F7
FE
FF
02
05
05
FA
FB
FE
03
FB
15
F6
F3
F8
FB
F0
04
E9
F8
0C
12
F5
FA
19
0F
07
E6
0E
05
0B
FC
FB
1F
00
14
F7
0B
00
EE
E9
FC
04
F0
0A
F1
E9
E0
17
FB
05
E9
F4
00
F8
F7
EE
DC
E5
F7
DE
05
07
0C
01
E7
06
E0
F9
06
0A
F8
FA
FB
01
FD
04
02
02
FF
02
00
FB
02
05
00
03
FA
04
FF
01
FE
FA
FC
02
FE
FE
03
FD
FD
FB
FE
03
00
FB
FA
FF
F9
FE
00
FA
FD
01
FF
06
FF
FD
06
FE
FD
FC
FE
02
FB
FB
03
02
F5
02
03
00
05
FD
FD
FC
00
FE
FF
FB
02
03
04
03
03
FF
FE
FC
FC
FE
02
03
04
FA
01
00
04
00
01
FD
FB
FE
04
01
FC
FD
FD
FC
FF
02
03
06
FD
FF
FB
02
FD
F4
F3
03
FD
FB
01
FC
F6
00
F9
FE
F4
FB
FF
05
F7
04
05
F9
FF
F8
01
FF
FF
FA
FB
04
FD
FD
FF
FF
03
04
FD
F5
FC
FC
FD
FF
FF
06
02
FF
01
FA
00
02
03
FD
FC
00
FF
FC
F9
04
FB
FB
E3
D1
EC
E5
01
D2
06
FE
0E
FB
EA
FA
FA
08
0C
ED
EF
EF
01
F6
04
F3
07
FE
FF
0B
ED
0C
EB
08
FD
05
03
03
FB
02
F7
01
F9
FE
F9
00
FD
F9
03
01
FF
00
06
02
FC
FC
FC
FF
FE
01
06
FD
07
FD
FF
FB
FB
FE
00
08
03
FD
FE
F7
F9
FF
FB
00
FB
02
FE
02
F9
FA
FC
FE
FD
FE
FD
02
F6
FE
04
FF
04
F9
FB
FC
FD
FE
01
FD
FD
FC
01
FD
FE
00
FF
04
03
FC
02
FF
FD
FC
00
01
00
FC
03
FB
02
03
00
FF
01
02
FF
FB
FC
00
01
F9
FA
F6
0B
F6
08
02
03
E3
F8
FA
F8
09
01
02
03
FC
02
F8
00
EF
FF
FB
F3
02
D0
F9
DE
E3
05
0C
F8
F8
00
FE
FE
FB
01
02
00
FD
00
F8
F9
F7
03
F0
F2
FA
FA
EF
FD
F2
03
FA
F2
00
F6
0A
FC
F6
F9
03
F1
FE
FB
ED
FC
FA
01
F2
F8
01
FE
F6
E6
FF
FE
E5
EF
F8
F7
EF
F3
EF
FA
ED
FE
F6
FA
08
F6
E6
FD
05
00
FF
FD
F6
01
F8
F9
00
FB
00
FC
FF
FC
FA
FC
FA
02
FF
F9
FC
F8
03
FA
02
0A
FE
FB
FF
F9
01
FC
FA
02
10
FC
03
02
01
F4
F7
02
03
04
ED
00
01
E0
EC
01
00
FB
FE
0A
FE
13
0B
00
0A
FA
04
06
F9
03
07
F7
F8
FC
F4
02
FE
F8
02
FD
FE
EF
FA
08
11
FE
10
08
07
03
08
FF
F4
F3
FD
EF
FF
ED
F3
F2
00
FF
E8
FD
EE
FA
06
F7
F5
01
FD
FD
00
06
FA
FA
F3
FA
F9
F6
F5
00
F6
FA
EB
00
F5
EE
F7
F8
02
04
FE
02
01
00
1B
13
06
04
08
01
0A
E5
27
0D
EC
FF
FB
00
1A
FF
06
02
0E
FA
F7
F1
03
07
FB
02
06
FC
AC
08
03
0D
14
16
F2
FE
06
03
08
F9
FC
05
14
02
04
F3
26
F4
16
06
13
FA
FC
EE
F5
17
FE
FE
05
04
F1
FB
FB
01
01
00
01
04
F9
FE
01
01
01
FD
FF
FA
05
02
FF
FF
00
00
01
01
FF
01
FA
FC
03
FC
FF
F9
FA
FE
FD
00
01
FB
00
00
00
F7
FB
FC
04
FE
FE
FB
FA
F9
F6
FA
FB
FA
FB
FE
FD
FF
05
FB
01
F2
FA
F7
FB
FE
F7
FC
FC
02
FB
00
FE
01
FC
03
05
FE
FC
03
FB
02
00
02
02
02
03
FE
FE
00
03
FB
FD
02
FE
00
FD
FF
FD
03
01
05
03
E3
EE
FB
F5
F9
F4
FE
F8
F4
FF
FA
0E
00
0B
FA
F9
F2
F9
F9
FD
05
ED
FA
F7
06
FA
EE
00
01
0A
01
02
F6
02
F3
03
F7
FE
FA
02
05
00
FD
FA
FF
01
FA
FC
F7
04
FA
FD
04
FE
FF
00
06
01
FF
F3
FC
FD
00
FF
FE
00
FB
FF
04
04
04
01
01
FB
02
03
00
FE
01
FD
FE
01
02
02
00
FC
FF
01
FF
00
03
00
FB
FF
CA
0E
FD
0D
04
16
FC
E1
E2
0B
00
12
00
DA
DC
00
FC
DE
FF
F0
FE
FB
DB
FB
EE
F3
12
04
0F
EC
FA
02
FB
01
F9
04
F3
01
FB
F4
00
FE
FC
FF
F9
01
01
FD
FE
FC
01
FF
F7
FC
02
FC
05
FD
04
FC
FA
FD
FA
01
FC
FB
FB
FD
02
FF
03
FA
F7
01
F7
04
02
02
FB
FC
FE
FC
01
00
02
FD
FC
00
FE
FE
FD
02
FE
FD
14
06
09
FA
05
03
F5
F3
EA
EB
F6
EC
EB
08
FB
12
00
F0
F1
0E
01
F4
03
FB
FA
08
F3
01
FA
F6
F9
E9
02
00
03
FF
FE
01
FD
02
F9
02
FD
02
FF
02
FB
02
F5
FC
F5
03
FE
FB
FC
FC
FF
FC
FB
01
02
04
00
F9
00
FD
FF
FC
0C
EF
05
E5
06
08
01
EF
EF
17
01
FF
FA
10
FC
EB
02
F4
FD
04
00
06
E6
09
F7
E1
07
09
FB
03
EB
FF
04
E7
03
06
09
17
EA
F7
0B
0E
D2
DA
FA
EB
E6
F1
07
01
E9
FF
0F
0D
EA
FD
F5
F2
FB
E9
F0
F4
0D
F5
0C
FA
0D
18
10
03
FF
02
DF
05
0E
04
10
FE
03
EF
F4
FF
F9
01
03
FE
F6
03
DB
E5
09
0A
19
F7
06
C3
0C
F1
0A
DA
02
E6
02
F4
D7
DD
18
FE
02
CE
F7
0A
09
E4
00
FE
FC
0A
D1
03
E6
F2
F2
0C
08
0B
FA
FA
04
FD
FF
FD
F5
13
F6
FE
00
FC
FD
FB
03
FA
F6
FB
FE
05
F0
02
07
03
05
F4
F4
FE
F7
F6
1F
F9
E7
F6
06
0F
FC
0B
07
29
E6
02
1D
15
DD
E1
FC
EB
EE
01
07
08
EF
03
1A
13
09
EB
E5
FC
01
E3
02
01
FD
02
F9
FE
01
00
F9
02
04
FE
F6
02
FE
F8
01
F7
FF
00
FB
F7
FB
01
FA
FB
FB
FC
0C
00
FE
FD
07
FC
E9
F8
11
F0
02
F6
0E
FC
F7
F8
E4
F7
12
F1
F4
03
FA
FB
0D
EC
0C
07
E9
12
D3
FD
F0
FD
02
00
F9
F7
FF
00
FC
01
FD
FF
FE
00
03
FD
F5
FD
FF
FB
FB
FA
00
01
FD
F9
01
FB
FB
FB
FA
FE
04
01
FB
F7
04
17
01
FD
FF
FD
FB
01
F4
0E
FA
FA
06
FA
FD
FC
00
03
F0
03
F7
02
EF
FF
04
01
02
FA
FD
01
F3
F0
04
FC
F8
F3
04
D9
01
F7
0B
26
E4
0E
FF
FF
10
01
F8
F9
0C
03
03
FD
01
FA
C6
08
DC
FF
F2
0E
F6
F9
01
08
12
F1
00
FC
09
FE
F9
F7
08
0F
FD
03
0B
27
FF
0F
FD
12
FB
F7
F6
F3
FD
FB
F7
00
ED
EB
03
06
00
F6
F4
FF
01
FC
FA
FE
FC
FA
FB
FB
FF
00
F5
F4
FB
FE
F9
F9
F7
F6
F8
FF
FB
FC
FD
01
F8
F4
00
FB
FB
F7
FD
FD
01
FF
FD
01
02
FA
F6
FC
FC
FC
FF
F7
FB
00
F7
00
FF
F8
00
01
FB
FC
FD
03
F4
F3
02
F9
03
00
0A
06
EC
FC
F0
02
FA
E8
06
06
FA
07
FD
FF
FD
02
F9
FD
FF
F8
F9
F8
03
F7
FF
03
0E
FF
FF
02
FA
03
FD
FF
FA
FF
00
01
FD
F4
FF
FD
00
02
02
FD
02
FE
F9
FB
02
03
F9
FE
FA
FD
FC
FD
05
04
02
FF
FC
04
FF
05
F9
07
F9
FD
F2
00
00
FC
05
04
FA
FF
03
02
00
01
FA
FE
FC
FA
FE
F6
00
02
0E
00
FF
FA
F8
FD
1C
C6
F7
EA
05
13
FF
F8
11
0F
FA
E5
14
17
FF
0C
00
0E
FD
FA
F2
F1
02
F9
FD
06
AD
F1
C9
F9
01
FB
FF
06
F6
00
F8
00
F9
F1
01
02
FA
01
FA
FF
F6
01
FD
FB
FB
F9
01
F7
FA
FE
F8
FD
08
02
F8
02
00
FE
FC
06
FC
07
FD
01
FB
F8
01
05
00
00
F5
03
FD
03
FB
FE
05
02
02
FD
01
00
03
FF
07
FF
01
01
F9
FB
FF
FB
FB
FD
02
FA
00
FB
FD
F9
FA
FB
00
FD
00
FD
00
FB
FC
FA
FE
F9
FD
FA
FF
00
F7
02
FF
04
00
FF
FB
FF
FE
FC
01
FC
03
04
FD
01
03
02
FE
FE
FE
FC
04
01
00
01
00
FE
FE
02
FD
FC
02
FD
FF
FC
09
F8
08
06
FD
06
07
DC
F9
DD
17
EA
D5
D8
0D
F2
FE
00
FE
FD
00
F3
0D
FE
03
F9
08
0F
09
F6
FF
0B
FF
00
FE
03
FB
FB
FE
FE
FB
FD
01
04
FB
FD
FB
01
FE
FE
01
00
FC
F9
04
02
00
F9
FB
FF
02
03
01
FE
FE
FB
FE
FD
02
01
F7
F8
FC
0B
FE
00
00
00
02
F7
FD
FA
F6
F9
02
FC
F8
01
FC
03
F4
F8
F6
FA
FB
F3
02
05
ED
F9
0B
F4
FE
08
FF
19
DD
04
04
0E
E4
ED
F4
EB
F3
03
0B
FA
FF
0D
FD
07
E8
F8
E1
FE
FC
F0
F4
E8
0C
FE
F4
03
02
01
FA
EA
12
17
E1
E6
10
0E
00
E9
FF
F1
F3
F4
F4
F6
E1
EA
F3
07
1F
DC
FD
FE
00
02
FF
F7
FB
EC
F8
FD
FE
04
F5
F7
F3
FF
FC
FA
04
FC
02
FD
FE
FB
01
00
FE
00
FF
F8
F8
08
F8
FE
FA
0B
F9
00
06
E9
01
FA
FB
DF
01
E9
F8
E6
06
F9
F2
14
F3
FF
04
E5
0B
0B
D8
04
EF
0D
F6
DD
F8
04
ED
03
FB
ED
FB
E8
F3
FE
F2
EE
E6
14
CE
FD
F9
07
F3
00
D3
FE
0C
01
00
FE
DC
07
F8
F0
FA
E8
E0
F0
03
FE
FF
FF
02
09
F9
FE
00
FD
FB
FB
00
06
F4
03
FD
FD
FD
FF
FE
01
FB
FE
FA
03
FF
01
02
03
01
FE
F1
01
12
F5
FD
01
FF
06
FB
07
04
09
F8
FE
0A
17
FD
04
FE
07
F8
FA
F4
FB
FB
FB
F7
00
06
E0
FE
06
F1
E5
F2
F2
05
09
02
F4
FC
18
F6
FB
07
FB
E3
F9
EB
DF
FD
02
F5
F5
E5
05
0D
00
01
FD
E6
0A
0A
FA
F8
FB
01
F9
F5
FF
0E
08
FB
F3
E1
16
D2
F7
14
07
0B
F8
FB
07
F6
F6
E8
D5
EF
F8
F2
02
F4
C6
E1
FE
09
E5
F5
E6
F1
11
01
14
1B
FD
F0
0A
FD
0D
FA
FB
12
FA
0D
F2
F2
10
F5
EB
F3
FA
2A
07
E6
13
F4
FD
02
FC
FD
FF
FD
FC
FB
FF
FF
FE
FF
00
06
04
00
FE
02
02
FB
00
FB
FB
FF
02
F9
F9
F7
F9
FC
F7
03
FE
FA
F6
F3
FA
F4
F4
FA
FC
08
03
F6
07
FC
FD
0A
F3
F1
F2
F7
EB
FE
F3
FE
F7
F4
02
F2
FE
FE
FD
ED
FE
17
0F
13
09
C9
F4
F8
E6
E0
FB
1E
F3
FF
03
1E
F6
0F
11
03
F5
F2
06
FB
FC
10
CC
17
06
1C
01
FE
F9
FC
04
08
05
EA
F9
FC
F8
01
F7
F4
FF
FE
F6
FA
08
F7
0F
F6
F8
FC
FC
F6
F8
FF
FB
03
FD
07
F3
F8
00
0A
07
E0
FE
10
F2
14
EB
08
19
FC
FC
DE
EF
09
E9
D1
F9
E5
FF
0D
DF
06
0B
FB
0A
FE
06
EC
FF
05
FE
02
FA
03
0E
F5
07
F8
0F
FC
EB
F9
06
02
0A
F9
00
04
01
F2
07
00
F8
FA
F7
0F
FB
0E
F8
18
0A
FC
EC
08
06
F1
FA
00
06
FA
F4
FC
18
F7
05
16
0A
FC
F0
FE
F3
F5
FA
FB
05
E9
05
04
FE
FC
F1
F3
04
FD
F2
FB
F4
F2
FA
F3
FC
F6
FC
04
EF
F1
FB
FF
FB
EE
F3
F6
F6
00
F4
F9
F7
02
FB
F0
04
FD
FF
FE
FB
FB
04
FE
FE
FF
FE
00
FF
FE
02
07
FD
FF
FD
FC
FA
00
FD
FC
FC
03
F8
F8
FA
05
F7
00
FB
F9
03
F8
02
FF
FC
FD
04
FA
08
00
04
FA
06
FE
F3
FB
03
FE
05
FB
FD
FE
07
F5
FE
00
F1
00
FE
FE
01
F1
04
05
F9
00
FB
01
18
15
00
FC
0B
05
FE
F6
F4
0B
0F
F8
FB
08
21
FE
12
E6
0C
FA
E9
F2
F4
E8
F4
FD
03
11
07
00
03
06
08
FC
F4
0C
F4
03
00
01
0C
FE
EF
EA
09
0D
00
FF
13
FB
E9
07
F3
FA
0C
F5
07
B4
03
EA
E7
0A
04
FA
FA
EC
09
04
FD
03
16
06
F5
F9
F9
F9
FA
0F
E5
EE
F9
E6
F4
08
F2
0C
09
E2
06
F1
FF
E5
F1
09
01
F0
FD
FE
E4
0A
17
F2
0A
D0
EC
EA
D3
F2
11
F2
04
FC
FD
01
11
09
F1
FF
09
EE
0F
EA
C2
F1
FA
E8
ED
FF
F7
FE
FA
FE
FC
FD
F8
FB
FE
FC
00
F3
FB
F7
FB
F4
F6
FC
00
FD
F9
FE
FD
F6
FC
FB
FE
FD
FD
F9
FB
F9
F1
D9
0A
F3
EB
07
EF
FA
03
EA
F8
EA
EA
F9
F0
D3
EA
F4
F9
04
03
07
07
E4
00
E6
F7
E8
0D
FD
FA
FB
02
03
FF
01
FF
FF
FF
01
FB
02
03
01
FB
FD
03
FD
00
FD
02
00
FB
03
03
04
FC
FD
FF
FD
01
FF
03
FE
01
FB
FD
01
F5
01
FB
FF
01
FC
F9
FA
F9
FD
FA
02
00
F3
FA
03
02
FE
02
F9
04
FB
F7
F7
02
F7
F8
FC
F3
E8
02
0D
F7
08
05
0B
00
F9
F8
FC
F9
FB
E3
EF
FB
E1
F3
0F
F2
10
0E
EB
07
D8
FD
EE
F6
04
FE
00
FD
FE
FF
FA
02
02
FC
00
F7
03
FC
FB
FA
02
FE
F4
F7
FE
00
FC
F8
05
F8
FA
01
F9
01
06
FF
F9
04
FD
FA
00
EE
05
01
00
02
07
0E
FF
E5
E6
0F
FC
F7
ED
05
03
F0
FE
F3
FF
01
F4
06
DD
FD
E9
EB
00
FA
FE
19
12
F3
01
EA
FA
00
EF
D2
0C
F9
DE
D0
FD
14
03
0D
E2
03
FD
F7
FD
FE
E3
FC
FB
F9
FE
FD
F7
03
FC
FF
00
03
FC
FF
FD
02
04
00
01
00
FD
FD
FF
FC
04
FD
F9
FF
FC
03
01
FE
FB
03
FA
FB
04
FB
FD
FB
00
00
01
02
01
04
FB
02
FD
FF
FE
03
04
FF
02
FB
01
FC
02
FE
01
00
01
00
01
FE
FB
03
00
00
FB
FF
FB
FF
00
00
00
FE
FD
04
F8
01
FE
F9
FF
F9
FC
FC
FE
FF
FC
02
00
FD
01
FC
FC
F9
FE
FC
03
F8
FF
03
04
09
F0
11
00
F1
FE
F1
FD
0F
01
EA
FD
03
03
D7
EE
08
EE
EA
0B
EC
0E
11
FC
0C
F2
00
09
FD
09
01
FF
0A
00
FC
F8
FC
03
03
00
FD
FE
FB
04
01
02
02
03
04
00
FF
FF
FE
FF
FE
FE
FF
01
FF
FB
FD
FE
F8
F8
FD
05
03
FD
FF
F4
FD
F8
F9
FA
FE
F6
F8
01
03
FE
FC
03
FB
F3
FA
FC
F7
F8
F9
05
FC
03
FB
FF
00
03
06
FF
FB
FB
FC
F9
00
FC
FE
F3
05
01
01
00
02
FC
08
F4
FF
FE
FB
F7
FC
FE
01
00
FE
FC
FB
F9
F8
09
0A
FA
00
FF
02
F5
FA
F5
01
F9
FB
FF
FC
F8
F7
06
05
F7
FD
FA
00
EE
00
04
F4
01
F9
F4
FF
00
F1
1C
1B
F4
F5
0F
D6
E1
EC
FC
35
D0
F6
19
02
00
02
03
F0
EE
14
06
08
EB
0B
19
10
08
F7
F0
02
F9
DB
06
0B
17
F2
00
05
03
03
F9
0B
02
10
FE
00
0F
28
0A
03
FF
0F
F9
FC
EB
F4
03
FD
03
06
0B
E0
FD
FF
FB
00
01
FC
F7
F9
F9
FB
F4
F2
FF
02
FF
03
02
04
00
FB
F8
01
F6
F7
FB
FF
01
F9
F5
FA
FB
01
03
FB
FF
F5
FC
F9
FF
02
02
03
00
FD
FB
FA
02
05
FE
02
00
02
01
FF
F5
F9
F3
F8
FB
F4
F6
FF
FF
FC
FE
FC
11
15
1D
F9
01
09
07
00
F2
F4
0F
00
F1
FA
FB
25
0B
12
F1
0A
F6
FF
F2
F6
14
FD
03
03
07
FA
FD
FC
0C
FB
07
03
F9
EB
02
F0
FF
F6
0B
F6
F8
E5
08
02
FB
F9
F7
FF
FC
F3
00
F8
FC
F9
FA
01
03
F7
F6
FF
01
FF
00
FC
03
03
04
FB
03
FD
FE
FB
02
02
FD
FD
FF
04
FE
FF
FC
00
01
FF
FC
02
02
FE
FF
03
01
FE
FB
03
06
05
01
07
FD
FC
FD
FA
0C
01
F6
FF
0B
08
00
00
03
FC
FA
FE
FB
F3
F7
F8
04
FD
0A
FE
FE
03
00
01
FF
05
FE
08
F9
00
FA
E7
FF
FF
FA
08
01
00
FD
FF
FD
F3
FB
FA
FC
FB
FF
F7
FD
02
09
F9
00
FF
F0
F8
FF
02
FB
F8
FB
FB
02
F5
FD
FC
EC
02
04
FD
04
FF
03
FC
FC
FE
01
F6
F3
FE
FE
FF
F2
FF
00
F6
02
24
1E
07
00
11
09
20
F8
06
0C
09
03
0F
17
22
05
0F
01
0D
EE
00
EF
FD
FE
EB
F4
0C
0F
A9
05
00
F5
D8
EB
05
07
07
FF
0D
02
1C
F5
F9
08
12
CA
D7
FA
EC
00
ED
F4
03
F0
FF
FF
F9
04
F1
FB
FF
0C
F7
FB
06
0B
04
EF
01
F0
06
FA
E6
FF
FD
05
0E
FF
07
FF
00
05
F6
F7
F8
FD
F8
FA
F8
F2
FD
06
F4
FD
01
03
F0
F2
FF
03
F9
FD
FC
01
F6
F8
FE
F9
01
FD
FD
FD
FF
FA
01
05
FA
F8
00
F5
FE
FE
F5
F8
F8
FC
F6
FD
FE
F7
03
FD
01
FC
FF
FF
F8
F9
FF
01
04
FB
FD
F8
FD
FB
FB
05
F5
00
03
FE
03
F9
FC
FD
FF
FE
FF
F6
F6
E8
F4
19
FF
1D
EE
03
10
FE
FE
DF
F3
09
F6
BF
FB
E3
04
11
E0
04
09
F7
11
06
03
EE
01
03
FF
04
E5
F8
08
F0
E6
04
05
FB
00
05
06
EB
E0
18
E7
F1
F2
F9
FE
F9
D4
07
F7
F0
04
EF
F0
FE
0F
02
08
05
16
0E
FF
E7
0A
DA
ED
F2
1A
E5
F5
0A
11
11
06
07
1B
04
F8
E8
0D
F6
F5
05
E1
1E
F7
FE
04
F7
F2
FC
F4
F0
F7
01
FE
FF
F7
05
FD
FB
FA
07
FD
00
F3
F6
FB
FE
F8
02
F4
FF
02
FB
FC
F4
FC
F5
FF
FC
00
FE
FE
FD
00
02
07
FA
FF
FF
F3
00
04
FD
01
FD
FB
FD
FE
F7
00
FE
FC
02
FA
FE
FF
03
FF
05
03
FF
F7
FD
F6
E7
07
05
FF
FF
04
0D
0B
05
F0
05
FD
1A
D9
E8
03
EA
EE
03
F2
09
0E
DA
07
CE
FD
EC
F8
08
01
FE
FB
F4
FB
03
05
00
02
00
08
FE
FB
03
FC
FF
FB
FE
FF
F6
F8
F6
FB
F9
FC
02
FE
FE
FE
02
FF
F8
F7
FF
00
06
FD
FD
FC
01
01
F8
01
01
FD
FB
01
FE
04
FB
06
FC
00
FC
03
FB
FA
FA
F5
FB
01
05
02
FC
01
FF
04
01
FD
FD
03
FE
04
FF
FF
FD
03
FE
03
03
FF
FE
02
01
FD
03
00
FF
FE
FC
FF
03
02
00
FB
FB
FD
FB
F7
FD
FE
01
F9
00
03
FA
08
FE
01
FF
04
01
01
F5
FA
FE
FD
04
FD
FE
FE
01
FC
FB
FD
F9
FC
F9
FB
1B
1E
F3
FE
03
F4
EC
F6
E2
FB
E0
01
04
02
05
03
FC
18
EA
04
06
D7
06
11
DA
0A
CB
03
0E
E3
F3
03
00
01
03
FF
04
04
FE
02
FB
FE
FC
05
01
FD
03
03
FF
FF
FC
01
FB
FE
FE
FD
FE
02
03
03
03
FB
FE
04
FE
08
F3
08
01
FE
FC
E5
03
FC
FF
F1
04
00
FC
E1
F7
08
F7
F2
0C
E9
08
06
F1
04
DE
F8
04
FC
09
03
13
0C
19
ED
FE
0D
FE
01
03
F6
0D
15
09
03
0D
29
06
0B
08
15
F9
F8
E9
F1
FC
FE
F8
00
17
F5
FE
FB
F9
F7
F4
01
FE
04
00
FD
FC
01
FD
FF
03
04
FD
F5
F6
FA
F7
FA
02
F8
01
01
F9
00
FA
01
F2
FA
FE
FA
00
1E
19
03
FB
FD
FD
03
00
E6
06
08
03
F1
12
1C
0C
21
D7
0C
F1
03
EC
F3
EB
FE
FB
11
0C
0D
FB
F7
FB
D8
FE
FB
04
F0
09
F5
0C
06
EF
19
F9
08
13
07
E0
F0
F0
06
0B
F9
05
F1
F3
07
F9
FD
06
FA
F0
E7
FA
E9
FD
F5
01
F9
FF
F7
06
09
F8
0E
E9
F2
0D
FE
ED
F1
01
05
05
F5
FC
FE
FA
01
E5
F7
F0
F5
F5
EF
03
04
FC
02
FE
00
FF
FA
FA
F4
FD
F6
FB
03
F7
FE
FC
01
F8
FB
FF
F9
00
04
03
FA
F9
04
FB
F5
FD
FE
14
F0
FA
FB
F2
F6
02
FB
01
02
02
F4
F4
E8
11
F9
04
EC
02
FE
FA
12
06
F0
F1
F8
F5
04
FC
0F
F0
FE
FC
EF
05
05
0C
F4
06
E9
08
E6
03
F5
01
D6
05
FB
FE
F8
08
02
09
F2
12
04
E9
05
FC
0A
03
ED
04
07
FB
FA
F6
FD
00
F8
F2
FE
05
FD
F7
FD
F9
FC
F2
F4
F9
FE
FD
FF
03
FE
FF
F9
FB
FF
F8
F9
F3
03
F4
FF
02
FE
03
FD
FE
00
FE
FD
01
02
01
05
04
FE
02
00
FD
00
01
03
03
04
03
FD
FD
FD
04
00
FF
03
01
FC
FA
E9
F7
F7
07
F6
0B
DE
03
10
FA
DC
F0
03
FE
BE
05
FE
04
D1
FB
01
F8
FD
0B
04
E5
05
DD
EE
FE
07
FE
FD
FB
FE
FE
01
02
FF
FB
03
03
00
FF
FD
FF
03
04
03
FC
02
FF
00
F9
00
FE
02
FD
FA
FD
02
FB
FA
01
0F
01
F1
F5
E1
FA
15
F5
FF
01
09
F2
F0
FE
FE
F1
0F
03
F9
F9
F1
F6
FE
F1
F5
F5
F9
E5
FA
06
0A
00
FF
FA
FD
00
04
FF
03
01
FE
FB
FB
FF
03
FA
FD
00
00
00
FA
00
FF
FE
00
FB
FD
FB
FE
03
FA
FB
01
FE
02
05
07
F0
06
F6
FE
F7
EE
F8
F9
0B
04
F9
03
06
05
01
F7
FB
FB
F7
FA
01
F6
03
05
11
FA
FE
01
0C
FF
EC
F9
11
F4
08
F5
0F
15
F4
F5
F7
F8
15
E9
F7
F3
FD
FE
0E
FA
10
0B
DD
09
D5
FA
E6
F2
03
07
FE
FD
F1
F8
00
FA
01
FC
FE
F6
FC
00
04
02
FD
F6
F3
F8
02
03
FF
F8
02
03
FB
03
FF
01
F1
FF
FE
FA
00
FC
F7
FF
EF
F7
E6
0B
FC
F1
F1
06
08
FD
F2
FD
00
FD
F6
FF
F9
F1
E9
02
02
F4
ED
FB
07
F5
05
F1
16
FD
F5
04
F6
FB
E8
EC
F1
19
F0
0B
18
FF
FE
06
FB
FB
03
15
0E
F9
0E
01
00
03
DC
F6
0B
15
F5
F9
FC
05
FE
07
05
F4
FE
EB
F6
F9
03
EE
FB
F4
E5
F8
E6
FB
EF
02
09
E9
0B
07
00
FF
F4
FD
00
F4
02
04
06
0A
F0
F0
F7
FE
FC
F7
F4
13
F9
F5
FA
FD
F9
F0
EF
00
EB
03
FF
FA
F2
03
0E
FE
08
F7
F4
FE
EC
E8
FF
FB
01
F7
FB
FE
FA
FB
FF
F2
F8
FA
FB
FE
FC
05
01
FF
FE
00
FC
FF
F9
F4
FA
01
01
FB
EA
00
FB
F9
FD
F9
EE
FA
11
EF
0C
FA
09
FA
FB
F5
E6
F7
20
F1
F6
F7
FE
F6
14
EF
11
0B
E0
12
CB
FB
F4
F5
FE
06
FB
FD
FA
05
01
FC
00
F9
FF
10
04
EE
FD
F6
07
E3
D2
FB
F4
F1
03
FB
09
0E
EA
05
DB
FC
ED
03
05
05
F2
0A
09
0D
E4
E4
E8
11
FD
F5
04
FE
1B
18
04
06
2A
10
15
CB
F7
16
FE
F7
0D
F4
FD
05
14
03
FF
02
FF
E1
06
E6
07
F5
00
02
06
E2
FF
ED
E5
FB
F4
F4
FB
E7
F5
F6
04
E4
04
FA
D5
01
EF
F9
E4
EB
FA
12
01
0E
FD
FD
F1
0A
F8
01
E8
0E
00
FB
F8
07
FE
F8
FA
0B
F7
FD
F3
FA
FA
F7
09
F5
0D
F7
10
FE
F4
F3
12
0F
16
F7
00
13
00
07
FC
FD
08
0D
0E
0F
F5
25
FC
0A
07
12
F7
F2
EC
F4
19
FB
FD
0A
17
F9
FE
F7
FE
FC
02
03
FF
FD
FE
FB
FF
05
FF
00
FF
FC
FA
05
03
FD
02
00
04
03
02
FD
01
00
00
00
03
FF
FC
01
01
FE
03
03
FE
01
03
01
00
00
FC
FF
00
03
FD
01
00
FC
05
FC
FB
FB
FC
FC
04
01
01
FB
01
FF
04
FD
0E
DB
F6
E4
EE
38
FA
21
18
FA
04
13
F6
12
05
FE
1B
F5
19
EE
F3
13
F1
E8
FA
F8
2D
0C
DB
FE
F0
07
FE
01
01
02
01
FB
FD
FE
02
03
02
00
03
00
FF
03
00
04
FE
FF
00
02
FF
FC
03
FF
FF
02
01
FC
04
00
12
0F
19
F2
F8
08
03
01
FB
DF
0D
07
F7
0A
F1
18
FF
0C
E9
0E
F6
E5
ED
F3
05
FC
FE
04
0B
08
FE
FD
0E
09
FB
15
FA
1F
0A
23
EF
FA
F7
1B
0A
1E
FF
F3
E0
ED
F4
EE
00
E5
01
00
03
F5
FF
D8
0D
F1
0D
F2
04
0F
06
01
F2
00
F3
FC
F8
EC
FE
03
02
04
F6
00
00
04
F5
00
FB
01
F5
01
FE
F9
01
FC
02
FE
01
FC
0E
F9
F3
00
FB
FE
EE
F8
F3
09
D9
0A
F4
FF
F8
FC
F1
C2
FE
06
0E
FE
04
01
F0
06
D5
F6
F4
13
F9
F7
F1
ED
FD
E9
00
F8
03
0F
01
21
FE
09
DF
04
0B
05
FF
05
FF
04
F4
F9
F5
FB
F9
FC
F4
FE
EF
BF
FE
F9
FD
DC
14
E9
05
FC
08
F0
04
F7
07
18
F1
F5
0C
1A
02
FF
FF
0F
03
F4
F6
F0
F9
09
FE
09
EE
F1
E7
ED
01
FB
00
FF
01
FE
FB
04
FB
03
04
03
01
FC
FB
03
FC
02
FF
01
FF
01
03
00
FD
03
FD
00
02
FB
FE
FB
F9
E8
FF
00
DC
FF
F3
EF
01
F6
03
D8
FA
0B
E1
F6
F0
D8
05
F9
03
08
FA
FA
05
FF
15
FB
05
03
FA
F7
F8
00
F2
08
05
00
00
0D
FF
F5
03
F6
FB
F7
1E
DB
F3
07
E6
EF
03
DD
10
0C
DC
05
C4
00
F8
E3
0A
01
11
14
22
EE
00
03
07
04
00
E8
0E
06
01
F9
F2
26
01
13
E9
0A
FE
03
EE
F3
12
FD
FE
05
F7
F3
FE
FA
04
09
0A
09
E9
FA
FB
03
F6
D8
F1
12
02
ED
0F
00
FB
CA
FD
F6
EE
FA
FD
F3
0A
D8
12
EF
19
02
F8
00
FC
ED
FD
F1
01
F0
0B
ED
08
FB
F0
07
EB
FC
FB
F6
E9
E5
F4
F5
02
F8
06
FA
F6
06
DD
04
EE
F2
FE
03
FB
EC
17
0F
CF
FA
04
F9
F9
FA
27
DB
CF
F1
1A
FA
FB
FD
0C
FE
F4
F3
0A
E2
FF
DB
03
13
18
FD
FC
06
FA
ED
FF
01
F6
ED
F6
03
FF
07
E0
E1
0A
05
0A
F7
03
F7
0E
F3
F9
07
FE
FE
06
00
F6
F0
E0
D6
FD
05
00
FD
02
FE
01
FC
FC
05
FD
F5
02
FF
00
03
FB
01
05
FF
FE
FE
FB
FB
F5
FB
FE
FE
FD
00
00
FE
FF
FA
01
FD
00
04
FE
FF
FF
03
FD
FB
FC
02
02
03
04
02
04
FB
02
00
FB
FC
FD
04
FB
FD
FF
FB
03
FF
FC
FC
E0
16
10
CC
FC
F5
FA
FE
E3
D8
0A
FF
FA
DD
0B
05
FE
25
00
03
DC
F4
E5
FB
E7
F4
FE
0F
00
F9
FD
01
FC
04
FC
FB
00
04
02
02
02
FD
FE
FE
FF
01
02
03
FD
04
01
02
FF
00
01
FE
05
FE
FE
03
FC
FF
01
01
05
07
F1
0B
EE
F8
F3
01
02
F5
F5
DE
03
06
01
0B
13
16
0D
D8
FB
07
05
F8
03
F8
F8
FE
0A
F9
01
00
FB
EE
F6
F6
FD
F5
00
F7
FC
0A
F4
FE
FB
01
00
FD
FD
F7
FC
FF
02
05
F6
00
FD
01
FB
FC
F6
F7
FA
F7
01
08
05
06
FF
05
02
02
FA
02
03
FD
08
FD
FC
08
FD
01
FC
03
FA
03
FF
FE
01
FD
04
FC
0D
FA
FB
00
04
06
FF
0B
F5
09
F2
09
F3
DD
05
0E
14
07
08
E0
FF
05
F3
04
FA
E6
F7
01
EC
F9
CB
00
19
10
05
F9
04
F1
EA
F8
12
F9
0F
F5
06
1A
02
F0
EB
F6
00
E5
CB
01
EB
FD
0F
E5
05
05
09
09
ED
02
F1
02
00
03
FF
09
F1
12
FE
FA
F9
FB
F6
03
02
EF
FC
FC
F6
DD
F9
00
F0
EE
06
ED
0C
0E
03
0C
E3
F9
10
F5
05
FE
F7
02
EE
0A
07
06
03
F8
FF
03
F9
F8
FE
FB
11
E5
F4
F2
F0
F6
06
EA
06
0D
F2
05
EA
FE
FB
EE
08
FC
FA
FD
FD
FD
FA
FE
FA
00
F8
FC
FA
00
06
08
FB
FF
05
FF
F9
F9
01
04
FE
02
04
FD
FA
FB
01
FC
04
FE
FA
03
00
02
FA
08
F6
03
F7
E6
FD
01
FB
05
01
F9
03
00
FC
F8
F8
FB
FA
00
FE
FA
02
FA
08
F9
06
F9
E8
16
12
FE
F2
FE
06
EC
EF
01
06
08
F9
E5
0B
04
F2
FB
F8
F9
F8
F6
09
E4
F9
F6
F6
0B
29
E9
FF
08
07
05
11
04
D9
09
DA
14
EE
03
EE
E9
24
17
11
12
0F
1A
06
FB
F7
12
F4
F5
16
EC
26
05
11
01
F7
FA
0B
09
FC
07
0D
01
03
EE
FD
1A
08
F7
03
EC
01
EA
F9
01
F2
00
04
ED
0E
0D
F6
03
C6
05
EF
F5
0B
03
02
00
FF
FE
FB
FE
00
00
01
FC
03
FD
FC
FF
02
00
02
03
02
04
FE
FF
FC
FD
FF
FA
FF
03
04
01
01
00
FC
E7
F4
D2
10
DB
0F
D1
09
F7
E8
F6
F0
EF
20
FA
ED
D7
03
05
07
EB
03
FD
00
0E
C5
F5
E1
EE
F3
03
FD
E2
04
09
FB
DA
05
E7
FE
0D
07
F0
DB
DC
DC
F5
CB
EC
F4
FD
0C
0F
03
0C
D2
0A
E3
07
F4
0A
F5
F9
13
E6
E5
EE
F5
ED
FF
0E
03
15
03
FC
0D
0C
1A
01
18
0E
0D
F7
EF
0D
ED
F5
F2
FA
11
14
EE
14
FC
FF
F7
FD
FD
0F
F8
FA
00
E8
04
EB
FB
ED
F3
ED
E4
EA
EA
F7
02
EA
06
FF
09
FB
FA
FE
EC
FB
00
F7
00
00
16
15
17
FE
FF
0E
07
14
C2
F6
0E
01
0E
11
06
17
00
05
00
0A
F9
F9
F4
00
3B
F2
02
0C
13
B9
FF
06
FE
01
EF
DE
F4
F9
FC
FF
16
0B
F4
02
E3
0A
F3
F0
F9
D4
0F
E1
FF
F2
FF
EC
D9
07
D7
15
BC
05
D9
08
04
04
01
02
F7
07
EC
04
F8
DF
FF
06
FC
04
FD
FC
02
FB
F3
F2
00
F9
F7
04
F8
03
00
FD
05
FE
05
E9
FB
1A
EF
06
03
F3
C0
FA
F7
03
E1
EA
F8
00
FE
03
EA
1E
EB
FA
FD
ED
DA
0C
04
01
0C
F7
F0
F7
EC
F2
03
01
02
02
02
FD
01
FA
FD
03
00
03
01
FC
00
FF
01
FC
FB
FC
FC
01
FE
02
02
FC
FB
FF
03
03
FD
FF
05
FD
05
FD
00
02
01
FC
FC
FC
FD
FA
FB
FE
F6
FC
01
FC
FB
FE
F9
FC
FD
F8
FE
FC
FE
F8
FD
FB
FB
FD
F7
FE
E0
07
FC
0A
08
1C
04
EC
E7
04
EA
0F
35
B3
07
01
04
C5
F5
F8
07
EC
F6
F5
E5
F2
01
04
03
FF
01
00
FA
F8
F8
FB
F9
FE
F7
FF
FC
05
F2
FB
FA
F8
F2
F0
F8
FF
00
FC
00
01
EF
FA
F1
FC
FD
FE
F7
FE
F9
FD
FB
03
FE
02
01
02
01
FC
FF
FC
FE
F9
FD
FD
FC
FD
02
FA
00
01
02
02
FB
F9
03
FC
01
FE
00
FB
FE
04
F1
FD
07
F5
FD
EA
FB
0D
FB
F2
EF
FE
03
F3
F2
05
F0
FA
0B
EB
0C
05
F7
0F
E8
FB
F6
F5
02
03
FC
FE
FB
FE
00
02
01
04
FE
F1
F8
01
FA
06
F7
FE
FE
F9
04
FF
02
02
00
FD
F4
FC
F9
03
FB
FF
F7
FC
00
FC
E7
10
08
0A
FA
10
FB
1A
F1
09
01
0E
D7
E5
D1
E3
D5
FB
0A
D5
05
10
E1
06
D8
F0
FE
F0
07
F7
FE
E0
FF
F3
FD
04
FA
15
10
0F
01
F5
0C
0E
08
DC
0F
F9
0D
EB
F6
0B
FD
F5
F5
FB
04
FF
F1
02
05
0C
FC
0E
01
01
EC
F6
EE
01
02
D6
FA
E9
0D
10
08
0D
06
13
07
F7
F8
F6
00
F2
EE
FF
EB
03
FF
F4
FB
02
13
F6
F8
FD
05
E6
FF
FA
07
F0
03
FE
F0
FF
FF
F7
FF
03
02
00
0B
F6
04
07
E8
0A
DA
02
F5
F2
FF
05
F9
15
FA
08
E6
F8
D7
F7
02
21
FE
06
F6
E8
F8
0F
FE
17
F9
05
F7
FD
F7
F9
15
FD
12
FB
09
FD
FC
EF
FE
00
FA
FF
FD
FF
01
01
FD
FB
F8
01
FE
07
01
F8
F4
FE
FF
02
FD
FD
F9
FC
FF
FD
02
FD
F6
FB
00
F5
02
F3
04
05
FB
FE
FF
FF
01
F8
02
01
F7
FB
01
01
F9
FD
F9
FD
00
FC
05
F9
F7
FC
05
06
02
FE
FF
FE
FC
E2
0B
EF
F2
E9
CB
0D
FE
F2
FE
15
24
0E
F6
02
0B
EB
E8
EF
03
F5
C9
01
FA
06
FC
F4
F0
F4
05
E9
02
06
EE
13
E9
E9
E2
06
F6
23
EE
08
1D
00
01
ED
F9
00
FE
DA
02
02
0B
03
ED
FF
EB
F7
14
1E
FB
FA
FD
05
F7
FF
F1
E8
FA
07
07
FE
F7
00
0B
F7
FA
FD
EB
EF
FE
FD
07
05
08
03
CA
09
EC
05
FF
0B
F8
F6
00
FB
FB
F8
FD
F7
FB
FD
FF
F5
FD
FD
EE
FC
F8
FD
FB
FE
F8
FB
01
FC
F7
F8
F6
FE
FD
01
F1
00
FC
01
F5
F7
F5
03
00
FB
F5
FD
FC
01
FC
FC
F6
03
FC
F0
F9
F5
F4
F2
05
F2
FD
05
EB
07
DA
FC
F6
FA
FE
ED
FC
F1
F6
FD
02
F0
FB
FC
05
09
F1
01
F9
F6
FC
FA
F0
F0
01
03
03
FA
00
00
F1
03
ED
02
F2
05
F6
FB
F4
FD
F9
04
FB
EA
F9
FA
FE
E9
E7
09
E0
F9
FC
09
E2
00
EA
FD
0E
00
05
04
E6
05
F7
F5
03
01
F4
E6
FD
FA
FC
FF
F7
FC
F4
FE
F4
F5
FF
FA
08
06
FB
08
00
01
FD
FD
FA
FE
F5
FE
FE
F6
00
FC
05
FD
FB
F7
FD
F7
E1
EF
10
FD
ED
0B
06
B3
FB
18
0E
F6
F4
F4
E3
F4
02
FB
04
D6
E1
07
F1
FB
CC
CD
FC
E5
F7
FC
FC
03
F8
06
F9
03
FF
FD
F5
EE
FE
FE
06
FE
FA
F7
00
FE
FC
FF
FC
01
FD
05
03
FD
FE
FB
03
00
01
FB
00
FC
03
04
FF
04
FB
00
03
FF
01
04
FC
00
00
FF
FF
FD
03
FB
00
FB
FC
FF
02
FF
01
03
00
FE
04
04
10
0D
1C
F4
FE
09
00
04
02
FB
0B
0F
FF
07
08
27
03
11
11
0C
F7
02
F0
EB
2F
FF
03
FF
18
F1
F9
F4
FA
D3
D7
EA
F2
F4
FF
0D
04
F4
F1
01
F4
02
FD
D9
F3
DB
04
E0
01
EF
00
04
E7
FF
EB
FE
F6
F6
00
0C
02
FA
03
FF
F7
FD
F0
F9
FA
F3
00
F7
F8
04
FE
FD
03
04
09
EA
F8
03
FB
FD
FF
FD
EC
03
02
F9
F6
FF
00
F2
FB
FB
04
01
EC
F9
FF
12
FA
FB
0D
F9
F4
FA
01
FB
F8
F7
FE
06
F1
03
0D
FF
00
F1
FA
F8
F6
F5
F0
F7
FB
CB
0C
E8
04
FF
FA
EB
E5
03
DC
05
06
09
F8
E4
03
0F
06
FC
F1
06
F2
09
02
D3
EB
F5
F0
F1
00
01
FD
02
FF
FD
03
FC
FD
03
00
04
02
00
03
FD
00
01
02
FE
FD
00
FB
01
FE
FF
FD
00
FC
FE
03
FB
FB
F5
FB
FE
FF
01
FF
FC
01
02
F2
F7
FF
07
FC
FE
FB
F9
F7
F9
FC
FE
F4
FD
F7
01
F8
FA
FE
04
F9
EE
FD
FC
01
FD
03
00
FC
FD
00
00
02
01
FE
FC
FF
FB
FE
FD
02
FB
FC
01
01
FB
04
02
00
FF
01
02
FD
FE
FC
01
D6
E9
FB
0A
02
0C
0E
18
EB
10
ED
FF
33
EA
E3
F6
FA
E1
06
D2
FE
EF
CE
0C
C6
EB
F7
04
07
FD
00
01
03
00
F7
FE
F9
00
FA
00
03
02
FF
06
01
03
01
FB
F9
FD
02
00
00
FC
04
FC
04
FF
02
04
FB
F5
FC
02
F9
03
F5
07
F2
FF
F9
FB
F7
FC
01
06
FE
08
00
13
F4
F8
FA
FB
F8
F9
FE
FD
01
03
02
F9
FB
FD
FA
18
00
03
0C
0C
0A
09
DD
1F
07
F8
F5
0E
09
0A
DA
11
F3
00
08
C2
05
05
FA
FE
FD
0B
24
CC
04
0A
FB
F8
F9
05
F5
E6
07
07
EF
FC
12
00
E5
EF
10
FC
F5
00
00
FC
F5
F1
04
E9
FB
EE
FD
0D
0F
FD
FC
02
FC
DD
05
EC
02
EC
03
EB
03
15
E7
13
ED
FF
F8
03
E4
F2
F8
06
0C
FA
06
F6
E7
05
ED
FD
E9
FE
E7
E6
F6
0D
F2
0F
01
F9
F9
04
00
04
04
F2
08
01
F3
DF
F0
04
F1
EE
03
EE
11
0D
04
04
E3
09
07
F0
0E
01
F7
FE
F6
03
00
04
FE
06
F7
F6
FF
FF
F8
02
00
FA
00
FC
F9
FE
FF
F7
FE
04
F9
02
F8
F7
05
FD
02
F7
FB
00
01
03
FE
00
FE
02
01
FC
01
04
FE
00
FD
01
FD
FB
FD
FF
FC
03
03
00
FF
FF
FC
01
02
FC
02
01
FE
01
FF
02
FD
04
FD
FF
FF
FC
FC
FF
FD
01
04
FD
FF
FE
02
01
00
FC
FD
03
00
02
02
FE
01
00
FD
00
05
0B
17
FB
03
0C
01
04
FB
FD
0E
0E
0D
0D
09
22
05
01
13
0F
F5
F8
EE
F8
10
00
04
07
16
F5
05
FE
FE
03
FF
F8
FF
FF
FC
FB
FC
03
02
06
00
FF
FE
00
F8
FB
00
02
01
FB
00
01
00
03
FC
FD
F8
00
FC
FE
0F
F0
16
04
D1
EE
00
15
F5
EC
22
13
CA
E7
1F
00
F9
01
09
0E
F4
F5
04
E7
FF
E6
04
14
1C
00
F6
09
FE
0B
F1
FF
02
FB
FD
FA
F4
FF
FD
EF
FC
0D
FE
F2
F3
08
F9
FA
0F
F6
0D
09
03
08
EC
01
F8
F5
04
04
00
F9
F6
02
FA
FF
00
F7
F7
05
01
FA
F9
F4
F9
ED
F9
01
F8
FD
03
F5
03
02
FD
F9
F4
01
FE
F3
04
FE
FB
F8
F0
FD
F6
FB
00
F0
FC
08
F9
FE
00
FB
F3
E9
F2
01
FD
01
FE
F9
FE
06
03
FC
DF
F9
F8
FE
04
00
FD
04
FB
FB
02
04
02
FC
FD
02
03
03
02
02
00
FF
00
FC
00
FC
FE
FB
00
FE
00
03
02
00
FB
FD
01
FD
05
F1
EE
F9
0F
F6
06
EE
16
02
FF
F4
EB
F0
11
E4
EC
F6
F5
F3
13
E5
13
0A
E2
18
BE
05
EF
FE
06
04
0C
0D
21
EC
00
FC
0A
01
EA
14
11
12
E7
E5
0D
1B
07
0E
FA
0F
F9
FD
04
F4
FF
F2
FF
06
0C
F0
F8
06
FE
FE
F9
FC
02
02
03
FF
FF
04
03
FE
01
05
FF
FF
FB
03
FC
FC
00
01
03
02
FD
03
FD
FB
FE
FA
01
FC
FF
02
FF
00
00
02
FE
FE
FC
FE
04
FD
FB
03
FC
FC
FB
FB
FD
FF
FD
FE
FC
00
03
FF
01
FE
02
FE
02
FB
FC
F1
F5
FB
F8
F3
01
FF
0B
FF
FC
01
F1
F2
07
F5
F2
F4
00
EC
FC
FC
04
F2
F8
04
F9
FA
01
02
EA
F7
00
02
FF
FE
01
04
02
04
02
FF
00
06
FE
06
FF
FF
03
FB
F6
FC
FC
FB
FD
FB
FB
FB
F7
FD
FC
F7
F9
F9
FE
02
FD
03
03
FD
FB
FF
FC
02
FE
00
FB
FD
01
04
01
00
00
02
FE
04
03
02
FF
FC
FC
FE
03
02
FE
FC
FC
06
02
F6
FD
FC
F6
FD
FB
06
FA
FC
FA
FE
FE
FE
FE
05
FC
FD
F9
FE
FC
FD
FF
F0
FF
FB
FA
FB
FA
FE
04
03
03
FE
FA
00
FF
FD
FC
F8
01
FB
02
01
FD
02
01
FE
F9
02
00
FC
FB
F9
FC
FC
FF
FF
FF
04
FF
FA
1A
03
F0
16
ED
F5
E2
F9
EE
20
F3
E1
25
06
F8
E6
F4
FF
04
E6
03
01
08
02
F1
F9
E9
F4
1E
26
F9
F4
FD
04
04
03
FD
02
FE
FC
FE
FC
02
FC
FC
FB
FF
00
03
FE
FC
FD
FB
FD
FF
FF
04
04
FF
01
FF
FD
FD
01
FF
FE
00
FF
02
FE
FF
FD
FD
FF
01
00
02
00
FF
FD
01
FC
01
FC
01
04
03
FB
FE
FB
02
01
03
FC
02
FC
04
F9
F4
F7
05
FF
F8
00
FE
05
F8
F6
FA
04
01
F2
03
F8
FB
00
01
F9
F4
00
FB
04
FA
F8
ED
FD
01
FB
03
FF
FD
FB
00
FC
03
FF
02
FB
04
FE
04
02
01
FC
03
04
FB
02
FC
FE
00
02
04
FC
03
FC
FE
FD
00
01
00
01
0C
FD
FC
E2
06
D6
0D
02
FE
0F
F3
CD
07
13
E9
FC
01
08
FA
BC
01
E4
E1
09
FB
0F
E1
00
FD
08
FD
FF
03
FF
FD
08
F4
00
F8
FA
FF
02
07
04
FD
03
02
FC
FA
FB
FA
07
F7
01
0B
FE
0B
F9
09
03
FE
F4
0C
FF
01
FD
FE
FE
FD
FB
F8
FC
FD
FB
F9
F5
F9
FB
FF
FC
FD
FC
F7
F5
FC
FE
FA
EE
FE
FD
02
F8
FA
01
02
00
FB
01
02
FD
FC
05
FC
01
FE
FB
FD
FD
FF
FF
00
FF
FD
02
02
FB
03
FF
00
FF
FC
02
FD
FD
FF
FD
05
CB
FE
FC
FE
FD
F3
F3
F0
F0
F1
DD
CF
F5
EF
F7
FE
EE
08
FC
E7
04
00
FA
EF
E3
FA
DA
D7
E1
FC
07
05
10
1B
E9
FA
00
01
01
FB
EE
13
FC
F8
C4
32
1E
F0
12
04
09
FB
DE
04
FD
11
FB
D5
0E
E0
F3
F1
06
FB
02
02
FD
02
F6
FE
FB
F9
0C
02
00
08
FB
FC
FC
00
03
F5
FB
00
05
FA
03
06
FB
02
F6
05
06
F9
F2
06
05
04
FD
03
12
06
0D
FA
00
02
12
0E
14
FD
08
FD
FC
FF
04
FA
E9
EA
02
FB
FC
F4
FD
04
F2
08
FD
FC
FC
FE
00
FD
04
02
FB
02
FB
03
FE
05
04
00
03
FF
FE
FD
FB
FC
01
01
FD
FE
00
FE
FB
04
FC
01
FC
F5
01
FD
04
E2
FB
D3
12
F9
08
E0
16
20
0A
0F
F5
0E
04
08
F4
F4
0B
F7
F8
09
F5
1F
E8
08
0D
FC
F7
03
08
09
FC
F5
06
F6
FC
EE
0E
00
F9
0B
07
F9
01
FC
07
FF
F8
F3
FE
FB
FC
0B
EB
10
F7
01
02
FD
F8
15
F7
FF
00
01
E8
07
D9
04
0E
FC
FF
E1
E3
E8
09
D3
D8
FB
0A
0C
06
08
03
F1
0E
E5
FE
F1
0D
F6
FC
FE
04
02
03
FE
03
01
FB
04
FE
01
03
03
01
03
FE
03
04
FE
FE
00
FF
00
FF
02
00
FF
FD
FE
FD
FD
00
FF
F7
0C
D6
FC
03
01
09
15
1E
18
12
D6
F6
01
0E
F6
13
F4
03
05
F4
FD
EE
F4
09
FF
12
CE
0E
C5
F0
FA
EE
F9
EF
FD
F6
01
FB
06
04
08
05
EC
DD
FF
F2
EA
EE
F6
F4
FC
F1
FF
EF
F3
02
01
F4
F4
01
FB
08
FD
FF
04
FB
FD
FF
FD
FE
01
FB
FE
02
FE
03
01
FE
00
FE
FD
00
FD
FD
FE
FE
04
00
01
FF
04
FF
00
FB
FE
FD
FF
FC
FC
06
02
03
FA
FD
06
01
01
04
FD
FF
03
FA
FE
FE
F9
04
FE
03
FE
FF
03
02
01
02
FB
FE
03
0E
F2
0E
FF
02
F9
0B
02
E0
FE
03
0E
0A
08
ED
F9
12
F3
FE
01
ED
FB
07
E3
02
F0
07
07
EA
0A
F8
10
0D
07
FB
FA
F9
FD
FF
F5
E9
06
F7
EA
E0
00
FC
FE
00
F6
01
F9
F4
01
FF
F5
F2
F1
04
F4
F7
F7
05
01
05
FF
02
FC
0C
F6
02
FC
EE
FA
FE
03
06
01
03
04
0D
FC
F5
00
F5
FC
FA
04
00
FD
FA
00
FB
FB
00
FD
FB
ED
05
0C
08
FD
FD
F1
17
E9
ED
FB
02
12
F1
EE
0A
EE
08
0E
DE
06
08
03
0A
E5
F5
F7
F0
08
F5
FF
F3
DD
F5
E6
01
14
0B
FD
03
DA
1A
D3
FF
0B
F8
FF
0A
F9
F3
F4
F8
DA
CA
F7
EB
F3
05
F2
9E
DC
FD
FD
FF
01
03
F9
01
00
FA
FE
F2
FC
FA
FF
FE
FE
FE
07
F8
FE
04
FA
05
FF
F7
F8
00
07
FB
09
01
FC
FE
FD
FC
F9
FC
FF
FA
00
FE
FB
FF
02
FD
FB
FE
F7
F7
FE
F9
FA
03
FE
FC
FE
05
FE
03
F9
FC
FB
F9
02
FB
04
01
FE
00
03
03
04
00
00
FC
FE
04
FC
02
FE
FB
FF
FF
FD
FF
03
FF
FC
FE
FC
FD
FD
FD
04
00
FB
FE
F8
0A
FF
03
F6
02
F2
01
EF
0A
F5
F7
14
07
F6
FE
0A
FC
F2
F7
FA
00
F3
02
0C
FC
08
FA
08
FD
01
F6
FE
03
02
FC
02
FF
02
FB
00
FD
FC
FC
FC
FF
01
02
FE
FF
FB
FB
FD
FF
FC
00
FF
02
01
04
00
00
FD
01
06
09
ED
FE
10
F1
01
EE
F4
15
EF
00
01
00
E4
F2
E5
0A
F5
02
0A
FE
05
08
E4
08
E2
FA
F6
08
08
FB

