0C
77
02
01
7E
03
7F
79
00
75
01
00
77
02
02
05
78
05
7D
7D
10
6D
7B
0F
7C
75
0E
5C
7B
07
05
0E
0C
07
00
09
00
00
00
7F
00
7A
00
00
09
00
00
00
06
7F
7C
7D
7D
01
7A
7C
43
0B
7C
01
7F
7E
7C
7C
0A
7D
19
75
77
09
52
7C
69
7A
4D
14
78
7F
68
23
77
7D
26
0E
7F
08
40
03
7A
7B
5C
7E
0E
70
6C
70

