01
F3
01
F7
FD
FE
FF
01
04
01
06
02
09
01
01
00
02
02
00
04
F0
FF
00
F7
FA
FB
FC
01
12
02
00
F7
FF
F8
FF
08
FF
01
02
FF
01
FE
02
F7
FD
FF
FE
FD
FC
02
FE
FB
02
F1
FD
00
F3
FB
02
01
04
00
FE
F4
FD
FC
FF
09
0A
FE
FE
FA
0C
FE
08
F2
F9
01
FE
FF
04
00
09
FA
01
EB
03
FD
EF
F1
FE
01
06
02
00
F0
FF
05
FD
25
F1
02
04
05
02
03
03
00
FC
FF
02
FD
04
00
07
FA
F2
FF
05
FD
04
07
00
FE
F7
01
FF
0D
FF
FE
00
0D
F8
00
00
FD
FF
02
03
01
FE
01
00
FE
02
FF
08
01
F9
FF
01
FB
FF
00
01
FE
FC
02
02
01
01
05
01
0F
F2
02
00
F4
03
01
F2
05
05
04
03
02
F9
00
FA
07
ED
0A
01
F1
FE
07
02
FF
0A
01
FA
FC
FE
F0
FD
17
04
01
00
06
F5
00
0A
FA
FC
FE
FD
01
0B
00
F8
FB
FE
E9
01
06
EF
FF
FF
06
F6
03
03
FC
02
FD
01
08
00
01
03
04
0E
03
FC
FD
05
FF
FE
01
F7
00
FC
FD
05
FD
01
FC
FE
09
FD
00
FE
FF
FD
F5
03
03
FE
07
00
01
FE
FB
01
FF
08
01
06
01
03
FF
04
01
FE
01
F6
FC
03
F7
03
08
03
FA
00
02
FE
06
00
FE
FE
FD
FF
02
FD
FE
FF
02
01
FB
FD
FF
01
00
03
01
03
FB
00
FA
00
FF
FE
FA
01
FF
01
FD
FF
FF
FE
FF
FF
F5
F6
FD
FF
05
01
FE
05
07
06
06
FF
02
F9
00
E9
03
F8
05
05
03
F6
00
03
03
0C
02
FD
F5
01
FE
02
01
01
02
02
F4
FD
01
00
F9
FE
02
01
FF
FB
FD
02
FD
FB
FE
03
FD
FC
FE
FF
FF
FE
03
01
FB
00
FE
00
04
FC
FF
04
02
09
00
FF
F6
F6
FC
00
FF
F8
02
FC
F1
0A
F9
01
F7
00
FC
FE
FF
FC
FE
00
FB
02
02
01
10
F7
02
02
FC
04
02
FD
02
F8
03
FE
FF
F5
FE
FA
FA
F3
FF
03
FA
FF
01
03
02
04
FE
FD
00
00
FF
FD
FD
01
01
FE
01
02
FF
FD
FE
00
FE
FF
FC
00
02
FE
FC
02
01
FE
FD
02
02
01
FC
FE
FD
02
FF
FF
EE
FE
E9
FC
FF
03
09
02
02
00
03
0D
01
03
01
FB
01
E9
01
05
F6
00
03
F6
F4
04
04
0C
01
03
FD
02
EF
02
F7
02
02
02
02
06
FD
07
01
04
01
FF
03
FE
02
FF
FF
02
FB
00
F5
F8
FD
FE
08
12
00
00
F6
FE
FC
FE
FE
FB
00
FB
F9
FF
00
01
F9
FC
FD
FD
02
01
00
FD
FC
00
FF
00
FE
FE
FB
01
FC
FF
FE
FF
FC
02
FD
00
FD
00
02
FE
FD
00
FE
FC
FC
FD
FF
02
FD
FE
FD
FF
FF
00
FD
00
01
FC
FE
01
FC
00
FD
01
FF
FF
00
00
01
01
FF
FD
FC
FD
FE
02
02
00
FE
FF
FE
00
FD
02
FD
FE
FB
FF
FF
00
FF
FF
00
FE
FF
01
00
FE
00
01
FF
FF
02
01
00
FF
00
FD
02
FE
FD
FD
00
00
01
FE
01
02
01
FD
FC
FF
FF
00
FF
FE
01
01
01
FF
00
FE
03
FD
00
FD
00
04
02
02
F9
FA
01
FF
02
FF
01
02
00
FC
FB
FE
00
FC
FF
FF
02
00
00
FD
FD
00
06
FD
05
FD
00
FF
03
FD
FF
00
FB
01
01
03
01
0C
FF
0A
FE
F8
F8
02
FF
07
07
05
00
FB
02
00
06
00
FE
01
03
01
02
FE
FC
F7
01
FE
02
C3
FA
FE
01
02
FE
04
EE
09
FB
FB
0E
FA
F5
02
02
00
01
05
00
02
F9
FF
01
FB
FF
00
01
FB
FE
02
FE
FE
FE
FD
02
FE
01
01
01
FD
00
FE
FC
FE
FE
01
01
FB
02
00
FD
FF
FE
02
01
FE
00
01
FD
01
01
02
FE
FF
00
00
01
01
FD
FF
FD
00
00
FF
FD
FD
FD
FE
FD
01
02
01
FC
FD
0B
02
1B
EB
FF
FC
07
08
01
FA
07
FD
01
02
FF
05
02
08
09
FA
0D
00
0E
0C
03
02
02
F9
FD
02
08
03
FE
01
F9
F7
01
02
FE
FE
00
F8
FC
04
03
03
03
08
02
01
05
F3
FF
01
EF
FF
FF
FF
05
0F
02
00
F9
00
00
02
F8
02
02
FF
FD
05
FE
01
06
F9
00
00
02
05
01
F8
FC
02
02
FD
07
08
FF
FE
FE
04
00
FF
00
01
FD
00
0A
00
02
FD
03
0A
00
09
FB
F8
00
01
02
03
02
F8
EA
03
F6
01
F7
F9
FD
00
01
0C
01
02
FB
02
FD
FE
F9
01
FD
FD
FE
FB
01
01
FC
FF
FE
FE
03
FB
03
FD
00
FD
FD
01
02
FE
FD
03
02
01
00
02
00
FE
05
FE
00
ED
FF
0A
00
0A
FE
FD
04
00
06
01
FF
F9
00
FB
02
FA
09
00
F1
08
01
01
FC
FA
01
FF
FB
04
FF
02
12
FC
00
FE
F8
FF
01
F9
F9
FA
02
FE
01
17
01
05
07
F8
03
02
F8
06
03
03
FE
FB
01
03
06
02
F4
00
06
FF
FE
FF
01
11
FD
06
F7
FE
02
01
FC
EC
02
F5
F5
08
E0
FE
F9
EC
F8
00
02
0D
FF
FD
EA
01
04
02
ED
EA
00
08
DC
15
FF
F7
FE
0B
00
FF
02
01
FF
FF
03
F4
05
FF
C9
FF
04
00
03
FC
03
01
00
03
FC
03
01
FD
FE
05
FB
11
FF
FF
05
96
03
01
FE
07
02
FF
FF
03
06
FF
01
04
FA
FE
00
F4
02
05
FD
FF
F2
01
18
00
02
00
01
FF
FE
06
F2
FD
00
FE
00
FF
02
02
EF
00
DC
02
FF
E4
FA
01
02
FE
FE
FF
EA
00
FF
02
FF
FD
03
00
04
FC
FD
FF
01
FA
01
FF
FF
FD
03
01
01
FC
03
02
02
05
02
FE
FE
FB
FE
FF
01
FF
13
00
04
EB
01
03
08
0B
FE
06
0E
01
FF
00
00
DF
02
06
0C
F2
10
06
05
0D
13
02
07
F2
02
03
0B
FF
09
FE
0C
E6
02
03
01
07
03
EA
05
F9
FF
00
FD
FE
00
09
05
F2
06
04
FB
09
0A
05
FF
F6
FD
04
09
03
FF
FE
1E
F8
FF
00
02
FE
FD
00
0A
02
02
02
03
00
03
FE
0B
F9
0E
03
FF
08
01
01
02
03
FE
01
05
02
01
02
FF
00
FE
FD
FD
01
02
FE
FD
00
FE
01
01
FE
FF
FE
01
FF
FE
00
00
FF
FC
00
FF
FE
02
FF
FF
00
04
FE
E5
ED
01
03
03
FC
FF
02
11
03
FC
00
01
EB
01
F5
12
F2
1A
FD
08
1B
0B
FE
02
EF
01
03
19
00
01
FE
FB
FA
FE
05
FB
01
FE
F9
FA
FD
FF
FE
01
04
02
00
00
F3
F8
01
01
FD
02
FF
01
00
02
00
FB
FE
01
02
FF
F8
02
02
FC
FE
03
FC
F9
FD
FE
FD
FD
FF
FF
FA
00
04
FC
FD
F8
00
FD
FD
FD
00
02
01
02
00
05
FE
E1
FD
01
00
FF
FB
02
FC
01
FD
FF
FD
02
F3
FF
00
EC
FD
F9
FD
04
F6
FB
05
FE
FE
00
01
00
00
FD
02
FF
FB
03
FE
FC
03
FF
FF
FF
FE
FF
00
00
F4
FF
00
FE
01
00
FE
FD
01
FE
FF
FD
00
00
FE
FF
03
03
02
E1
FD
01
02
F8
F6
00
F7
02
FF
02
02
FE
F2
02
FE
FA
FC
F9
01
07
F1
02
01
00
00
00
00
FB
01
FC
00
00
FF
FD
01
FB
00
02
03
FB
01
FE
FE
FE
00
01
FF
FD
FC
FD
00
FB
00
FC
01
FE
02
02
FE
FE
03
F8
FF
F2
F8
01
00
FD
04
FE
04
FE
04
FE
01
00
05
FD
03
03
F0
01
01
CC
05
FE
FF
06
06
FE
FF
01
00
FF
02
01
FE
02
FE
01
FE
01
FE
01
FC
FD
FF
FE
FE
02
01
00
00
FE
FF
FF
FE
00
00
FF
00
FD
02
FE
03
02
00
09
01
02
FD
ED
F8
FF
F4
D3
F1
00
01
04
21
FE
01
F6
05
EC
03
FA
F7
05
FF
01
FD
03
06
00
00
08
00
04
EA
02
0A
04
0C
02
F4
FF
F5
04
FE
01
02
03
F6
06
F0
09
FE
00
08
02
00
FD
01
01
01
03
FE
02
01
F7
00
FD
FC
02
FD
FD
05
01
F2
00
02
02
06
00
FC
FF
FD
03
03
FF
01
07
FE
FF
01
FE
FC
06
03
FB
00
04
FC
FF
00
FE
FD
00
0C
FC
04
FD
FF
00
0A
01
09
FD
FB
FD
01
04
FD
F6
01
00
03
FE
05
FD
FF
00
FF
E8
04
00
00
FB
FF
00
07
01
00
03
00
FF
F9
FE
EE
03
04
0B
FE
EF
04
FF
02
FC
FF
03
FF
FE
FF
01
01
FE
FC
01
FE
FD
02
01
01
FD
FC
02
03
FE
FF
01
FE
00
00
FF
00
FB
01
FD
FF
FD
FD
FE
02
FF
03
05
01
08
FB
01
02
0F
01
FF
03
07
09
FE
02
00
F7
01
F8
06
FC
0E
05
01
0F
07
FF
FF
F4
FE
FE
0B
00
FA
FF
02
FE
FF
FF
FC
FC
FF
01
F8
00
02
FE
FD
00
03
02
FC
FD
FB
FC
FC
FA
FA
00
00
00
FE
00
FC
02
FA
FE
0A
03
00
02
03
05
03
F7
FC
F7
FF
00
03
11
02
F4
FA
0B
EB
0A
05
ED
EE
00
00
FB
02
03
04
FE
FB
02
02
FE
FE
01
FF
01
FE
FE
FE
FF
01
FF
00
FC
00
FD
FB
FF
FC
03
FC
FC
FE
FE
01
FD
00
00
F9
01
FF
01
02
02
01
02
00
FF
FF
00
01
FE
FF
FE
01
00
FD
01
FF
00
00
02
FB
FE
FD
00
03
FF
00
FF
FE
01
01
03
05
FE
02
06
02
0D
01
FE
05
E9
00
00
00
F5
03
FF
04
F4
06
FF
FE
05
02
00
00
F9
FD
05
03
FF
05
FD
02
0F
00
FB
FE
02
00
0A
FE
B3
FE
00
03
09
00
FF
02
01
03
01
00
FE
0A
FD
06
FB
FE
05
02
01
F1
02
0C
04
FE
F8
FF
FF
FE
01
01
F9
FF
FF
FD
09
00
0F
F7
FE
F7
FF
FD
FD
FB
FE
FB
FF
FF
01
02
FE
02
02
FF
02
02
FD
FD
00
02
02
FF
01
FE
00
01
FD
02
01
00
FD
FD
FD
FD
FF
FF
02
01
FF
01
03
01
FF
FE
00
08
FE
FE
FE
F9
FD
03
FE
FE
F9
FD
FE
FB
02
FF
02
FF
03
FA
FF
FD
FC
FE
FF
01
FE
FE
FF
FE
02
00
FF
29
FA
02
05
F9
01
00
F2
FC
F2
03
03
03
1A
02
01
F3
04
F3
01
FB
FD
FD
FD
01
FA
03
01
00
02
00
00
00
FF
02
02
FE
FE
FF
01
FB
FE
FD
02
02
FD
00
03
00
FD
FE
FD
FD
01
FE
FF
FC
01
FE
00
00
01
0A
FE
14
DD
01
FF
03
11
FF
01
0B
FE
00
FE
FE
F5
01
0A
09
F2
0E
05
07
08
05
02
03
F7
FE
03
0B
00
EC
02
F3
05
03
00
FC
05
01
04
EA
07
FD
02
06
0A
01
F0
03
E5
F5
FF
06
FB
EF
00
FC
08
01
03
F5
FE
FB
02
F0
05
FE
FB
F3
01
01
FE
EB
F6
04
01
FE
01
01
FE
E7
05
E0
04
F3
FA
FE
02
FD
03
FE
FD
00
02
F4
FD
F8
E1
00
03
EF
09
02
00
07
FB
00
FD
00
F1
01
02
08
E8
06
03
E3
FE
F4
03
01
EF
FE
03
00
03
F8
FE
FD
F7
FE
00
F0
F7
FE
FD
0F
04
00
FD
00
FF
00
00
0A
FA
11
FE
FC
0E
FE
03
01
FE
01
01
04
00
FA
FF
EE
F8
01
02
FE
04
03
FC
0F
02
FE
00
01
04
01
F8
11
FB
13
04
FF
13
F6
FD
05
05
02
FD
08
01
FB
FF
00
04
FD
08
FE
F3
02
03
F6
03
03
FF
00
0B
FE
01
0B
EB
03
FD
FF
00
F8
FD
FE
00
03
FF
F0
00
03
FF
E4
00
01
03
FF
03
00
FE
04
00
00
03
FF
F9
FF
FB
0C
FB
FF
02
FE
06
08
01
FA
02
00
02
06
FE
FF
01
00
FD
02
FC
FF
FE
01
FE
01
00
00
FF
FD
00
02
FE
00
FC
FA
00
FD
FD
FE
01
FE
FD
FF
FE
01
00
FA
02
34
FE
FE
03
05
0B
02
02
04
0B
02
00
00
FB
00
00
00
00
F6
FF
FA
FF
FF
FF
06
10
FF
FD
F7
00
F8
00
FD
01
FE
00
F9
FD
03
FE
FB
F7
FF
01
FC
04
FD
FD
F9
FE
F7
00
FA
F5
F9
FF
04
01
01
FF
FC
02
FA
02
0F
10
02
F6
EA
01
FF
E9
E7
02
FD
01
FE
11
02
FE
EC
0A
BA
00
EE
C1
F9
01
FB
08
01
03
EC
01
FD
FE
1B
F6
02
FD
0B
FE
FF
01
0E
07
05
FE
02
01
02
0A
0B
F8
10
07
FF
0B
FD
03
02
0E
04
FD
03
02
FE
FE
FF
01
02
FE
FC
FF
FF
FD
FA
FF
FF
FF
FE
FE
FD
FF
00
02
FE
00
FB
FD
FE
FE
00
01
FD
00
FD
00
F9
FD
FC
00
01
FE
F8
0A
FD
FE
FE
FE
FD
FD
FD
FC
FE
FF
01
01
00
FE
FC
FD
07
02
FE
02
FD
FE
04
FE
FE
01
FF
FF
00
02
02
02
01
00
FD
01
FF
FF
00
FD
FF
FE
01
FB
FE
02
FF
FE
FF
03
FF
FF
00
FD
02
FF
13
01
FA
F0
02
FE
04
02
00
06
10
00
FF
02
FF
DF
01
06
11
F2
16
05
08
12
0D
07
07
EF
FF
02
16
01
00
FE
D6
E3
00
06
F9
F6
03
00
02
04
06
FE
FC
F5
02
FE
02
F2
05
03
02
04
05
01
FA
F7
02
FC
FE
02
FF
02
16
03
FE
FB
EC
0F
02
EE
06
FD
08
02
03
E6
FE
04
F7
05
03
FC
FC
07
FC
00
FE
FF
02
FF
FC
00
05
FF
FC
01
02
FD
01
F9
FE
0B
01
DA
02
FF
01
01
01
01
FE
FF
03
FD
06
FC
02
01
03
01
01
02
FB
FE
F1
FE
08
FF
FF
FC
FF
01
FD
08
FD
F8
02
00
01
FB
FE
FD
F6
FA
F3
00
FC
F2
F5
FD
04
03
01
04
F1
FF
01
00
FD
FD
01
FD
00
01
01
F3
FC
01
FA
FD
00
02
FF
04
EE
FE
F3
FE
08
FB
FB
03
FD
01
02
FF
03
02
F9
FF
03
F9
01
0B
00
17
FF
FD
FF
FF
00
02
01
FA
FE
02
01
F9
FE
02
FF
FD
02
FD
FD
00
02
FD
01
03
FD
FF
32
D5
01
02
F0
11
03
EE
0D
FB
00
FF
03
E6
03
01
02
03
01
FF
F3
04
FC
FF
04
07
00
02
05
00
01
02
04
FD
03
06
F8
09
FE
05
F8
F5
FB
FE
02
14
01
FE
02
FC
01
02
F5
00
FE
03
FF
F9
02
02
06
01
FC
03
32
12
01
03
06
F5
02
07
EA
FB
FA
03
07
20
FE
11
04
F6
F5
FB
0A
F3
03
02
FE
F6
01
04
EB
02
03
FF
06
00
FE
FF
0A
FE
FD
F6
F9
00
FE
FE
FF
01
01
FE
F3
FE
F7
FE
09
F5
FF
03
01
01
FF
05
FF
FE
FD
01
F1
FB
01
FB
FC
07
FF
FB
03
FA
FF
01
FF
FB
02
F8
E8
05
F6
FF
01
FB
FD
03
FE
FF
00
00
F9
01
FB
00
03
EF
FD
FF
00
FD
FE
05
FC
EF
03
FE
FF
00
FD
FF
FF
EE
FD
03
FE
FF
05
00
06
04
01
06
FD
03
FE
FF
13
03
03
FF
FD
FF
01
FB
F2
FC
FE
03
03
0F
FD
FD
F3
05
DB
FE
FF
E0
F5
FF
01
13
FF
04
ED
00
FE
00
00
FE
03
FE
FB
FF
00
02
FE
01
FD
02
FF
01
02
FD
FF
00
01
FE
FE
FD
FF
FF
01
FF
00
FF
FC
00
F9
FE
FF
FD
FF
01
FF
FA
FE
00
FB
FC
FF
FE
FF
FE
02
FD
FB
FE
FA
00
F9
FC
FA
01
FF
FE
FE
FE
FD
00
0C
02
FA
E6
02
04
00
0E
01
EA
07
F8
04
FE
FD
FC
01
FB
0B
F4
08
00
FC
07
0C
04
FE
F7
01
00
08
FE
FF
01
2A
FA
FF
FD
FE
04
02
03
FE
FF
FE
FE
00
F9
FF
06
F5
02
F4
02
FC
F7
F8
FF
FF
ED
03
FE
FB
FF
04
FD
00
FB
01
03
FE
FF
FE
01
FF
BD
01
FE
03
03
02
FB
FF
11
02
01
02
FE
04
00
01
F3
02
03
FE
03
FC
03
02
02
00
01
FC
FE
FD
FD
FD
FE
FE
FF
00
FF
FD
02
FE
FD
FC
FF
03
FD
FE
00
FE
FE
FE
01
00
FF
FE
FD
01
FF
FF
FF
FC
01
FF
FD
FF
FE
03
FE
FE
FF
FD
FD
FF
FE
FE
01
00
FD
FD
FE
FC
FE
03
01
FF
02
01
00
03
FF
02
FF
FE
FF
FE
01
FE
01
FF
FE
01
FE
FF
01
00
FE
01
FF
02
00
FF
FE
FF
02
FF
FE
FD
02
FE
FE
0F
01
03
FA
03
07
03
FE
F6
F6
FC
FD
FD
FD
FF
08
F0
06
F1
FE
FA
FA
02
03
02
FF
00
FF
FC
02
EC
01
FF
FD
01
00
00
F9
01
0A
02
0A
FE
02
00
05
FE
FD
01
FE
FA
06
F7
F5
F7
02
07
0E
01
FF
F8
02
02
00
F9
FE
02
03
E2
10
02
0D
F8
02
FF
00
FE
05
01
0F
00
00
00
F7
EF
FF
06
FE
07
F6
02
FE
08
01
FF
00
FD
01
01
FD
02
FE
02
FF
FE
FC
FF
FE
01
FF
00
FF
00
FC
01
FD
FF
FD
FD
01
FD
00
FE
FE
FD
FE
FE
FE
EF
F2
00
08
07
F9
00
03
06
02
02
03
02
FA
FE
E4
07
FB
07
FF
07
03
06
FE
FC
F6
01
FA
FE
00
FE
FF
06
07
FD
FF
01
04
FE
EE
F6
02
03
FF
01
08
FF
00
F8
01
E9
04
DF
F3
06
01
02
FE
01
00
FD
FF
FB
FF
FB
F1
02
FE
FC
02
FD
01
FC
06
01
03
01
03
01
FF
01
F7
FB
02
DB
FD
FF
00
02
06
01
01
FC
FD
F9
02
FA
F6
FE
03
F0
ED
02
02
02
06
02
02
00
01
FE
FF
06
E6
04
01
B5
FF
FE
01
01
0A
03
FC
FB
02
FA
FE
08
DB
01
FC
FA
12
00
EB
04
01
FC
FE
FF
E7
01
F0
F5
0D
F3
00
FF
FF
FC
FD
04
F9
FD
FC
11
01
F4
FF
FA
06
02
FC
02
F8
FF
F1
FF
0B
03
00
FD
08
00
FD
00
00
02
01
D1
02
FC
01
02
16
00
FF
03
02
FC
01
F8
02
00
02
FE
F2
FF
02
02
03
FD
00
01
FF
01
FB
04
EE
08
00
03
00
FA
FC
01
13
01
FC
F6
FE
FB
FF
F6
FC
01
03
F8
FC
03
06
02
11
FD
FF
FF
FD
01
01
05
F9
04
FE
C0
02
06
00
05
06
02
FC
06
02
00
00
FF
FF
01
FD
FD
FE
02
FE
00
FD
FF
01
FE
02
FF
02
FD
FF
FD
02
00
FE
FF
02
01
FE
FE
01
FB
01
FB
02
FC
FF
FE
01
FD
00
03
FB
FB
FE
01
FF
FF
01
FE
01
00
FF
FE
02
FF
FE
FE
FE
FE
FE
01
FD
FD
02
01
FF
01
0D
FF
06
FF
0B
02
00
06
D6
02
FF
01
00
FF
FD
07
03
02
FF
01
03
01
03
07
FE
FE
04
FF
FF
EE
03
E1
03
FF
FB
FC
00
02
09
FF
09
01
01
04
02
01
F4
FD
02
FB
05
04
F8
FC
04
07
12
01
02
F7
02
01
00
FD
FD
00
02
FF
00
FF
FD
FC
FD
02
FE
01
FD
FE
FF
01
02
03
FF
FE
FE
00
00
FE
FF
FF
02
F9
03
0C
FF
05
F4
FD
01
F8
04
02
F1
03
FD
03
FE
FD
FD
FF
EA
08
EE
08
FF
F5
05
0C
01
01
F1
00
FF
01
FD
01
00
01
01
FE
01
FE
01
01
01
FE
FC
00
FE
FE
02
FD
FF
FC
FE
FD
FF
FE
FB
01
02
FE
00
FE
FE
00
FE
FE
00
FE
01
FD
FE
01
FD
FE
00
FD
00
FE
FE
00
FE
FD
FE
FE
FE
FF
01
FD
FE
01
00
00
00
01
01
FF
00
FB
00
F2
FB
01
0B
F3
0B
FF
03
FE
21
FC
FE
FE
FB
01
02
07
FA
01
00
B7
FF
00
FE
06
06
00
FF
02
FF
00
01
FE
01
01
FD
02
00
01
00
FF
FE
00
FF
02
02
01
FE
01
01
FE
FF
FE
FE
02
FD
01
FD
FF
01
01
FF
FD
FD
15
F8
01
02
08
00
FE
03
01
00
FD
01
00
F8
02
04
07
F3
02
00
06
FD
00
01
06
EF
00
01
03
FD
04
FE
05
FA
02
07
03
F9
FE
02
01
FF
FE
FD
FC
F7
01
F9
FC
FA
05
05
FC
07
03
FD
FB
03
FF
FB
09
02
FD
FF
02
02
02
01
00
01
FE
FE
FF
00
FF
01
00
02
FF
FE
FF
00
FF
01
FF
02
FF
FF
FE
FE
00
FD
01
FF
00
00
01
FC
FE
FE
00
02
00
FF
03
FE
03
01
FE
FD
02
FE
FD
01
01
FD
FD
FC
00
FD
FF
FF
02
02
FE
FE
FD
FD
01
FE
01
FD
FE
FD
FF
FD
02
FF
01
03
01
02
FE
FE
FF
FC
FE
FD
FC
FF
FF
02
01
02
FE
FD
01
02
FD
FF
F8
F7
FF
01
FC
F6
01
06
FC
FF
00
FD
FE
F3
01
01
03
F4
FC
FF
02
FB
00
02
01
03
00
02
FD
01
F9
00
01
FB
00
FC
02
FD
FD
FA
F8
F8
FE
00
00
FB
02
01
F9
FF
F8
01
00
FB
F7
01
FC
00
FF
02
FF
FF
F6
FE
DF
00
FE
FF
06
F9
FE
0B
FD
0B
FF
FE
FF
FE
01
F2
01
FD
FE
FE
04
FF
FB
00
05
14
FF
03
FE
00
FD
FE
1C
05
01
FC
01
05
FE
FA
F5
03
01
01
FF
02
02
01
F5
04
EA
02
FA
EA
F9
03
FE
EB
02
01
01
02
F4
00
16
09
FF
F9
FC
F2
FF
12
FF
E1
FF
00
FF
F6
01
12
FD
08
FE
04
0A
FE
FB
00
03
02
01
FF
02
00
FA
03
02
05
02
02
01
0E
01
00
FB
04
02
FE
FF
F9
FE
07
FE
06
F6
04
F7
EF
FC
02
05
16
03
02
F2
FF
05
02
01
D8
FF
FC
08
F1
FE
F9
03
06
06
FF
01
09
01
F0
05
FB
04
00
05
03
07
00
F7
F9
01
FC
02
FE
04
01
F3
FE
FF
FE
00
01
FF
EF
01
01
F9
01
02
02
FE
04
EE
FC
F6
FE
0D
F9
FF
04
FE
02
00
00
00
02
04
FF
02
FD
FE
FD
FD
02
00
0A
02
BE
01
FD
00
05
02
F7
FA
FD
02
FF
05
04
FF
02
FE
F7
FD
FC
02
FE
0C
02
14
EA
00
06
F8
06
FD
F0
05
F8
03
FF
FF
01
02
F3
0A
F0
08
FE
F3
0C
0A
03
FF
F3
02
FF
07
FF
FD
FD
1C
06
FD
03
02
FE
01
01
FB
EF
00
FD
FD
09
FD
07
FE
F7
FD
05
00
FD
06
01
FB
F2
01
FE
00
FE
FF
FE
01
FB
FF
02
FF
FE
FF
FD
F9
F9
FD
01
FD
00
FF
00
FE
FF
FD
FE
FE
FD
00
FF
01
02
FF
FF
01
03
07
FF
05
F4
FF
03
05
07
FE
F9
04
F2
FD
FF
00
05
02
F8
03
F6
06
00
01
06
0C
02
04
F4
02
00
0A
01
F9
00
FA
F4
FE
02
00
FE
FE
FA
FF
06
FF
FE
00
FF
03
00
00
F4
02
04
F4
00
FC
FE
03
05
FF
FD
F6
FE
02
00
F1
07
03
00
F6
03
00
FA
EE
F9
06
01
FC
F8
03
04
EB
07
EA
02
FF
FF
FF
04
00
FE
FE
02
00
FF
03
02
00
E8
00
00
F8
07
FF
00
03
00
02
FE
02
09
FF
F9
09
EE
0B
03
F8
02
F9
FF
FF
F5
FF
03
FD
01
F8
00
F8
F4
02
01
EC
01
03
E7
06
0A
02
FD
01
01
00
FF
06
F0
07
00
B6
00
FE
03
06
0B
02
FE
F8
01
FB
FF
02
02
FE
FD
FF
00
00
02
00
00
00
01
02
FF
FE
FE
FC
01
FD
FE
02
FC
FC
FE
FD
FD
FE
01
FC
00
FD
03
17
02
00
01
FD
01
02
F2
F3
F9
FE
03
02
16
02
05
EE
0B
CA
04
05
D2
FC
00
FF
08
FF
01
F0
FF
FD
FF
04
01
03
FD
F9
FC
FE
FF
F8
FB
01
FF
FE
FE
03
00
FB
FD
FB
01
FF
FD
FF
02
FD
00
FE
03
FF
00
01
FF
01
FE
FF
00
FC
FF
02
FE
FF
FC
FF
FD
FE
FC
FE
03
FB
00
FD
FF
FE
01
FC
FF
05
FD
01
FC
00
FE
FB
FE
FE
FF
FD
02
02
02
FE
FC
00
FC
00
03
03
FC
02
FE
FC
00
FB
FE
FF
FE
FB
FE
01
02
02
FF
FB
02
06
02
EC
01
00
01
01
02
01
F4
05
FF
FD
02
00
EA
FE
07
F0
0B
F7
FF
08
FD
04
01
FD
FE
02
01
FA
02
FD
FF
01
FF
01
FD
00
01
00
01
01
FD
FD
02
FF
FD
FE
FF
02
01
FE
02
FF
FD
FD
02
00
FE
FD
FD
FC
03
FD
01
03
FF
02
00
00
FC
01
FF
FC
FE
FD
FE
FF
FC
FE
01
00
02
FF
FD
FD
02
FE
00
FD
FC
00
FE
FE
02
02
FD
CF
E8
02
0B
01
F6
00
FA
07
05
07
FD
FE
EE
00
F8
02
03
04
06
06
FF
06
FF
FD
F8
FE
FD
FE
01
02
FE
09
03
00
07
01
06
FD
09
02
DE
02
00
03
05
FE
FD
01
FC
FC
FE
03
00
04
01
FF
FA
00
0A
FE
00
08
FD
04
E9
02
02
ED
06
FD
00
03
FB
04
FE
02
09
00
07
0C
F8
0E
02
EE
0B
06
00
02
F9
02
04
04
02
02
FF
11
F1
01
03
F2
08
02
00
02
F9
06
FE
FE
11
FE
02
02
FD
05
03
F6
FF
FB
04
04
02
00
02
FE
01
FD
01
02
E3
FD
05
F8
07
02
04
04
01
07
01
FE
04
FE
F3
05
F1
07
03
FC
03
FF
00
FD
FC
02
FE
F8
01
FF
00
FE
FE
FD
02
FE
00
FD
FF
00
FE
FD
02
FE
FE
FD
FE
02
FF
00
FE
FF
01
01
02
02
02
FF
01
FD
FF
FA
FF
10
FE
FE
F9
01
07
02
FF
FA
FE
FD
01
01
02
FD
0C
FB
FA
F0
04
FA
F7
FC
FD
FE
FF
02
01
FF
01
FE
00
0B
03
FF
FD
FF
FE
FF
00
F8
EB
01
FF
FE
03
02
03
FE
F8
FC
FF
FB
FB
FF
01
04
FB
FF
04
FF
00
05
01
F3
FD
02
FF
00
01
FE
02
03
FF
02
FF
FE
F0
FE
EF
00
08
FF
04
02
FD
09
03
FA
02
00
FA
01
FF
E2
FF
FD
01
01
00
EE
F8
02
F9
F4
04
02
FE
01
05
00
FE
04
EC
FF
00
F8
F8
F3
00
FC
02
FE
FE
E0
FE
E2
02
01
07
FE
FC
01
04
00
07
F8
0A
02
00
FF
F4
FD
FF
F6
09
E6
FC
FF
EC
EF
03
03
12
FE
01
E0
03
03
02
02
00
02
FD
FD
FF
01
03
01
AD
F7
00
00
FB
FE
01
FD
FE
02
FB
10
00
FA
FF
03
F8
01
05
01
00
03
FE
FD
FE
00
FB
03
08
02
08
03
DF
03
FE
03
02
02
F5
03
F6
03
06
09
04
FD
FD
03
01
02
FF
05
FE
F7
02
14
FD
FE
04
FB
FC
01
0A
FC
FE
02
02
03
FB
01
07
F8
00
F7
03
FB
F9
FB
FE
03
0D
FE
FE
F9
FF
02
01
0F
F7
02
06
F2
F0
FF
FF
FC
05
FF
01
FF
05
00
FD
04
FA
FF
FE
F9
F2
FE
FF
FF
11
03
02
F6
FE
D9
01
F4
F0
01
FA
E6
FC
FE
F2
06
06
03
00
04
06
01
FE
01
FC
01
03
05
EC
DE
FC
FF
0D
00
FC
D6
02
DE
03
F5
00
01
FE
0D
EF
02
05
00
F3
05
02
02
EB
01
E9
F9
04
02
01
06
F1
EE
FF
FE
F8
02
04
F7
FE
04
00
DB
FC
01
00
FA
F9
01
F9
03
01
F7
02
FC
F2
00
FF
F0
FB
F4
00
07
F5
00
02
FD
FF
FF
FD
02
00
0C
00
19
03
FF
05
FC
12
02
04
F8
FA
FC
02
FC
13
FF
06
06
F0
09
FD
00
01
F6
FC
03
F8
FE
FF
FB
FE
03
01
E0
FD
01
00
FB
F4
01
F7
05
01
FA
00
02
F0
FE
FF
E9
FF
F3
FE
08
F6
FB
03
FF
00
FE
FD
FF
FD
03
FD
01
FF
00
06
F8
00
02
00
F2
F4
02
01
00
11
02
01
03
FB
FD
02
F5
FE
FB
00
FE
F6
01
FF
FD
FF
FB
00
01
FC
02
01
FF
04
02
FF
FD
00
FE
FE
02
FC
FE
01
FF
FF
FC
00
FE
FC
FD
00
01
FE
FD
FF
FA
01
FF
02
FD
E7
00
08
04
FC
FF
FD
04
02
0C
00
02
FC
00
F3
01
EE
06
03
03
06
FE
00
FC
FF
01
FB
FC
02
00
FE
00
FF
01
02
FD
01
FE
02
FD
FD
00
02
01
01
00
01
00
FE
FE
02
00
00
FD
01
FE
FF
00
FF
FE
FF
03
02
11
FE
02
FA
E9
09
02
F9
FF
F7
04
FF
03
F6
01
09
F0
FD
03
02
FA
05
F7
FE
04
FF
FF
FB
F7
00
00
FF
D7
00
01
06
F9
F2
01
F8
07
FD
FD
01
00
EF
FF
FF
FE
FE
F7
FD
04
F5
FE
02
FE
FE
FE
FC
05
02
04
FE
D5
DF
02
01
08
ED
02
01
05
03
07
FE
01
FF
00
E9
04
FD
06
05
06
01
06
01
F8
FD
01
F8
05
02
FE
01
00
02
00
FF
FD
00
02
02
02
FD
00
FE
FE
FE
02
00
00
FE
FE
FD
FF
FD
00
FE
FF
FF
FF
02
FC
02
FD
02
FF
FF
02
FF
01
01
02
03
FF
FF
01
FE
02
FF
01
FF
01
00
00
02
01
01
FF
FF
FF
01
FF
FD
FF
02
EA
00
EF
05
01
FC
10
F1
00
13
FB
E5
03
03
FF
F8
00
EF
0A
08
03
06
05
05
FD
00
02
F3
FF
01
08
00
02
01
05
F3
FD
FE
02
07
FE
00
02
05
05
00
FF
08
FF
F5
02
F6
01
01
00
F3
F5
02
F9
02
02
FB
F7
FD
F9
FF
F4
F3
FE
FE
FD
FE
00
05
FF
0D
01
FD
FF
04
01
00
04
F8
04
01
C2
09
08
FD
01
09
FF
FB
08
FF
0C
FF
22
F6
FF
04
0D
09
FF
02
0C
01
01
01
FE
FD
FE
01
0D
F4
15
04
FC
12
12
FD
FD
02
FE
FD
09
FE
F6
01
FA
F0
01
09
EE
00
FF
03
05
07
01
FF
FE
03
FD
FF
0A
F0
06
FF
AD
FD
00
FE
0A
0C
03
FB
00
01
05
01
FD
FB
FF
01
FA
FA
FD
00
06
03
01
FD
00
F1
FF
03
08
F3
06
01
FF
08
00
02
02
01
FE
03
06
FF
FC
02
1A
EE
01
05
07
0C
FF
FD
04
F5
03
FD
00
16
FF
05
09
FB
04
04
FE
00
FD
00
00
F5
02
04
F4
00
00
01
05
01
01
07
FD
0E
FF
FD
03
8A
02
FF
00
FF
02
F8
01
01
03
01
03
03
FA
02
02
FA
FF
03
FF
01
03
FF
1E
F1
02
FF
F5
02
FF
06
05
FF
03
00
FE
13
01
0F
00
FD
06
02
03
08
FC
04
00
F7
00
FF
06
FE
F8
FE
12
09
FF
F9
04
02
01
F6
FA
03
FF
FD
FE
0A
FD
FE
F5
03
F1
06
E4
EE
03
FD
FE
0C
FE
FD
00
03
FD
03
01
FE
FD
FF
FD
00
01
02
FB
FD
FD
02
01
FF
02
02
00
00
FE
FD
FD
00
FD
00
FE
FD
01
FD
FB
02
0B
01
09
DE
FE
05
FC
0A
FF
EB
07
FD
04
01
FC
F8
01
0C
07
EB
09
FE
F4
08
0D
04
FF
F6
00
FC
07
02
FE
00
EF
02
FF
00
0D
F8
01
0E
E6
F2
06
03
04
14
02
F1
EC
0A
F2
FF
00
F9
06
FF
FE
F9
01
03
FD
00
06
FF
E1
F8
02
02
05
F9
01
FE
04
05
0D
FE
02
FD
FE
EF
04
01
09
02
00
02
0A
02
FF
FB
FF
FD
06
FF
00
FF
0D
F6
01
00
F5
FE
03
06
00
FA
03
00
FE
1A
02
FE
05
FB
01
01
F8
04
03
FF
04
FD
02
00
0D
FE
FD
02
01
FD
FE
FF
FF
FD
02
01
01
FD
FF
02
00
FE
01
02
FF
02
FF
01
FF
01
FD
FD
FC
FE
FF
FF
00
FF
FD
FD
01
01
00
02
01
FB
01
FE
FF
FC
FF
02
00
FD
02
FE
FD
00
FD
02
FF
01
FF
00
FF
FF
FF
01
02
FD
F6
FF
00
03
FF
F9
05
EB
FD
0B
04
F4
08
01
04
E9
FF
FD
00
06
04
04
F7
04
02
FC
03
03
FE
FD
FF
FE
EE
00
F7
FE
02
FC
01
FD
01
0C
03
0B
FF
01
FF
00
01
00
00
01
FB
04
F4
F8
F8
02
04
0E
FE
FE
FC
01
07
FD
F5
FB
00
FE
FF
EB
FF
00
02
0A
02
FF
03
01
FE
ED
03
EE
09
03
02
02
05
00
FE
FD
FE
FC
00
00
01
00
FD
FE
02
01
FF
FE
01
FE
FF
FD
FE
FF
FF
FD
00
FE
FE
01
FE
FD
FE
FE
FE
01
01
02
02
FE
FD
02
01
FD
DA
01
FE
FE
FE
F7
00
F8
04
FF
FC
00
FE
EE
FF
FC
ED
00
F9
FD
07
F3
01
02
00
FF
FF
FD
FE
00
02
00
FB
E3
02
04
ED
0D
FF
02
08
FB
03
FF
01
F0
02
09
09
F0
0B
02
FC
02
01
01
00
F6
FE
00
02
02
F8
FF
F1
03
01
08
F5
09
00
04
FF
23
FF
FE
FE
FF
02
FE
0A
F6
00
FF
B7
FF
01
01
05
05
03
FE
FE
02
EF
02
FD
DD
01
FB
FC
10
FF
F2
07
00
04
02
01
01
01
01
F5
0C
F9
FF
FE
03
F8
03
05
F7
00
FE
F6
01
0A
FD
F2
FC
01
02
FC
FB
01
FD
0E
04
FF
01
FD
FD
01
F4
0D
F8
18
02
00
1A
07
01
02
F2
00
02
0F
03
F1
00
F7
F2
FF
08
E9
0C
01
00
04
12
FF
02
01
00
FE
02
0C
FA
04
02
AA
00
FC
00
07
13
02
FC
FA
01
FB
FE
FF
FE
02
00
00
FF
03
02
01
FE
01
00
FF
FF
02
01
00
FE
FE
01
FF
FB
FE
FF
FD
02
00
01
FD
01
02
01
D7
FE
02
02
F8
F3
02
F9
03
06
FF
FE
00
F0
01
00
03
FE
F2
02
06
F8
06
03
F9
00
FD
FD
00
00
01
FF
1A
FE
FD
FC
FB
03
FF
FF
FC
00
FD
FF
FC
FC
FE
02
F8
01
F3
02
F5
F5
FC
FC
00
FB
01
FC
FA
FF
03
00
04
FD
03
03
FA
04
02
0D
FC
CA
01
FF
01
01
FF
0A
FF
02
01
FF
00
04
09
FD
03
F7
01
04
FD
FF
E8
00
E9
F1
03
FD
13
F7
00
00
FF
FD
FE
02
00
F1
01
EC
FD
FD
FB
02
03
F6
FB
FF
05
F7
02
03
02
FE
03
FF
03
F3
01
04
00
05
FF
FA
05
F0
03
FF
01
F6
01
FE
08
F2
0A
01
03
08
03
04
03
FC
00
00
06
FE
FC
02
0F
FE
FD
03
FF
00
02
01
FD
02
01
FE
01
FB
01
FF
FC
FD
F0
00
FA
F4
FD
FF
04
05
00
FF
FA
02
FE
01
29
04
03
03
F9
FF
02
F6
06
FE
05
FE
00
F1
FE
08
FD
02
01
03
F9
03
FC
FE
01
F0
FE
FD
FB
FF
FB
01
F0
06
00
03
FA
FF
FD
02
00
FD
FC
01
00
F8
FF
FD
FA
07
FA
01
03
FC
04
03
FF
03
02
04
03
FF
FA
03
09
FB
00
02
FA
00
FE
F8
03
FF
00
03
00
FA
FE
05
FC
FF
FF
01
FC
01
01
00
FF
FE
00
FF
FC
01
FB
FF
05
FA
FE
03
FD
08
00
07
F7
FD
03
01
00
01
01
00
F2
04
EF
FF
F5
EF
05
02
01
07
02
03
F9
00
FE
FD
FF
00
00
02
01
01
FF
02
FD
FF
FF
03
FF
FD
FF
FD
FD
FF
FF
01
00
00
00
00
02
01
FF
FF
FE
01
FF
00
02
FD
FE
FF
FE
FF
01
FE
FB
FF
FD
FD
02
00
FD
01
FF
01
03
FE
FF
FF
00
01
FC
01
FF
01
FE
00
FD
FD
00
02
FF
00
01
00
02
FF
00
FE
FE
02
01
FC
02
01
01
FD
01
FF
02
FF
00
01
00
FF
01
FF
FB
FF
EE
FF
FD
04
01
01
02
07
02
04
FF
0A
FF
03
00
00
01
03
03
06
FB
02
F5
F9
FA
02
06
0E
01
FF
FB
FF
E0
03
05
07
03
01
0F
EF
02
0B
FC
F8
01
02
01
F2
02
ED
FB
03
F7
03
0A
F1
F5
03
05
F7
FF
01
FD
FE
03
02
FE
FE
03
FE
FD
01
03
FD
FE
FE
02
02
02
03
FE
02
FE
03
FE
FE
FF
FE
FE
02
02
FF
FF
01
00
01
03
02
DA
02
FE
FE
FB
F7
FD
F8
01
01
FD
00
02
F3
FD
FE
F1
00
F3
FE
08
F1
FD
04
FE
01
00
FD
00
FE
FC
00
F8
F0
FF
02
01
00
02
02
04
0A
00
FE
03
FE
01
01
04
F1
04
02
CE
02
04
01
04
05
FE
FF
03
00
FE
02
00
FB
02
03
00
FD
02
00
FC
FE
FC
02
01
FE
00
FD
FE
F8
FE
01
F9
FF
FE
00
FC
FA
00
FD
04
FF
FB
FD
03
F5
FE
03
01
10
02
03
F5
FC
FD
00
02
FC
FF
01
FB
03
EF
02
FC
FB
FE
03
00
05
FF
02
FD
00
0A
FF
10
F8
00
02
FA
FE
FE
04
FE
05
FE
FF
FE
FE
01
FA
FE
F8
02
04
FC
04
08
02
FD
F9
00
FD
04
00
0A
00
02
FD
00
03
F9
04
FE
F3
07
00
04
02
FD
00
02
09
08
E8
0B
FD
FF
07
0B
03
FD
FC
02
01
07
00
05
01
03
F7
FF
0D
04
0C
FF
F9
05
ED
FF
02
01
F8
FE
EC
03
F4
09
FD
05
08
00
03
00
F3
FD
03
05
FF
EE
01
ED
09
00
FF
FD
FA
02
07
00
0C
FE
FE
03
00
FE
EF
FD
0C
F9
02
06
F7
FA
FF
05
0D
FF
01
FC
00
05
00
F6
09
FF
00
F1
F3
FE
FC
DC
FE
02
01
00
19
FE
01
FD
01
FF
00
F5
04
0C
02
FF
FF
02
00
F8
02
FE
02
FE
FD
02
FA
FF
FA
02
FD
FE
F9
03
FF
FF
01
00
FB
00
FD
FC
01
FF
01
FE
01
02
00
FE
01
00
FF
F8
02
05
FD
01
04
02
FD
01
03
08
04
FE
02
FF
FF
00
01
0D
F9
0D
04
04
0D
FE
03
02
08
FE
03
04
FF
02
01
0B
03
FD
FF
04
FD
00
FE
01
FA
FF
02
05
04
00
F4
03
01
01
04
04
00
00
00
01
00
FF
FF
03
01
0A
01
15
EB
FE
FE
FA
08
01
08
06
FD
01
FF
FD
04
FF
FF
07
F8
0D
05
FE
0C
FB
05
FF
F9
01
00
0A
03
04
FD
FF
F9
01
08
04
09
02
F7
05
F2
FE
01
FD
02
02
F4
06
F9
08
01
04
0A
FF
03
03
FA
00
FF
09
02
E0
00
02
01
FF
FC
0E
FF
01
09
F9
F8
FB
FF
05
0B
FF
E9
FD
08
ED
00
08
EC
EF
01
05
FB
02
09
F9
FE
FD
FD
FD
FE
FF
FF
FF
FC
FD
FD
F1
FD
FD
FE
00
FF
00
01
F5
FC
FB
FE
FD
F9
FD
FB
FC
FD
FE
02
F9
01
F8
00
F2
00
01
08
01
14
01
0A
F9
FE
02
03
00
F6
01
01
FB
07
E9
05
F9
ED
FF
FF
04
0D
00
01
F1
FD
FD
03
00
FE
00
02
FC
FE
FE
FF
FC
FD
FD
FD
03
FC
FD
FD
FE
FD
01
FD
FF
01
00
FC
01
00
FD
FF
FC
01
F0
01
F8
0C
FF
01
FE
09
FE
08
FC
17
00
00
03
FE
02
03
04
00
FA
00
F2
FD
FD
02
05
0E
02
01
F5
FF
02
FF
14
F9
02
06
FC
07
03
F9
FC
06
03
01
FF
00
02
02
F9
F8
FA
00
FA
F8
FE
FF
01
01
00
02
FB
FF
08
00
1D
F2
00
04
00
04
01
FC
03
F5
FD
00
01
10
03
FD
FB
FE
08
03
FB
0A
0A
FC
00
00
00
01
06
FF
01
02
0C
0D
00
FC
FE
00
00
FC
E5
EC
01
02
02
05
01
05
DD
0C
E1
00
0D
F7
FE
03
F8
FE
01
03
02
01
FF
02
FD
02
00
02
F3
EE
01
FE
F6
04
03
01
00
07
00
FF
03
E7
04
FE
FA
FC
FE
FE
FE
15
00
FE
F1
02
FE
02
04
16
FF
FB
F4
02
01
04
03
B4
FF
01
05
04
FF
06
F7
0E
FC
00
10
FF
F3
00
06
F3
01
05
00

