01
FF
02
03
F8
00
FE
FE
FD
00
FD
FC
FD
FE
F9
FF
00
FA
FB
00
01
FD
03
09
01
FD
F7
FC
01
FB
02
FD
FE
FD
00
FD
00
03
FF
FF
00
FC
FE
02
02
02
FE
FF
FE
00
FE
02
FC
00
FF
FF
FC
00
03
FE
01
01
01
FE
02
FE
FF
00
03
FF
FD
02
FE
FD
01
FE
03
FC
FF
02
02
FD
00
FE
00
FF
01
FE
FC
FE
03
01
01
FF
FF
FD
00
00
01
FF
FB
02
FD
00
00
FF
00
F9
02
00
FD
FE
FE
F9
00
01
00
01
01
FF
F8
01
F7
05
FF
EE
01
FB
FF
FF
FE
03
EA
02
DC
FE
01
F2
02
04
ED
FE
FD
FE
FC
F3
00
FE
FC
00
FF
01
05
00
FE
01
FF
DD
FE
FA
04
FD
01
FD
03
FE
FE
FE
FC
03
00
FA
01
03
FD
FC
01
FE
00
00
FD
FE
02
00
01
01
00
00
02
FC
01
FF
00
02
FF
03
FA
FE
0C
FD
00
FE
FF
FE
FD
03
FF
04
FC
05
FD
FF
FD
02
01
FC
07
FF
F3
FD
FF
E7
FF
FE
F7
FF
00
00
F1
FD
F5
02
01
FE
02
F1
00
FD
FD
05
02
00
01
03
01
F9
FD
F8
02
FB
0C
FF
00
03
FB
FF
FD
00
03
FF
02
FF
01
01
02
FE
FC
00
FD
FE
02
FF
FF
FE
FC
FE
02
02
00
FE
FD
00
02
00
00
FF
02
FC
04
09
03
02
F9
01
F3
FE
01
01
00
F6
03
00
00
FF
02
09
FC
04
0B
00
FD
FE
07
FE
00
FC
05
00
FD
09
FE
FE
FE
FF
FE
03
1A
00
01
05
02
F3
01
00
FA
00
FE
F7
01
F9
03
FC
02
FB
FD
FE
FB
FB
00
04
FE
03
04
FD
02
00
E7
01
FB
FE
FD
EF
01
F8
02
FC
FD
02
01
FC
00
00
FE
00
FE
01
FE
00
F0
FA
FE
87
03
02
FB
FB
02
FC
FE
00
FB
01
FE
09
00
FD
F9
FA
05
FF
02
DE
05
FD
01
FE
FE
E9
FD
FD
09
F9
01
FC
00
FD
FA
FC
03
FE
FA
FE
FB
01
01
FF
FE
F4
FF
FE
00
FF
00
F8
FD
FE
FF
01
00
FB
02
01
03
FD
02
F8
00
FF
FE
00
00
FE
0B
01
FC
00
FF
FA
01
0B
F3
00
F9
FE
FF
FE
01
FB
FE
FE
00
FF
F5
FD
FF
00
05
FD
02
FD
FA
03
FE
00
F3
01
F7
FF
02
03
00
FC
FA
00
FE
01
FE
F9
03
00
02
00
00
08
E0
02
FE
FC
00
02
04
00
F7
FD
02
03
03
00
03
FE
FF
F0
00
F8
07
02
05
FF
FC
FC
05
00
FE
05
03
FC
E7
00
F9
06
FB
FD
FE
F7
00
02
FE
01
FF
01
00
02
00
00
FF
FF
02
03
FE
FF
FD
FD
FF
00
01
01
FD
01
01
FE
FE
00
00
FB
FF
FD
02
03
00
02
FD
FF
09
FF
01
08
FF
FA
00
FD
FB
00
FE
EC
FB
FF
FF
FE
02
F4
06
FE
07
FB
01
F2
FF
00
FE
02
02
01
FE
00
FC
02
FF
FE
FE
FF
FE
00
00
01
00
FD
FF
FE
FF
FF
00
FB
FE
FD
02
00
04
FA
FE
03
03
FC
02
01
03
FE
FE
FF
00
F6
FF
FE
ED
FA
FA
FE
01
03
FC
00
FD
FD
FF
03
08
00
09
01
03
FA
02
04
00
00
FD
FF
01
FE
FE
03
FF
FD
05
F8
FF
03
01
00
FF
F6
00
FC
FA
02
02
FD
FD
FD
FB
05
01
FD
01
FC
05
FE
FE
FF
E8
01
13
FF
FF
E7
FE
04
04
00
02
02
01
FB
03
FC
04
00
FF
FB
0E
FE
E8
F6
FA
E4
01
F9
06
FE
FD
03
F7
02
FE
01
FE
FB
01
13
F9
FE
FF
03
FD
01
02
01
01
FD
FF
FF
F5
FD
02
FD
FE
FE
FD
01
01
00
FF
FD
F7
FD
FE
FF
01
02
FE
F9
FD
FE
FF
03
FD
FA
FE
00
07
FD
FE
02
FD
01
F0
FA
FE
A8
06
FB
FD
FE
FF
FF
FC
FE
00
FD
01
FF
FA
FF
FC
F9
FF
FF
01
FD
01
00
01
FE
FE
FE
02
FD
FF
FC
FC
FC
FF
FF
FA
03
02
01
F5
FF
EB
FD
FE
F3
00
FC
EF
02
01
FE
00
F2
F7
03
03
FC
03
00
0D
FD
02
FF
FF
D6
FF
02
FD
01
01
FF
F8
FE
04
02
00
06
03
00
00
FF
FD
FF
FD
F9
07
FC
01
01
01
FE
FE
03
00
00
F7
ED
FE
FB
05
FE
00
FE
03
FD
06
02
03
E8
00
01
FF
FE
00
00
03
F6
05
FD
05
00
FF
05
FD
01
F5
FA
FC
F5
FF
02
01
FE
00
FD
00
FE
FD
FE
01
FE
01
00
FC
01
00
FE
00
FF
02
FD
FE
01
03
00
01
00
FD
FD
02
FD
FD
01
FF
01
02
01
F9
FE
FF
00
FD
00
FD
FA
FB
FA
01
FE
FE
FD
04
02
01
FD
01
02
00
FE
00
03
FD
FB
00
FF
01
FC
FE
01
F8
03
12
02
01
01
01
FF
F7
02
01
02
FC
F2
00
FF
FF
00
FE
F4
0B
FF
E5
FD
01
E4
FB
01
FF
02
01
02
02
FF
FE
02
FE
FD
FD
FF
01
FD
FD
01
FE
00
02
FF
01
02
03
01
FD
FD
FF
01
FE
FD
FF
FD
05
FD
02
03
FF
01
0F
FF
02
00
01
F4
05
FA
FE
02
FF
00
FA
FE
FD
FF
FF
F8
F8
FF
F7
FA
FF
07
01
FD
01
FD
FE
03
FE
03
FD
FD
FD
FF
FF
FC
01
FD
F8
FA
05
FB
FB
01
02
FB
02
FE
03
00
FC
FB
04
F9
00
00
FE
FE
FF
00
F2
01
01
02
FD
FB
03
FE
F1
FD
04
FF
FC
03
FF
FC
FE
FE
03
02
00
FF
02
FB
01
CD
03
FA
FA
FF
02
02
03
FE
FD
FF
00
FF
FF
06
FC
02
02
01
03
FC
02
02
02
01
01
00
0E
02
01
03
01
04
FE
FD
FE
FF
FE
02
FF
00
FF
00
FE
01
FE
FE
FF
01
00
00
02
FD
02
00
02
FD
01
FD
00
00
FE
FF
FE
FB
FF
02
FD
FE
00
00
00
FD
FF
02
00
0F
00
03
01
08
01
FE
00
F4
FF
FF
03
01
00
00
F7
FD
03
FB
00
02
FF
FF
FE
FE
FE
02
FE
01
02
01
02
01
FE
FF
00
FE
00
FD
01
FF
FF
FE
FE
FD
FE
02
00
FE
01
00
FE
FE
FF
00
01
04
00
FF
FA
00
06
FE
FE
F3
FD
E9
EB
01
FE
00
FF
F5
FF
FD
01
02
01
FF
07
00
FA
00
FC
D7
FF
01
FF
FF
FF
00
00
FF
FC
00
FF
FB
01
03
FC
01
01
02
FF
F7
08
FD
FB
FE
00
FC
02
FE
FF
FE
F8
F9
FC
FF
00
FF
FF
FF
02
00
02
02
01
FE
FE
00
00
FD
02
FD
FE
01
02
02
03
FD
02
02
FF
02
FE
01
02
FE
FD
FE
FA
FD
02
FF
FB
00
EE
03
03
04
FE
0B
0C
FD
01
01
FF
E8
02
00
03
FE
01
08
DB
FF
0E
FB
00
01
02
FF
07
FC
FD
03
02
FE
F9
FF
02
FF
01
E8
04
00
FF
00
FE
FD
06
FD
04
01
FF
FE
E0
FF
04
FA
FF
FD
FE
06
FE
FF
01
01
01
FE
FF
01
01
FC
02
0E
FD
00
FE
02
FC
00
FE
01
02
03
FE
FE
07
FA
02
FF
FE
FF
FF
FD
FF
FE
FF
01
E4
FE
FF
FF
FE
01
FD
F8
00
FA
FE
FE
FB
F8
FD
FE
03
FC
03
01
06
FD
F5
FC
FD
AA
00
FC
FA
01
02
FD
03
01
02
00
FE
F8
02
F8
F6
FE
FF
01
01
EE
08
FD
FF
FF
03
FE
0B
01
00
05
00
F9
FB
FE
F8
FE
00
00
E4
FE
00
FD
03
FF
FC
05
F7
00
FC
FA
02
13
FB
FF
03
00
00
FB
07
03
09
01
FB
F8
00
02
FD
00
00
00
FE
FE
FF
02
FE
01
FC
FA
FE
FC
FC
FC
02
FF
FF
00
FD
FF
02
FF
FE
FE
01
FE
FF
FE
FE
FF
FE
FF
01
00
06
03
FA
FE
FC
FA
F9
00
FD
02
FE
00
00
DE
01
FF
FE
FB
02
0E
F3
FF
FF
FD
06
01
FC
FE
04
02
FE
01
03
FE
FB
FE
00
FB
01
FB
05
01
F9
FF
FC
FB
FC
FF
02
FA
FF
00
09
FE
0A
FB
03
FC
01
FC
FF
01
00
00
FF
00
00
FD
00
02
01
01
00
FE
01
FF
00
01
FC
02
02
FE
03
FF
02
02
02
00
FF
FE
00
01
04
01
FF
03
FF
00
01
FF
03
F4
00
10
FC
FD
01
02
00
02
FC
02
FF
00
01
00
00
FE
F4
00
00
FF
03
04
FE
01
00
FE
FF
FE
FF
01
01
FE
00
FD
FF
00
01
FE
FF
FF
00
FE
02
00
02
00
02
01
00
FD
FD
02
01
00
FE
04
FF
04
F0
FD
FA
02
03
F2
02
F9
FF
FF
FE
FC
03
FD
FE
01
05
01
FF
01
03
02
01
FF
03
DB
FB
F7
00
FC
FF
01
02
01
01
FE
FE
FD
FE
10
05
FC
FC
01
FC
0B
FB
FD
FE
00
00
FF
F4
FE
07
03
FD
FC
00
04
03
F9
FD
02
02
FF
F8
FD
FF
07
01
F6
00
FD
03
FF
FD
02
08
00
0D
FE
FF
04
D7
02
01
00
02
01
03
0B
02
FE
00
01
FE
00
FB
01
00
FD
01
F9
F4
04
FF
02
FE
FC
01
FD
00
03
02
FC
F5
01
0E
00
FC
F7
01
FB
02
03
02
01
00
00
F8
02
FC
07
01
F4
F9
00
07
FC
FE
FC
03
FE
04
01
02
FC
02
FE
01
00
01
00
FF
FF
FF
04
FE
03
FD
FE
06
FF
02
F9
03
00
01
05
FC
00
02
04
02
04
04
04
01
FE
04
00
01
FC
01
F1
04
FF
00
FE
FE
00
FA
02
01
FE
03
06
FD
FF
03
FF
FE
FE
01
00
F9
01
03
00
00
FC
0D
FB
FD
04
FE
EC
02
F8
FD
01
FF
FE
01
01
00
00
FE
FE
00
FD
02
FE
00
FC
02
FE
01
00
FC
FE
03
FE
01
FC
FD
FF
FF
FE
01
03
FD
00
FD
03
01
00
00
FF
FF
FE
01
00
00
FE
00
FC
FE
FD
03
01
01
FD
FE
02
FE
00
FC
FD
01
FF
FD
FE
FF
FE
FE
FE
02
00
FE
FF
FF
02
FF
FF
07
FE
FE
02
02
02
01
FD
02
03
00
FB
03
04
F5
FE
FD
F1
FF
F9
FB
FF
01
01
FB
02
FC
00
FC
F3
02
FB
FB
01
04
FE
01
09
00
00
FE
FE
FF
08
FB
FC
07
FB
FD
F9
06
00
01
02
01
00
00
FF
02
FE
03
14
FF
F5
ED
F6
03
00
00
0B
FF
01
05
02
01
12
FB
FE
05
01
FE
F3
00
06
FB
08
01
00
FB
FE
FE
FF
FD
06
FD
FA
F9
02
01
03
FE
05
01
01
05
FB
03
FF
10
FF
FE
06
03
00
FF
FA
FC
FF
00
00
03
FF
F4
02
FD
FD
F9
F0
04
01
FA
FC
01
FE
04
F9
F9
04
FE
09
00
FD
ED
F8
00
F1
F9
03
02
FD
02
03
E5
FF
FB
FE
FE
F3
FC
F8
06
00
00
03
00
02
01
FF
01
FC
FF
00
F6
FD
02
FF
02
9C
02
01
FD
FF
03
FC
FA
00
F9
FD
FF
FF
FF
FB
F8
01
FE
FD
01
02
FF
FE
02
FF
FD
02
0C
03
02
FE
03
06
01
FE
FC
00
03
FF
01
FF
00
FE
FF
03
00
04
07
00
F9
00
02
01
00
01
02
FA
02
F0
F4
01
0B
00
02
01
FC
05
FE
FF
01
01
FA
FF
FD
FE
FC
FB
F8
FB
04
F8
FD
FF
FE
FE
02
FE
FA
02
03
03
FC
FF
FE
03
02
FD
00
FC
FB
FF
01
03
FA
FF
00
03
00
FD
00
0B
02
02
FF
FF
00
00
FB
FE
F9
FB
01
FE
F1
05
FA
01
FC
FE
FE
FD
FE
FF
00
00
01
FE
FF
FE
01
FC
00
FB
01
02
FD
FD
00
01
03
FE
FE
00
01
05
F3
FD
F9
02
FD
00
FF
F4
FC
FF
FF
01
01
01
FD
02
FE
02
FD
F9
0D
FA
05
FE
00
06
F9
03
03
FF
00
F8
0D
FA
F7
FD
FC
02
FB
03
FD
00
01
FE
03
FE
00
03
01
FF
FD
FE
00
FE
00
03
FE
FF
03
FE
FC
FF
01
FD
FC
01
01
FB
FC
F9
00
FB
FD
FF
02
FC
FF
03
FF
02
02
03
FE
FE
FE
FD
02
FD
01
03
FF
FE
02
00
FF
00
01
FF
FD
00
FD
FA
01
01
FB
FE
FE
FC
FF
FF
F4
FD
00
F9
00
FF
00
04
FF
03
01
F7
FA
FF
FD
FE
FE
0A
F3
01
01
02
FE
03
FC
07
FF
FE
FE
FD
FD
00
01
FE
01
FE
FC
FD
02
FC
01
00
02
FD
FE
FD
02
03
03
FC
FE
03
FE
FE
FD
00
02
00
FC
02
01
FD
FB
FF
FB
FD
FD
03
01
FE
F9
FE
FD
FD
FD
FE
FA
00
03
FE
00
F7
FA
00
06
00
02
FD
01
03
FE
01
02
FE
00
FF
F7
01
FE
00
FF
FF
FC
F9
F9
FE
00
FD
04
FE
FF
FC
01
FF
FE
FF
04
F8
FF
08
00
FF
FD
03
FF
FF
F8
FF
FA
00
00
FD
00
FC
01
FE
FD
02
02
06
FF
03
FE
FF
FF
FE
00
FF
FA
00
03
F7
05
00
FB
FC
02
FE
FB
01
01
02
FE
FE
00
FF
FE
01
02
02
FD
FC
06
01
00
02
FF
FA
F8
FF
FE
FE
FF
F9
FE
FE
03
FB
02
FF
F8
01
0D
FE
03
F8
04
E7
00
02
01
FE
FF
FF
F9
00
FC
01
00
0D
0B
02
02
FD
02
E5
FF
FD
02
FC
FF
03
E7
00
FE
00
02
F4
FE
FA
05
FE
01
02
01
FD
01
FD
FD
FD
FF
FD
01
01
F1
FC
FD
8C
00
00
FE
FF
00
FF
F1
00
0A
01
01
F7
FF
FC
04
01
FD
05
FE
F6
01
FD
FA
00
01
03
09
FE
00
05
FD
EF
FF
01
FE
FE
00
02
FF
01
FE
00
01
02
03
01
F9
FD
01
FF
FC
01
FA
FF
FD
00
01
FF
F1
01
FB
FF
FF
F9
FE
01
FE
FC
FF
FF
02
02
FD
03
FD
01
00
FD
FE
03
FD
FE
01
FD
FF
FD
FC
00
FF
FE
02
02
FB
00
FF
02
01
FE
FE
FD
03
02
00
FE
FF
FE
FD
FE
FE
FF
FF
00
FF
FD
02
FE
FC
01
02
FC
01
00
02
FD
FB
02
02
FC
02
FF
02
FE
00
03
01
FF
01
00
00
00
00
FE
FD
FE
FD
01
FD
02
02
FE
02
FD
FE
01
FF
FD
01
FF
01
FF
FC
01
04
FB
FD
00
FC
FE
00
02
02
FC
FC
FF
FD
FE
FD
FF
02
FF
FC
FF
00
FD
FD
FD
FD
FE
FE
FD
00
00
00
FE
06
03
FF
03
FB
01
00
FC
01
00
FE
03
F3
FE
02
F7
FB
03
01
01
FC
02
FD
FB
0A
F6
09
06
FC
FB
FE
06
F7
FF
01
FE
FD
02
FF
01
FF
FC
02
FC
FD
FF
03
03
00
F8
FB
FC
FB
FE
FF
01
FB
FE
03
FC
FA
F9
04
00
FC
FD
01
04
02
02
FA
FD
FF
07
FB
F3
05
FE
FE
FD
FA
07
FE
01
06
FC
00
FE
D9
01
04
FF
FE
01
FE
09
08
FC
02
00
FD
FF
FA
02
01
FA
01
FB
FC
FF
01
FD
FA
02
FD
00
01
01
01
FE
F7
01
0A
03
FE
DD
FE
09
F5
03
01
01
F8
FF
FF
FF
FE
FD
03
FE
05
FD
01
03
FE
F6
02
FE
FF
FC
00
FC
04
00
F1
FF
FE
E5
02
FC
FF
FE
FE
FE
FE
01
F8
03
00
FE
02
FA
01
FF
03
FB
FD
FB
00
01
01
FF
FD
07
10
FB
01
01
FE
04
02
FC
02
04
00
02
F4
02
00
01
02
03
00
FB
FB
FD
01
FE
01
FD
FE
FF
FF
FF
FD
F9
F6
FC
04
FA
02
FA
01
02
FC
05
FF
00
08
FF
04
01
FD
00
FB
08
03
09
FE
FF
01
04
FD
00
F5
F8
01
06
E8
FB
07
0B
01
08
03
FA
01
FA
FE
03
04
FE
F2
FE
FF
06
01
02
02
FD
FA
03
00
F1
03
00
00
FD
02
EF
06
00
08
02
FE
F2
01
01
FF
01
01
FE
FE
FF
00
FF
02
03
00
FE
FB
01
FF
FF
01
FE
02
FD
FF
FF
01
FC
FF
03
FE
00
02
FF
FF
00
FF
FC
02
FF
FB
00
F9
FF
03
F7
02
FA
FD
FD
FD
FD
FD
F2
03
FC
FD
FD
03
FB
F9
03
F5
F6
FD
F8
03
FE
FD
FD
FE
FD
FC
00
01
03
02
FE
FD
FE
FC
FC
FF
00
00
FF
FF
01
04
01
FF
FD
02
00
00
03
04
FA
04
FF
FC
02
02
FD
01
FD
FF
02
FE
FB
FE
FB
F9
FB
FE
00
02
01
FF
FD
05
00
01
01
00
01
FD
00
01
F8
02
FB
FF
FF
01
FE
FF
FD
F5
01
00
F7
00
02
FE
FA
FF
00
FC
FE
FB
FC
01
FD
01
FE
00
FC
00
FA
FF
FF
02
FC
01
02
03
03
FF
00
01
01
FD
00
00
FF
01
FF
FD
FF
01
FB
FE
FD
FF
FE
FE
FE
FD
FF
00
02
02
FE
00
FF
FE
02
03
01
FA
FF
02
01
00
FE
FE
FE
05
FD
FE
01
03
FF
00
01
01
FE
01
FD
04
02
FE
02
03
FB
FF
05
FE
FD
FE
00
00
FE
FF
02
FE
FE
FD
05
FB
00
02
FF
02
FC
FD
01
00
01
03
FA
FD
00
FE
01
01
FF
FC
FE
FA
02
FF
FB
03
01
00
04
02
02
F4
08
F9
00
F8
FA
02
FF
FC
01
F7
00
FD
EF
F4
F8
01
FF
FD
02
FA
FE
FB
03
FE
FE
FC
03
F9
01
FD
FB
FF
FB
07
01
03
FC
00
F7
03
FD
00
FE
FF
02
F5
01
00
00
06
05
FF
05
02
FD
02
02
FD
03
FC
FF
02
FE
FE
02
02
FD
01
01
02
02
02
02
02
00
00
01
FD
FF
FE
00
02
FC
00
FF
FE
FD
00
02
02
00
09
02
01
06
FD
F3
03
FB
02
FC
02
EA
09
FF
FF
01
02
FB
02
02
F6
FC
FD
F8
03
FE
00
FE
00
01
FF
FF
01
FD
FE
FD
FD
FE
00
FE
00
02
02
FE
02
FD
00
FE
01
FC
00
02
01
02
02
FF
02
FD
FC
FB
FE
FF
FF
00
FA
00
01
0B
03
04
00
FF
02
FB
02
01
02
00
FD
02
02
08
F3
01
F8
FD
FD
F9
FB
F7
FB
FF
FE
FC
FF
02
FE
FE
01
06
01
FC
04
FC
FE
FE
FF
FC
06
FC
07
FE
03
FA
FB
03
FE
FB
FA
06
00
FF
F9
02
FE
01
F9
FF
0D
03
00
FC
02
01
00
FA
FD
FE
00
F3
04
FE
05
FE
FF
05
FF
03
FF
FF
FE
FD
00
F9
FE
01
FD
FC
00
02
F6
01
00
F2
02
FE
F4
02
01
02
01
EF
FF
00
EF
02
02
12
F2
FD
FF
FB
01
FF
02
F7
04
01
02
FF
FA
FE
00
00
02
FF
03
F8
F8
FB
FC
FC
FF
00
FB
FF
07
FE
FF
FF
01
00
06
01
04
00
00
FF
00
03
01
01
F9
02
00
01
02
FE
FE
FD
09
FE
FF
FE
01
04
FE
01
FD
FF
FD
03
F5
00
F5
FE
FF
FD
00
02
FC
04
FE
05
FC
FD
EF
00
FE
02
FF
0A
FE
F8
FB
FF
FA
01
F4
FF
FA
FB
01
09
EE
FC
06
FE
FF
01
FB
FD
FF
FB
00
FF
00
00
FB
00
FC
FD
FF
05
01
FC
FE
FC
00
0B
02
FF
FD
00
00
F4
EC
FD
F7
FD
03
FE
FA
02
FF
FE
03
01
FF
FD
FF
FF
03
FF
FD
FF
01
00
04
FF
01
FF
FC
FE
FD
FF
01
FB
00
FE
FF
FD
02
FD
02
FE
01
01
01
01
FB
FD
FD
00
FE
00
01
FD
FA
FD
FE
FE
00
02
00
FC
FD
FD
FD
FB
FE
02
03
FD
FE
FF
FE
00
01
FC
01
01
00
FD
FA
FD
03
FC
FE
FD
F9
FE
01
FE
02
FF
FD
FE
00
01
00
00
00
FD
FF
01
03
FC
01
02
FA
04
FF
02
F7
02
FF
03
02
04
03
FC
F1
F8
FF
05
FF
FC
01
02
FF
FE
02
FC
01
FD
0B
01
FC
04
05
00
00
FE
02
FF
F1
FF
00
03
01
FA
FF
FE
F9
FF
FD
FF
01
FF
01
00
FE
02
01
FE
FA
FC
0D
FF
FD
F5
03
F8
FE
FE
FE
03
01
FF
0F
01
FE
F2
FE
EF
02
FF
FC
00
FE
F9
FC
FF
FC
FE
00
04
0C
FF
FB
05
FD
00
05
FD
F7
01
02
FE
02
01
03
FE
02
02
F5
0B
00
FE
FF
FD
FD
02
F9
04
FE
FE
02
08
F1
FA
02
01
FC
07
FB
FC
FC
01
FE
00
06
FE
03
01
00
F6
FF
0D
00
08
FD
03
00
F2
02
FF
FA
FE
03
F5
F2
FF
00
FD
FC
03
FC
F6
FA
FD
01
FD
04
FF
F4
FD
FF
01
FA
FC
FE
FC
FD
FC
FD
0D
FE
FE
03
FF
01
FD
E5
FC
F2
FC
00
06
02
02
03
F9
FE
FF
E6
FE
FC
00
FC
F9
00
FC
01
FC
00
01
00
F8
03
FD
FF
01
03
01
FF
FC
FD
FC
01
9C
00
F9
FD
F9
02
02
03
00
F4
FF
00
FD
00
F9
12
FF
02
03
FE
FD
01
FF
00
01
02
FE
FD
03
DF
03
FC
F8
FD
F7
07
FF
00
FE
03
02
04
FE
FF
08
FF
FA
EF
01
FB
FB
FB
03
FC
00
01
FB
FD
00
01
01
FC
FC
05
02
FF
03
FE
FD
01
02
02
02
01
FC
00
00
01
01
02
FD
FE
01
02
FC
01
FE
FC
FF
01
01
00
00
FC
FE
FD
01
FE
FC
01
00
02
FD
02
00
FF
FD
FF
01
00
02
01
FE
FE
FD
00
FD
00
01
FF
01
02
FD
00
FF
01
FF
FD
FF
FD
FE
FE
01
FD
00
00
01
FC
FF
FE
FF
FF
00
04
FD
FE
FF
01
FD
FD
FE
FF
FD
00
FF
F4
00
F3
00
00
00
FE
01
02
01
01
01
FD
02
01
03
FE
FD
FB
FE
FA
FD
02
00
FE
FB
00
FE
01
FE
FE
00
01
02
FF
01
02
FA
FD
F9
FE
FC
02
FE
02
FE
FD
FC
FE
08
FC
10
F6
F7
FE
01
FF
03
0A
00
0C
FF
03
F3
E0
00
E8
F5
FD
00
FE
FA
FD
FD
FD
FF
01
00
FC
00
02
FF
FF
FD
FE
02
00
FE
FE
01
00
FD
FE
00
FE
FD
FE
FD
FF
FF
00
FE
FF
FF
FF
00
FE
02
FF
01
FE
01
00
01
FD
FD
00
01
FD
FE
00
FF
00
FE
01
00
00
FE
FE
FC
02
00
FF
01
FE
FC
F8
FF
01
00
F7
01
02
02
02
F6
02
0A
FB
FA
01
FD
01
F5
08
00
03
01
FE
FE
F9
02
FF
FB
FC
FA
FA
FD
02
FE
02
FE
FD
01
01
01
00
01
03
21
F9
02
F7
00
01
00
FD
FE
FD
02
01
FF
04
FE
09
FE
FF
FC
FD
FE
FE
FB
00
01
00
FF
0A
FF
01
00
FE
04
FF
02
F9
FF
00
F4
07
FF
FA
FF
02
FF
FB
01
09
F6
FD
05
FE
FE
02
FE
01
02
FA
01
04
FF
00
FE
FE
FF
FF
FF
FF
FD
01
FF
01
FE
FD
01
02
FC
FB
00
F8
FF
FE
FA
FF
FD
FE
F9
FF
03
FC
FD
FD
FE
FF
F8
FE
02
FF
F9
FB
FF
FB
FD
02
F9
FD
FD
02
FE
FF
FA
FD
02
FC
FD
FD
FC
FD
02
FE
02
FE
00
00
01
02
F9
01
04
00
FC
00
FE
FE
F9
01
FE
FB
03
02
FF
F5
00
F6
FC
FF
00
FF
FC
FB
03
00
00
00
01
FC
FF
00
F4
04
00
FF
04
FF
00
01
F9
FD
01
F8
FB
FF
FB
F7
02
FF
06
FF
02
04
00
00
FD
FE
00
FB
FE
FC
FD
00
FF
FD
FF
00
FE
02
FE
03
02
02
FE
05
02
FE
FE
FD
00
02
FD
00
FA
FF
FE
FA
FF
FF
FD
FE
FF
00
FE
FF
F5
02
FE
F9
03
FA
FF
00
01
02
02
01
FD
FD
FF
F9
01
05
F4
FE
FD
03
FA
FD
00
00
00
04
00
FA
FE
03
01
FD
F8
FB
01
00
FA
02
F8
06
FE
00
FE
02
01
0B
02
01
00
FD
03
FF
FF
00
FD
FF
02
FF
00
FD
FD
FD
FD
FE
00
FE
00
01
FE
FD
00
00
FF
01
01
FF
02
FD
FE
FD
02
FE
01
FF
FD
F7
FE
FE
01
F9
FE
08
01
FF
FA
FF
FD
F8
00
FF
FF
01
FE
FF
FF
FD
02
FE
F7
09
FD
00
03
03
F3
04
FF
FF
FD
00
04
04
01
FB
FF
FD
FD
01
FF
FE
01
01
FE
00
F9
05
FA
FC
FB
01
FE
01
00
03
05
FE
03
FD
FE
FC
FE
01
03
FE
FF
FC
FF
FE
00
00
02
00
FD
02
02
FE
FD
FC
00
FF
FF
FF
FF
00
01
00
01
00
FC
FD
FE
0D
FE
01
FD
FC
FF
FE
00
FF
08
FF
F0
08
01
02
00
FD
F4
01
FD
05
FF
03
FD
FC
00
10
F9
00
FA
00
FF
02
04
00
FD
FA
FD
02
01
00
07
FD
FD
F6
01
00
FF
FD
08
FC
06
07
01
FF
F9
07
FA
0E
FE
04
F8
04
02
FF
FE
01
FD
FB
03
02
FE
02
00
00
00
01
FF
FC
01
01
FD
FE
FE
00
01
01
FE
FC
03
FF
FE
00
FC
FE
FC
FD
FF
FF
01
02
FF
FC
FD
FE
05
02
FE
FC
03
FE
FF
FF
03
FA
03
04
FF
01
FE
F3
FE
F7
FD
FF
FA
01
FD
00
FE
02
FF
FE
00
00
00
00
00
01
FD
FD
01
FE
FD
FF
00
FF
01
00
02
00
FD
01
02
FE
00
02
FD
02
01
FE
FD
FD
01
E6
FE
F5
00
02
FE
03
11
01
FE
FF
FD
00
FE
03
FD
FF
FE
FF
FD
FD
01
00
FC
FF
F9
FD
FE
03
03
FE
00
FF
00
FA
01
02
02
FF
00
F9
FE
00
FC
FD
02
03
01
04
FD
01
01
0D
FE
04
01
03
03
03
00
FF
00
01
FE
05
00
22
01
FF
F4
00
F1
F4
FA
FE
FC
01
FC
FC
FE
FF
FE
00
FD
09
FD
F5
FB
02
F6
FD
01
01
FF
01
05
FD
FD
FB
02
FE
FE
FE
F7
FA
08
FC
FF
FD
D6
01
02
FD
01
FD
09
FF
FE
03
FE
FE
01
FD
F8
04
F7
00
01
E5
FE
01
01
00
F5
FC
FA
07
FB
01
02
FF
FF
FC
FF
03
01
FD
FF
F0
02
F8
F8
FD
91
FF
01
FF
00
03
FE
00
00
FC
01
02
FE
FF
05
0D
FB
01
01
FF
FB
02
FB
07
FE
02
FF
E9
FE
EB
FF
01
FD
FE
FF
03
03
03
01
FB
01
FE
FD
FD
01
01
0C
FC
FE
FF
01
FE
FC
FD
FF
00
FC
01
06
FB
00
00
FF
06
FD
FF
04
FF
00
03
FC
FD
FF
FF
FD
01
01
00
00
FF
FE
01
FC
03
FB
FB
FA
FC
FC
FF
01
01
FF
FE
00
01
FB
00
FD
FA
FE
FE
03
F2
02
09
00
FF
03
00
03
09
01
FE
04
01
FA
FE
02
FF
FD
FE
FF
0A
FF
0B
FD
03
E2
04
F8
02
FF
02
00
01
02
00
01
03
FE
00
00
FF
FE
02
01
02
00
FF
01
FE
01
02
01
FF
02
FF
FD
FD
02
FE
FD
FD
FD
02
FD
0B
FE
F5
00
03
02
FF
FC
FF
03
01
03
FE
04
01
03
02
FD
FF
FC
08
FE
FD
FF
01
FE
02
01
FB
02
FF
01
FA
03
F8
FE
FE
F9
FB
F5
FD
FE
FE
FA
01
FF
FB
05
05
FD
00
05
12
FC
05
FC
FF
05
FF
FE
FD
FF
FF
FF
F3
02
03
00
02
F8
FF
00
02
02
FF
FF
FC
F5
FB
FD
FF
04
03
00
04
01
01
00
FE
F8
01
FA
03
00
02
03
FF
03
F0
FE
00
FE
02
03
05
02
FC
02
00
0C
00
FD
FB
03
03
F4
D3
FF
01
00
FF
FD
FC
00
01
FD
01
00
FF
FF
00
02
01
00
01
FC
FF
01
01
00
00
FF
01
00
01
02
02
FB
02
01
04
03
FF
F9
03
00
FD
FF
01
FE
FE
00
00
01
01
EF
00
FD
03
FF
FF
FD
00
FA
01
FC
FC
02
FF
01
F0
01
E9
FB
FA
FC
01
FE
FE
FE
FF
FB
FA
00
03
FF
00
07
FC
FF
FA
FF
FB
00
01
01
03
02
08
FD
00
02
09
FE
01
FF
05
FD
02
01
FF
F8
FD
01
02
01
12
04
00
08
02
08
F9
FC
04
00
FE
F9
04
FD
FD
FB
FF
03
F9
02
06
FF
01
FD
01
F7
04
00
FE
02
FE
FF
00
00
FF
02
00
1B
FA
FC
FF
04
FE
FE
00
FE
00
02
03
FC
03
FE
FF
FC
FF
FF
04
FF
FE
FF
01
FF
FE
00
02
01
FD
00
00
00
FB
FD
FE
00
FC
00
00
02
FF
FF
03
00
FD
FB
00
FF
02
FB
FD
FE
06
FF
FD
01
03
02
04
02
00
FA
FF
00
06
06
00
FE
01
F6
F3
FF
FD
02
01
01
0D
00
FA
F8
00
EE
FF
F9
FF
01
02
FE
FC
02
FF
FE
FF
05
FD
01
FD
00
02
00
FB
FF
01
01
02
03
FD
03
01
FC
FB
00
01
F9
02
02
FD
FB
00
FD
FF
03
06
FD
FF
03
FD
00
02
04
06
FF
FD
F2
00
FF
FB
02
01
08
ED
01
FC
0A
FC
FF
00
F3
01
03
FD
FF
03
FD
FF
01
FD
FE
FF
F1
FF
FF
00
FC
FE
FC
FD
00
FF
00
FF
FC
01
00
00
04
04
00
02
00
FD
FE
00
02
05
00
00
00
01
FC
01
04
07
01
FE
00
FE
F4
03
FE
00
FF
02
00
FE
01
04
04
FD
FE
00
FC
07
FF
FD
FE
01
FE
FA
01
FD
F4
05
FF
FF
00
03
02
FF
00
FE
FE
01
00
01
F3
FF
FF
FC
FA
FD
FD
00
00
03
FE
00
FF
04
01
FB
00
01
02
FB
F3
03
00
FD
FE
FB
0E
09
00
02
FD
00
F5
E3
02
08
06
01
00
FD
0D
08
04
01
FF
FE
03
FA
01
02
04
FC
01
F6
F8
02
01
FC
08
F9
04
01
FD
02
02
09
FE
F7
FD
02
02
01
02
FF
06
02
FC
09
02
FE
00
FE
01
03
06
FE
01
00
FD
FF
02
04
FF
04
02
00
FA
F7
FF
00
03
02
FD
FF
FF
01
FE
FD
FF
F9
FF
04
03
04
FF
FD
EC
05
00
02
00
01
F9
FC
01
00
FF
01
F5
06
01
F4
00
FF
F1
FE
00
FD
02
01
00
FE
00
02
FE
FD
00
FD
FE
FC
00
01
FD
FE
02
FD
FD
FE
FC
02
FE
02
FF
00
03
FC
02
FE
FF
01
02
00
04
F7
01
FD
FE
FD
0B
FC
05
EF
FC
03
FF
03
02
FA
FE
07
FE
FD
ED
F5
01
F1
FA
02
01
03
04
0B
FB
FF
04
02
FE
FD
00
01
04
01
FA
04
02
02
05
FF
F9
09
FA
06
FD
00
0B
E2
02
0E
F4
03
FE
05
02
01
00
02
FD
FD
00
01
02
00
00
FE
FF
01
FF
FD
FD
FD
01
02
FE
02
01
00
00
FE
00
FF
FC
01
FD
00
01
F5
FB
00
FE
05
00
FF
01
04
FC
03
04
02
FD
00
FB
FC
F4
0B
FA
02
00
00
02
F0
00
FB
04
FA
FF
01
F9
FB
FC
00
01
FD
03
07
FF
02
00
05
F4
04
FD
01
01
01
F0
04
00
FE
02
FE
03
FA
03
07
FF
FC
FD
FF
F5
01
FE
02
02
02
FE
00
FD
FD
00
FC
02
01
FF
FF
FF
00
01
FF
FD
01
02
FE
FF
FF
00
FE
01
03
01
FF
FD
FC
FC
00
05
04
FE
EB
FE
03
02
01
0B
FD
00
FF
FE
FF
F4
09
FF
FE
02
FF
EB
C4
FB
FC
F7
FA
00
FE
FE
FD
05
00
FF
06
02
FC
FF
FC
ED
FE
FE
0C
06
03
07
00
F8
00
FC
F9
F9
02
07
08
FC
FB
09
05
04
00
FD
FE
FD
FE
02
F9
01
F2
FE
FD
F8
01
04
F4
02
01
02
01
F4
FF
00
FD
02
FE
05
07
FC
0A
FD
02
FC
02
F9
FA
00
00
03
FD
01
08
01
01
07
00
F8
FB
FF
FE
00
FF
0F
F8
03
0A
03
FE
F8
05
FE
FB
FE
03
F6
FC
03
01
FF
FF
FE
00
FE
0B
01
02
FA
00
01
FD
FC
01
01
FE
EF
04
FF
00
05
FE
F9
02
FF
F0
FE
FF
EC
01
FE
FE
FC
00
00
F7
01
01
04
FF
F5
03
08
02
FC
FA
06
FF
FF
01
01
F2
FD
01
03
FB
03
FE
0D
FE
FF
00
FB
FF
FF
FD
03
ED
02
FA
00
01
FD
FE
F2
01
01
00
04
FD
FD
03
00
FF
02
FE
F8
F9
FF
08
FD
FC
04
02
FD
00
FE
01
02
02
01
FB
FD
01
06
FF
03
05
FD
FF
02
FE
FE
03
05
01
07
00
12
F9
FA
EE
F9
FE
F7
FD
FE
F8
01
03
01
FA
FE
0F
02
02
F0
01
FF
01
00
01
FE
FD
F5
06
FC
F6
FD
01
F7
00
FE
FA
FE
01
E0
04
F3
01
FE
FF
FD
00
FF
FD
00
02
00
FF
01
FD
FF
FE
02
FD
FE
01
FF
FE
00
00
01
01
FD
FD
01
FE
01
FE
00
01
02
02
FE
FE
02
02
FF
FE
FF
FF
FF
FF
FE
FE
03
FD
FC
FF
03
FD
FF
FE
00
FF
01
FF
FE
01
FE
03
FF
00
FF
FF
03
02
FF
01
FD
FD
FF
03
FD
FC
01
FF
00
FF
01
01
01
02
FE
FD
FE
00
FF
02
04
00
FD
FF
00
03
FF
FE
02
01
03
07
01
FE
07
FF
F1
01
FF
FD
00
FF
F6
FD
01
FD
00
03
00
06
01
E9
FE
00
F6
02
01
FD
03
00
FF
FC
FE
FD
FF
FF
FE
02
FE
FB
FC
05
01
00
FD
FF
00
FE
02
01
FE
FA
FF
FD
FE
02
FF
FF
01
06
00
00
03
FC
03
FC
01
00
03
FC
05
02
FB
05
00
FC
02
0A
FF
01
00
00
05
EA
FD
01
FE
01
FD
03
0A
00
01
03
00
FB
FD
01
00
00
FC
00
01
01
01
02
01
FE
FB
02
00
02
FF
02
FE
00
FE
02
00
03
FD
FD
FF
02
FC
FE
02
00
03
05
01
01
FE
04
FF
FC
02
FD
FF
FE
FB
02
FE
FC
FF
02
FF
FD
FF
06
FE
01
FC
01
FC
FD
FE
FD
03
FF
FD
01
01
04
01
00
F8
FA
01
FD
00
FC
FB
04
FC
FB
01
FE
00
FC
00
07
FE
FB
FE
FD
FB
FC
F9
01
01
00
00
0C
01
01
FF
00
F3
FE
01
02
FD
03
FC
00
FC
F4
FF
FE
FD
F8
02
06
FD
FE
00
01
F1
07
02
FD
03
F8
00
FA
03
FF
FF
00
07
04
02
05
02
FF
00
02
01
03
FD
FF
FD
D0
04
01
FF
FF
F9
FC
00
04
FF
03
FF
03
01
FB
01
01
EF
FF
FB
F7
02
01
FF
03
F3
04
FF
02
FC
00
FE
FE
FC
03
FF
04
07
FC
04
01
FD
FE
02
03
FE
FD
03
00
00
01
00
FE
00
FF
FB
FD
02
FD
00
03
00
FF
FB
0B
FF
FF
02
01
02
00
00
FF
FF
02
01
FF
FE
0B
FE
02
F7
FC
1B
05
01
06
FB
FC
01
FE
FD
F9
01
01
FB
FA
FB
01
05
00
F8
FF
F3
01
FB
00
01
F3
FF
FD
00
FE
FD
00
FA
08
FD
FD
02
00
03
FF
00
00
00
02
00
F8
FE
E6
FF
FF
B1
FC
01
FF
00
02
FD
03
03
FA
00
FE
FB
FB
F0
E4
FF
00
00
00
F5
F8
FE
01
F4
FD
08
07
FE
F6
03
01
FD
FE
F7
FD
FF
01
FF
01
01
F7
00
FD
03
01
08
FF
FE
FE
00
00
FA
05
FD
FE
FA
01
0F
F9
FE
FE
F6
02
00
02
02
FE
00
02
01
02
FE
FC
01
FF
00
FB
02
00
01
FD
FE
04
FC
00
FE
FE
01
FF
FF
01
FF
03
FD
FD
FB
00
FF
FE
FE
00
FE
01
00
FE
FE
FD
03
FE
F7
F9
FF
FE
01
FD
FD
FC
02
09
FE
FE
FC
01
FD
FD
04
01
FE
FE
03
00
FB
FF
01
F8
03
F7
00
FE
FB
FF
FB
08
FF
00
01
00
00
FA
FD
03
02
FE
EB
0D
FF
F3
02
01
D5
01
FE
03
03
01
04
01
FE
F6
00
02
08
04
03
04
FB
03
01
02
F6
0C
FD
01
FE
02
11
F3
FF
01
03
FD
FE
FE
F7
06
00
02
00
03
00
DA
01
FE
F3
03
05
0B
FD
FB
04
FE
FE
05
FD
00
FD
03
00
DD
02
02
FA
FF
02
FD
FE
FA
02
00
FF
00
FF
05
FF
01
06
FB
00
FC
FD
FF
01
02
02
F9
01
00
01
02
07
F8
F9
00
FF
FC
07
FC
00
00
FD
FD
01
FD
03
07
FF
FD
01
FE
06
FE
09
04
01
00
FE
04
00
05
FE
01
11
F7
FF
06
FE
FC
F4
FC
FD
03
FD
FF
01
00
01
10
FF
FF
F4
FF
0F
02
01
FF
FD
FD
F2
FF
FD
FD
05
00
01
E6
FC
0E
05
FE
02
FD
F4
03
01
01
00
FB
FF
FD
03
FD
00
FF
04
FD
01
FE
FD
02
FB
02
FD
FD
01
00
01
01
FE
FF
02
FF
FF
FF
FE
03
F7
FD
FF
F4
FF
01
02
01
FF
00
FE
FF
FE
01
01
FD
EF
FE
FE
F7
FF
01
02
FE
01
F0
FE
02
A0
FF
FD
05
FE
02
FE
FF
02
FC
FD
FF
FE
FF
FA
FD
FC
FD
FF
FD
FE
06
02
02
FC
02
00
F7
FF
02
FC
FC
FE
02
05
FD
FD
02
FE
FD
FE
FC
FE
03
01
FD
00
00
FE
FE
00
FF
FE
03
FD
FC
01
01
01
01
FE
00
01
01
00
FE
FE
FE
FB
FE
04
ED
00
FC
FF
FF
01
03
FE
F3
FF
FB
06
FF
F6
01
FA
FF
FF
FE
FD
FD
00
EE
01
FF
A1
04
F9
FA
FA
FE
FE
F8
02
0C
02
FF
FB
FE
FF
01
03
FF
00
FE
FC
F7
FE
05
FF
FF
FE
0A
00
FF
03
02
EE
03
00
FF
01
01
03
04
02
F8
00
FF
FC
FB
F0
06
FF
FD
04
FE
FA
01
FC
03
FA
01
02
00
FD
F4
FF
00
FC
04
FE
01
06
00
FF
FA
00
FD
FF
02
FF
01
FA
02
FE
01
03
01
04
FF
FC
03
FF
FF
FB
08
FD
FF
FF
01
01
00
FF
01
FC
01
02
FB
00
09
FF
00
00
FF
00
04
FF
FC
00
FD
E7
02
FE
00
00
FF
F5
04
FE
FD
04
02
FB
FF
03
FB
FF
02
02
01
03
FE
02
01
04
01
FB
0B
FC
00
FC
FF
01
FE
FC
04
FE
FD
FE
01
FD
F0
FD
00
E6
FE
02
0E
FD
00
FF
FF
03
1A
FD
00
E9
FF
E4
F8
FF
01
FB
FD
07
F9
FF
FF
FD
FE
05
F9
01
EA
F5
FE
FF
FF
07
FE
FC
00
FF
FB
01
FC
00
00
FD
FF
FE
F6
FE
FF
03
03
06
FA
02
FD
FF
00
F9
FD
01
FE
04
FD
F6
02
FB
00
FD
02
FE
FE
FD
00
FE
FE
00
01
FE
00
04
FE
FF
FC
02
01
02
00
03
FE
FA
02
FC
07
FD
FE
00
01
FF
FE
FF
03
FF
FC
00
00
01
FE
FE
01
FA
01
FE
FF
03
02
FE
05
FE
FA
01
02
FB
FF
02
03
01
00
F3
00
FC
FF
FC
FF
FF
03
03
02
02
FD
F7
01
EF
FD
02
FB
FD
FF
FB
02
00
FD
02
FE
FE
FE
00
FE
02
00
FB
FD
FB
FE
FD
02
FE
01
FE
FC
00
03
F7
FF
02
06
FE
00
FF
FD
EC
09
FA
FA
FF
01
F7
FC
01
FC
06
FA
02
FB
FE
FE
02
FE
FC
02
FF
FB
02
FF
FF
03
F7
08
FE
FE
00
01
0D
04
01
04
03
FD
0A
F3
00
0D
FC
02
02
FE
0B
FE
FB
01
FD
00
01
FC
00
FF
FD
01
F8
FF
FD
FE
01
FF
FB
FE
FF
FD
FC
FD
FD
FC
FF
03
FA
FE
FC
01
FB
FA
05
00
FE
FF
00
02
00
FD
01
00
01
E4
F8
FD
01
FD
04
FB
FD
09
FD
01
F8
00
FF
00
FA
FF
FD
01
04
03
FF
01
FF
02
00
FD
02
01
00
00
FF
03
FD
00
FE
00
FA
FF
FE
01
FC
FD
FD
00
FE
FF
00
01
FD
02
02
FA
FD
00
FD
00
00
FD
02
FE
FD
03
03
FD
00
FA
01
01
F0
FE
FD
FD
FD
FE
06
FB
FD
FA
05
FC
00
FE
FD
02
FC
FD
FE
08
FE
00
FE
03
03
01
FA
05
04
FF
01
FF
F5
F9
00
02
FD
02
F8
04
01
F1
FA
00
F5
02
FD
FE
FE
FE
00
F5
FF
FB
02
FF
04
FE
F6
07
FE
02
01
01
0A
FF
FE
FB
FD
01
FC
F2
01
05
FB
FE
FD
FC
01
00
FD
00
01
FD
01
00
FE
FD
01
FD
FF
FD
00
FE
FF
FF
02
FF
00
FC
FE
01
FE
FF
FC
00
00
FE
00
FD
FC
FF
00
FE
00
FB
02
01
FF
00
FE
FC
F9
FA
F6
F9
FD
FD
F6
F7
03
05
00
FF
FC
08
FF
00
FF
00
F6
01
04

