E0
02
FD
F5
DE
DB
F8
FA
02
DA
F5
FB
D2
E1
17
FD
E1
01
FC
04
05
0F
C5
F6
04
07
04
DE
11
0C
00
F1
09
FE
05
F4
12
09
05
F5
01
06
00
13
D8
EE
E0
01
20
02
02
06
B9
CF
09
19
FC
C5
05
F4
F9
00
01
ED
03
FD
02
07
FF
04
05
04
00
01
02
F2
DB
1B
FA
0A
F3
FE
F7
EE
00
03
06
F2
01
FA
FA
00
CD
CE
D3
FA

