01
FF
00
FC
FC
FA
FB
FF
FD
FF
FE
01
03
FD
FF
00
ED
02
FD
03
FE
FF
FD
F9
01
FE
FF
00
FC
FF
02
FD
00
FF
00
FD
00
01
FD
FC
FC
01
FE
02
FC
FC
FC
00
FC
00
FC
FF
01
01
FE
FF
02
FE
01
FF
FF
FF
02
02
FE
FD
FD
00
FD
FE
01
01
01
FD
02
00
01
01
FE
FE
FC
01
FE
02
00
FF
FD
FC
01
FE
02
FE
01
FD
FE
00
FC
FD
02
08
FF
00
FD
FF
FF
FB
FE
00
00
FE
01
FA
FC
02
FE
FE
01
FC
FA
E9
FD
F2
02
FE
FF
01
02
00
FB
FF
FF
00
01
00
F4
FF
FE
FF
FF
00
FC
FD
01
ED
F7
FD
03
FE
00
00
FF
DF
FF
F2
FE
FD
FE
FF
FE
02
03
02
FF
FF
FD
01
FF
FF
FE
FE
FD
FD
FE
01
02
01
00
01
01
02
04
02
FF
FD
FE
00
02
FB
FD
FE
FE
FE
FD
FE
FE
EE
FC
02
FA
FB
FD
00
FA
FF
FB
FF
FE
06
02
01
00
03
FF
FF
00
F7
01
FC
FA
FC
03
FE
00
FF
FC
FF
FD
00
FB
FF
D3
FF
E8
00
FA
FF
F7
01
00
FD
05
FC
00
00
FC
F9
F7
08
FE
CE
00
DA
FA
02
FF
02
03
FF
02
01
FC
FF
01
FC
FE
FD
FD
00
02
00
FE
01
FF
FE
03
FF
FF
FC
FE
FD
01
02
02
03
FF
01
02
02
04
FC
FC
FF
FF
FD
E9
08
FB
00
FB
03
F2
04
FE
FF
FD
02
FF
FD
01
00
07
02
FF
FA
02
FC
FE
01
02
FD
F9
F3
02
FF
01
06
FC
EE
FF
FD
06
02
00
FD
03
FB
06
FF
01
FE
03
F9
07
05
01
04
FB
00
06
00
00
FE
02
03
03
EE
01
01
FE
FA
03
F3
FD
00
01
FD
FE
02
FD
04
FD
02
05
FE
F5
BE
00
F8
FE
09
01
FC
FE
00
FF
00
FD
07
FA
F9
00
F1
F8
FE
03
FE
00
FD
00
E9
03
04
03
02
01
FF
03
09
03
05
11
FB
02
FE
00
02
FD
00
00
FF
F9
FD
FC
FB
FC
FC
02
02
FD
FF
FE
00
FB
04
01
FF
01
FB
01
FA
02
FD
00
F3
00
FF
02
01
FE
00
FF
01
FC
FE
F4
00
03
00
FD
FF
00
FE
01
F9
03
02
00
FE
FD
01
FB
FC
03
C4
00
EB
FF
00
FF
FE
FD
FF
FF
FD
01
FE
FD
04
FC
FD
00
FF
0D
FB
04
FE
01
FF
02
01
00
01
F1
00
02
FB
F6
F8
01
00
FE
00
07
00
01
FD
01
F6
FB
FE
0A
F9
FD
02
05
FD
01
00
F1
03
05
FF
02
FF
FB
F3
00
FC
00
FB
04
FA
FD
FE
FD
02
FF
02
01
FF
00
FE
FE
FF
00
03
FF
FD
03
FE
FE
FE
01
FE
00
FF
FF
00
03
02
03
02
00
FF
01
FF
FB
01
01
04
FD
00
FB
05
02
02
01
01
F9
FD
02
F1
05
FE
FB
FF
FC
05
FA
04
03
04
F1
FF
00
00
FE
00
00
FF
FE
FE
FF
00
F7
FE
FB
FF
01
FD
FD
FF
02
01
FC
04
02
04
00
FD
FF
FD
FE
F9
FF
01
FE
FF
00
02
FC
FF
02
FD
FF
01
DA
FD
01
FD
FC
FE
00
06
FE
04
0B
FE
FE
01
00
FF
01
06
02
02
FF
01
FF
00
FF
01
00
02
00
10
02
02
09
05
05
01
FF
FD
01
FB
02
F8
E7
00
01
FF
04
FF
FA
FD
FE
C1
FB
F0
06
FE
FE
03
FA
FE
FE
E8
06
08
F9
01
08
F9
F7
FE
F2
FE
01
06
0A
03
03
02
03
02
E9
EB
FF
01
02
0C
FC
01
01
03
FF
FC
00
FF
CB
FE
06
FF
C4
FF
FA
01
F8
02
02
FF
F6
02
01
FE
01
FF
00
FA
00
F9
0E
00
00
FC
00
00
FE
FC
FF
FA
00
FE
FE
FE
FD
FD
FB
00
FD
FE
01
FF
FF
02
02
FF
02
FB
FC
CF
03
FE
06
05
00
02
02
00
FF
00
01
FE
FD
FE
FE
FD
FE
FF
FE
03
FA
FC
02
00
02
FD
FC
FD
FF
FF
FE
FE
FF
FF
FC
FD
FE
00
03
02
FB
01
00
08
FE
FB
F2
F6
FF
FD
02
00
FB
02
FF
04
F6
03
FF
FF
00
FE
FD
E8
FF
EF
FC
FC
FF
FA
01
02
00
01
04
01
F8
FE
FA
FE
FC
FE
FF
FF
01
FB
03
0D
F2
FE
01
01
02
00
FF
F5
01
F5
05
03
03
01
03
FF
FF
F1
00
F5
FC
01
F8
02
06
FC
01
FF
FF
01
FF
02
FE
FF
FF
FF
06
00
00
E7
00
02
04
06
FE
FD
01
00
03
FD
FF
01
FC
01
FE
FF
FD
FF
FD
FF
FD
FD
00
FD
FD
00
03
01
FD
02
01
FD
03
01
FD
FC
FD
00
FE
02
03
FB
01
FE
FC
FB
FA
FB
00
FE
FF
FD
F9
FE
FF
FB
FF
02
FF
FF
01
FE
FF
FD
00
FB
01
F9
FF
01
FF
02
FD
03
01
F8
F9
00
FF
03
FE
FC
FA
FF
FE
01
FE
ED
08
03
FE
FE
FD
FF
FA
F9
00
02
F6
05
FC
FF
FE
01
FE
02
FF
03
FF
00
FE
FC
FD
02
FD
FE
FF
FF
02
FF
FD
00
FE
01
FE
01
FF
FD
FD
00
00
02
FE
00
01
03
03
00
FE
FA
D4
00
02
EF
CF
FF
FB
00
FF
FE
01
FF
FC
02
FE
FE
01
FF
FF
03
00
FE
03
01
FF
01
FD
02
FC
FA
00
00
01
FE
FA
FB
FD
FC
FF
03
FD
FD
FE
01
02
05
04
00
02
FC
00
FC
FF
00
FB
FD
FA
FC
00
01
FF
F7
02
FD
02
03
F6
01
FF
FD
FD
FE
FE
00
00
FC
FD
FF
01
FD
FF
FF
FD
D2
01
FD
FF
06
02
FE
02
FE
FB
F9
00
10
FC
01
F7
01
FC
00
FD
01
01
FF
FF
F9
F3
01
FF
02
FE
FE
FE
01
FE
C6
F7
CC
FE
00
03
02
FD
FE
00
00
FC
FE
FC
FF
FD
02
01
02
01
FF
03
01
FD
FE
FF
02
FD
02
01
FC
01
FE
02
FF
FF
01
00
FE
F7
01
01
00
01
02
00
F8
FE
01
02
FE
F8
01
00
01
08
FC
02
FE
01
FB
02
03
00
07
F9
F7
04
00
FE
02
01
FD
02
FE
00
FC
00
01
FE
00
FE
03
FD
FE
FF
FC
00
FF
00
FE
00
00
FF
FE
FF
01
00
00
02
01
01
FE
00
FF
03
07
F8
FD
F3
03
FA
01
06
00
03
FE
00
02
F5
01
FF
01
04
00
03
ED
00
F0
02
01
FE
FD
FF
03
FE
04
00
02
FB
FF
FD
01
FE
00
01
FF
03
FE
FF
FD
01
01
01
03
FF
00
FF
FF
02
F7
FF
00
00
02
FE
03
01
FD
FD
00
FD
00
02
01
00
FD
FD
00
01
00
FE
00
00
FD
00
FD
00
FD
FE
FE
02
FE
FF
02
02
FF
FE
00
00
07
01
FB
DD
01
01
EA
C6
01
03
02
14
FF
FF
F8
0A
FE
02
04
00
FE
02
FF
FD
04
F8
08
FD
00
00
FE
FE
FF
01
0A
F5
FC
03
06
FF
FC
02
FD
02
FC
FF
FD
08
04
FD
02
03
00
02
00
00
06
10
04
FC
01
03
FF
FF
00
FF
02
C0
02
03
00
BF
02
FE
FE
F8
00
FF
FA
F3
FE
FD
01
FE
FE
08
FC
03
F5
0C
04
00
FC
01
01
FE
FE
00
F4
01
FF
01
FB
F9
F3
FE
FD
FF
00
04
02
FE
01
FE
01
00
FC
F6
CA
00
F7
F8
02
02
FD
FF
FE
00
F6
FF
FB
FD
FE
05
0D
FC
01
FE
FD
03
FA
FF
F6
FA
FE
01
01
03
01
F8
FA
01
D8
03
FE
05
FC
01
02
FA
FF
FF
F5
FE
FD
FA
FA
F9
FF
FF
02
F2
00
00
EF
01
FD
00
FE
FD
03
0A
F0
00
FA
08
F8
06
01
FE
01
01
00
00
FC
01
00
FB
FB
FD
FF
01
FD
FF
00
00
FE
FD
FD
00
00
FD
FD
FE
FD
02
FD
FE
03
FE
FC
FD
02
FA
FE
FE
05
EA
FB
02
03
E9
01
FB
01
FD
FD
FE
FB
08
03
03
FE
00
00
FE
04
FF
E5
02
DD
FB
FE
03
FF
FC
FA
FF
01
07
01
F3
01
00
FF
FE
FD
FF
00
FF
FF
FF
02
03
FD
FE
00
0A
FB
00
02
04
F9
FF
02
FE
FD
00
02
FC
FD
01
FE
FD
FE
FE
FF
01
03
FE
02
FF
FE
FD
00
FD
00
FF
FF
FF
FF
FD
FE
01
02
01
03
03
FE
FE
03
02
FC
D5
03
FC
04
D6
FF
01
FF
F3
00
FC
03
13
00
FF
03
03
02
FB
FA
FF
07
00
04
00
FD
FF
02
00
FF
FD
00
02
FC
FD
FE
00
FF
00
01
01
FE
FD
02
FE
00
03
FE
FD
FE
00
FF
FD
00
00
FC
02
01
FD
00
F6
00
04
00
00
F6
FE
03
FF
FF
01
FD
FC
FE
FF
FE
F3
FB
FE
03
FF
06
02
E7
01
F4
FA
F9
05
F9
FE
FE
FB
00
FD
0B
01
01
01
04
03
FB
02
01
02
03
FD
03
FC
00
03
00
00
00
FC
FD
FF
05
13
00
05
02
00
FF
FA
03
FE
06
FD
03
03
05
FD
FD
01
01
FE
FB
FF
FB
07
FE
03
FD
02
01
FE
FE
01
08
03
F9
FC
05
01
FF
FE
00
01
07
02
01
FD
FC
FE
FD
03
FF
FD
FC
00
02
F5
FE
05
FF
FF
FE
07
01
01
F9
02
00
02
02
00
01
FC
F4
03
04
FF
03
FE
FB
FF
00
00
01
02
FE
02
FD
03
FF
02
FF
04
FE
00
FC
03
CE
FC
D1
05
01
02
FE
07
01
05
00
F0
06
02
04
08
07
03
FF
F9
04
FF
00
03
FF
FF
00
FF
05
F6
FD
03
FF
FC
FE
03
FD
FF
02
02
FD
02
13
FA
00
FF
02
05
01
03
03
03
02
03
08
FB
00
03
00
FE
FC
01
FF
02
03
F9
FB
01
FF
00
FF
FE
00
01
FD
02
FC
01
02
FC
FD
FF
01
FC
FE
01
FE
FF
FF
FF
02
FE
FF
FD
FF
02
00
01
02
01
FF
03
01
02
00
01
FC
FE
FD
FB
FE
FE
02
FC
FF
00
02
FD
FE
FF
FF
01
FF
FD
FD
FF
01
02
01
FF
FE
FF
FF
02
FE
FD
00
FE
F8
FE
02
02
FF
FC
01
00
03
FE
FE
FE
04
FC
FE
03
00
01
00
01
DA
04
F5
FB
FD
FF
FE
FE
03
02
00
02
05
F4
FD
FB
FD
F7
FB
FA
FD
00
01
FE
FD
F7
02
02
00
01
FF
F6
F2
FE
F9
08
03
FA
04
FE
FE
FD
FF
01
F9
FE
FD
E4
F4
FC
FE
02
00
FF
02
02
FB
07
FE
FE
03
FE
FD
F8
FA
01
04
F8
FE
FE
05
00
01
FD
F7
FE
FF
03
00
EE
FD
00
00
04
00
07
02
FE
0A
06
01
01
FD
FE
03
02
FF
FF
02
F7
04
01
02
FE
FF
02
FD
05
FA
F7
F6
FA
EA
FF
FE
F3
02
F5
FD
FD
0A
F8
03
03
01
00
FE
FB
FE
02
FC
0D
02
02
FC
FE
00
00
F8
FF
F8
FA
FC
EA
04
FE
FA
FB
02
01
FD
00
FA
FA
00
FD
FF
00
FD
FE
BE
01
F8
08
08
FF
02
FE
01
FF
FE
03
FE
F2
FF
F2
02
F6
01
FF
02
FB
00
FF
FC
F6
03
00
02
05
FD
FD
03
FF
BB
02
C6
FB
02
02
03
FB
03
FC
0E
FD
FC
FD
05
F8
01
02
03
10
00
03
FB
F9
FE
01
FE
01
02
07
01
FE
01
FC
DF
FE
03
FF
01
FF
03
00
02
FD
FC
01
FC
FD
FE
FF
00
FE
05
02
01
FE
02
FD
01
FD
FF
FE
FA
FD
FF
FE
FE
00
02
01
FE
FA
FF
03
F1
03
FD
FC
05
FC
FF
F5
FD
01
FF
01
FE
FA
FE
FF
FD
01
FC
F9
FD
02
F9
02
F2
FD
01
01
01
02
00
FE
FF
D5
FC
08
FB
CF
00
02
FF
F8
FD
FF
03
05
FC
FF
01
FC
03
F7
FD
00
05
F9
03
FB
FB
00
FD
F9
F9
02
01
F9
F8
FF
FD
F1
01
FD
01
FF
00
FF
F5
EF
FC
02
FF
FE
FE
F1
02
01
CF
F5
DB
03
02
FE
01
00
03
FF
03
02
02
00
FE
00
FB
02
02
01
FC
FE
03
FF
FC
FE
02
03
00
02
FF
FD
02
FE
00
FE
00
FE
01
FD
FF
02
FE
01
FB
FC
FD
01
00
FD
02
FD
FF
02
01
03
FD
02
FE
FD
FF
00
FD
FD
00
00
02
FE
01
00
00
FD
0C
FF
00
01
F8
05
03
FE
00
01
01
0F
FF
FD
04
00
01
FE
FF
01
FD
FC
03
02
06
01
03
05
FE
00
FF
FE
FD
02
FF
FD
00
FC
FC
FF
00
01
FE
FC
01
00
FE
FC
FD
FD
00
02
FD
FB
FE
00
FE
FE
00
FE
03
FF
FE
FD
F7
FE
FB
FD
01
E5
FF
00
00
FE
02
F8
00
FC
F9
F5
FE
FE
03
01
00
F9
00
FD
EF
FD
FB
FF
03
FE
FE
FB
01
01
07
01
FE
00
04
FA
FF
01
01
01
01
02
0B
04
FD
01
02
01
01
FE
03
00
03
07
E0
03
FF
FE
00
FF
FD
00
02
FA
01
F7
FD
F2
00
FF
FE
FB
00
FD
02
FC
FF
02
01
FE
FF
FE
FA
03
FB
FF
F8
FE
01
FE
FE
FC
02
04
FF
01
FF
FF
00
01
00
01
FD
FF
FF
FE
01
FC
FE
00
02
01
02
03
F6
00
FE
FF
FF
02
00
01
00
F8
FE
02
00
FE
03
FE
07
FF
FC
FC
00
FE
FE
02
FF
12
00
03
00
04
00
FF
F5
00
02
FD
FE
00
FB
FE
00
00
FC
04
F0
01
02
FE
FA
03
F2
FA
02
FC
00
02
03
FC
02
FE
FF
05
FD
F8
BE
FF
F4
00
04
02
FF
02
00
F5
FC
FD
FD
FE
01
FA
FA
FE
00
F2
00
06
FD
01
07
06
FF
04
FE
FD
FF
FD
FD
00
00
FE
FD
FA
FD
03
FF
FF
F9
FE
FF
FF
02
01
FC
03
FF
FD
03
FE
FE
00
09
FF
FD
FF
02
05
FE
F9
F7
FF
FC
F8
F9
FD
01
FE
03
01
01
03
02
FF
FE
FE
01
00
01
00
FD
FF
FC
01
FF
02
01
02
FF
03
FD
01
FD
02
FF
FF
02
FD
FF
FE
FE
FF
01
FF
01
FE
00
FE
01
FD
FD
FE
02
FC
01
00
01
03
FD
01
00
FF
02
FC
00
FE
00
FC
FE
FE
FD
FF
03
FF
FF
02
00
FE
02
FD
FC
02
FE
02
FD
FF
02
00
FF
FE
FE
FF
FE
FE
FE
FD
FC
01
FE
02
FE
FC
FE
FE
01
02
FB
FE
01
00
00
FB
FB
02
FD
01
01
FF
FC
FE
01
02
02
02
FF
FE
00
FC
FD
00
FE
FC
00
FF
FF
00
02
FE
FC
FD
FA
DB
01
01
FE
D9
01
F9
02
F5
02
01
FF
FE
02
FE
03
04
FB
F8
FB
FF
FA
00
F3
FF
FD
02
FF
FC
00
02
03
FF
00
02
FE
FE
FD
FF
FD
FF
FD
00
F9
01
00
01
00
00
FC
F8
FB
FD
FB
02
00
FC
FD
FF
FF
01
00
00
09
FB
FB
FA
F7
FA
FE
04
03
FB
FE
02
07
F6
04
03
02
00
FD
08
FD
01
03
06
F1
FA
04
01
01
01
FF
02
F5
F3
FD
FC
FC
02
FE
F9
FF
00
FD
02
FC
FA
01
FF
FD
FF
FF
F5
E7
01
F4
02
FF
FC
FE
FF
03
01
FD
FC
FC
FF
05
F0
FD
FB
00
FD
02
FF
FD
01
FF
FD
FF
FE
02
00
00
00
ED
01
FA
00
FA
00
FE
02
01
00
01
FD
0E
EF
FE
00
FA
EB
FE
FF
01
02
00
01
F5
F3
FE
03
00
00
01
FE
03
01
BC
FF
CA
04
02
00
02
F6
00
FF
FA
00
01
F5
FD
02
FE
FF
03
06
03
01
FE
02
01
04
FF
FF
01
FB
FE
00
FC
FE
FE
03
FF
FD
01
FD
FC
FE
FF
FD
F3
03
00
FD
03
FD
00
11
FF
FE
0D
02
01
04
02
00
FB
03
06
04
0A
04
F3
F6
FF
00
00
FE
FC
FC
06
FE
FC
F7
04
00
01
FB
FF
F2
00
FE
06
EE
02
FF
FD
00
00
00
FF
02
FB
04
FE
00
FA
00
FF
02
02
01
00
FF
FE
FB
01
00
01
FF
02
00
FF
00
FD
FD
03
02
01
FD
03
00
00
03
00
FE
02
00
00
FE
FD
FE
FA
00
FD
F9
02
01
FB
F7
FF
FF
FD
F8
FD
01
FA
F9
FF
00
00
04
02
FE
F8
03
FA
00
00
02
FE
03
FE
02
FE
FF
FA
FC
FC
F6
00
00
01
00
FE
FD
01
FC
FF
FD
FD
00
FD
FF
FB
01
FB
00
F8
FF
FD
FF
00
02
02
FE
FE
FC
04
00
01
F1
01
FC
FD
FE
FE
00
05
FE
FF
FD
FF
FF
02
00
02
08
FE
01
FC
FD
FC
01
00
02
FE
FC
FC
FE
07
06
01
F0
00
FA
02
02
01
0A
02
01
03
FF
FE
01
01
FD
01
FE
00
FE
02
03
FA
03
FB
FF
FF
01
FE
FF
FD
00
FC
FC
00
00
FF
01
03
FF
FC
02
FF
00
FE
FD
01
FF
01
00
FC
03
FF
FF
FD
FF
02
03
FE
03
FF
FF
FF
FC
FC
FA
FC
FD
01
FF
01
FC
04
00
FF
06
FE
04
FD
00
00
FD
FE
FE
FA
FF
FB
FF
00
00
00
FF
FD
02
00
FB
FE
FD
FF
FF
01
00
FE
02
FF
02
FE
FD
FE
00
FF
02
02
01
FD
00
00
04
00
FF
02
02
FE
F7
10
01
FE
FB
EE
00
FA
00
FF
FF
00
05
01
03
FF
FD
FA
FA
FE
FA
06
01
FF
FF
FC
02
D9
FF
03
00
FD
FD
01
FE
10
01
01
02
00
FE
FE
FC
FD
00
FE
FF
FD
01
02
FF
02
FF
01
03
01
03
C5
FD
C9
04
FE
00
01
00
FE
FF
FF
FD
00
FC
FC
00
03
FD
01
FF
02
03
00
02
00
FE
00
01
00
02
FD
01
01
FD
00
FD
02
02
FF
05
06
FE
04
FC
FE
FE
FD
FF
FE
00
00
F9
FC
00
E4
00
00
00
02
00
FB
01
04
02
05
05
F3
FA
FC
03
FD
01
FF
00
00
FE
01
FB
01
FD
FF
01
02
00
01
FC
FF
FC
02
FE
02
02
00
01
01
01
FD
00
FE
FD
00
FE
03
00
FE
04
02
02
00
01
F4
FE
02
02
FE
FB
FF
01
FE
FA
FF
00
02
01
02
06
FB
00
03
02
FC
08
04
03
02
F7
FA
02
0C
FC
06
01
F3
F7
F9
03
03
FD
00
FF
06
04
00
00
02
01
FE
03
04
03
0B
F7
FA
01
01
02
FE
F7
01
FF
F6
03
01
04
F9
08
01
FF
02
01
00
02
03
FD
01
02
01
00
04
0D
F7
00
01
FD
FE
01
01
03
FD
FE
FF
FE
03
00
FF
FE
05
FD
02
00
00
F9
01
FE
FE
FD
FB
00
03
01
FE
00
FF
FE
00
02
02
FD
FD
00
00
FF
00
FD
06
00
FE
F0
FE
FE
00
03
02
00
FF
00
FB
FB
04
FD
FF
04
FC
07
FF
FD
FE
FD
00
FC
02
FE
02
02
F8
00
FE
F5
03
03
07
F5
03
FE
FD
03
00
03
FB
04
FF
FE
FE
FF
03
F6
FC
00
EF
FC
E6
04
01
02
FF
02
0F
00
09
AC
04
01
F9
AF
00
FE
FD
FD
FD
01
0B
F8
FF
00
02
01
FE
FE
FE
FE
10
FA
0A
F9
03
02
FE
01
FD
FF
FF
FE
F7
F8
F8
00
FA
03
00
FD
01
FF
04
F4
03
02
01
03
FC
FF
FE
03
FB
FB
EC
FD
03
00
01
FE
FF
02
02
FF
FE
01
03
01
FD
FD
02
FD
01
00
00
FB
00
01
03
00
00
00
FA
01
FB
02
FC
03
FC
01
01
FE
FD
00
FE
00
FC
F8
FE
FF
FD
FC
02
FC
01
FF
FE
FF
FF
FE
FE
02
FC
00
FB
00
FE
01
FD
01
FF
02
01
FE
FE
FD
00
FE
FF
FD
FB
FE
FD
03
FE
FB
02
FF
00
01
01
FF
00
00
FE
02
FD
02
FE
01
FE
FB
FE
01
01
FC
FB
FD
00
EB
02
F9
FD
D7
02
F3
02
FE
01
02
00
F0
01
03
FD
03
02
00
03
03
EA
01
DE
FB
FE
FE
FF
FE
08
00
F5
DB
FF
FF
00
DF
FC
01
00
F9
00
02
FA
01
02
02
01
01
02
F9
F4
FF
FF
04
05
FE
01
FE
FF
F2
FD
01
FC
FD
FB
03
0C
FD
FC
F7
FD
01
FB
03
09
08
FF
FE
02
FE
FE
FA
03
01
00
06
FF
F8
00
FE
02
FD
08
FF
05
FE
F1
FF
FB
00
01
02
02
0C
FD
FF
07
02
FE
01
00
FD
FF
03
04
FE
09
00
02
FD
04
FE
03
F9
01
FC
F7
FF
FB
02
FB
FC
03
FE
00
0B
FD
00
05
F9
00
02
01
FF
00
FE
00
00
03
04
00
FF
FC
02
03
FF
08
02
03
FF
F6
FC
ED
00
F7
06
01
FD
FD
00
09
F8
01
03
01
01
00
F4
FE
FE
FC
F4
E9
01
01
FE
FE
FE
FE
03
F3
FD
00
06
FC
FC
F8
FD
02
FE
01
01
FB
FE
01
00
01
01
00
FC
BD
FF
02
FE
05
FF
FE
00
02
F8
FA
FF
02
02
FC
FF
00
01
FE
FF
FE
FB
FE
03
04
E0
FB
03
03
01
FF
09
F8
FD
FD
F1
F9
06
00
FF
FE
00
FF
FC
F8
CD
04
DE
FB
CC
00
01
00
FE
FF
02
FD
FF
02
00
03
FF
FA
04
00
00
04
F8
FF
00
FF
00
03
FE
03
FF
FC
01
FF
FE
01
02
FE
FF
FF
00
FC
02
FD
FD
FE
FD
00
03
FC
00
00
FF
01
FD
02
FF
FE
00
01
01
02
01
01
FF
FE
01
02
01
FF
FD
02
01
FE
01
00
02
FF
01
00
03
FC
00
FD
02
FE
FE
FF
00
00
01
FE
F9
00
01
00
FB
FE
FF
09
F4
01
00
02
FF
00
FF
F7
07
FF
01
02
FF
02
FE
F8
01
DF
00
EC
00
04
03
FF
FC
FE
FF
01
02
F9
F3
F9
00
00
01
01
01
02
00
00
00
FE
FE
00
02
02
FD
FB
FF
00
00
FF
02
00
FF
FE
FE
02
00
03
FB
F3
F7
F8
FF
F9
00
FF
F7
FD
01
03
ED
FD
FF
03
FD
FF
0B
FD
01
05
F6
CE
FE
05
FF
FE
FF
FF
FF
FE
00
FF
02
FC
FF
FE
FE
FF
02
00
FE
00
FF
FF
FF
FE
01
02
02
FC
00
01
FE
FE
FF
FD
00
02
FF
00
FF
01
01
FD
02
FD
FC
01
FF
00
01
FE
02
FE
01
01
01
00
FF
FE
01
FC
02
FE
FE
FF
00
FF
FF
00
03
FE
01
FD
F7
FE
FB
05
FB
FE
03
FF
FC
01
02
00
F6
02
FF
03
03
03
03
F0
FE
F7
FA
00
03
FD
FF
FD
00
FB
00
FC
D3
02
06
00
D0
03
FF
02
F7
FE
FF
FD
F8
01
FF
02
00
FE
F7
FD
01
EB
FE
FE
FF
FF
02
FF
FC
FC
00
F8
F9
F8
FA
F4
F6
FC
FF
FE
0A
FB
FD
0B
04
00
02
02
FE
FD
FE
07
02
07
06
FD
00
00
FF
03
FC
00
FF
FC
FE
00
01
FF
F9
02
02
FF
FB
03
FD
00
FE
01
02
00
03
FE
FE
FD
FE
FD
02
01
03
FF
FD
02
FE
01
02
01
FB
FC
FD
FC
FB
FF
FD
FE
FF
01
FF
01
FD
FC
00
03
00
FE
FD
FB
01
FD
FF
FA
01
FD
FF
FD
FF
00
03
00
F9
FF
01
01
F4
01
00
00
FD
01
01
00
00
FC
02
FE
FD
00
00
FC
00
00
FD
01
FE
FE
00
01
FD
F7
01
02
01
FE
FD
FB
01
FE
F4
03
FB
FF
05
FD
EE
FE
02
FE
01
00
FA
01
01
FA
05
C7
FD
01
02
FE
FE
FF
FD
FC
FC
00
FE
02
02
01
FE
02
FD
FE
00
FF
FE
FE
FE
FE
02
02
FE
FD
02
FF
FE
FE
FF
FF
FE
00
FE
FB
01
F7
F4
FF
02
01
EC
00
FD
FE
00
02
FD
12
0A
FB
00
00
FD
03
F0
FF
FD
FC
00
E0
FF
00
FE
03
F8
00
FF
04
FA
FE
06
01
FA
04
FF
FE
00
02
FF
F9
0E
FE
00
FD
01
01
FA
01
FF
C3
01
CF
07
FC
FF
00
FE
02
FF
FE
FD
FF
FF
FF
FF
FE
00
00
02
FD
00
02
02
FE
01
02
FE
00
FF
01
FE
FE
00
03
FD
FD
01
02
04
FC
01
F9
FC
01
E3
F9
FC
FF
FC
03
FC
02
FE
08
FD
FE
FF
02
00
FE
F9
FC
FF
F8
0B
FD
01
01
01
01
FB
02
02
05
FC
FD
05
04
00
03
FB
FD
02
FD
02
F6
F3
00
FD
02
FF
01
FB
00
02
BD
00
CD
FD
00
FE
02
FF
FF
FF
FC
FD
FE
FD
02
FF
03
FF
FF
02
FF
02
00
FC
01
01
01
00
02
FF
FD
02
FD
01
00
FD
00
FF
03
FB
FA
00
04
E8
FF
03
F7
EC
FD
00
FE
FB
FE
03
08
FF
02
01
FF
FE
01
FF
FF
00
04
F2
F2
FE
FF
FF
01
03
FE
02
07
FB
FC
C8
00
F1
02
01
FE
F8
01
FF
F9
03
02
FE
02
02
03
0A
FB
FF
01
DF
F0
FC
FC
FF
FF
FB
FD
01
FF
FD
FF
FF
00
FB
01
FD
FD
03
FE
01
FF
01
01
02
02
02
FD
01
F7
03
FC
01
F9
02
FF
01
FF
FC
01
FE
07
EA
01
F9
02
E7
00
FB
00
01
02
FD
FC
05
01
03
03
FE
FF
FF
FF
FE
07
01
03
FF
FD
FD
01
FD
02
01
FE
01
FF
00
00
FF
01
FF
FE
FE
02
02
00
02
03
02
02
FF
02
FE
FE
FD
FE
03
00
FD
01
00
03
FD
03
FE
FC
FA
FF
01
08
FF
FC
00
FE
FF
FE
00
04
F0
FC
01
FF
05
01
05
E1
01
FC
F8
00
03
FF
FE
00
F5
FA
00
0D
F3
02
FE
02
F3
FE
FD
02
FF
FF
01
F9
FA
FC
00
FD
FD
01
FD
02
02
BC
04
CB
04
00
FD
FD
00
00
FD
10
EA
05
EF
F7
E4
00
FC
FF
FE
02
01
F5
0C
00
00
FE
FE
FD
F8
FD
00
00
F3
FF
FA
FE
02
FF
FE
02
02
F3
04
01
FC
FA
00
03
FF
00
FC
FE
03
0B
FF
00
00
00
04
03
FB
FD
01
07
0C
02
02
FD
02
02
FD
FD
FE
EF
FC
FE
FC
FA
02
F0
FC
01
00
FD
00
FD
FE
FF
FE
FF
01
FB
F5
CA
00
FA
00
08
FB
FC
00
FE
FC
FA
01
06
F6
00
FA
FA
03
FC
03
02
FB
FE
00
01
FE
05
FF
01
00
00
02
00
FF
08
06
FC
F9
02
FE
FF
FF
FD
FD
FE
FF
FC
FB
FE
FC
FE
FE
00
FF
00
FF
F9
06
00
FE
03
05
FE
FB
FD
FE
FC
00
FF
01
00
FF
FD
FE
FC
04
FD
01
FE
F9
02
F9
FE
FF
FF
00
FB
00
FF
03
02
FE
FE
02
FD
01
FC
FD
02
00
00
FF
FF
01
02
FD
EE
FF
FB
01
03
ED
00
FB
FA
F9
FE
F7
02
FF
04
0D
03
FF
01
01
FF
FC
F7
FF
06
F2
FE
00
FD
00
00
00
FD
FF
01
FE
FC
FF
00
00
00
00
02
FF
01
FD
FD
01
02
02
01
FD
02
02
01
FD
01
00
03
01
02
02
FE
FE
FD
FF
05
02
01
02
FD
01
00
FB
00
FD
FF
FD
08
EE
FF
01
02
01
01
FD
09
FE
FF
FC
00
FF
01
00
01
FC
05
03
0A
FB
FF
02
01
ED
FF
FC
01
FE
00
FE
F8
01
00
FF
FD
01
01
FA
04
00
C9
FF
C8
FC
FF
00
FE
FC
FE
03
FC
FF
FD
FB
01
01
FD
FD
FD
00
FC
01
F9
FB
FE
02
FD
02
FD
FD
F9
03
FF
03
FB
FF
01
01
FE
01
FE
02
F3
06
01
03
09
FE
04
FC
01
F8
00
FF
FB
0C
00
00
FE
01
00
F7
FE
01
FD
F0
E9
00
FB
FF
FE
02
FF
FE
01
FF
FE
F8
01
FB
FE
00
FE
00
01
FE
FC
FD
02
FE
FE
FE
01
01
FC
FE
01
FE
F8
02
FD
02
01
FD
FF
01
05
FF
FF
00
00
00
01
FF
FE
0F
FD
FF
0C
F6
FF
FE
02
04
00
02
04
00
07
FB
FF
FF
FE
00
02
F8
FF
02
07
04
FC
E4
FE
FC
FC
00
FE
F6
01
02
FE
04
02
FF
00
01
01
08
00
01
03
FB
03
00
02
FE
FF
FE
08
FF
16
03
06
FA
F6
03
00
01
01
FE
02
FE
0B
01
02
FE
00
01
FD
FE
02
FF
02
F6
02
03
FD
02
02
03
FF
00
00
C0
04
03
01
BB
00
FB
FE
F9
02
02
F7
F6
02
01
02
00
FD
FF
FC
FF
F2
FF
03
FE
03
02
02
FA
01
02
00
00
00
FE
00
02
FD
01
FD
FD
00
00
01
01
FF
FF
00
FD
01
FF
01
FF
FF
01
01
01
00
FD
FF
08
FF
01
0F
F9
FE
FF
02
01
00
01
FD
0C
FE
00
0C
F7
FF
00
01
FA
FE
09
00
02
01
05
00
FB
FD
FF
FE
00
FE
FE
02
F8
FF
FB
00
F5
FB
FE
00
02
00
FE
F9
03
FF
FF
02
02
02
FD
FD
02
01
FF
FE
FF
02
03
00
03
FF
05
FE
E3
02
05
01
D5
04
FF
FE
06
FE
01
02
04
FF
04
03
FE
FE
FD
02
03
04
F6
00
FB
FE
01
FD
FC
00
FF
0F
FA
00
E4
FD
F8
FD
00
00
FC
FF
01
02
F7
00
FD
01
03
01
04
01
FE
FA
FD
F8
FF
FF
FD
01
F7
00
02
FC
FF
FD
04
03
01
00
00
02
02
FE
03
FB
F4
00
03
03
01
03
01
05
00
D2
FB
EA
05
00
FE
01
FB
00
FE
FD
FE
05
02
02
08
FF
FE
01
02
02
FF
05
0F
FF
00
FF
03
FF
00
03
FE
FC
07
0D
FF
FF
02
FE
FF
05
01
01
F1
FA
F8
FA
F6
FC
01
FE
F4
FF
FE
07
FD
02
01
02
FF
FB
05
FF
01
07
06
F5
01
02
00
00
00
FE
FE
FF
CE
FE
E6
F2
CB
FD
01
01
01
03
FC
FE
FF
FF
03
FE
FB
02
02
00
00
02
F5
03
FF
03
03
02
FF
FA
02
03
00
02
02
00
00
FF
FE
01
02
02
03
F8
0A
01
02
02
01
02
FF
FC
00
DB
FC
EF
02
00
00
02
FC
00
FF
F7
03
FC
FD
FA
FE
FB
F9
01
0A
FB
FF
07
00
00
00
FF
FE
FF
F8
FB
FE
FD
04
01
FF
FF
03
01
02
00
FE
00
FE
FD
FB
FE
FF
FE
03
01
FF
00
FD
FF
02
02
01
03
00
03
03
FE
00
01
01
00
00
FE
FE
FD
01
01
FF
F2
F6
00
DC
02
FB
FE
03
01
F6
03
01
0A
04
FF
02
01
01
02
05
FB
FF
FD
05
F8
FC
00
FF
01
00
E7
02
01
FC
FD
FC
F7
00
F8
FC
FF
FC
FC
00
FF
E2
FF
01
02
00
FB
FF
FF
FF
06
0A
FE
FC
03
FE
01
FD
FD
00
FF
01
01
FF
FF
00
FD
02
FF
FE
FE
FF
01
01
00
02
00
FF
01
00
FC
02
FF
01
00
00
FE
01
FE
09
00
02
07
00
FF
08
FD
FE
02
FF
00
FB
FE
03
FB
FD
FD
03
FF
01
04
FF
FE
02
02
FF
FE
03
01
FF
02
06
FD
03
F9
05
04
10
F6
01
04
03
FF
03
FE
FF
00
00
01
04
02
00
03
FD
00
00
05
FD
07
02
FF
01
FE
00
FE
FD
FD
02
FD
FF
02
FF
FF
FD
FE
FF
FE
00
03
01
02
FF
FD
01
FF
02
FF
FE
00
FE
01
FE
00
FE
02
FD
F7
FE
FD
06
FF
00
F2
00
03
FF
FE
FF
FE
02
09
FB
FE
FD
00
05
01
F9
F7
FD
03
0A
01
0C
FD
FE
00
FD
FC
00
0A
FB
FE
01
0A
FA
04
FE
03
04
FC
FF
FB
FF
04
FE
02
FD
FD
02
03
FE
C6
01
F1
FB
FC
FF
00
FC
FC
FD
F0
02
FC
03
01
01
01
01
01
FB
FE
FD
08
FF
00
FE
FD
02
02
FD
FC
02
04
FF
00
FD
FD
02
FD
03
FD
FC
08
00
01
F3
FD
F7
FC
00
FF
FA
05
FF
07
F9
FF
FD
02
FF
FB
FD
FF
03
F3
FC
00
03
02
FF
01
01
02
00
FC
FE
FF
FB
FB
FD
01
FE
FE
FD
FE
03
04
F1
00
01
02
00
FE
FD
FA
FD
FE
FF
FF
FD
FD
FF
FF
FE
F6
01
FD
05
02
01
02
FE
FC
FE
00
F2
03
03
FC
00
FF
00
FD
04
FD
02
02
FE
F7
0F
07
F7
FE
FE
FE
FC
F7
00
02
F3
00
07
02
03
02
FC
FE
0A
00
03
01
06
FE
02
FF
00
01
FE
02
00
00
0C
E5
FC
FD
02
FF
F4
02
FE
EA
FD
FE
01
FD
FD
FE
F8
01
08
FC
FF
08
F4
00
FF
03
FF
01
03
F9
FF
FB
F5
F4
00
FC
01
FD
FF
FB
00
EB
02
04
02
FD
00
FF
FD
FF
FE
00
04
07
0D
FD
01
01
02
FF
05
EF
FE
08
0D
01
FE
FD
03
FE
FD
FF
02
00
FE
01
00
FE
FF
00
01
FE
FE
00
FF
FE
FE
FF
02
03
FF
FC
00
FF
01
01
FF
03
01
00
FF
00
FB
01
01
00
FE
FD
01
FE
00
FE
01
03
FC
FC
00
01
FD
00
01
00
00
FD
02
FC
FE
00
01
FE
00
00
02
01
FF
02
01
00
FD
FF
FB
FF
FB
02
FD
02
FE
FF
FE
FB
FF
04
00
00
00
00
00
FE
01
00
FD
FB
00
03
01
FF
08
00
01
F8
F8
03
FA
F8
F6
FD
FC
01
F1
FE
02
DB
06
04
01
00
02
FF
F3
02
FD
FE
03
02
01
00
FE
FE
FA
02
02
FB
FF
00
FB
FE
03
02
02
FF
01
00
00
FE
05
02
00
FE
01
FF
03
FF
00
FF
FF
00
01
02
FD
02
FF
FA
02
04
F2
03
FA
FA
FB
F9
FF
FE
FF
FE
01
00
FA
FF
00
FF
FE
FD
04
FE
00
05
01
FC
FE
FF
01
03
00
00
FF
FD
02
00
FE
FF
02
FE
FF
00
FD
FD
FE
FD
FD
02
FD
00
00
FD
00
02
FF
FD
FD
01
00
01
FD
00
04
02
00
FE
FC
00
03
00
FB
03
FD
FD
FF
01
FE
FB
01
00
FE
00
02
02
FB
02
03
FF
04
F8
01
FF
00
01
FF
FC
02
FF
00
00
FD
03
05
03
00
FE
01
FE
02
FE
FE
FE
FD
01
03
02
FC
02
01
03
00
FA
03
01
00
FF
FD
FD
FF
03
D6
FC
04
09
E0
02
FF
FD
FE
FF
FF
F5
01
02
00
04
FC
01
F3
04
FF
02
FB
FB
FE
00
02
00
FF
F0
FF
0D
FD
FF
03
0A
FD
03
FE
01
FB
FD
03
F8
09
FC
FF
00
FE
00
F9
F3
01
FC
EE
F8
FE
02
FE
03
00
FC
FF
0B
FF
FB
FF
01
01
04
FD
00
FE
FF
FE
FC
EF
00
00
01
FD
00
03
04
FD
B6
06
E0
FE
FE
02
02
FE
07
FF
07
01
FD
02
05
FA
FF
00
00
FE
00
02
FE
03
03
03
01
02
FF
FE
FF
FF
C7
04
CB
03
FD
03
02
02
FC
00
00
E0
00
02
F6
E9
01
FF
02
04
FF
02
F9
EF
03
02
FE
FA
FC
05
FC
00
03
F9
FF
FC
FB
FE
FF
02
FB
03
F7
EE
01
FF
F6
F1
F7
FF
FD
F9
00
02
FD
FE
02
FB
00
02
FD
FB
D4
02
FF
04
01
FF
FC
01
01
FD
FE
FF
0C
FE
FB
DC
11
FF
00
FE
02
FE
FD
00
07
01
02
03
FF
FD
FA
FC
06
00
06
F9
04
FB
F9
02
FF
FF
FD
03
08
00
FC
FB
00
FE
FC
FF
03
04
00
01
FF
FE
00
02
FF
04
FE
FE
00
02
06
EB
00
FF
FD
00
03
01
02
01
00
02
FC
01
FE
01
FF
00
00
FE
03
FF
FD
FE
01
02
FF
02
03
01
FC
FF
FF
02
FD
01
FF
00
FF
FE
FD
01
0A
FC
FA
EE
01
FE
01
FE
FF
FF
04
01
FD
F9
02
02
00
FF
FB
01
FC
FE
FE
FD
FA
00
04
03
00
F2
F5
FF
F7
00
00
F6
FD
03
FA
F6
FE
01
FD
00
06
F6
00
04
02
01
FC
F8
ED
00
F9
FE
04
FD
FA
FF
02
04
FD
03
08
02
02
10
02
06
00
03
FF
08
FF
02
03
00
FD
FE
FF
02
03
06
FE
02
04
FD
FB
01
03
FE
FF
F9
02
01
FB
F9
04
06
FD
01
FF
05
FD
07
FD
02
00
04
03
01
FE
03
FC
00
03
FE
07
02
F9
F8
FF
02
FE
FD
09
FF
01
FB
F4
00
FF
FD
01
02
00
07
00
FF
06
01
00
FE
FF
00
01
FF
05
FD
02
FE
EA
03
FF
FE
01
FF
04
FF
FB
03
FD
04
13
FE
00
03
00
06
00
FE
08
F3
FD
01
01
01
04
02
F2
FF
FD
FD
FC
06
00
01
01
04
FB
03
06
FD
F7
FD
F4
FD
FC
00
03
0F
FF
04
04
0D
FD
FE
00
01
02
FD
FC
03
01
01
F0
03
01
FF
03
00
FD
FF
FB
FA
FC
F9
FE
03
FF
00
01
FC
FD
01
FF
01
FF
FF
FF
00
00
FF
FC
01
FC
01
02
02
01
02
00
FD
01
FF
F7
FF
FD
00
FF
FE
F9
00
02
FF
FE
00
00
FB
FE
02
FE
02
02
FC
CB
FF
FF
FB
03
FE
FE
03
00
FF
00
FD
00
FC
FB
FF
F8
FE
FE
FD
FE
FC
00
02
FA
FF
03
FF
FF
03
FB
FE
FD
01
02
FD
FD
FC
FE
01
01
01
02
FD
FE
FD
00
FD
00
01
FC
02
00
02
00
00
02
FE
FD
01
FF
01
00
FF
FF
02
02
FE
01
FE
FE
FF
FF
FF
FB
01
F9
03
00
FC
FA
02
FA
FE
FD
FC
F8
FF
FF
FB
01
FF
01
03
FC
FA
BE
02
FE
06
02
FD
FF
03
01
FC
FE
00
FC
00
FF
FB
04
FD
FD
F1
03
0C
02
02
06
02
01
00
FF
FC
FD
F8
FD
01
FB
FA
FF
FC
FD
FF
FF
F7
01
00
FF
FA
FE
FD
FF
FB
00
01
02
F9
FE
FD
02
04
FD
02
FF
FF
00
F9
EE
03
F6
02
FF
00
01
FD
03
02
F8
01
F9
03
00
EF
F9
FB
FF
02
FE
0A
02
FD
02
00
01
00
02
FC
00
FF
05
02
01
FC
03
01
02
FE
01
FF
FB
02
01
FB
FF
ED
FE
FD
FD
FE
02
02
02
01
FB
02
03
03
FD
00
FD
FE
01
FF
01
01
01
00
FE
FE
FD
05
08
00
FD
EF
03
01
FB
F3
FF
02
FF
FE
FE
FF
F4
FC
00
FD
02
03
FF
FC
E5
FD
FE
FE
FB
FD
FF
02
02
F9
FB
FC
F3
E8
04
03
F7
E8
01
01
01
06
03
01
EE
09
01
FE
00
FF
02
EA
FE
00
04
FA
00
FF
03
00
02
FD
FE
02
01
FF
02
DD
01
F4
FF
01
FF
FB
FF
03
03
DE
FF
00
00
01
FD
00
EF
00
F1
05
FD
FF
01
FF
02
FA
FD
00
FE
D1
FE
04
EE
D2
FD
FE
03
10
03
00
FF
F8
00
00
FF
02
FF
00
01
01
FA
01
04
FD
FE
02
FE
05
00
FC
02
F9
01
00
FD
FA
FC
02
03
FD
FE
00
FE
FA
03
00
00
01
FD
00
00
00
FD
FE
FE
02
FC
02
02
FE
01
01
04
D6
00
04
FB
E6
FB
FE
03
EF
00
FF
01
FD
01
01
FF
01
00
F4
FA
03
F4
04
F6
FF
01
FD
FE
02
0D
FD
FF
F9
FB
03
00
01
03
FA
01
F8
FC
01
FA
F6
FE
00
01
FF
03
F9
01
FE
D4
FF
D1
FC
FE
FD
00
FB
05
FF
01
00
FC
F9
ED
00
FE
02
FE
03
02
FF
00
04
FE
02
FD
00
FA
FA
03
FE
02
02
01
FE
FE
00
FD
00
02
00
01
00
FE
FE
FD
01
01
FF
02
FC
FD
FE
00
F8
00
FF
FF
FE
FF
01
FD
FF
FC
01
FE
FF
FF
01
03
FD
00
FE
FF
03
00
E8
F3
FA
02
FD
FD
FC
06
FE
0B
FD
01
FE
02
02
FC
04
01
00
FF
05
F6
FC
01
FE
02
00
02
00
04
FB
01
01
00
FF
00
FE
FE
05
FF
03
00
00
FF
FF
02
FC
FF
FF
FA
FF
FB
FD
FF
FC
02
02
02
F4
0C
01
09
EC
FC
06
08
F5
00
FA
02
01
FB
FF
F8
F1
FD
02
FF
01
FF
FB
00
FE
D1
FC
D3
00
FC
01
03
00
02
02
01
FF
01
01
03
02
FF
FD
02
FE
FF
01
04
FA
FE
04
02
FC
FA
00
03
00
FE
F8
FE
00
FE
FF
02
F9
01
04
FD
FB
02
FC
04
00
FD
FD
03
FF
00
00
EF
F7
00
03
FF
FF
00
00
F6
FF
FC
03
FF
FD
FE
FE
FF
01
01
FE
01
FE
FF
FE
FE
FC
FF
FC
FF
FF
FF
FD
FF
01
FC
FD
02
01
01
FD
FF
00
FD
FF
FF
FD
01
00
01
FF
FF
FD
05
FF
FD
F2
05
FE
FF
01
01
F5
03
FE
F7
09
FD
FE
FE
FD
FE
F9
F7
03
F8
F2
02
06
FE
00
FE

