64
7F
56
01
65
76
7B
7F
0C
68
0F
5C
0B
71
79
0D
09
7D
00
7C
0D
7A
7D
7E
03
37
61
4C
68
58
6C
13
07
01
06
02
04
68
7C
7F
5C
68
68
03
04
04
7B
66
7A
7C
0D
00
45
65
04
7B
02
5B
14
7C
11
7F
00
6C
04
7C
05
01
02
09
02
7F
05
0F
0C
69
08
6B
73
7E
69
00
6F
7D
04
03
7B
79
4E
60
78
11
62
13
12
5F

