0B
0E
09
24
C1
1E
E0
14
1C
D8
FE
07
0D
E7
17
DE
05
DC
E4
D5
D3
0B
D7
ED
E0
F4
14
45
F1
EC
37
98
FF
0C
0D
16
3F
07
12
E0
DA
E3
ED
F1
D4
FE
DF
2D
DC
E6
28
0F
4F
1D
E8
F0
EB
F4
18
47
08
11
1C
18
F3
E2
44
F5
18
BC
04
F8
04
20
CB
0E
0B
DC
EF
09
A7
11
3B
30
FE
D4
17
19
59
1B
05
19
13
E0
AB
FB
AD
04
0E
06
95
EA
DC
F3
10
FA
C2
F9
0A
21
01
22
F1
14
F8
23
E8
0A
D5
00
23
E7
EC
59
46
D1
01
E0
F7
C8
C8
1A
07
17
F4
FD
28
F5
DF
B2
EC
EE
0B
F3
E0
E7
1C
EB
FD
F3
0B
2B
11
FD
F3
F5
EB
9B
1A
06
25
29
68
1A
FC
F3
F2
DF
07
19
00
FB
F4
02
E3
00
20
12
22
FB
18
0E
36
1C
21
09
E0
34
BA
DB
E1
38
18
29
FC
18
19
ED
C4
F1
EA
E4
03
BF
EC
E0
0A
00
FF
CD
1A
14
0E
81
1E
1E
0B
AC
00
07
D4
09
04
0A
E5
01
03
E2
DA
45
01
02
04
09
01
08
19
ED
40
13
DB
89
0F
E8
43
1C
36
17
D9
18
DF
51
2B
46
E7
D7
30
17
12
EF
E8
3C
41
0F
50
DA
11
15
D9
FB
FB
F0
06
0F
E0
DD
FB
18
1A
F7
27
F5
0C
F1
70
CC
3F
F8
F9
35
1E
3F
E1
FF
13
03
FD
1C
2B
FC
F4
DD
F1
0C
22
09
40
06
12
10
24
35
0D
11
F6
DA
E1
08
AF
E6
FC
E8
BD
09
E6
17
09
2B
DF
24
E3
14
11
D1
E9
92
FD
E8
E2
25
05
34
16
F9
08
05
33
D6
3A
D3
12
FC
66
43
1D
10
F5
DA
F9
EE
02
F1
0A
C4
BF
D9
E1
17
46
15
FB
E4
19
E5
FF
17
0B
DD
1F
EA
EB
FB
F9
CD
1E
C8
DD
0A
20
00
0F
08
23
FF
26
03
F2
F6
89
E8
01
08
22
10
EC
1D
03
13
0C
EC
EB
E7
15
F4
05
F4
E3
FC
12
FB
1F
E2
46
4B
16
E6
4A
2F
5E
14
EB
F7
2B
15
E7
09
E5
0E
35
4E
2A
FA
EE
BD
F4
FE
F0
09
EA
E4
01
D4
5A
EB
FA
96
E6
35
36
F9
E8
0C
12
EB
F9
0B
35
00
08
60
1E
E8
C2
12
43
17
A9
C3
1E
2A
1F
E6
30
14
1E
20
31
11
17
DF
04
E3
D6
2D
F1
FA
20
EA
FB
05
F4
17
29
E1
E4
FB
F5
03
03
11
F9
2A

