15
20
0B
06
E0
DE
23
30
F0
18
D5
F1
EE
27
F8
F7
F7
D3
F4
F0
F2
E4
0D
F5
0A
F0
14
C5
DE
FA
34
E2
19
0B
E6
0A
EA
F8
EC
05
E9
0F
E9
0B
18
E2
09
E4
FD
D5
F6
19
21
07
C6
02
1F
E3
11
04
EB
F0
FB
EE
2C
F1
0B
01
1B
D2
F6
DA
0C
06
F7
E0
24
EB
1D
0F
DA
F8
05
E6
0D
E7
D6
24
0D
FE
FC
19
28
19
DB
E7
23
1C
05
E5
0F
FF
1B
16
B8
F2
E5
17
E9
1B
06
03
0F
F6
0F
25
29
DC
0F
0A
0D
DE
08
3F
D7
24
07
EC
17
F5
F3
05
DE
0F
EC
06
19
E4
F6
20
CB
F1
07
19
16
1F
05
1B
14
09
14
01
0B
F8
DE
F3
0C
DD
0F
EC
00
FE
D0
18
FD
13
08
0E
EB
17
F5
E5
E7
FF
E6
F5
E1
12
28
08
F5
09
11
0D
20
DF
11
F9
0E
E3
00
C7
0A
2F
14
00
1D
D0
2E
CE
F7
FD
2E
E5
DF
05
04
EC
FF
20
1B
25
0A
0D
2E
11
E2
23
06
EE
00
10
19
F4
9F
E3
12
08
13
22
E7
03
F5
D1
E1
09
01
D7
F2
06
FA
0D
18
EA
01
FF
1C
E4
13
EC
02
06
39
02
CD
19
F7
47
E8
07
12
18
B7
F2
26
1A
F4
FC
0F
E8
F4
DD
00
FE
F5
F5
DD
06
F7
14
FA
FE
18
F8
2F
30
F5
F1
E9
04
16
3A
25
09
F7
F3
EB
04
D9
EA
D3
0A
15
1B
F9
FF
0F
EC
EC
0B
E1
0A
03
04
ED
1C
01
01
13
10
E0
F2
1F
01
1F
FB
06
FB
0A
0B
0A
F6
F6
07
BD
F2
E6
DC
04
E9
E4
30
E3
D5
02
0B
FF
FA
ED
F8
FE
4F
33
24
02
FC
E1
13
00
11
F1
F8
E9
11
00
EC
00
FB
FD
0C
FF
17
F6
D8
DF
E4
DF
F9
35
DC
E7
EE
F0
D3
E7
03
D2
15
DA
DC
01
F3
3A
0C
18
FA
07
F5
D4
F0
F3
E5
F2
0E
1A
DF
0A
DA
FB
F4
F2
F7
0F
DA
EE
1D
0F
ED
F7
E3
EA
F6
EA
D8
F8
FC
16
03
0F
E4
FE
FC
0F
F8
23
00
0D
FF
ED
E4
F9
E1
E8
D3
DA
11
EE
01
05
04
02
EF
55
15
E9
1F
19
0B
4E
EC
15
07
EE
DE
0A
F4
24
F4
03
DA
C3
FE
23
15
EC
06
B1
06
F4
0B
F2
BF
FE
FC
F8
07
3E
0E
0D
F8
16
1A
0E
FA
CF
E4
F7
1F
E2
D2
12
10
26
10
FE
08
09
0C
EA
12
15
C5

