EE
FE
00
FF
0B
EA
04
F0
FF
00
01
FE
09
10
FB
FE
F7
17
E1
F5
04
FA
02
F3
00
E5
03
EF
01
E8
0A
01
F8
FB
02
DB
08
BB
00
FC
F5
02
06
FD
12
F8
DF
E9
09
E4
05
F2
05
06
1E
F1
F1
FF
00
05
0D
DB
F5
17
01
FF
FC
FF
FF
ED
FC
00
FE
FA
01
FF
F7
05
FE
F8
03
02
02
06
00
FE
FC
01
03
00
FD
FB
FC
01
03
FF
FF
06
F9
0C
F7
1E
FB
FC
04
F6
EF
FC
F8
04
06
FE
ED
03
F8
01
03
F7
FE
E4
0E
11
EC
FA
06
0D
09
F1
02
FF
FE
FF
FE
00
03
00
03
00
FA
02
02
FE
FB
02
FE
03
04
00
03
03
00
FD
00
00
FF
FE
03
02
00
FB
FB
00
FD
FC
FD
02
FE
FF
FC
02
01
01
01
FD
03
04
01
FF
FD
FF
02
FE
03
FD
04
FC
FF
03
04
FD
FF
FF
02
FA
F8
FB
07
00
02
F5
F9
F9
05
F4
10
16
E8
F5
F3
0B
F3
FD
02
F7
FE
FF
06
00
FD
01
02
EF
07
FE
1F
FE
F8
FC
F3
07
FA
11
FB
F5
EA
E1
00
BD
00
F8
FE
DD
18
1C
F5
0E
FE
FF
FA
16
04
1F
08
21
F6
05
F5
E4
E9
FA
FD
FB
03
DA
EE
05
F8
FB
FF
11
E5
10
C6
F9
F4
EC
13
FB
FA
FB
FB
01
0E
E9
E6
FC
F5
F6
FF
01
01
FB
01
00
FB
FD
01
00
FD
FB
04
00
FB
01
FE
02
04
01
FF
03
02
02
00
01
FB
03
00
FB
00
00
F1
F9
00
F8
07
D7
06
02
F7
05
06
EB
0F
F0
E7
FE
06
E5
05
EA
01
1D
14
E4
FD
FE
07
FF
FE
F6
04
13
04
E0
08
13
FA
33
FD
FD
1D
FB
F5
D8
FF
0A
FB
F8
D7
1B
01
D9
0B
FC
D1
FB
F5
1C
04
E8
05
11
D8
DC
09
F0
F6
01
0B
03
06
FF
E0
03
02
F7
1B
18
1A
F5
F6
24
E5
EF
0A
FE
F6
04
FD
DF
02
F4
F6
E2
07
FB
FC
04
FD
F9
FF
F5
F6
FD
F5
FC
08
00
04
FC
F4
FE
07
FC
FF
FC
FD
FC
FF
05
FF
FF
F5
00
FE
FE
00
FC
06
FA
03
12
FB
30
03
FC
22
FD
FA
DB
01
0C
DF
FB
DE
13
02
F9
02
00
CC
FD
FA
1B
FD
F4
0B
14
FA
DD
0B
06
F8
04
FC
1D
FC
0A
E4
F4
01
FB
FD
F1
0B
F4
F9
F8
10
14
ED
FB
F3
0F
16
16
0B
04
EE
19
19
F9
FC
FC
00
04
FB
FF
FE
FD
FD
00
01
01
01
01
03
FF
02
FC
04
04
FF
03
FA
FC
FE
00
00
FE
FE
FE
01
FB
FF
03
00
FE
02
01
FF
FB
04
FD
FB
03
FF
FF
00
01
02
01
FF
01
03
01
FD
FF
FB
03
00
00
04
02
01
FB
FD
FC
00
F9
FE
F3
F8
03
F6
F8
02
04
F3
00
F9
01
04
FC
FF
01
F7
05
FA
00
FA
FE
F8
F6
FE
FE
FD
FA
10
01
05
FE
EA
FC
E2
04
0A
F2
E4
EE
06
E0
E1
E0
FD
D2
F3
0D
F3
0A
01
03
ED
01
04
0F
EA
F8
EA
FA
0A
F5
FD
04
0C
F3
05
EE
04
0A
05
03
14
0F
01
0B
FB
0A
E1
EB
0A
0C
F8
07
09
F5
06
F2
0A
F6
05
FA
FC
03
09
DF
02
C5
02
FF
2A
04
00
FA
0C
F3
CF
EE
07
DF
06
ED
FC
12
17
EA
FF
FB
F9
05
03
ED
00
10
F7
F9
FF
FE
02
F6
04
FB
F8
01
FC
01
F8
06
F7
04
FB
FB
F6
F8
04
FD
F9
F5
FB
F6
FF
F6
01
FA
FE
F9
F9
01
F9
FA
FD
F7
F5
F7
02
02
FD
00
FB
FD
04
FC
02
FF
00
06
FE
FC
F9
05
06
04
F5
00
FF
00
09
00
0E
0F
F8
15
F8
25
FF
05
03
F9
D5
0E
CB
DB
16
02
E3
F4
14
FC
E7
F0
E9
DE
F3
15
EE
D0
DE
11
F4
F8
FD
12
FC
FE
FD
D4
F7
FD
E6
F0
05
0B
EE
1B
08
06
06
1B
0E
14
F8
EF
F0
02
FC
0F
E6
EE
F7
1B
FB
F1
E8
F8
FA
FE
FF
FD
00
EF
FA
04
F8
F9
01
FF
E4
FA
F8
FE
F7
F1
04
FC
FF
FC
FE
FE
FD
F9
00
F4
F6
01
FC
EC
FD
EB
FF
E9
FF
F1
F6
00
F9
ED
0C
06
ED
F0
F6
01
F9
03
01
FC
01
00
FA
FE
03
0B
01
FC
FC
FA
02
FD
FC
03
FC
03
00
00
00
FC
FD
04
03
FD
FD
00
02
04
01
FE
00
01
FC
03
FF
01
FE
FE
02
FB
FC
02
FC
FA
FE
FE
F8
F3
FB
00
F9
FF
F8
F9
F5
FC
FA
00
FE
FA
FE
03
F6
03
FB
01
00
F5
05
FC
00
01
FB
FC
F3
E0
F5
11
0A
2C
03
FF
F5
F1
F9
E5
00
11
0B
FD
EC
09
FE
F6
03
13
DD
FD
08
19
ED
E0
02
0F
10
DD
E2
04
01
0A
0E
E9
11
F6
1B
0C
08
06
F7
0F
09
0D
F8
11
D9
E7
00
F0
09
00
FC
EA
F4
E3
EF
EB
09
02
1C
0A
E7
EF
E2
FE
F6
ED
11
EF
FA
FD
16
18
0B
E3
F6
04
09
1D
0C
08
00
11
0E
0F
04
14
04
18
19
FB
07
07
FF
03
FD
F9
FA
FF
F7
F9
00
02
FF
01
F9
F6
02
FE
00
03
02
FC
FD
05
01
05
FB
04
02
FC
02
FC
E5
04
FD
02
02
F2
05
F3
F3
02
08
03
FF
0B
ED
05
FE
04
EB
F9
F9
FF
F7
FB
02
FB
F8
F7
00
F9
01
F5
02
FB
FE
F8
01
06
01
00
03
FE
F7
00
FD
F7
06
FD
FF
FE
06
04
04
FF
FE
02
02
02
FF
02
FC
05
FC
FD
F7
FD
FD
F6
FD
E9
01
FD
EF
FE
00
F5
00
02
F2
FF
FB
F6
F3
F8
F9
FF
05
F7
F6
F8
FD
FC
00
F3
F7
FE
FB
FD
FD
02
FD
04
FA
FE
FD
FA
04
FC
03
00
01
FD
FB
02
00
04
02
02
02
00
FF
FB
00
00
02
01
FC
02
00
FE
FB
FE
04
FB
01
01
01
FB
00
00
FD
01
FD
FF
FD
FD
FC
01
FB
FD
03
04
00
04
00
01
FE
00
02
00
05
FA
F9
F1
F7
F2
F5
F8
FF
FA
FA
F3
FD
F9
D3
DB
DC
EA
0A
F4
0B
13
08
FE
02
F8
08
01
0E
EF
FA
06
F4
F7
F7
E4
E4
DD
F9
F5
FD
E8
FA
00
F1
F3
D4
FC
F9
F7
00
EF
15
06
02
FF
01
0C
01
01
04
F4
F5
0A
FF
09
07
E6
07
DA
01
ED
15
0A
06
F8
0E
0B
D7
F5
FC
EF
02
02
F2
F8
0E
02
F5
09
0A
0E
1A
08
FE
05
04
F8
FE
02
06
FA
F7
00
F2
FD
FE
02
F9
FA
01
FD
00
F8
06
FB
F6
FE
F4
FB
FE
FE
F3
F2
00
02
FF
F9
F1
04
F6
0B
E1
FF
02
01
08
08
FB
01
D4
E0
EB
FB
03
FD
FF
FA
07
08
09
F7
14
FF
FC
FB
FC
DC
08
02
FD
00
FE
03
03
FC
FE
FE
01
FB
FB
01
FF
01
03
04
FB
00
FE
04
FC
FE
02
FC
01
FE
02
FD
00
01
01
00
07
FD
02
F6
01
F1
02
06
00
FE
FB
FE
FD
FD
EB
F3
01
F7
03
FA
FC
03
08
FC
02
FC
FE
F3
07
F4
FD
01
FE
00
01
01
01
FF
FA
FE
02
FB
F7
FD
05
F7
06
FC
FD
FC
FC
05
FA
04
FC
03
FE
FE
01
02
03
FC
FE
FB
02
F2
FD
FF
F2
F7
F6
EA
F9
FE
FF
FC
14
0D
F3
E2
F8
08
FD
02
0A
FC
FF
04
01
FA
FC
08
F6
F2
04
01
03
FC
FB
FF
03
00
FD
01
03
03
00
01
03
03
FD
03
FB
00
01
00
FF
04
FE
02
05
02
FC
FE
02
FE
05
05
F5
FB
FD
03
FB
F5
FB
F5
01
FA
06
FF
FC
FF
FB
04
FE
F4
00
F7
FE
FE
FE
F5
01
FF
FE
F8
01
FA
FF
FF
08
F6
03
F5
07
E4
01
02
FD
02
08
FC
F3
E7
E5
04
FA
EC
FF
F3
F7
00
00
E1
00
F4
FA
EC
F8
FA
EA
04
FB
F6
03
F1
04
DF
07
F9
F8
07
07
F2
F2
F1
EC
F7
F5
EF
02
FB
F1
F6
13
E5
F3
F9
0A
09
F9
F4
E6
11
03
FD
01
01
FB
04
FD
FC
05
01
01
01
FB
FD
FF
00
02
FF
00
FF
04
01
00
FE
FF
FE
00
FF
03
01
FD
03
BE
F7
F9
CF
16
DD
09
D5
E4
FD
12
00
0F
23
FD
0A
FE
20
D7
F7
14
EB
01
FE
07
FD
07
E0
E9
E4
14
F9
02
FF
FB
02
01
FB
01
FE
04
FD
FC
FC
FA
05
01
02
02
FD
FE
05
02
FC
FB
00
04
FD
FB
00
FC
FE
04
FB
F4
02
E3
FB
F8
EA
02
F2
FD
04
F4
ED
FA
FA
FF
EA
EE
F1
04
05
FB
FD
FD
F6
F9
05
0F
10
00
FC
F7
01
FE
08
FF
F1
E9
CD
F9
F0
F8
EF
FC
0C
C8
F8
0C
03
09
FA
F8
0B
E9
F9
FF
03
09
01
F9
EA
FC
F7
05
02
0B
0A
05
07
05
1D
02
FC
04
FB
F7
D4
02
07
D7
FA
D1
FE
05
FD
06
FB
E4
FB
F3
13
FD
F9
DA
14
F5
E9
08
FD
00
02
03
FC
FF
05
F7
FE
FA
EF
FF
04
FC
FD
FA
02
02
F9
01
F9
F6
FD
FE
FC
04
F8
06
00
F6
F6
00
00
FB
FE
FD
FD
02
02
01
FF
FF
FE
FE
FB
02
01
FB
01
FF
01
FC
04
00
FC
FF
FD
01
FD
01
05
FC
FE
FD
FF
FC
03
04
FD
FB
00
03
02
00
FD
04
04
FB
04
FC
04
FB
FE
04
00
FD
03
02
03
02
01
04
01
04
FD
E9
FE
F6
0C
D5
0B
FE
05
FF
0B
FE
04
F7
E6
FA
06
F1
F8
F3
E5
0A
FC
00
EC
FB
01
FB
00
F8
DB
CC
07
FC
00
02
04
FD
0C
FF
0E
F9
01
FC
F6
FA
DF
FA
FA
00
F9
14
15
FA
FD
FE
02
06
20
F6
F9
E5
24
0C
00
15
02
00
11
FC
2F
FB
F7
13
01
EF
E0
00
03
FC
F9
D9
14
10
FB
FE
F6
D4
F3
FB
1F
03
E4
08
17
F7
EB
F7
FE
03
FF
03
FC
FF
01
01
05
E6
F2
E3
F8
DA
FE
F5
FF
F6
FB
00
F7
F9
F8
00
EC
01
F7
F9
F2
00
F5
03
03
FC
02
FD
00
F8
FC
02
00
FE
F5
0A
F2
05
F8
00
F5
FE
02
FF
FF
F8
FE
02
04
F6
02
03
06
00
F7
F7
FB
FB
06
CF
08
FA
F9
FB
13
E6
05
E5
F7
E2
FC
F2
EB
FD
F2
02
07
0A
FB
FB
09
05
F7
13
DF
EF
0A
1A
09
0A
F1
F2
E7
F1
F8
F2
F5
FD
FC
10
1B
0F
E6
F4
FC
08
21
09
00
F3
12
13
07
F8
10
0A
0C
18
F6
01
FB
FC
02
04
05
FB
00
FD
FC
01
02
FE
FE
FE
FB
FE
00
03
01
03
FB
FB
FE
FF
FE
04
02
FE
02
00
FC
0A
D7
03
16
04
2D
02
07
02
FD
EE
ED
F7
07
05
00
DC
00
09
05
FC
01
D5
ED
FA
22
FF
BF
03
19
EC
E3
FA
F2
04
F9
FF
E5
09
01
F2
08
05
F0
07
E3
D1
FD
03
D8
01
EA
F8
FB
11
E0
F1
E8
0C
07
F4
FC
F0
11
F5
E9
05
0E
07
F7
10
0D
09
0C
E5
FC
06
E3
E8
04
EA
EC
00
F0
29
01
0D
D4
F7
F5
06
F0
F5
F2
F9
04
02
01
FA
02
04
00
04
03
01
FF
FB
FE
01
FF
FB
00
FD
01
01
03
FF
02
01
03
FC
FD
04
FC
FD
01
01
FE
F6
00
01
FE
F9
05
03
FB
FF
06
F5
FA
EA
00
D1
00
F2
EE
F7
F7
04
02
FD
FD
FB
F6
FF
FB
F9
F4
F7
F9
03
04
02
00
FE
02
FE
01
FF
FE
01
00
00
02
FE
04
04
03
00
FF
FF
FE
00
FD
FF
FB
FD
00
02
00
FD
02
F8
07
F6
E0
05
DC
F9
00
09
F7
07
00
0A
EF
EE
F8
00
F5
0A
F5
03
EE
06
F2
0A
05
F7
E6
06
F1
09
05
12
00
0C
FF
F9
FC
FC
09
0E
FA
E9
F6
FD
D9
FD
FC
F1
06
0C
02
EE
10
F8
05
FB
04
04
1E
04
09
F1
FC
F9
02
FB
FE
FB
00
FF
FB
FB
FD
F8
04
02
FC
00
FD
02
FC
FE
FF
F6
FB
FE
02
FE
FD
FF
FF
FA
02
01
FA
05
00
01
FE
F8
F9
FF
04
02
FD
F9
F5
06
F5
05
F5
01
F2
00
03
FA
06
FC
05
FA
FE
02
0A
01
FA
FC
02
F7
01
F7
00
FA
FF
01
FD
01
FF
FE
F8
02
FD
F7
FB
FE
02
00
FD
FD
FC
04
01
03
FD
02
FC
FE
F9
02
FF
F7
F9
01
FD
FC
F9
FE
FD
FA
02
F5
00
F7
F0
F7
02
F9
F6
FB
F2
FF
01
FB
E9
FE
FA
FF
F6
F6
F0
FF
01
FF
01
07
FB
00
F7
FC
FC
FD
FB
FF
01
08
FB
F4
F3
FE
FA
FE
03
02
01
01
03
00
09
F4
FF
03
F8
FE
FF
FF
05
00
FB
00
00
FD
01
02
02
02
FB
00
FC
FC
FE
FA
FE
01
01
FC
FC
FB
03
01
02
04
04
03
03
FE
FE
07
00
02
FA
F9
F7
F8
00
01
FD
FA
00
FC
00
F9
F8
02
00
05
FF
F9
FB
FF
F7
03
FA
F0
FA
01
0B
02
FE
F3
FB
F3
02
F6
1A
FE
CD
F3
05
D1
F7
EF
3E
EA
F5
F3
FB
0E
FE
0C
01
ED
02
FD
24
FB
C7
11
DF
FB
F7
FD
02
FB
04
FD
FB
00
00
00
00
FB
FD
FC
FE
03
03
FE
01
03
FD
FB
04
04
FC
FC
03
FF
FD
00
04
01
03
FF
03
02
05
FF
04
FB
00
04
FD
00
FE
00
FE
01
00
02
FE
01
03
05
04
02
FB
FF
FF
04
04
FD
FD
FE
04
01
0A
05
0D
01
08
07
06
F6
F0
02
FA
F2
0E
08
01
07
1A
F4
E9
FC
14
E0
FC
05
FA
F7
F2
E7
EF
0C
DB
10
0E
FC
0F
FC
F4
FC
00
F6
ED
0C
12
E7
0E
EE
0F
0A
0B
FE
F4
EF
0E
E7
FA
05
E7
F6
E2
F0
F5
00
EF
00
01
FE
00
FA
FB
FE
FC
00
00
FC
FC
05
02
FB
FF
FA
F8
FD
03
FF
02
01
FF
FB
02
03
05
FB
01
F9
FB
03
04
03
01
FC
03
FF
03
01
FF
FF
04
FB
01
FE
FE
FF
FD
01
01
FE
00
FF
FC
FE
FF
01
FC
FE
04
FC
FB
EE
F7
F6
00
0A
F3
09
06
F5
FE
10
0A
DA
14
00
0E
09
0E
D2
F2
01
F7
F7
CA
06
D7
F1
E9
FD
FB
01
EE
03
03
FD
F7
F9
F9
FD
02
F9
FF
FB
04
F5
0B
02
FD
04
02
03
05
FB
F8
F1
F9
FE
00
EE
EC
F8
14
04
EF
FE
03
00
F7
FF
F8
FB
00
03
01
FD
F8
04
EE
FE
F5
03
00
01
00
FC
FD
FD
FA
04
01
02
02
FF
00
FE
04
F8
09
FA
03
FE
DE
F5
05
DF
F2
14
11
FD
18
E0
0A
0B
04
F8
F6
EE
E7
FD
02
0C
F5
E2
E5
FE
DA
07
F4
00
03
FF
FC
FB
FB
FB
02
00
FA
FD
FE
FD
00
FB
F8
02
00
FB
01
FE
00
FC
FC
FC
F8
00
FD
01
FE
05
FB
00
FC
00
F4
FB
F8
FD
FC
00
01
00
FD
FE
FF
EE
EF
FF
F2
01
04
00
FD
07
FB
FB
FE
F8
F7
08
FA
F7
05
FD
FF
00
FB
FA
F9
FF
01
FD
04
00
FF
01
F3
05
FE
FF
F9
02
00
FC
01
F5
FD
FF
06
F8
FA
FD
00
00
FA
EC
0F
FB
F8
E6
01
F9
EE
FD
DB
F2
08
EA
FB
CC
F1
00
EE
DD
06
05
F7
03
F8
03
FF
03
06
05
F5
F0
04
0A
09
00
F4
F9
EB
06
0B
F8
FD
F4
EE
F5
DA
01
FC
02
EA
07
06
02
06
0B
FA
F9
09
FB
04
EA
09
FB
06
05
E8
01
00
FD
00
00
08
09
F8
E2
E2
F8
C6
14
FD
F0
ED
0F
FF
FA
FA
F8
06
EA
08
EF
17
EA
1C
01
FB
04
FD
05
E4
FF
E9
04
FD
F9
03
F9
D8
F4
E7
F7
EA
F2
F3
F6
FD
F7
00
0C
E0
F5
FA
0F
01
02
FC
F4
0E
F8
E4
F9
0E
FD
23
04
FE
FF
F9
E2
E4
E5
03
06
12
E3
0A
04
FA
0C
08
DF
F4
FB
13
C9
F6
CC
04
00
E4
03
FF
FF
FD
05
02
01
01
FF
FB
00
FB
02
02
FF
FD
00
03
FC
01
00
01
00
FD
FE
FC
04
01
02
FF
FC
FB
06
FD
01
F8
08
D9
04
06
FF
0A
FF
F6
17
FD
F2
E8
02
F1
0A
F9
04
06
08
F5
0F
F6
F6
0E
11
F4
03
0A
19
0B
04
F9
FA
FE
F4
F0
C4
EF
FE
FF
16
18
12
E0
FB
0A
08
1A
05
02
F6
12
0E
0D
03
0E
09
07
1B
F9
FC
F7
FB
0D
02
EE
0B
F6
FF
0A
01
0C
F5
01
02
0B
02
0F
EE
F1
FF
F0
0A
FF
01
E7
10
E3
FB
D3
06
03
FD
06
01
FB
F8
F5
FA
F8
F9
F4
FA
05
F7
03
FA
05
FE
01
03
08
F9
FA
F9
FD
FD
FB
00
02
F6
F7
FE
F3
F5
FD
03
FC
02
E6
05
F8
01
FF
02
FB
F9
02
F0
03
FD
02
EE
FC
FB
F8
F2
F3
01
F9
FB
F2
02
FF
FC
F4
FF
04
F3
F0
ED
00
FC
F0
FE
03
FA
FD
F7
07
08
F9
F8
F6
F9
09
FF
F5
FE
FB
03
FA
FF
F7
FE
F6
04
FB
FD
FD
01
FA
FF
F2
00
10
11
01
FE
ED
FB
D2
00
FE
02
F0
0B
F8
F7
F7
0A
F6
FE
0B
03
FB
EA
16
02
0E
FE
03
00
EC
F6
EA
FE
01
FD
F9
F4
F1
03
F6
F9
E8
FB
EF
FD
04
F1
03
00
FD
FC
00
F6
06
F8
F6
FB
FD
FB
05
01
00
FB
E6
F8
00
FE
F8
FB
00
F3
00
FB
06
FC
FE
05
02
FD
04
F7
FA
FB
FE
F4
F5
01
F8
F9
F9
F5
FC
01
FC
00
02
04
F3
FA
FC
03
FA
FD
00
FF
01
00
01
F4
EF
FA
FA
FB
01
FE
EF
04
EF
02
F9
0B
F7
02
0E
05
FE
D7
03
E3
FE
FA
F1
EE
FD
F9
0C
09
FF
F9
0B
14
1C
F5
1D
F8
05
14
F4
0C
0C
07
F2
14
F7
ED
E9
05
FF
08
EA
FF
FD
05
02
F6
01
F5
F2
12
0B
FA
05
F1
EE
09
EE
F6
DE
E8
E1
F6
F5
0E
F4
E4
F8
FF
01
01
04
01
F2
04
FE
FC
FC
F7
00
FC
01
F9
F8
FD
FC
FB
FB
FF
FE
F6
F9
F7
01
03
F3
05
F2
F8
F7
0F
0D
03
F7
E0
DC
F2
FD
09
EF
F3
10
CB
03
1D
00
03
01
FD
0B
F9
02
FA
08
08
F8
F9
E0
03
10
01
FD
02
04
00
FF
FF
FB
FC
02
FF
FB
00
02
03
02
03
FE
FC
FF
FC
FC
FD
FF
FC
00
FB
01
FB
FC
FB
FA
FB
03
00
03
00
01
F8
FC
F9
FC
FB
FC
FF
FC
02
FE
00
F4
F9
FB
FD
03
F8
01
FC
01
02
F9
03
08
04
F9
FF
FE
01
01
FE
FD
FA
02
FE
FB
FC
FA
F9
F7
FF
F9
F7
FA
FC
FA
FE
00
FD
FE
FA
FD
01
FD
03
07
00
FE
00
00
FA
FE
F3
03
06
FB
FB
0C
E9
EE
07
0B
00
FE
FE
0D
04
FE
FE
FE
FA
FE
EF
F0
06
F8
EE
EA
03
01
F6
EC
09
02
05
1B
02
3F
FE
06
05
FD
F5
F7
ED
FE
09
07
E1
0A
01
FF
FD
0E
D4
F3
09
15
FE
B3
00
11
0C
DD
F5
F7
02
F9
FA
F5
F9
F6
F9
02
FA
01
F6
F1
EA
FB
F8
F9
FE
FB
FA
F4
FD
FC
FC
FB
FF
FD
FA
E3
FA
FA
FE
E9
F9
0D
E2
02
F9
0C
ED
FF
F1
0A
FB
D5
15
04
E0
DD
BD
F1
FB
0F
E8
F3
FE
C3
FE
02
EA
DF
F8
F6
DF
05
F7
09
0D
EA
0E
FB
F0
08
11
04
EC
1B
04
07
05
14
EA
F2
00
03
05
FF
02
D8
03
F3
EA
E3
00
00
02
06
FF
FC
FF
F2
FB
05
FE
F7
FB
FC
09
F8
FB
F5
01
F5
01
02
FA
01
FD
02
FE
04
F8
02
FE
00
00
FC
F1
03
FE
EB
FE
ED
ED
FC
FF
F2
08
08
F0
EE
F3
01
06
EF
F5
F3
FD
02
FA
04
FD
FD
F5
EE
FC
F3
07
FF
01
04
F8
02
DE
FA
F2
0D
F1
F5
F2
F0
05
FB
04
F7
FB
F8
06
11
E7
0D
00
07
0B
F9
FC
0C
EC
E9
07
03
EE
FC
01
FF
F4
F6
FB
04
E3
08
E7
F9
F5
F4
D9
00
F3
E6
F7
FA
FC
06
04
E2
F6
F9
FB
EF
F3
ED
EE
02
00
CE
FB
03
E4
27
FB
FA
07
09
FA
D3
01
29
04
F3
02
C9
0C
01
10
07
E4
F4
02
1B
00
B7
1B
09
02
F0
1A
05
05
FE
ED
FC
F9
F7
F0
F3
FB
FB
19
15
0F
F0
FA
06
0A
1F
06
0A
F4
13
14
05
02
0D
00
03
15
F5
FE
00
FD
00
03
FB
00
FC
03
FE
FE
FD
02
04
01
03
FD
FD
02
03
FD
FF
FA
01
02
01
03
FE
02
F9
FE
F9
FA
03
08
FC
FF
DC
09
F7
02
0A
FD
F5
FD
05
EB
FD
F6
ED
F0
EB
09
ED
0A
F4
00
FD
F7
EC
F8
D7
FD
11
04
F9
02
FD
FF
01
00
FD
04
02
FC
02
00
01
03
FA
FA
FD
FB
01
01
01
FA
FF
FB
FE
03
FC
00
02
FC
FB
F9
F9
FD
FC
FE
00
01
00
FC
00
00
FE
F8
FB
F6
00
00
FE
FA
F9
FB
FA
00
FC
02
F2
FC
F9
FE
FE
FD
FF
FE
FE
FD
01
02
01
FE
FC
00
FE
FE
03
FA
FC
01
02
FE
F9
FE
FC
02
01
FD
FE
FE
FE
FC
02
02
FF
03
FB
06
00
FE
FD
FF
FF
FE
0D
00
F7
EF
F2
FA
E3
00
FE
F9
F9
12
17
EC
12
FE
04
09
04
07
0D
DF
1B
02
06
0D
F7
FA
F7
FE
14
F5
01
F1
09
FD
DA
0C
E1
18
FA
DE
DA
0B
FA
11
E6
E7
FA
FA
1E
FB
F9
00
16
FF
F3
F9
FA
0A
E9
FC
D2
F5
11
10
03
00
09
F6
F5
0D
12
07
F3
0D
F5
F8
0E
FD
F4
FB
0A
F0
F5
07
02
F4
F9
F6
03
00
FA
0A
E8
0A
00
F3
02
00
EB
0A
FA
E0
FF
0A
F2
FF
EB
F4
0B
12
EF
F8
F0
F9
F2
04
F3
FC
0B
E4
07
FE
06
01
F7
05
F7
0C
01
08
FD
E8
0A
EC
06
02
03
DF
EC
0F
27
FE
F0
EF
EA
0F
1F
FD
D7
E9
FC
FE
FF
FE
FC
FD
FA
FA
04
FA
FB
FE
F8
09
EF
EF
EE
04
F4
00
FF
FF
00
02
FF
04
09
F1
05
FE
F9
00
FE
FA
02
FD
FC
FE
F4
01
FA
02
03
00
F9
FA
F8
F9
FB
FA
FD
FB
F4
05
00
02
F9
F9
F8
03
FB
FC
F7
F8
FA
07
FF
F7
F5
E0
F9
EB
05
F0
F5
EF
FD
E6
0B
07
FD
00
0A
06
0D
EC
FF
03
07
07
ED
00
EF
EB
EA
09
06
05
FE
02
02
FC
04
FA
02
FD
FB
01
F9
FD
FF
05
00
FC
FD
05
FF
00
FE
00
FF
FA
FC
04
04
04
FF
FC
FF
F1
07
F2
07
01
F8
00
FB
E6
0A
07
01
F1
12
F1
11
FE
0B
EF
F7
06
F6
FD
E6
00
FA
FF
EF
0F
FB
01
F1
FF
FE
FD
FE
06
F8
FF
FB
F7
FF
FB
00
F1
F9
F0
02
01
FF
FD
FF
02
FF
01
FA
FF
FE
FE
01
FC
FE
FA
06
00
F9
05
18
01
3F
06
02
14
F8
F6
F2
F2
04
0B
01
D3
08
00
FC
0C
04
D7
F4
05
0F
01
01
FF
10
07
E0
FD
FE
FF
FE
03
04
02
FC
00
FF
03
00
FF
00
FB
FE
FF
FF
FE
FF
FB
FC
04
FF
03
FC
FB
FD
FD
FC
03
03
03
00
0C
E9
FF
CF
04
E3
20
03
00
FF
F1
F6
E6
FB
07
03
00
E6
14
05
13
EB
02
03
F3
E5
FA
E7
08
0F
F3
01
FF
F7
06
E0
07
EB
F1
00
FC
F7
04
05
F6
FD
FF
02
EB
F7
F8
F0
09
F9
08
EE
FC
EF
F7
EF
05
FF
F6
04
F9
F7
FC
F1
F1
F8
F9
F6
FE
03
F0
FD
01
01
07
F1
F8
00
F9
F2
FE
04
09
FE
EC
EC
03
FD
01
FF
FD
FD
00
FF
FF
FE
F8
00
00
F8
FE
FB
FD
FE
FA
FF
03
FC
FB
FF
FE
01
FD
00
01
02
FD
04
01
FE
FC
FC
01
FB
04
FB
FF
FD
04
FC
FC
FD
FC
FD
00
00
03
03
FD
02
04
03
FE
FD
00
03
FE
04
FB
04
03
00
FC
FE
FD
FD
FF
FF
FF
FE
FC
FB
02
00
FC
03
FE
00
02
F9
02
00
05
FD
04
FD
FD
00
FB
06
F9
05
FD
02
FC
FD
FE
FE
FE
FC
FB
EE
F9
FD
02
F4
FE
00
03
F1
F2
FB
F2
F3
FC
F3
0F
03
FB
F0
F6
FD
F3
FD
F9
F7
F4
FD
FC
FB
08
ED
02
C9
04
FD
25
07
FE
F5
09
F0
F3
F4
03
ED
08
FE
F4
09
18
DB
02
F0
08
FA
05
ED
FD
0F
26
FB
FB
EB
EF
F6
E2
10
E2
E2
E7
E5
0C
EE
F2
E4
FD
D2
1B
14
DB
1A
FC
0B
F6
05
06
1D
F3
18
EE
FB
03
FC
FC
01
F8
F9
00
FF
03
FE
FD
F7
09
F3
FE
00
00
F3
FC
FE
FE
FE
FC
01
01
FB
01
0D
F9
FF
FC
FB
00
FE
01
FC
FE
FA
02
00
FC
02
FF
FC
FC
04
00
04
02
FC
01
FE
02
FA
FD
01
02
FF
02
FC
FD
FD
FD
00
FF
03
01
FD
FF
EA
FB
FF
F9
02
04
FE
01
00
03
00
02
F8
01
FF
F8
FC
FC
FF
00
FD
FD
00
04
00
FF
F9
F0
00
FC
F5
ED
FD
F5
FE
ED
07
FC
F8
EC
EB
D2
F0
FC
E6
EB
03
FC
07
05
08
02
FF
04
02
13
DB
03
0A
F4
F7
01
06
FE
02
03
FD
FB
01
FD
F6
F3
F6
EA
FA
F5
F9
FA
F9
04
06
FF
F7
FB
FB
03
FD
FC
EF
FC
02
00
FE
FC
00
00
FE
01
00
FF
FD
00
FE
FC
FC
FB
FC
FC
FF
FD
02
FB
FF
04
03
FF
04
00
FD
FE
03
FC
FD
10
EC
FE
F3
FD
06
F8
06
FD
F6
09
E9
00
E5
01
FA
F9
0F
0F
00
ED
EA
F1
EA
FF
13
E4
EF
FF
17
FA
F9
06
FE
03
F5
F9
E9
EF
FC
FE
F9
F8
FD
01
03
FD
F6
02
FD
06
00
FE
F9
00
FF
02
04
F2
03
01
00
FE
00
FE
01
FC
FE
FF
FB
01
01
FF
02
02
01
00
01
FB
FE
00
02
05
FD
FE
04
00
03
FC
01
01
FC
FC
FB
FE
04
F6
0A
F6
14
0A
28
09
FE
0F
F9
F5
F7
F7
0E
0D
0C
E4
0F
05
04
06
00
E2
F3
11
09
E5
F3
B8
10
0B
E7
04
FF
FE
00
04
FE
FF
FE
00
00
FC
FF
FB
FE
01
00
FB
01
03
04
FC
FF
02
05
FE
FB
FE
FD
FB
04
FB
04
03
FF
FB
F5
FA
F3
FF
FA
FC
FE
FE
FB
00
09
F5
F1
F7
FC
06
02
F8
01
07
FA
FF
FB
01
F4
00
FA
F7
00
FB
0B
FF
F6
FE
FE
FD
FA
F2
F8
F1
FB
1A
F1
ED
D5
F5
F3
00
13
00
FE
F8
10
0A
FA
0C
16
02
F8
08
FE
0D
F9
F3
01
FF
F2
06
10
E9
0A
EE
E4
F8
C1
F1
F0
FC
EA
11
0C
F9
FC
07
F0
15
F7
F8
12
F5
0B
0A
08
1E
04
FD
F3
E6
01
F1
F8
FB
F0
FC
01
17
1A
13
F0
F4
00
0A
1C
FF
01
FB
15
1B
0B
FF
13
07
0A
1A
F7
15
10
10
0C
FF
0F
02
FD
05
FF
FB
E8
1B
10
E8
F7
F3
17
F7
D9
F9
0D
DB
EC
EF
FB
0F
F4
0B
05
E1
E4
FC
F7
06
1B
01
48
01
FD
0B
FD
F4
F4
F9
06
09
04
D9
09
FA
FF
0B
0B
D3
F0
0E
15
04
C7
FF
11
08
D9
FA
FB
03
16
00
3B
FF
01
13
F7
F7
F0
FD
08
05
FF
DB
17
02
FC
0B
02
D4
F2
09
16
04
F8
00
0E
07
E1
F8
F5
EF
EE
04
EA
02
DD
FE
DE
0C
11
FF
01
EF
FF
09
F9
E1
E8
0C
EE
02
FB
07
FB
0F
00
ED
E7
0C
00
FB
02
FF
02
FB
EF
FB
F9
F9
04
00
FC
FE
06
F8
05
FD
FC
F7
FE
FC
FB
FF
01
01
FB
02
04
02
FC
02
FA
01
FF
01
FD
FD
03
02
FD
FE
01
00
FF
FD
FF
FE
03
00
FD
00
FD
01
FB
04
FD
04
FD
FF
03
03
03
FD
FC
FA
FD
F8
02
FC
02
FD
06
FF
F5
FA
05
F6
E6
FA
01
05
F7
01
01
FF
02
FD
01
02
FB
F8
FE
FF
04
FB
FE
F0
00
EE
FA
03
D9
09
FC
F2
0E
03
F6
00
FA
E6
0A
0D
FF
FC
F6
F9
EE
1A
E8
FF
F1
02
EE
07
F1
F5
13
F3
0C
FB
06
E7
FB
F6
FD
E5
09
1B
0D
F8
EE
22
12
FC
EF
FB
FB
0A
09
E9
F7
F1
09
F4
FB
0B
E0
FC
FA
06
0B
08
FE
FF
DC
02
FB
02
00
FF
ED
0D
04
F9
05
04
F8
EC
F5
02
CC
13
D6
19
EE
F3
F8
FD
EB
0E
11
02
F7
09
0E
02
30
00
FC
17
F9
F2
DC
F7
07
03
FD
D7
12
02
04
03
04
D3
FC
FA
1E
03
D7
0B
13
EF
DD
E0
F9
F2
F0
07
FE
02
DF
08
02
00
FB
07
1D
26
03
F4
12
E6
F6
17
05
FC
00
05
07
05
EF
D7
E1
0C
F7
01
00
FA
01
FD
FD
FC
03
05
01
00
FA
FE
FB
FE
FE
FD
FC
03
00
FF
FD
FA
FE
FB
FF
FB
FC
FF
05
02
02
00
FE
FE
00
FC
09
FF
FB
FC
00
FF
FA
01
FC
FA
FB
F9
FE
FD
00
00
FA
FB
03
01
06
00
FA
FF
00
FC
FC
0B
01
0A
EB
FC
D0
FC
0B
FF
03
FC
EA
0D
EE
E8
EC
07
CC
05
FB
F0
0D
15
EA
03
F5
FD
15
01
FC
F6
0A
FA
F8
00
FD
FF
01
07
02
01
FF
F6
FD
F9
FA
F4
05
F6
EB
FD
FA
FD
07
00
EF
FD
F7
01
FA
EF
FC
F4
04
FB
03
FE
00
03
F4
FC
00
FC
02
02
02
F6
FD
FF
03
FE
FD
F7
FC
FA
FF
F7
FE
FA
F9
FA
EE
00
FC
FC
FF
F1
FF
F7
FE
07
E2
0A
E3
F4
06
FB
03
FA
02
FB
09
FE
FF
D1
FB
01
F2
FD
F4
FD
F0
EE
E2
F1
EB
FB
FF
0A
DC
F0
FF
F4
FE
04
0A
E7
00
FC
FE
BF
BA
FD
00
FF
FA
0F
FC
00
E9
04
E7
F8
F5
02
F2
E9
05
F1
08
EA
EA
EE
09
FC
16
04
D6
E2
02
FC
04
F3
04
EC
0E
E5
EE
07
F1
05
02
ED
F2
F8
05
F5
F7
DD
F1
FC
E5
F7
0C
FE
0D
09
18
04
FD
07
06
FB
FD
F2
19
E7
06
F2
1F
FC
E7
FD
1A
DC
FE
F2
F8
FA
05
0A
00
FD
E3
FD
F6
FF
00
F6
04
00
01
EF
E6
F3
16
F6
E5
0D
06
E9
FD
0A
07
FD
FE
ED
FA
FC
12
F9
F4
F0
09
01
F2
FA
01
08
09
0A
F7
04
03
E6
08
DF
06
03
0E
F5
F9
F2
0F
F3
FC
EE
F6
EC
E0
F4
FC
16
0E
04
E2
23
E7
F6
F5
09
14
12
EF
15
09
19
17
FA
F3
E4
E6
F8
0E
F3
F5
02
E4
10
04
FE
AC
EA
F5
08
07
FB
E0
E4
FE
05
FF
FE
12
FC
16
FD
0E
FD
07
FD
F5
04
F1
FD
F9
FF
05
0D
0B
F5
FE
F5
11
20
0B
03
FD
EB
20
24
F8
E9
FE
FD
FB
01
FA
05
F3
FE
03
00
F9
F8
0D
DD
F9
FF
04
FA
03
02
F9
01
FA
FD
FC
FC
04
FF
F1
04
F6
05
00
FA
FC
FC
F7
FE
FA
04
FE
01
F9
FA
F8
01
FB
00
F1
00
FF
FF
F9
F9
F3
FC
04
F2
FD
FF
0D
00
F7
E9
FA
FB
0D
0C
F0
02
F8
C9
02
0A
FE
04
1A
D7
03
FC
11
D4
E7
13
E6
02
01
00
F1
F8
E2
F5
CF
0A
FF
FE
F2
F1
FC
13
F7
FE
04
03
F2
09
FE
F3
E4
EE
F6
03
E5
F3
F2
07
FB
05
FD
FF
04
F7
E8
03
FD
04
00
FD
07
00
06
00
FD
04
FE
01
FD
03
02
FF
02
00
FD
FC
02
F9
FB
F9
FC
F5
FF
03
FF
FF
F9
FD
FB
07
F9
E9
FC
F7
FD
FC
EE
FF
EE
02
F9
FB
00
03
FC
F3
04
F9
04
EC
F7
01
FD
01
FB
01
EC
00
FA
FB
F0
03
FA
03
F5
FD
FB
FF
F8
FC
05
03
FB
F5
F3
FE
D9
F9
F4
FF
EF
08
02
FD
01
FA
F1
01
FF
FD
03
01
04
FA
FD
01
FB
02
E0
02
CB
02
04
00
04
00
F3
09
F3
E3
F2
FF
E1
FD
FA
F6
05
16
EE
FD
0A
EF
EB
F1
E3
F8
10
03
FC
FC
FE
00
F9
FC
F8
01
01
FE
01
FB
04
FC
F9
03
03
FD
03
03
01
FF
02
FC
FC
00
00
00
FC
FE
F8
FE
03
02
FB
03
FE
03
02
03
FF
FC
FB
02
FB
FF
FB
03
FF
03
FD
03
04
04
00
FC
FC
02
03
FF
04
03
FE
F8
F4
FD
16
00
42
02
FF
09
F9
F2
F5
02
0A
0A
03
D1
0B
FC
FA
04
07
D1
F4
09
0C
0C
FC
05
0D
05
DD
00
00
FD
FD
FF
04
03
FC
FE
FE
01
02
FF
FA
01
FD
04
FF
FC
FD
01
00
05
05
FE
FB
05
03
02
02
02
FF
FF
F5
F7
01
FC
03
FB
F7
01
FA
04
FE
FE
FF
06
FD
01
FD
FA
F4
00
01
FE
00
03
FA
00
F7
03
FD
01
F8
EF
00
FB
F9
08
02
05
FD
F5
FE
00
F9
F8
12
E8
FF
FB
09
FA
FC
04
F6
FC
F3
FC
00
F4
FC
FA
F4
FC
EF
FE
FA
FC
00
FC
FE
FF
F5
FB
F9
F6
EB
F1
F4
FA
FE
F3
F9
F9
F3
FF
FF
FF
F9
FF
F9
02
F9
FD
FD
FF
04
F7
02
FF
F0
FE
ED
F7
F9
FE
FE
FB
00
FC
F0
F1
01
01
F8
FB
06
06
00
F5
FB
F8
04
F1
FD
FF
00
FF
F7
01
FB
FD
FE
02
FE
01
FD
04
FC
FE
FD
02
FE
04
01
00
FE
FE
00
03
02
FE
FC
FD
FE
02
FE
04
FD
04
02
F2
F1
05
11
EC
0B
08
E5
0A
09
E3
F8
F3
ED
D8
0B
D5
F3
F4
F2
0A
0D
F4
E9
FD
F7
ED
FA
E3
FA
FA
F4
FA
01
FB
FE
F7
FF
FE
F3
00
00
01
FD
F7
0C
FD
06
FC
FE
F6
FD
FE
00
F3
FC
FC
FF
FF
F0
08
05
00
F1
E5
02
01
E3
08
D7
FF
01
0C
06
05
EE
13
FC
CF
F4
0D
DB
03
F3
FC
0C
1E
F1
F4
FA
E7
0F
E8
EE
F5
15
01
FC
05
F6
FE
F1
01
06
02
F9
F3
F2
FF
EA
F8
EB
FB
EC
06
08
FE
FF
FE
FE
FC
02
01
0E
FE
FE
F8
00
04
02
F9
F7
FD
F9
FD
FE
00
FE
FC
FE
FE
F4
00
FE
FE
FC
04
FF
FD
01
FF
FF
02
06
FE
FF
FE
05
FE
FD
FC
03
FC
FC
00
FB
FF
01
FE
FD
FC
03
01
FF
FD
FB
FF
04
00
FF
FB
01
00
01
FB
FC
FE
FF
01
FC
03
00
00
0B
F6
DB
FB
E7
E6
FA
FB
F7
09
0A
0B
00
FF
F1
0B
FB
07
09
03
F4
03
0A
08
0D
FB
04
10
01
07
07
FE
03
FF
03
FD
04
03
F9
04
FC
01
03
FE
00
FB
05
FB
FC
FA
FB
00
01
FD
FC
FC
FF
FD
F6
FB
05
02
F8
F6
FC
00
FC
FC
ED
F8
FB
FA
FA
01
01
F4
00
FA
FE
00
FF
F7
FB
F9
02
FC
F9
FC
FC
F5
F2
FB
FA
00
F8
03
DF
07
06
E7
0C
03
D7
0E
0A
E9
E2
26
09
FE
F9
E7
D8
F7
F6
02
05
F2
13
FF
F1
16
FD
1D
E4
07
F8
D6
FE
FC
EF
E0
F8
F3
F9
F0
09
EA
F6
E0
F8
CC
F6
FE
F6
E8
FD
F5
F9
0C
08
FB
06
FB
FD
0F
EA
F1
0C
FE
FF
FC
03
FE
00
FC
FF
03
FF
FB
F9
03
FF
FE
FF
03
00
FE
04
FC
FC
FC
FD
FA
FF
02
00
01
FB
FD
FC
FE
00
00
FC
FC
F6
FF
01
00
04
F9
F9
01
F7
FF
F9
03
FC
06
FC
FE
00
FF
03
00
06
FE
05
FB
05
F9
02
FC
00
01
FA
FE
FE
FE
02
03
FF
03
FC
FE
FB
FE
02
02
02
FF
04
03
FF
FD
00
FC
FB
FB
02
FC
03
00
FF
01
02
F8
FB
04
FB
FC
FC
F8
F9
F6
F7
04
FE
F1
F0
FF
F7
FB
04
FC
FE
FC
01
FC
FF
FE
06
FB
F9
FD
F9
FF
03
03
FB
00
F8
FB
F9
00
01
FB
05
00
F8
07
FA
01
F8
FE
01
01
FF
F8
F9
00
00
F7
F8
FD
F8
FD
FF
05
FA
00
08
07
F5
03
00
E2
09
00
01
F8
04
EF
14
FC
F5
F3
E8
EC
F7
FA
F6
EC
FD
EE
D0
FA
E8
F9
00
04
01
FC
FD
FB
F6
F7
00
FC
FE
02
FE
06
FE
FE
F9
FA
FD
FE
00
FB
FF
FD
00
FC
FE
F7
01
FD
00
03
00
00
00
03
FB
FE
F5
FA
FA
FD
00
F8
02
03
01
F9
FF
FD
FB
01
07
F5
FB
F9
01
03
FA
F7
07
02
FF
FE
F9
FE
FB
FF
03
02
01
FB
00
03
00
FC
04
03
FE
FC
01
FB
04
00
03
03
FC
00
FF
02
FF
FF
FE
FC
FB
FD
FB
01
08
FC
05
01
DA
03
0E
00
0A
03
08
F8
02
06
12
06
F8
0C
FA
03
F5
F8
F2
0B
FB
FE
E7
01
0D
02
FB
FA
FF
00
01
FD
F1
FF
FE
00
FF
F8
01
F9
F2
FA
02
03
FB
F9
F8
FC
02
F5
EA
FF
FB
F7
EC
F6
F3
FB
FC
F9
FA
FC
F9
00
ED
F8
F1
F7
FA
FD
06
EE
FF
02
06
01
F1
F9
F8
F8
04
FA
E4
FF
FC
F1
FA
FB
F4
F4
F4
00
F9
01
F6
FB
F9
FB
FF
FC
FA
F9
FA
FC
F8
FB
F6
02
FE
FB
00
FD
00
FD
00
FA
F7
00
04
F8
FE
FC
FD
FF
02
00
D6
05
C0
02
F6
EB
08
04
02
17
FB
EA
E9
05
E9
03
05
F4
01
1D
F8
F4
F9
0E
FF
16
DA
F7
1E
04
FD
F2
01
E8
0B
F6
08
F2
F4
EC
FB
F6
EE
11
F7
E6
EF
10
02
FA
FB
EC
02
02
18
F0
E2
04
11
FB
F6
F1
F5
FB
F7
02
F5
04
FB
08
04
02
FD
FE
FC
EC
FD
F6
FC
F5
F1
00
FB
07
F6
FD
FD
FD
EE
06
F0
FD
FF
F1
1D
F9
02
05
07
01
FF
F4
F4
0D
C7
F7
00
04
EF
EB
03
F8
FE
FC
0C
F3
F8
01
EB
12
0A
F5
07
FF
F0
03
F5
00
11
FD
2F
05
03
13
FF
E6
DA
FC
09
FD
FA
D9
10
06
FB
F9
04
D5
FC
04
12
FD
FE
09
10
FF
E0
FD
F8
00
FF
F9
07
FB
03
02
FB
00
01
FC
FF
05
FE
FA
FE
FF
F8
00
01
F9
F7
01
04
F9
F9
01
03
FE
02
03
03
05
F5
FB
F2
FC
01
07
FB
F0
FF
01
FB
F5
F6
00
F9
FB
04
FC
FE
04
F7
FE
00
FF
FF
02
FE
F7
03
FC
00
FC
00
03
FE
00
FF
FD
03
FC
FE
FB
02
FD
04
02
FE
FF
01
00
FB
FC
03
FF
FF
00
FA
01
02
FB
03
FC
00
FE
FF
09
F1
FF
FA
F3
01
FA
F7
01
0C
F3
FC
FC
05
F2
FE
FD
FB
F4
02
F8
02
F6
06
F6
F0
F8
F5
08
FA
04
FF
FE
FB
F5
FD
03
FE
FA
F7
0B
FC
FC
EE
FF
F6
FE
01
FA
02
00
FB
FC
07
FD
0A
07
FC
FA
FC
FF
01
FD
FF
FF
FC
03
FC
01
01
FD
FC
03
FE
FD
FE
FF
04
03
00
02
FD
01
01
03
FC
02
00
04
01
01
FD
F5
FB
F0
07
FC
05
FE
EC
01
07
ED
F5
EA
D5
EB
FE
F3
FC
0B
FB
F6
EA
F7
02
03
1E
FC
EF
16
14
FF
FB
FD
02
FB
FD
03
F8
F8
FE
FE
FB
FD
FE
05
F8
FE
EC
F8
F8
02
04
FB
F9
FD
FE
FE
06
02
04
01
FC
00
FB
FB
02
F9
FD
00
F8
F8
FC
FB
FE
F9
FE
F6
FA
05
03
FF
FC
FE
03
FB
04
F8
FE
FC
02
F6
F4
FE
FE
00
FD
F6
FD
F8
F9
F1
F6
FF
E5
00
04
0A
F7
05
E5
DD
CC
FC
F5
00
F6
08
EE
07
01
05
F7
0F
EB
1F
01
07
0A
00
FA
FD
FE
FC
0D
FC
FE
FE
FC
FA
F4
FD
F7
F2
F5
F6
F4
FD
FE
FE
03
F6
04
FD
05
02
FF
05
FC
FB
F9
FE
13
02
05
06
D4
06
12
F2
0D
05
04
EB
05
FC
0F
09
F8
10
F6
FC
13
F0
EE
0F
09
EA
EA
F5
FD
0C
F8
1A
F9
F9
FF
F0
F1
FB
0A
0A
FF
EA
F2
FE
D6
04
04
F5
ED
10
0F
F3
0C
FB
F6
01
F6
F6
11
E0
0C
FB
FE
F8
0A
FE
0B
09
E5
06
10
F5
FA
03
11
EC
12
24
18
0D
0A
10
F9
FD
13
EF
F6
FD
FF
F6
DE
12
18
FD
F4
E9
00
0E
09
F9
F5
06
0B
05
00
FE
05
F1
FB
09
14
F0
10
F6
E7
FE
F1
FA
CD
DB
F0
00
FB
ED
F1
E2
03
06
06
FF
00
FD
F3
FF
03
00
F3
F2
F9
06
F3
07
FF
FA
F8
07
0D
F7
08
FC
04
FB
03
F5
10
FB
04
F7
FB
22
06
03
F8
F5
FE
FA
0F
F7
F3
F6
E5
03
B6
FE
F4
FD
DE
16
1A
EE
0B
FA
03
04
1C
01
1B
F6
1A
02
F9
FB
FB
FB
FF
03
FA
FA
00
FF
FE
FE
FD
03
FC
00
02
FE
FE
FC
FB
FF
FD
00
F8
FB
00
FD
09
01
F9
FE
02
EE
FD
07
F8
FE
D8
01
0E
F0
0E
01
05
E9
ED
F0
0E
09
09
F6
E6
04
FB
08
EC
F9
F3
FE
ED
F9
EE
EF
0A
F8
00
FD
FE
FA
F6
FE
F4
FB
02
00
FC
FA
FC
EE
F6
F6
02
FE
F8
04
FB
03
FB
00
FA
02
FA
03
F3
FC
FE
02
01
FC
F9
F5
F8
F1
FF
FF
E4
F8
F3
05
F4
FD
F3
FC
F6
FE
0A
F7
08
FD
03
F8
FA
01
0A
FB
FB
F9
FD
E6
0E
EE
07
E1
12
FA
0C
FC
0B
F9
08
D9
EB
D5
FC
00
EE
FA
FD
FA
1C
FF
FE
07
FA
FD
FE
02
E8
FB
00
F9
0F
FD
17
04
43
0A
04
FF
FD
FB
FC
ED
03
FF
0F
EC
04
01
02
F4
F9
E3
F0
13
0C
09
E5
11
22
13
E7
FE
FF
FC
F3
FC
F3
F9
FF
FB
00
FD
FE
FD
F1
01
F9
01
FE
04
FE
FF
FC
01
F9
FE
FE
FE
FE
FE
F8
FE
FB
03
00
03
FF
01
F5
FA
FD
02
01
FE
FB
FD
FC
01
FF
00
02
02
FC
FE
01
FA
F5
02
FE
F6
FA
FE
FC
FA
FF
FF
FC
FC
FD
01
02
04
FA
02
FF
FB
FE
0A
0D
F5
F6
FC
00
FF
00
FF
F3
FF
FD
FD
01
FA
01
0A
F6
02
00
FD
FC
FC
F7
03
FC
F9
FB
FF
03
00
00
04
F7
FE
FA
FE
FD
FD
FE
03
00
02
04
02
07
F6
02
03
05
FE
01
FE
FE
FC
FE
01
FE
F7
F5
FB
FA
FF
F8
08
F9
01
F8
FD
FE
FF
FF
01
F9
FD
FD
FB
FD
FA
03
02
01
FE
F8
EA
EF
F6
0B
FD
26
00
02
F0
04
05
F1
FB
38
EF
FD
F3
EB
CD
F7
01
16
DB
FA
05
0D
03
DC
10
06
06
EB
FC
FD
00
00
04
FB
01
F8
00
01
FE
02
01
06
F8
F9
FA
02
FC
02
04
F8
05
F7
06
05
FF
F9
04
F8
03
FE
FE
03
F9
FD
FB
FD
01
FC
FE
04
F8
01
FB
FD
FF
F4
FD
FC
03
00
03
FB
00
FC
00
02
03
FE
04
01
FE
FC
FE
FD
FB
02
FC
F7
FC
FE
FE
FA
FD
02
F9
FF
FF
FE
FC
05
FD
FE
FD
FF
F9
00
FC
04
FE
03
FB
FF
03
F8
01
FB
04
02
FE
FD
02
FD
00
FB
01
05
03
01
01
04
02
FD
FE
FA
FD
05
FB
FE
00
01
04
FF
04
FF
00
FD
CA
07
14
FD
0D
ED
0E
F5
DC
FF
07
05
05
1F
F1
04
FF
13
D2
ED
08
EA
03
F9
06
EF
F9
E3
00
E4
05
03
FC
FF
FF
01
00
00
FC
00
03
01
02
02
FB
FD
00
00
00
FD
FE
00
FD
FE
01
01
03
00
00
01
FA
FC
00
02
02
FC
FB
02
01
08
FF
FF
FB
F6
FB
FA
01
F9
03
FB
FB
FB
FC
FC
FA
FE
F7
03
01
FD
FB
00
FE
04
00
F7
00
FA
0C
F2
FF
E4
03
09
0C
07
F2
ED
FC
D4
E5
FF
F5
E1
02
F5
F9
FE
06
F3
05
FC
03
0F
F2
FE
FC
0C
E3
F3
06
0F
06
1E
FF
EB
10
09
FB
FD
FE
12
08
02
D2
0B
D6
F5
12
F0
EE
EE
01
F2
EE
00
EE
05
02
E2
FF
02
FE
F6
F3
FA
ED
00
F9
F8
FE
FF
F2
02
05
F9
02
FE
01
FF
FA
02
02
02
02
FB
F9
00
FF
F8
FE
04
F8
F9
F0
FC
07
EA
04
01
F1
F6
FF
00
F9
0B
EB
FA
01
02
F3
EF
E9
E9
12
DC
EF
E8
09
EF
EA
E5
F0
0F
E6
FE
FC
FC
FD
F5
03
F6
0A
16
EF
EE
DE
07
D7
E7
F1
D3
F7
07
D8
FF
0C
FA
F7
EE
15
18
0F
E0
FB
08
05
FE
FD
FB
02
03
FE
01
FA
FB
F8
F7
00
FB
FC
F5
FE
FA
FD
02
FC
03
FE
FB
FC
FD
01
FE
05
05
02
FF
FD
F6
FD
10
03
33
05
09
06
F5
F4
F9
F1
0B
00
06
EE
09
FD
F5
00
07
E0
F3
09
08
F9
C2
FF
13
04
E9
FF
E6
06
08
03
20
01
10
1E
E5
FA
F2
F1
EE
05
01
F5
F7
0B
E7
EB
09
E3
EC
ED
21
FD
CC
ED
1E
D6
E9
EB
F8
F3
12
F7
32
FF
F1
0C
FC
F5
FE
FE
04
0B
02
E6
06
F5
F0
F8
EB
E3
EB
08
04
F5
FE
FF
12
FD
E2
03
0B
FC
0D
F0
00
FC
FD
12
FF
02
0A
DB
15
42
1B
05
1C
01
0F
F0
FB
DE
06
0D
05
F1
DC
0B
1C
0B
E7
01
F9
03
00
FE
04
F9
FC
FE
FD
FD
FD
01
F2
FF
FC
FE
FD
02
01
FB
FF
F8
FC
FD
00
F8
FB
00
05
FE
FB
F9
F8
F4
02
E7
08
FE
F0
FB
08
F7
00
F7
F3
0B
06
F1
E5
F6
FA
FD
FB
F2
FA
FF
F7
FD
FC
02
EC
FC
FD
FD
F8
02
FB
FC
00
00
F0
E6
F5
F9
F7
12
18
F3
F1
FB
05
F4
0D
0A
FA
FF
01
06
D6
FD
0D
E9
F5
FC
00
F4
FC
00
08
02
F4
FF
F6
F9
00
F0
FA
00
05
FB
00
F1
04
FC
04
F4
F6
F5
02
FA
01
02
04
07
FF
F6
ED
ED
F5
04
07
11
CF
14
0B
19
12
F0
F7
DE
EA
01
12
F2
FE
04
E3
0B
03
00
AC
ED
EE
06
0C
F1
DE
E8
00
FB
F6
08
F9
FB
02
F8
E3
F8
0E
F7
DE
15
03
02
FC
EB
F4
03
00
00
FA
03
03
09
11
0B
FA
1C
F4
03
FE
07
FE
01
FD
F8
06
F8
04
FF
F8
F2
F4
FF
F6
07
F7
F1
00
0E
0F
F1
07
FB
04
FE
06
FE
0C
FA
0B
00
FF
F7
FE
FB
FD
F8
06
F7
F6
ED
02
F8
01
F5
00
FE
03
03
F2
F5
F7
F3
FD
FB
FC
00
F4
F6
E6
06
F8
F4
F8
F9
02
FB
FD
FC
03
01
F7
FD
FA
FC
FF
FA
FC
FD
04
FE
FF
F9
FA
00
FD
02
F4
04
FF
F8
FA
FF
FC
FD
FA
01
06
01
FD
05
EC
03
FB
FF
FF
F7
F8
FD
FD
00
F6
02
F5
FF
FE
00
FC
06
EF
FF
02
FD
FB
FB
FE
F9
05
F4
0D
F4
0B
0A
15
03
F6
F6
01
04
F6
FB
16
F8
FE
E5
1E
E5
DF
F8
12
DE
FF
F2
0A
03
0F
0D
00
04
E9
01
15
F5
01
09
D4
06
15
F6
05
FD
06
FD
0C
FF
09
08
FC
11
FF
00
11
FC
EC
08
05
F3
F8
0E
09
02
F9
F5
08
FF
EF
00
D2
00
06
F7
09
01
F0
FE
F9
E5
05
12
E4
FB
F7
00
F5
19
DE
08
F7
FF
F5
08
FF
F1
18
F8
12
E8
F6
FF
EC
FF
00
01
FD
F5
F7
DB
E4
DB
A7
10
FA
13
FF
FF
D9
0B
F2
00
07
19
EA
1D
F8
FA
10
F4
F9
02
FA
03
F7
FE
F6
FA
05
F5
F7
FB
F6
E9
F6
FA
F4
FD
FE
FC
FA
03
FC
F9
FE
05
FD
F7
F3
F8
FD
BB
03
08
FF
F3
F4
E0
EF
0A
07
05
FA
F1
F2
BB
E0
02
D3
D7
E2
06
04
0B
06
17
EC
03
07
0C
F3
20
0B
04
FC
00
FD
00
FE
00
02
00
FE
FE
FC
FD
FC
01
01
00
FC
FD
FC
02
01
FF
FB
03
00
FB
FB
FC
FC
00
02
00
F9
00
FC
FA
01
FF
02
01
F9
FA
F8
01
FC
F4
FD
FC
F8
FF
00
FB
01
02
FC
00
FC
02
01
FC
F8
FF
02
F5
00
02
F8
00
DD
04
04
F0
0E
FE
EE
FD
EA
E0
01
06
E7
05
EB
FF
F9
19
EB
F8
F1
02
FC
FB
FA
F3
10
F2
FD
F8
02
FC
FD
00
FD
01
FF
02
FF
FE
FE
FB
00
FD
FE
F8
F6
03
FF
FC
F9
03
F9
FF
F4
FE
F6
03
01
F3
0C
FB
F8
02
D4
F4
0D
F3
FB
01
0A
04
FA
03
00
04
EB
0D
F7
09
13
F4
F5
03
12
F0
00
FE
01
0B
F8
F0
FA
FD
05
04
E9
09
FB
04
FF
FB
F0
F7
14
F8
FC
F6
0B
D4
E3
06
FB
03
F9
F7
E9
09
FB
E4
E4
01
FB
FC
01
FC
02
FB
03
03
00
01
01
FC
01
06
FB
FE
F9
02
FF
04
02
02
04
FF
02
FF
FD
01
03
FA
FF
FE
04
03
04
FB
03
FE
04
03
04
01
FC
03
FC
FD
01
02
FB
FA
FD
FC
04
00
FD
FE
04
FD
01
FD
01
FD
FC
00
FC
03
FC
FD
FB
FB
01
FA
02
02
00
FC
FB
01
04
FE
F9
02
04
02
FF
FE
FD
00
F8
00
FE
FA
FD
F9
FC
00
FC
02
FE
05
D7
00
B8
02
03
13
05
02
F8
19
FA
CE
ED
08
E0
04
F6
06
0E
19
F5
F5
F7
F4
0B
01
DB
F4
16
FF
04
FD
FF
FB
F9
FA
FC
FC
F8
F8
FA
FE
03
FB
FE
FD
FA
FD
04
FF
FE
FD
FB
FD
FB
04
06
FC
FF
FE
F9
F8
FD
FD
FD
00
FD
F9
F7
FC
FE
09
FD
FD
02
FF
04
03
04
F7
FB
F5
F7
FE
FB
FF
02
FF
F5
01
F5
01
F8
F9
FD
05
FD
FC
F4
FA
F6
FB
00
FE
01
02
04
FD
FB
F9
FE
FB
02
F8
F8
FE
01
FA
00
01
00
01
01
F7
FC
03
02
FD
F6
F8
F7
FA
FD
01
F7
FC
F8
09
F9
FD
F7
FD
F6
FB
0A
02
FB
FE
03
FF
05
FA
0A
F6
FE
FD
F6
24
FD
00
00
F0
04
FA
15
DE
DE
ED
E9
09
CE
E7
D5
FA
D1
13
11
E2
1C
01
08
FE
F0
07
1B
F8
F4
F3
FE
FB
F9
02
1B
03
44
08
FA
13
FC
F7
F8
F5
06
04
01
DA
11
02
F9
05
07
CF
F7
01
14
04
E6
04
18
0B
E2
FB
FB
FC
F8
02
F3
F9
FE
FF
FF
FE
00
FC
03
02
FB
FB
F8
01
FD
FA
FF
F7
FF
FC
00
F8
F8
02
03
FC
FF
FE
06
FE
FF
FD
13
00
05
01
F6
FE
04
FC
FF
00
FC
F7
03
FE
04
F7
00
EC
FC
02
02
F4
F8
FF
09
03
F1
01
FA
00
0C
05
23
FF
FB
15
FA
F8
EF
F5
0F
F0
FC
DE
0F
FF
DB
08
0F
DA
FE
FC
0D
02
09
00
0B
01
E4
F9
F3
FD
FB
01
FD
FE
F6
02
FE
F6
F3
01
FD
E9
00
F0
F9
ED
EF
08
F8
F8
FF
FE
ED
02
FA
F8
ED
FD
FA
FD
04
04
02
02
FC
02
03
00
00
02
FF
FC
04
04
00
02
FD
FF
01
FD
02
03
FB
03
FD
01
02
00
FC
FD
03
FA
FA
FC
FB
FF
FB
06
F3
00
FF
05
02
FF
0D
FC
FC
F8
08
F9
F9
FB
FD
FD
FE
FB
FA
FD
F7
02
FD
03
FF
FB
06
00
FC
01
EA
FC
F8
04
FF
04
05
FC
08
FB
FD
04
03
FF
FB
01
FA
FE
F6
06
07
F9
FA
FF
FC
FF
00
FB
F9
F7
F1
F9
F3
F3
F6
F3
FF
FB
FD
F7
FE
0A
F4
01
F6
00
00
FC
FC
01
FF
FD
FD
F0
ED
01
F9
F9
01
EA
10
F2
0B
05
27
01
FA
0A
F6
FD
F7
04
0F
0B
03
E2
13
01
05
F6
F6
EA
F5
07
03
F3
06
D7
14
07
E7
02
FC
F3
FE
F7
0D
01
09
FA
F7
FD
F2
09
EE
08
00
FC
F3
13
0A
F7
04
EE
0A
FF
15
00
EF
F5
1B
03
F0
02
FF
FD
FA
00
E9
F3
F6
01
F8
03
FF
0A
10
FB
F9
FC
FE
02
FF
FE
F6
03
FA
05
0A
FA
FC
04
FA
02
F8
01
F7
FC
FD
FF
FC
01
06
FF
01
F7
F7
FC
FB
00
F3
F4
FA
04
FF
FF
01
FE
FB
FC
FB
FD
F3
FF
00
FD
01
01
00
03
FB
FD
FD
FD
FC
03
FE
00
F8
03
FB
F8
FA
00
F7
03
00
FF
FE
04
FE
FC
02
03
FD
03
F7
FB
01
F0
F3
06
0C
10
EE
1C
0B
13
16
F7
F2
E7
E6
F7
0B
F2
F1
01
E5
0A
04
FB
B2
F2
F3
0A
0A
FB
E5
EA
03
EB
F9
EA
00
04
F4
09
EE
F4
0A
11
F7
FB
02
DE
0B
02
FB
EE
ED
F7
FF
03
FD
00
EE
04
F7
02
FC
F5
F9
0C
09
F3
FC
F3
FC
EF
F5
EC
DF
04
FA
13
03
0A
EF
FE
F9
02
14
05
09
F8
0B
11
E4
F9
0B
00
F7
15
F3
00
FB
FD
00
FA
05
00
05
F7
01
F9
00
FF
F0
FF
09
F9
FC
FD
FB
FE
FD
FC
F5
FA
F2
FD
00
FA
00
FB
FA
FE
01
FF
FC
FE
FC
F9
FB
03
00
FA
FE
02
00
FB
F2
F7
FC
FD
FB
FE
F8
04
F8
FB
01
06
F6
04
00
01
FE
F4
04
FF
F4
07
D2
07
04
F0
04
03
F9
F5
FE
E2
FB
13
E8
04
EE
02
08
20
E2
F9
F8
04
F2
00
F8
F8
14
FE
FC
FD
05
F9
12
FF
FF
01
F8
FC
F8
F8
FC
05
FC
F8
06
03
03
F9
04
F5
00
00
00
F9
05
F9
0A
FE
F6
FA
04
00
04
01
FC
01
FF
F8
F8
02
02
05
02
F7
FC
04
06
01
04
01
FD
F9
00
02
FE
FC
FC
00
03
05
FB
02
01
04
FE
FD
FD
02
02
00
FE
03
03
FC
03
03
FE
FE
FB
01
03
FC
02
00
FE
FF
03
01
00
FF
01
01
FF
FD
FB
FF
03
FE
06
FD
06
06
FD
FA
F9
FE
F5
F1
FA
FC
F2
05
FE
FF
FE
F8
FD
02
FF
FD
03
03
FA
FD
FE
18
15
01
F6
02
D6
00
04
10
FD
08
F6
FB
F5
D9
E3
08
F3
F8
FA
03
EF
0A
E8
0E
F9
0F
1A
F4
F4
01
0A
03
01
FF
00
FE
FD
FE
FF
FF
FC
02
FB
02
02
01
FC
03
01
FD
FF
03
FF
00
FF
03
03
02
04
FE
00
03
FE
08
02
04
E0
08
C2
00
04
1C
F9
FD
F7
0D
F6
E7
EF
06
E7
05
FC
FC
03
18
EF
11
F9
F8
F9
F0
E2
05
16
00
F2
01
15
02
32
FC
FB
18
FF
F4
E2
00
0B
04
FF
E2
13
FE
05
08
02
D6
F5
07
22
07
E2
10
0C
F8
DE
FD
FE
00
F8
01
EF
FD
01
FC
FD
FC
F9
FE
F2
FB
FF
FD
F8
08
FC
FD
02
02
F7
FC
05
01
00
FE
F9
F8
FF
F5
0D
00
03
02
09
FD
FA
F8
F3
0D
F3
19
0B
00
FC
F6
02
F1
E6
F4
0D
E1
01
EA
03
0A
1B
F9
07
EF
E3
FC
04
FC
11
E6
15
FF
FE
FF
09
EF
01
FF
12
F1
FB
CC
F4
F2
F3
0D
0E
FC
F9
07
12
01
DF
FF
E4
FB
FF
EF
F7
F7
03
F9
FF
00
FB
00
05
FC
FA
FD
F7
EC
FF
F0
F3
FE
EF
F9
08
F8
F3
FB
FE
02
F0
EF
E6
F8
FE
F9
06
01
F3
04
F0
FB
FC
FD
FB
02
F9
00
02
F3
F7
03
F5
00
04
FD
FA
05
01
FC
03
00
FF
FE
FD
00
04
F8
F9
F2
F1
F8
F5
F4
F5
FE
F9
01
04
EF
F3
EC
01
F5
E9
DF
FB
0C
FB
03
03
07
F3
EB
E8
FD
F1
04
FF
EB
02
F8
00
02
E0
0C
F7
00
0D
09
04
00
04
0B
14
02
08
EC
F6
F7
EF
0A
F5
06
DE
02
EB
F6
E7
08
0E
FA
FF
F7
F9
FD
FF
F1
FC
F8
F0
F5
04
F4
FA
02
FE
01
FB
01
01
FD
FD
FB
FD
FE
F6
FE
F7
FB
F8
F8
FD
FC
FF
04
FE
FF
FE
FF
01
04
FD
FF
00
FB
FB
FB
02
FF
FF
FC
FD
00
FC
00
02
FE
00
05
FC
FD
01
03
FF
14
05
FC
FA
02
D7
F6
07
E2
FC
FB
0F
FB
07
05
07
05
F7
17
EF
F2
15
FA
F8
01
06
F3
E9
F7
F8
03
FA
00
FD
04
01
02
01
FF
FE
02
04
02
00
05
FB
01
FA
FF
02
FF
03
03
FB
00
00
03
FE
01
FD
02
FD
FD
00
04
FF
EC
07
04
0D
00
FD
E2
FD
01
F9
EB
09
F7
08
06
0E
FA
F6
FC
FE
F2
FF
F8
F7
FB
EE
01
0D
FA
EA
04
07
02
FC
00
FC
FC
04
FC
FF
FA
FE
05
FF
FE
F8
05
F9
FC
FF
FC
05
01
02
FC
FE
FA
02
04
02
FE
FA
07
03
FC
02
FD
EC
01
F4
F7
01
02
FB
01
07
F6
FF
FE
07
FA
05
FB
FD
F7
FF
FC
01
00
FD
07
04
00
F9
F1
FB
FD
F7
FE
D7
04
0B
EA
06
01
00
EF
E9
EF
04
08
E3
FF
E7
FD
04
15
F2
00
F2
03
F4
F0
F9
F6
0D
FD
F7
FB
F8
FE
F3
03
03
05
FC
FC
03
F9
E9
FA
FF
FB
FD
00
01
FC
FD
FD
FC
F7
FE
F9
F7
FE
FA
F9
03
09
FE
08
00
FF
F9
FF
01
0B
04
F8
F3
F7
F1
FB
F4
ED
F0
FE
FE
F7
F1
F1
F0
FF
EB
E3
FF
F4
06
F9
F2
17
03
09
EE
E8
FE
FF
E8
49
05
FA
F7
06
FA
CB
E1
F9
F0
EF
02
0C
0A
0E
0C
08
E5
16
0F
0A
CC
03
0F
FD
ED
06
EC
07
CB
04
FC
0A
0C
FA
F0
02
FE
D9
F1
00
E6
FC
EF
00
F9
0E
E2
F0
FF
FC
E7
06
E7
E6
0B
03
FB
04
F7
FA
F7
F9
02
08
F5
EA
EF
FA
DF
E2
E3
FB
E0
00
0A
F3
06
00
FE
E9
FF
05
0D
FC
F2
E2
FF
FA
02
FD
F9
FC
EA
F5
F7
F5
FD
F9
FE
F3
FA
FA
FC
04
F9
FF
03
F7
F6
F8
FE
FE
FC
F5
F4
00
F9
FE
F4
E7
03
05
F2
FF
D3
07
0D
EA
0F
FE
07
EA
EF
EE
06
06
FC
F9
E8
FC
F9
0F
F1
FA
F7
04
F0
F7
DF
F3
0F
F6
F7
FF
E8
07
CE
03
09
0A
FA
FE
F9
05
FA
E8
F9
00
E4
03
F1
0C
0C
10
E1
F0
00
FE
F8
02
EE
F9
0F
13
15
FC
E3
F6
0A
DC
F7
F9
EC
01
11
F7
1F
0D
F1
0B
17
07
14
F9
F9
06
20
F6
10
06
03
12
17
0C
01
E5
FC
05
FB
08
ED
06
08
E2
00
00
07
D2
0E
10
0F
04
06
EC
EE
0A
CF
F6
E3
EE
E1
DF
C8
FC
F2
E6
FA
00
07
F9
F9
FB
FE
F9
F8
FE
EF
FD
FB
04
01
F9
F3
F5
FE
F7
08
FC
00
FD
01
FD
06
FF
08
08
FA
01
F6
04
ED
03
13
FE
31
02
00
18
FB
F8
DF
0B
07
F0
F9
DD
1C
04
FC
08
03
D3
F1
F3
1A
FB
ED
0A
14
F0
E5
03
02
FC
03
FE
02
00
04
FE
02
FD
03
02
03
FB
01
FD
03
FD
FE
FB
FF
FC
03
04
FF
02
FB
FC
FF
04
02
FC
04
FC
02
03
00
00
FC
01
FE
05
05
FE
01
05
02
FD
00
04
04
FD
02
FC
01
FE
FC
FB
FC
04
00
01
FC
F5
09
01
16
E5
0C
F2
FA
0E
07
00
15
E2
21
43
1D
08
1E
00
12
F2
F4
DD
0D
08
19
ED
CF
0F
20
06
E7
04
02
02
00
01
FE
FB
00
FF
00
FB
FC
FD
04
01
00
FF
03
FE
04
FF
FF
FD
FD
01
03
FD
FF
02
03
FE
FB
FA
EC
02
10
08
25
02
FA
13
00
F2
EF
F7
0F
EA
FC
E2
13
0C
DA
0C
01
D8
01
05
17
F6
E9
0D
14
DB
E4
0B
00
EF
D7
FB
FA
03
EE
00
0C
F4
E2
0E
E4
ED
04
C9
07
EB
01
09
FC
FC
EB
FA
22
C8
F5
00
11
FA
FE
FC
02
FB
00
F9
F8
F4
F8
FC
F2
FF
FA
01
04
F9
F2
F5
FD
02
06
01
F5
FF
02
F9
07
FF
03
05
FE
FD
02
E5
00
0F
EC
F7
ED
01
F0
26
02
02
FF
EB
EF
C4
DF
FD
EC
F2
F6
FD
03
14
0E
FF
EA
13
F1
17
D0
14
13
EC
0F
E3
0F
02
2B
FC
0A
05
E2
E4
F0
D9
0B
06
03
F4
08
00
01
FC
10
EB
F0
0B
FF
F7
FF
0E
0E
03
ED
21
E4
F5
12
E9
30
FE
F4
FB
07
18
FE
F8
32
0C
FD
E9
CE
07
FE
FC
11
DD
FE
02
FD
07
BC
24
F7
06
EE
FB
FF
04
FE
04
FF
01
00
03
FB
03
02
FF
FF
05
FB
01
FC
FC
FE
03
FC
FB
FD
01
00
FF
FF
00
FC
01
FE
F2
F9
0B
F1
E7
E9
E4
F0
F1
06
F6
01
EF
02
FB
FD
F7
BB
E4
07
DF
FE
FE
07
E6
F9
FF
FA
0A
E5
F0
FE
F2
0B
06
F0
07
D6
01
04
E6
0C
03
EE
04
FE
EB
FB
19
EF
00
F9
F8
FE
1E
DA
00
FB
FF
FA
01
F6
FA
19
FC
E9
F8
14
04
29
02
FC
04
FF
EC
E3
F9
0D
E0
FE
DD
0F
03
E2
02
FE
D9
FA
FE
0F
FE
04
08
0E
F7
E6
E9
CA
01
06
E9
FF
FB
F2
1E
09
FF
F9
1A
D2
0B
02
F0
10
E8
02
07
F1
FF
04
F7
F0
FB
14
03
F1
F7
FD
FA
F0
FE
0B
EF
FB
FF
00
04
04
E8
FA
FE
ED
FE
0E
DC
FB
06
EC
01
FB
FB
E8
05
F6
00
02
E4
F7
F5
00
DF
F7
05
E1
15
D4
06
F6
EA
0C
0E
09
0F
1B
00
0C
FD
1B
D8
EC
12
F9
FD
FF
02
D7
FD
DA
FE
D3
0C
F9
1F
08
09
E6
FF
D7
EC
0E
D7
FC
0E
0B
FC
F5
F2
00
0E
DC
0B
F5
FD
06
F8
08
05
20
F8
E2
08
FB
04
F6
07
02
FE
FF
FC
FA
FE
02
07
04
FE
F8
FA
F4
FF
FC
FE
F5
03
FC
FA
03
FA
FB
FD
FD
FB
03
04
04
FC
FD
02
02
01
03
00
FB
FE
FB
00
02
FB
00
01
04
FC
FF
FE
FD
FC
02
00
FB
FB
FF
FC
FF
02
02
FD
01
04
FD
FE
1F
00
0A
05
0C
FA
04
06
F4
14
C5
19
13
CE
E8
05
25
FC
03
FF
E5
DE
FB
F6
E3
F6
FC
FA
F5
FB
D9
04
FD
03
FC
00
FD
FC
01
01
FF
FC
01
FC
01
FF
FD
FF
03
FE
02
FC
FE
03
FC
FF
FE
00
04
FE
04
05
FB
08
06
04
E4
F2
D3
EC
FA
ED
F4
05
03
02
0A
FD
FC
08
04
FB
07
02
03
07
11
06
FD
F6
04
FF
07
11
FC
02
01
FF
FF
FC
07
FB
02
F6
FE
F8
FA
EF
EF
03
F4
F9
F0
FC
03
FC
07
FC
FF
FB
FF
FD
FA
FA
FF
FF
FA
03
00
FD
FD
01
0A
FF
FD
F5
FF
FA
FA
01
FC
F9
F9
FA
FE
04
FD
00
01
F4
FF
02
00
01
01
05
03
FD
F0
0A
00
0B
F6
03
DD
05
FD
23
05
0A
F7
FC
01
E6
03
F0
0B
F9
FB
02
E8
FD
F6
F9
F1
EB
FC
FE
0E
EF
F7
F4
FB
0B
05
0F
D4
17
04
ED
13
F5
F2
EE
F8
FE
0F
F9
FD
03
E8
0A
08
00
B8
EA
ED
06
F8
03
E6
E8
03
02
FD
05
DF
FF
BD
FE
00
01
FF
01
F7
13
FB
DD
E7
0B
E6
FB
F1
08
05
1B
EE
FA
03
02
0A
07
DF
F7
16
FB
04
0A
E8
00
C6
FF
FF
16
FA
F0
F7
FB
E7
F2
F4
05
CA
05
FC
F3
FE
1B
D9
05
FD
FF
F0
F5
ED
F7
15
02
FD
01
FF
FC
F8
F8
04
FB
FA
FE
00
FC
F9
FD
FC
FB
FA
05
00
FE
FE
FE
02
00
00
F6
FE
02
FF
00
FF
FC
03
FC
FC
04
FE
F6
FC
04
F9
FD
FC
02
F8
04
F6
02
F8
00
01
FE
F6
01
01
02
0A
F5
F8
00
FE
FF
FF
FD
F3
EA
FC
FE
03
08
D6
EF
07
F6
10
F8
07
E9
08
EA
F4
FB
F2
FE
04
00
F4
FB
08
18
03
E0
F7
FB
F9
16
04
04
FD
EE
EE
EF
F0
F7
F6
02
03
14
10
07
EA
FB
FD
0B
1D
01
FE
FB
0C
17
FE
FD
11
0E
FE
16
F8
F7
04
07
EE
0D
DA
07
0A
00
00
03
EB
08
05
DC
F3
04
E5
11
F0
02
0D
15
E6
13
D8
03
FE
E2
F9
0C
0D
FC
FC
03
02
FF
03
FC
FE
01
00
FC
FF
02
FF
01
FD
00
04
04
FC
02
FD
FB
FD
01
00
01
03
FD
02
FF
FD
12
F6
03
0E
F6
FD
06
09
EE
00
DA
09
E6
F8
00
0A
D5
05
0A
FC
00
0C
02
DD
E5
06
FA
04
E2
F2
D8
03
AD
F8
0D
ED
FC
F3
F0
04
FE
00
FD
F7
D7
F7
BF
ED
02
DD
D7
E4
06
0C
09
06
0C
E0
EE
FA
F0
F0
14
0F
F6
10
00
FF
FF
F1
F4
03
00
E9
05
07
DC
15
26
04
02
13
02
17
EC
01
ED
05
07
0A
FB
F5
07
10
09
EE
EF
04
FB
E4
02
D5
FC
F5
E7
FE
FB
01
0A
F7
E3
F7
05
E5
EA
01
F4
F7
11
EE
03
05
FA
EF
EF
E1
FE
06
07
ED
00
01
06
0F
05
FA
FF
03
F8
D6
FD
09
FB
FD
D5
15
FE
FA
F6
F5
EA
FC
F6
00
FD
FA
DC
13
FA
E7
EF
11
F3
04
C2
FF
F0
00
EF
06
03
18
FF
EE
31
10
01
D9
F5
09
EF
0E
E2
F6
E1
F0
F1
02
FD
E8
D7
F0
FB
FB
F9
F8
FC
EE
F0
F5
01
02
F3
F8
0B
01
00
E8
F5
F9
06
01
07
EE
FF
FB
FA
06
FF
04
06
02
F9
02
07
09
09
03
04
EA
FC
08
01
F6
F0
F8
F9
06
EE
F0
04
03
E3
F9
F8
F1
F7
00
E8
FF
F3
14
00
EE
DC
E0
02
02
03
04
FE
FC
04
02
04
00
00
02
FB
03
03
02
02
00
FB
FD
FE
FF
02
01
FC
04
FC
00
01
FE
02
FD
FF
F8
FF
F8
00
F7
F9
FE
FD
FF
FE
FB
FB
FF
FA
F8
FE
FC
03
FF
FA
FD
FE
00
FC
01
03
00
FF
FF
F7
FC
F1
F1
EE
F5
F5
FC
E9
C6
FA
01
06
07
FE
02
0F
05
00
F8
08
F8
08
EF
FA
F9
FC
24
F3
E6
17
1F
FA
FD
F0
FE
06
F4
FC
F3
02
F6
05
02
FF
FC
F2
EE
DD
F5
FE
E8
F6
FA
02
03
00
F6
FB
FD
02
FE
FC
F5
FA
00
02
01
00
00
02
FC
02
FF
02
05
00
FF
FF
FD
FF
FB
FD
F7
FA
F7
01
00
06
00
02
F8
FC
F7
00
FF
FA
FF
F4
05
FE
EE
FF
DE
00
FD
09
05
07
FA
00
00
DA
F0
01
EF
FF
F9
F7
09
18
E6
FB
ED
0A
FA
04
D9
FB
13
F8
FF
FF
F7
00
F2
FA
FE
FF
FC
00
04
F4
FB
FF
FD
02
F8
FB
FE
02
FD
02
00
FD
FF
F9
F2
01
FD
FF
FB
FA
05
04
ED
09
E9
06
FF
04
05
01
DA
05
E5
F0
F4
FC
F8
FD
1E
F7
01
15
CA
01
FF
02
F2
04
01
06
10
F8
03
FB
FF
09
E7
FE
0C
0D
FE
FE
0C
E1
1E
25
13
08
1E
0F
03
F1
13
F1
FF
00
EC
FA
E2
12
1C
00
ED
01
06
F6
F2
FC
CB
F1
EE
F2
EE
07
0A
F6
0E
EE
FE
06
05
07
0C
E7
EE
FE
F6
06
10
FB
F3
01
12
04
FC
04
04
F9
FA
FE
EC
06
0A
EB
09
F3
00
E4
02
E0
08
07
FD
F1
E1
E8
F4
02
F6
F5
E5
FE
F5
0C
02
F0
04
F5
01
FE
07
E5
F8
F6
F3
15
FA
F0
FB
17
03
02
F5
F3
02
FD
10
F6
09
F6
05
0B
FC
07
10
0F
02
0F
F9
04
00
01
00
F9
F7
FA
00
02
FE
FF
FE
FD
EE
F7
F4
FD
FE
FD
02
03
FF
FE
F8
FB
0A
04
06
FE
02
FA
FD
FE
02
FF
FE
02
FB
03
FD
FB
F8
00
00
F9
03
FE
FC
FD
FF
F7
F6
FD
FC
00
F9
04
FD
00
F5
06
F6
FB
FA
1F
E9
09
03
FF
02
06
09
12
05
D1
E8
01
00
08
F8
CB
DF
0D
F9
FB
F8
F4
E3
FE
D5
D6
F4
EC
1B
F9
F2
FF
06
FC
E6
D6
E6
F1
F0
FB
FD
FA
FE
05
FD
D5
E4
F9
EE
FB
0F
0D
0B
10
0D
03
FE
0E
14
04
D1
00
0D
D9
01
02
00
E9
EE
F2
F4
03
0D
F6
00
DC
F4
CF
EE
FE
DE
EA
F1
E4
FF
0B
02
FE
F7
05
F2
0E
F4
FE
05
F7
00
02
FC
04
E8
00
03
F9
03
FB
04
F0
02
02
03
00
FE
FD
FB
FD
FF
FA
F2
F8
01
F6
EF
FA
FA
FA
F9
EC
FA
FD
EA
F6
E6
F0
FF
03
FE
06
F5
F9
F2
F4
F0
FA
E8
09
F6
FF
FE
04
F3
07
01
01
EA
01
E9
00
08
F8
FD
FA
FC
F6
02
FB
02
FD
FB
FB
FC
FA
F3
E7
F5
FF
F7
FC
FB
00
02
03
05
04
F4
02
FA
FD
F3
01
FD
E7
FE
FC
07
F4
05
01
EE
F6
0E
BD
F0
EA
F6
C1
ED
F5
DD
F3
03
F7
EA
0A
FD
DD
05
05
07
FB
D8
D4
06
FD
05
00
04
F9
FF
03
FE
F8
FE
02
F8
08
03
F4
01
FF
FB
02
FF
FA
FD
FA
04
FD
FF
03
05
03
FA
FE
F8
FC
C8
07
07
E8
F9
03
FA
1E
09
EC
F6
FF
D9
01
04
E9
F4
FB
0A
04
D0
EF
CD
FD
D0
01
F7
03
04
ED
EC
05
F9
06
F2
02
F3
01
00
FC
FB
02
FA
08
F6
EE
F4
02
FA
00
FB
FD
FD
01
01
F9
01
00
05
FB
FF
00
FD
FE
FB
01
FF
02
02
FF
03
FE
01
FE
FE
FC
03
FF
00
04
04
03
FD
01
03
FF
04
FF
00
FC
FF
00
03
FD
FF
07
E6
00
11
02
36
FF
FA
24
F9
F9
D5
FD
06
F2
01
DF
19
04
F7
06
FE
CB
FB
02
1C
01
EE
0B
0E
FD
DD
F2
F9
F3
F7
0E
E9
FE
06
EF
04
01
0E
E9
06
08
0E
04
05
FF
DC
0D
F4
F8
DA
E6
F1
EC
E2
12
FE
CC
F6
01
08
FF
F7
F8
DD
EF
FE
F5
F7
FE
05
F0
FE
FE
FE
03
FE
FD
FD
FE
FC
F9
FB
00
01
F8
F5
02
03
FA
00
0E
FA
01
F9
EF
F7
F4
07
FB
F9
F7
FD
02
F6
FB
F9
FD
F2
05
01
EC
04
FB
03
FF
F8
E7
FD
FC
00
F7
F9
F4
B8
DF
10
F2
18
00
09
E6
F9
DC
EE
F0
F2
02
00
E7
EB
08
FB
F8
13
F2
FD
FD
ED
FC
02
EB
FD
07
FA
00
00
FD
FD
00
FF
FE
00
02
02
FF
FD
FC
02
FE
02
00
FB
FF
FB
FE
01
01
05
FE
00
FD
01
FC
01
FE
00
FE
F9
FC
06
F7
10
EF
00
F6
FE
F5
F8
F7
FD
0C
F8
FE
F6
FD
F9
F7
FF
F0
FE
02
04
FB
ED
FE
F6
FC
FA
03
FF
02
01
02
FD
FF
FB
FD
FF
FC
FB
03
FE
FF
01
FE
FD
FF
FE
FC
03
01
02
FE
02
00
01
02
04
FE
FD
E2
FE
F0
02
09
FD
04
F6
E0
0D
F8
03
FA
DD
0F
12
F8
EF
F3
E9
08
20
F0
D5
F5
E9
FE
FC
1F
F0
ED
F4
04
FA
F7
FF
FE
F8
FA
FF
06
00
FA
FE
04
FB
00
F9
F7
FD
FD
F5
F9
FB
01
01
03
00
FB
03
04
01
FB
FD
FA
06
00
01
FE
E9
FB
FF
FF
03
F9
FE
FF
06
FF
F5
00
03
FC
FE
FA
FC
F7
FC
FC
07
F9
04
03
03
03
FC
02
04
0D
00
06
F1
0A
07
FA
FE
F5
00
D0
00
1A
05
FD
05
08
0E
04
0C
06
D1
F3
F6
00
26
D4
F8
EE
05
ED
FF
F4
01
05
F0
FB
EA
F8
00
08
03
03
0C
F8
04
FE
05
D3
F5
10
FE
FB
F7
04
EB
09
E9
06
DC
07
FA
DD
1E
F8
07
E8
11
03
F6
F6
0C
FE
F5
ED
0C
C1
F5
E0
EB
F7
F7
02
1C
FE
FB
03
FF
FB
EA
F7
D0
02
02
FA
0A
FB
E6
05
CA
03
01
F0
05
0B
FC
15
05
D9
F0
08
EC
00
F0
FE
06
18
EB
F6
FC
FA
FF
0E
EB
F4
12
F9
FF
FF
F5
FA
F8
FB
02
FB
01
01
FD
01
F6
FF
F3
FA
F6
FC
00
00
FD
00
F4
03
04
FF
F6
06
FD
FC
03
FC
01
00
FE
FB
00
FC
FF
FF
FA
FD
FE
FF
03
FB
FC
FC
FF
FE
01
05
02
02
00
FD
03
FB
00
FF
03
FC
FE
FB
01
02
01
03
FE
01
FB
FD
FE
FE
FC
04
03
03
00
FF
02
03
FD
FE
04
FB
00
04
04
FE
04
FB
02
04
00
FF
E9
FD
10
FC
2E
00
00
1A
02
FD
DA
02
07
FC
FE
DD
18
00
F4
FE
00
D4
02
F0
18
01
E8
07
17
EE
E0
FC
FB
FC
F6
01
00
FC
FF
03
FC
F6
FF
FB
FB
F5
F7
FB
F9
00
FE
01
07
FF
01
FC
01
01
05
FC
FF
FC
FD
D8
F5
09
EF
11
EE
05
F8
15
12
06
06
12
17
08
0A
F9
17
DC
EF
11
FD
01
F9
01
EF
04
DB
FF
CB
0E
F8
F7
02
03
E4
FC
CC
FC
FD
FB
07
FD
FA
06
FB
D8
ED
06
ED
02
FD
FF
02
1A
F2
F8
01
01
FB
13
D5
F9
14
FF
FF
01
F6
02
ED
01
FB
FC
03
FA
F9
03
FF
F6
F8
FA
F4
03
F8
FF
02
0A
F3
FE
F6
FB
F9
FF
F2
01
01
FC
FD
08
EE
05
EA
03
FF
FE
09
FE
FE
F3
FD
D0
F1
F6
EC
FB
F8
FF
07
00
FE
02
FC
01
01
F3
F3
F9
02
03
FF
04
FB
FB
FE
02
FE
FD
FD
00
FA
04
FB
02
FC
FD
FF
03
01
FE
03
02
04
02
FE
FE
FF
00
FD
FD
01
E3
FA
03
F4
0B
D0
07
0C
F4
0F
06
08
E8
EF
F5
16
0E
F9
FA
E4
FF
FE
1A
DF
F4
EC
05
E5
F1
ED
E4
10
E9
14
FD
0C
08
0F
0E
FC
18
FE
03
FA
DF
19
06
04
E4
20
F1
F1
07
28
EE
F7
03
F8
F4
24
CE
01
0A
EB
01
FB
02
FA
00
02
FE
00
02
04
FA
FD
FB
F9
03
FB
FA
FC
06
FD
00
FF
FA
FD
FC
00
FB
FE
04
FF
01
FA
FE
FB
03
FC
01
FD
03
FD
01
01
FF
FD
FF
00
04
FC
04
FC
FE
FC
FB
00
FD
01
02
FD
FB
FE
FD
02
FB
00
FE
F6
F5
00
F6
05
F5
F2
F5
FE
FF
02
EF
EA
0C
03
02
DA
F1
FA
FF
F8
FD
FE
08
F4
FB
F4
FE
E7
FE
FE
02
FD
F7
FC
FC
0E
FB
F8
00
FE
F4
F8
03
FF
01
FA
FA
FC
FD
02
FC
FC
F9
FB
FC
07
F8
FD
FF
05
FC
FB
FD
FD
04
01
FD
02
01
04
FE
FB
FC
FF
FB
FC
FB
FD
00
FE
02
01
FF
01
02
FE
FF
FC
00
FE
FE
FD
FC
FD
FC
FF
FD
FF
00
FD
FE
02
04
F6
01
FA
07
FF
FF
F2
FB
FC
00
04
FB
FE
FE
FF
FE
02
FA
0B
FC
FA
FD
F9
FC
01
02
FD
FE
F8
00
FD
FA
F8
FB
01
FE
FC
FB
FD
FE
00
00
FE
FB
01
FA
FE
FC
03
04
0A
FD
01
FA
FB
0D
02
06
D8
DD
F7
EF
EE
07
FE
FB
FE
15
FA
C5
E6
F3
E9
F9
0B
13
09
17
14
02
FA
15
1F
00
C8
00
13
FB
FB
FD
03
FC
00
FB
FC
02
FD
04
FE
02
03
FC
FE
03
00
FB
03
00
FE
02
FF
FF
FD
FE
FC
04
FD
02
FD
FF
FC
FC
FF
03
FD
FD
FB
02
00
03
FF
01
01
04
02
03
FC
FE
01
FC
01
00
04
03
FB
FD
04
02
02
01
FB
FE
01
F3
F8
F8
F2
FC
04
FB
F8
FB
FB
FD
EB
00
F0
03
F5
03
06
F8
F7
FE
01
F8
FE
FF
02
FE
FD
FD
FB
FB
FC
FD
04
FD
02
01
FE
FC
03
02
01
00
04
01
04
01
00
03
FD
FC
FF
02
FC
05
FD
FD
00
03
FC
02
00
F7
F7
F4
13
EE
1E
04
FD
EF
03
10
03
F8
F8
DC
08
E5
E7
F2
E6
FD
21
F5
05
F7
F9
15
11
F4
0C
EA
F6
04
FB
00
FE
FC
01
04
F7
07
F9
FB
F8
04
00
03
FC
F6
04
FD
FA
FC
FB
F8
08
FA
FD
F9
08
FB
FD
FF
00
F8
FE
FA
F2
00
F7
00
F9
00
F4
02
FA
05
FE
F4
FC
FC
FD
F6
FC
FD
FD
FC
FE
01
02
F2
02
F6
F3
FD
F9
05
FF
02
02
FC
00
FD
04
FD
04
00
00
04
00
FF
FC
01
01
FC
FC
FF
FE
FE
02
02
FC
FE
01
FE
FC
FB
00
CE
F2
14
DB
F1
F8
E7
00
01
00
08
09
E6
C8
FC
03
0C
DF
01
F2
00
07
01
FF
07
FF
E7
D4
F9
E2
0B
03
12
FF
13
04
04
0E
00
F8
E2
FA
05
02
0A
10
09
00
FD
0C
F7
EE
0A
0B
EA
F2
02
EA
03
F0
16
EC
01
EC
00
FF
00
FE
F8
00
F9
FF
03
F7
F4
FB
06
F7
FE
F6
FC
FC
FF
FE
F1
09
FF
06
FA
F7
FB
09
FC
FF
FE
02
FF
DE
FF
10
FE
2B
01
02
11
01
F4
EE
08
F4
0B
F9
DF
02
0C
E0
01
00
DE
E0
F5
24
01
D5
0C
20
CE
E9
02
02
FC
00
00
F8
02
03
FD
02
04
FF
00
01
00
FB
FD
FB
04
00
FC
FF
05
FF
FC
03
01
01
01
FA
FE
03
17
0A
F4
F9
D7
F0
C7
F5
12
FF
FE
02
16
EA
0E
F2
FA
E8
00
1F
FD
07
FA
13
14
F9
00
11
04
0D
1E
F7
03
FC
FD
FF
F3
F7
F5
F7
F7
EB
FA
FB
0B
0E
FD
F9
F4
FC
01
0C
FA
05
FB
07
01
04
FB
0A
FC
02
02
FB
E4
ED
06
05
DF
07
FA
01
10
02
03
00
D7
E6
C0
EE
01
C2
E6
EA
09
00
0F
FE
12
E0
0B
EC
FA
DD
0F
0A
FE
FE
02
FF
03
FD
01
FC
FC
04
FC
FC
00
FE
01
01
FD
FE
FB
FC
FC
00
04
FB
FB
FB
01
02
02
00
FF
00
FC
FC
02
0F
DD
17
FE
FE
D7
0C
F2
00
00
FF
0E
0D
F2
F1
E1
F5
0B
20
E0
EE
F1
10
04
C1
1E
F3
E0
EF
F2
FD
F4
05
05
0C
05
FE
DF
01
FC
02
ED
FB
F8
0A
F5
01
EE
EA
F6
02
FA
F6
03
E3
F8
F9
FB
F4
FB
F2
FC
FC
FD
FF
01
FF
FC
FD
FC
01
FD
FD
FF
FF
FE
FD
FF
FB
FF
FD
FC
FE
FB
FF
03
03
FB
01
FD
FE
04
FC
01
01
02
FE
03
FB
FC
FE
01
F9
02
FD
00
01
FE
FB
FD
01
FC
FF
03
FC
01
03
FF
05
01
02
00
FE
FF
03
08
05
03
F6
02
D1
FC
03
FF
02
F2
FA
1B
01
F9
F2
09
F4
03
07
F0
03
0D
E0
02
FB
ED
F2
F8
FE
FB
0D
01
00
FB
FD
05
E3
03
F6
04
FF
FC
FF
F5
09
F9
FE
FB
FF
F3
FB
07
FA
FF
EC
00
EE
03
FA
F7
EC
01
01
FD
FF
FE
F6
F9
EA
F3
F9
00
FA
01
FE
04
FF
02
FA
01
01
04
FC
02
FA
F8
F8
FC
06
F9
FA
03
01
FE
FE
FB
02
FD
F1
FA
E4
02
0A
08
F8
04
F5
F3
ED
D1
E5
05
E5
04
F7
17
11
13
E5
F9
F9
0F
F8
07
EA
F9
10
F8
01
F9
15
F8
35
F7
03
0F
FE
F4
FD
FC
01
06
07
E7
0A
F0
02
FD
EF
F6
ED
0D
F9
DF
FB
FB
0D
05
E0
F8
FD
00
02
00
F6
FC
FA
01
FB
04
03
F6
01
F7
00
FD
FA
FA
00
F9
FE
FA
FF
01
03
FA
F7
02
FA
FF
FC
02
FE
02
FB
FC
F8
01
01
00
03
FC
FE
FF
FB
FD
FC
00
FA
06
00
02
FD
03
FB
FA
FF
FC
03
FF
F8
F8
FE
FE
03
FB
FC
01
02
01
04
01
02
02
04
FF
01
02
FE
FF
FB
FF
FD
02
FD
FB
FF
01
FF
FB
03
FC
04
FF
02
08
02
FB
F9
F7
FB
F3
03
F7
F2
01
FA
0C
FE
01
EE
00
F2
FE
00
F5
02
F5
08
02
0B
EF
0F
FB
01
FF
F7
FE
FC
FC
FC
FD
01
FF
FF
FD
01
FD
FE
01
FE
03
01
03
00
04
00
FE
FC
03
FC
01
03
02
FC
02
02
03
01
FE
04
01
FB
02
E7
01
0B
F7
FE
F8
00
F4
F0
D5
F7
FD
F6
04
ED
04
15
09
FD
02
E8
05
16
F1
EF
FA
0E

