00
04
03
7C
0B
73
03
7F
77
7E
67
59
0C
77
02
7E
7F
7C
03
66
06
53
7E
79
7D
7E
67
09
04
00
6B
73
7D
00
02
02
7D
66
7D
02
5D
01
7C
01
59
02
00
7C
7E
7A
02
6A
7B
36
01
01
7B
00
23
00
7F
13
73
1E
77
04
02
09
7D
05
02
7F
20
7F
76
59
02
7F
0E
01
7A
04
05
7D
4D
7F
7E
05
78
00
7B
74
7E
5F
7B
62

