F0
FD
FB
03
FF
01
F6
ED
FB
FD
FB
FE
00
F6
00
FF
FB
05
FE
01
02
FD
FD
00
FE
FD
00
FB
FA
00
FD
FD
FE
01
FE
01
01
02
FC
02
01
FE
02
01
00
FD
00
FE
00
00
01
02
FD
FF
FD
01
01
01
01
01
FE
03
02
02
FB
00
01
00
FD
FF
FE
FE
FC
00
FB
FE
02
FC
FF
01
FF
FC
FE
01
FD
FC
FD
03
FE
00
02
FE
FD
01
FE
FF
FF
01
FF
FD
00
03
F8
02
0C
03
01
FC
07
07
FE
FD
F2
04
F9
00
00
03
01
FE
01
FF
FD
00
F2
FA
FE
FE
FD
FE
FB
FB
01
FF
FD
06
00
01
FB
FE
02
FE
FE
00
FE
F4
05
FD
FE
F2
00
01
FB
ED
01
FF
FE
FC
FD
01
FF
FF
FE
FD
FE
03
01
FF
FC
FF
00
01
00
FB
00
FF
FE
02
FD
01
02
04
FD
02
01
F9
00
FF
FC
FB
00
04
F9
FD
01
FE
01
FD
F8
04
06
FF
FF
00
00
E7
FE
FE
E8
04
00
02
FF
0B
03
00
01
F8
FF
FF
EA
FF
FE
FF
FB
FE
F4
FF
02
02
05
F0
FD
03
FF
FE
02
FB
FE
02
00
F6
FB
FD
FE
05
02
01
EC
FF
04
F4
00
FE
FE
02
02
01
FD
00
FE
02
FC
FD
00
02
00
03
FD
FE
FE
03
FD
FC
FC
FD
FF
FD
FD
01
01
FD
FC
02
01
02
FE
FC
03
FF
FD
FD
02
FE
0E
F3
DF
01
FC
01
FA
FC
FE
02
FF
02
04
03
01
03
00
03
F9
FD
00
FA
03
FF
01
03
FF
FF
04
FE
FD
FD
FD
00
04
00
FB
FF
FE
03
00
00
FD
0C
F5
01
03
04
03
FD
FC
FC
00
F5
05
01
FE
01
F6
01
FB
06
FE
03
FF
FF
FF
FE
01
FE
F2
01
01
FE
E1
01
FF
00
06
FE
FD
00
E5
F6
FF
FC
ED
F9
00
02
F5
FE
F8
01
02
02
FA
FC
07
01
FD
00
FC
FA
FD
FF
08
FD
F6
FE
FF
0F
01
01
FB
F8
FE
F4
07
05
FD
02
FB
00
FB
FF
02
03
F6
F8
F4
FE
00
02
FC
FD
00
01
FF
FA
FC
FE
FE
05
02
00
00
FE
00
FD
FD
04
FD
FF
FE
F9
01
01
02
FE
06
FC
16
00
FE
FF
EF
00
FD
01
01
00
04
FF
FF
FF
FF
FF
FB
05
FF
01
FF
F9
02
FC
F9
01
FF
08
00
FD
00
F8
FC
03
FA
FF
02
FC
02
FC
05
FC
04
03
03
00
FF
00
06
F7
04
FD
FB
FA
02
03
FA
FF
03
00
02
FE
F2
06
09
00
04
02
FA
02
05
FE
FB
F9
FA
FE
FF
0A
01
FF
02
01
00
F6
F9
FE
03
FC
FD
FD
FD
03
03
01
FE
00
FF
02
FD
00
FF
FC
00
01
FC
FF
FC
02
FF
00
01
02
FE
FF
FF
03
00
FC
FC
FD
D5
F8
03
01
FE
FF
F9
04
FD
00
FF
FD
FA
EB
01
FF
02
02
F4
03
FE
EE
FE
01
FB
C7
FE
0A
01
FD
01
FE
01
FF
FF
03
FE
00
FE
FD
FE
FF
03
02
01
FA
01
FE
FB
03
00
01
01
02
00
02
FC
FF
03
FE
FF
00
FE
02
EA
01
FB
05
00
03
00
EF
FE
FD
00
FE
01
E7
FC
FF
FC
03
FE
FF
02
F5
FC
FE
FB
F5
FE
FC
FD
01
00
02
FD
FD
01
02
01
FF
F4
09
00
FD
FC
02
FA
05
01
FE
F5
05
06
02
05
FE
FE
03
02
FD
01
0B
00
FC
FA
FF
E8
00
00
FB
01
03
F6
07
05
00
03
FF
EC
FB
03
01
CF
07
FA
03
03
F6
01
03
E6
EA
FC
0B
CF
EF
00
02
05
00
FD
00
FD
FF
02
FF
03
01
02
02
06
00
FE
00
02
FD
06
01
03
01
FD
01
E1
03
00
FD
00
FE
00
02
FE
00
FC
02
00
03
F9
00
EA
FE
03
FD
FF
FB
FC
01
FB
FD
FC
FE
01
FD
01
FE
01
F5
00
01
F7
FF
FB
00
FC
FF
FC
FD
03
00
01
FE
FE
00
FD
00
FE
FC
FF
FD
FD
FF
FD
FE
FE
00
FE
FF
FD
FC
FE
FC
FE
FB
01
FF
F6
FF
00
FE
02
00
FC
04
FE
03
FE
01
FE
FC
F9
FE
02
F8
04
01
01
F5
FF
02
FD
FE
00
FF
00
01
01
02
F9
00
00
01
FD
02
E2
FB
0D
FF
02
01
FF
01
01
FF
FB
02
FE
02
02
FA
00
03
FF
FF
FF
04
FA
02
FB
FE
F6
FD
FE
01
FE
FD
F9
FB
FF
02
03
FF
F4
F9
00
00
F1
FE
01
00
01
00
FF
FF
00
FD
00
12
F7
FF
FF
03
FC
FD
00
00
FD
FF
00
FF
FE
00
FD
01
02
FC
FC
FF
FF
FD
02
FE
FD
01
01
FE
FD
FD
01
FD
00
FD
02
01
FE
FD
FF
FD
00
FD
01
FF
FE
02
FF
FF
01
FF
FE
00
00
FC
01
03
FB
FD
FB
02
FB
FF
FB
03
FF
00
FF
02
E6
FF
FF
FF
01
02
FE
06
F6
02
03
03
00
F4
01
00
D7
0A
FE
00
01
F4
FF
02
FB
D4
FF
FC
DC
F8
02
00
02
FF
00
01
01
FF
FE
01
FF
02
FF
02
02
FD
FD
FE
FD
00
00
FE
02
01
01
01
00
FE
FD
FF
00
02
FE
FD
FC
FA
FA
FE
03
FF
04
F0
FD
02
FF
01
04
00
03
00
FB
00
04
03
07
04
FE
00
E1
02
00
FD
FA
FF
FD
FE
FE
FD
00
03
03
01
FE
FD
00
02
FE
FF
02
FF
02
00
FC
FB
F9
FE
01
FF
03
02
FF
F9
FE
01
FF
FA
FA
FE
EC
FB
02
01
02
FF
E1
01
0E
FE
00
02
00
03
00
00
E1
FE
00
00
05
FC
00
FE
08
EF
FE
FF
FC
FE
FF
00
00
FF
FF
00
FF
02
01
FD
03
00
FA
FD
00
04
FD
01
03
FE
01
FE
FD
01
FF
02
FD
02
FD
FB
FF
03
00
00
03
FF
00
02
01
01
01
FB
FB
01
FF
02
FF
FE
FE
FE
FD
00
03
02
FD
02
FF
01
00
FE
00
01
FE
FE
02
FE
FA
02
02
FF
01
01
FD
F3
FE
00
00
00
FD
FB
01
FF
07
08
03
FE
00
F9
00
FE
00
02
FE
08
09
02
FF
02
FE
01
FE
02
FE
00
FD
00
01
FE
03
FE
FE
00
01
02
FF
00
FD
03
FF
FF
00
02
FD
FE
01
00
FD
02
FD
FF
00
FE
03
03
FE
01
FA
05
05
FF
03
03
FF
FF
FC
00
02
0E
FD
FE
02
EF
FF
FE
FF
FE
02
00
01
F4
00
FE
FB
01
FE
FE
00
FE
E9
00
FD
00
02
FF
FB
FA
FF
FD
FF
FB
04
FD
01
02
FE
FD
FE
00
FE
FE
04
FF
01
02
02
02
FE
FE
00
FE
FF
FD
FD
00
FD
00
FF
FF
02
FD
00
FD
01
01
00
FE
02
01
01
01
FF
02
01
FF
01
01
F0
F7
FB
03
01
FE
FD
DD
02
00
FF
00
10
FA
03
FE
03
02
FD
FE
02
F0
00
FE
E4
F7
01
F2
02
F9
FE
FD
03
FE
FC
FF
FD
01
F8
F2
FD
02
FF
01
FA
08
01
02
02
F6
F6
FF
FB
04
03
FE
F3
09
03
0D
F7
00
00
FF
04
01
F7
00
01
03
00
FE
FC
02
04
FF
05
01
00
00
02
03
04
FF
01
01
FF
01
E4
03
00
FD
FF
02
01
00
FD
FF
FB
05
00
01
F5
01
03
FD
00
01
05
05
FE
FE
F0
FF
FD
02
FF
06
00
FF
FC
FB
FF
FE
F3
02
04
06
F9
FD
00
00
FD
FE
FC
04
F9
02
FF
FD
FB
01
03
00
F6
FC
FF
00
FE
03
01
01
FC
FC
00
06
FF
FD
FC
FF
F2
05
02
FF
01
02
FF
09
04
01
F7
FC
FE
F6
FC
01
FF
00
06
FD
02
E5
00
01
FC
E6
FD
E5
FF
02
00
01
FE
00
FE
00
00
01
01
FC
FD
FD
FC
FF
FE
01
00
03
02
00
02
02
FD
FD
FF
00
FF
00
01
FC
FA
FE
01
FE
FA
03
00
FF
01
02
FD
FC
F4
01
00
FF
03
FB
00
FF
FC
F9
01
FE
FF
FF
FC
00
EF
F6
01
FD
F9
03
FF
FF
FC
00
00
02
FE
02
05
F5
E5
02
03
00
F3
02
00
FF
04
05
02
FE
FE
02
00
FD
FE
FF
FE
F9
FC
00
FD
FF
FD
FF
00
FD
FF
02
FE
FF
02
FF
FD
00
02
FF
02
00
FE
FD
01
01
FD
00
FE
FD
00
02
01
01
00
FE
00
02
FB
00
F5
05
FE
FD
05
F5
FD
FE
04
FF
FB
FE
00
02
F8
F7
07
00
03
FE
FF
01
DF
FF
04
0A
05
04
FF
01
02
FD
FF
FD
FE
FF
02
FF
FD
01
FD
FD
02
00
00
02
FE
FF
FC
FE
01
03
00
01
01
00
01
FE
00
01
FE
02
F3
FD
04
FE
FE
FC
F0
07
0D
00
FF
02
03
F9
FC
FF
FC
F7
04
FD
FD
EF
FF
FF
00
F6
00
DF
FE
FB
FF
FF
0B
F9
FC
FF
00
FF
FD
FB
F8
02
00
02
FC
E8
00
01
05
06
FE
FE
01
FF
FF
02
01
08
01
F8
00
00
03
FF
09
FF
04
FE
01
00
FD
EF
FC
02
04
01
01
0C
FD
03
FD
FB
F7
00
FD
07
04
03
03
0D
02
09
EF
FE
FC
06
F8
FF
FD
FC
00
FE
F4
FA
08
FF
FD
FF
00
F9
01
FE
FA
FD
FD
FF
03
FB
FE
03
FF
FD
FE
05
F6
02
01
FE
01
FB
01
05
FF
FF
04
F6
05
FE
00
02
02
FE
FF
00
FD
F5
FE
02
01
F8
FE
00
FB
05
00
F4
FC
FE
00
02
E3
FA
02
00
02
FF
02
02
00
FE
04
04
FE
F6
01
04
05
0A
FA
02
FE
F7
02
FE
FF
E7
FE
EF
FE
F9
02
FD
F3
01
FD
01
01
01
FF
08
00
00
FB
FE
FA
ED
01
FD
09
00
00
FD
FD
00
01
02
FF
F9
FF
0F
F9
FE
FD
00
00
01
FF
FE
00
02
FF
FF
FE
00
FC
03
02
02
02
03
00
FE
00
02
01
FE
FD
00
FD
02
FF
FE
01
01
FF
FE
FF
00
FD
01
02
00
01
FF
FF
03
01
02
01
FF
FE
03
00
FD
FD
04
02
FD
00
FE
00
FC
FF
00
00
01
FE
FE
03
FF
FE
00
03
FF
F1
F1
03
FF
FD
FF
00
FE
00
FE
FE
00
FB
01
05
07
03
02
FE
05
FF
01
FF
FE
FD
FF
0E
02
00
FE
02
00
05
FE
04
FD
00
FE
01
04
FD
FE
F6
FD
F9
FF
FE
02
03
FE
05
04
FE
03
F2
F8
03
00
02
03
03
FC
00
00
0A
F1
00
02
FE
03
02
F3
FE
01
F0
0B
F9
00
FF
05
FD
01
F1
02
02
F5
FE
FF
FD
04
04
02
05
02
00
FF
0C
F7
EB
03
FD
FD
FB
01
03
00
FB
07
FA
00
FF
FD
FD
FF
FF
00
01
08
01
01
03
FA
F6
00
03
FF
FD
FF
03
01
06
FE
FF
03
01
EF
06
01
F2
FA
FE
FF
00
FE
FE
FE
F2
FA
FE
16
EC
FB
FE
FD
ED
02
01
01
FD
01
03
02
0F
FF
FF
FE
01
FF
FD
03
E2
FD
F8
00
FE
FD
00
FD
FF
FD
FD
FF
F4
F7
FC
03
FE
FE
01
01
FE
03
02
FC
FE
03
FC
00
FB
FC
01
FF
02
FE
05
03
FC
FF
FE
FE
00
00
04
FE
FB
FB
FE
FC
00
FE
FF
FF
03
FF
F8
ED
07
FF
F7
02
04
F4
01
FE
FF
FC
FD
00
01
00
01
00
00
FF
02
FB
FE
05
FD
FD
F9
FD
01
00
FE
00
FE
00
04
00
01
01
FD
F7
FF
FF
FC
00
FA
FF
FB
F9
04
FE
04
FC
FF
F7
00
F9
FD
00
F4
FF
00
02
FE
FF
FD
F9
FF
02
F4
02
FD
F5
FB
FD
F4
FB
04
FF
03
0B
02
FF
F9
FF
00
E5
F6
F7
FE
02
08
F6
FE
FD
00
01
E9
F3
02
02
03
FF
FE
04
00
FE
FE
F4
FD
FE
01
FF
00
FF
ED
04
FC
EF
06
FD
FD
FD
FF
F9
FC
01
FE
00
02
FD
0A
FF
01
03
F6
00
FB
FD
01
FB
FB
FF
03
05
FD
FF
F2
06
FD
FD
FD
F9
FE
FC
FE
FF
00
FE
FE
FD
F4
FD
FD
02
03
03
FD
FE
01
02
FE
FB
01
01
FF
00
FF
03
FE
01
FE
01
01
FF
01
FD
00
02
FF
01
03
FD
FC
02
FF
01
02
02
FC
FD
01
00
00
FE
FD
01
FD
FF
00
FE
FB
FF
FE
FF
01
FF
02
FB
FF
00
FE
FC
02
02
FF
F7
FB
FD
F9
01
FA
01
01
FF
FF
05
00
02
FC
09
FD
02
03
02
00
02
04
FF
FF
FE
FE
01
FF
FE
02
FF
FC
FD
01
FD
01
03
FF
FF
02
FF
FF
FB
00
01
FF
01
FD
FD
FE
FC
FF
02
01
FB
FE
FE
00
FE
FA
FF
01
FF
FA
00
FE
FF
FF
FE
FF
00
FE
FD
02
FE
00
FF
02
FA
FC
01
F6
03
00
F6
00
F7
FB
01
03
FE
FF
03
FF
00
03
F5
04
01
F6
03
FF
FA
FD
FC
06
FC
01
FD
FC
08
FE
00
FF
07
01
FC
0D
04
FF
03
FF
01
FE
02
FE
00
06
FC
F6
02
02
02
FD
FD
02
03
01
07
FE
FF
FD
02
FE
02
FD
00
03
08
00
02
FF
01
FF
FC
00
FE
01
02
EE
FF
04
FE
00
03
00
FE
01
FD
FE
00
FD
01
01
00
02
FF
FD
FD
FE
00
FF
FE
01
FE
F9
FF
00
00
FF
00
F8
03
01
03
01
00
FA
FF
02
00
DC
FF
03
03
FF
04
02
00
03
F5
03
13
EA
FF
03
06
F3
02
00
05
FE
01
00
03
01
FE
03
01
F5
FE
00
03
E1
FD
01
02
02
FD
03
03
FE
F3
03
FC
F1
F8
02
04
F1
01
FE
FF
03
FD
F8
08
07
02
00
FD
FF
EA
00
02
E3
FD
FA
FF
00
FD
01
FF
F7
F6
00
FB
DD
FD
01
01
FE
FC
FA
FF
02
02
F5
F5
FA
00
FA
FE
01
05
FC
FE
01
00
FC
FE
FD
09
01
01
F0
02
FC
F8
F9
FB
FC
FD
01
01
01
01
FE
00
00
FF
FF
01
FD
01
02
00
03
FF
01
FE
01
FD
FF
02
01
01
00
FE
02
FF
00
00
01
02
FF
FB
01
00
03
00
FD
00
FF
02
FF
01
FD
FC
00
FF
F8
00
FE
FE
FD
00
FD
02
FA
FF
FD
02
01
FC
FF
01
01
00
FE
FD
03
FF
FB
FA
FE
02
02
FF
00
01
FD
00
01
00
01
03
FE
FD
03
FD
FE
FE
01
02
FE
FE
00
01
00
FD
FF
FD
FD
02
FC
FD
02
01
00
03
00
FE
00
FE
FC
03
FF
02
01
FC
FD
00
FF
01
00
03
00
FF
01
FE
FE
FE
FF
03
FD
02
04
FF
F4
FF
FF
FD
F3
FF
FF
03
09
00
01
FE
08
03
FF
FF
DC
F3
02
01
FD
FE
04
FA
FC
F9
FD
01
FF
00
EE
01
00
FF
FE
FE
FD
01
FA
FF
FE
FE
FA
FF
FF
03
01
01
FC
03
FC
00
FD
F7
01
FF
04
03
F4
00
FE
00
F8
F0
FB
02
00
01
F1
05
FB
03
05
F7
ED
02
FD
00
FF
FF
FB
08
FD
F6
03
FF
FA
00
FE
FF
01
FC
FD
02
FA
01
FE
FF
FF
FE
FF
F2
FD
FE
EF
FD
FB
FD
00
FC
01
FE
F7
03
00
FF
F0
F3
02
FE
FF
FC
FA
02
FF
FD
02
01
FD
01
01
FF
FC
F6
FE
03
F5
00
FD
03
03
F9
01
FD
F6
FC
00
FF
01
FC
FF
FF
FF
FC
02
FF
FF
FE
01
F6
03
03
00
FE
FA
01
FC
01
FD
FB
FD
03
F9
FE
FE
FF
FD
00
03
F6
00
01
FE
00
FB
FD
FE
01
FE
04
F9
02
FB
02
FF
FF
FE
FC
FD
FE
00
FC
01
01
03
F6
00
FE
F9
FB
01
02
FD
FF
FD
FD
05
01
FF
FE
00
00
FC
E1
05
02
F0
FF
00
01
04
01
FF
06
06
FD
F8
09
00
01
F0
0A
FE
04
FC
02
03
02
FE
FD
00
00
02
01
F7
06
01
00
00
FE
00
FA
FE
FE
F5
FF
FD
00
01
03
FD
00
F9
00
FE
FC
DD
02
01
FF
FD
01
FD
03
00
FF
FB
FF
FE
02
00
01
FC
FC
00
00
01
FF
01
02
FF
02
FF
00
01
FD
01
01
FD
02
FD
03
00
FD
FF
02
00
FE
F3
FE
FB
00
FF
FF
FE
02
00
00
FF
FC
F9
FE
05
0D
01
00
06
FF
03
F9
01
02
02
00
00
04
FF
FE
FD
00
01
FA
F8
FF
FE
FF
FF
FF
03
01
00
00
FE
FF
00
00
FF
00
01
FF
FD
01
00
FF
01
FF
FE
03
00
01
FF
FD
04
FB
E9
FF
03
FD
F9
FE
01
01
01
00
FE
FD
00
00
02
02
FE
FE
00
FE
FD
FF
FD
00
F6
FE
FB
FC
02
00
05
F8
EB
00
FF
FE
F3
02
FF
00
01
FC
07
FD
00
03
FD
FD
F6
02
02
FF
FA
FE
02
00
FF
FE
01
FD
00
02
00
01
FF
03
03
03
FE
FB
00
01
FE
FD
FF
FD
FE
01
01
00
FC
02
00
03
FE
FE
FE
FD
FC
FF
FE
00
00
02
01
02
F6
FE
FE
FE
FE
FC
FF
FF
FD
FF
01
02
02
FC
FF
01
FB
F9
00
FF
FB
FD
00
01
FE
00
FD
FF
01
03
F9
02
00
03
FD
FE
00
FE
01
02
FC
FF
01
FE
03
FE
02
FE
FF
FD
FE
FF
02
00
00
FE
00
FE
03
01
FF
FF
F0
0D
FF
FD
F7
03
09
FD
FF
03
01
F6
01
02
00
0A
03
00
FD
00
FE
03
FA
01
FC
FF
FE
FD
FE
03
01
03
00
F5
04
03
FF
02
FB
00
FD
01
02
FF
01
FF
FE
01
00
FF
04
04
01
08
FF
09
00
07
00
FE
02
02
02
FD
FF
00
01
00
FE
FD
FE
FE
FF
FF
FF
02
01
00
FF
02
01
03
00
00
FF
FE
FE
FD
FE
03
F5
FF
FA
FD
FE
00
FB
FE
04
02
FD
FF
FA
F7
FD
FD
04
F5
FA
01
02
16
05
FF
FC
F1
FE
EF
04
07
00
FE
01
FF
FE
FF
02
00
FE
02
02
FF
FE
02
FE
FD
02
FD
00
00
01
FF
01
FD
03
FD
01
01
FE
01
01
02
FF
FD
06
FD
03
0D
FF
03
F8
0A
07
FF
FF
FE
00
FE
03
03
FB
F1
FD
FF
01
F9
01
02
04
05
FE
F9
FB
FD
01
FE
07
FF
FF
05
01
01
F9
EE
01
00
00
03
FB
FF
FE
FD
FF
FC
F9
00
FC
04
00
00
FF
06
FC
F8
05
01
01
FC
00
FD
01
08
03
FD
F7
08
06
02
03
03
05
05
FE
02
FF
FA
FC
02
04
0B
00
00
FD
FD
FD
FB
FD
FF
FD
00
EE
FE
02
01
FE
FE
FA
0A
03
01
FB
FF
FC
F9
FD
00
03
F4
FB
FE
FD
F7
02
FD
F3
E2
FF
E3
0B
00
02
00
FD
FF
FF
01
01
FF
FF
FA
F3
01
03
02
00
FB
FD
FE
03
01
00
00
03
00
FF
01
F8
FD
FF
04
FC
05
02
FF
FE
FC
FB
00
FD
02
FC
FA
F9
03
00
FE
04
FC
00
01
FB
FD
02
FF
02
FA
03
03
F2
02
01
F8
01
00
01
01
01
FC
F6
04
FF
02
04
FC
F2
00
03
FE
07
FD
00
01
FB
F1
F7
01
02
10
00
01
E2
01
02
F9
E0
02
FB
00
07
01
F9
02
02
FD
F2
F1
04
00
FB
04
FE
07
FD
01
F8
F8
F5
02
00
05
FE
FF
FA
09
FC
F6
00
FC
FE
02
FD
00
FE
FE
01
00
FE
FC
FD
FD
FF
02
01
01
FE
02
FF
FD
FF
FF
00
FF
00
01
02
FD
FE
01
01
FD
FE
02
FF
FF
FD
FF
00
02
FC
FB
FE
01
01
01
02
F9
FE
02
FD
FB
01
00
FE
F9
FF
FD
01
FD
FD
01
FC
03
02
01
02
02
FA
FE
02
00
00
FC
FC
00
00
FE
FF
FC
03
FE
03
FF
00
01
00
FF
01
02
FD
00
02
01
FE
02
FD
00
07
00
F9
00
FE
01
00
FD
FB
01
FE
FB
0A
03
FB
00
10
02
03
01
FE
01
02
02
FE
FD
FE
00
F8
04
FF
02
FB
FB
FA
FF
02
03
00
03
FA
FF
FF
FC
00
FF
04
02
00
FC
02
01
FE
FF
FF
02
F6
FE
02
00
00
F9
FC
FF
FE
00
00
FF
01
FE
01
FF
0B
01
FA
01
01
00
02
FE
F1
07
FA
03
FE
0B
02
02
FC
04
FD
0C
EF
00
FE
00
04
04
FD
02
01
FF
FF
EC
FB
FF
FD
00
07
00
00
FF
00
06
04
01
FE
0C
00
02
F7
09
01
FF
F0
06
00
FF
FD
FD
FA
00
00
02
FE
F8
FD
00
FD
00
01
FD
01
FD
FE
FD
06
FE
02
F8
00
FF
0B
00
FE
08
F5
FF
FF
FC
02
FF
FD
02
FE
01
FF
F4
F5
02
FB
01
FA
09
FF
FF
FD
F4
F8
03
FF
00
02
01
04
0B
FC
02
06
FD
00
FD
F9
F9
FC
01
FE
FF
DD
FF
F8
FF
00
02
F8
03
FF
02
F1
FF
FB
FF
06
0D
FF
FE
DF
FC
01
00
F5
FA
03
01
01
FE
FF
01
FE
FD
F7
02
03
03
04
FE
FB
F2
FF
01
06
FF
00
03
FD
FE
02
FD
00
FC
FE
F3
01
FB
02
02
02
06
07
03
00
03
09
E7
F6
FF
FE
01
02
FB
FD
FF
FE
FE
02
FD
01
01
FE
FE
E2
03
00
FD
01
03
FF
01
FC
FE
01
FE
01
01
FB
02
01
02
FD
FF
FE
FD
FD
03
FC
FD
00
01
FD
00
FE
FF
FB
FD
FD
00
FD
02
00
00
FE
FD
01
01
02
FE
00
01
00
00
FF
03
02
FE
00
01
01
FE
00
FD
01
FF
02
00
01
FF
00
02
01
00
02
03
00
00
FA
00
FD
01
FF
06
FF
02
01
FF
01
04
01
00
FB
EE
FD
FE
02
02
FE
02
E9
00
02
00
FC
01
FC
01
FD
FD
FC
FE
FF
02
01
FC
FD
00
01
FE
FD
FE
FF
03
01
FF
01
02
02
03
00
FE
04
FF
FE
FD
00
FF
00
00
08
FC
F9
06
03
FF
ED
F7
F4
00
FF
FF
FF
01
00
FE
FF
FE
F6
FE
FA
03
04
FF
FD
0B
FA
F0
02
00
FA
00
00
00
FD
FE
FE
02
FF
FE
01
01
00
03
02
FD
02
00
01
FD
FF
FF
FE
00
00
03
FD
01
00
FF
FE
FD
FE
FF
FF
00
FE
FF
01
02
FF
02
03
01
01
01
FF
FE
00
FF
00
01
FF
02
FF
FC
00
01
FE
02
02
02
FF
FF
01
FF
FF
FD
00
01
01
FF
FB
02
02
FE
FF
FD
FD
FE
FE
01
FB
01
FF
02
FF
08
00
01
FC
FE
01
F7
FC
01
02
FE
09
FE
FB
FF
02
FD
F8
03
F9
FE
02
00
02
02
FE
03
05
02
06
02
02
F5
FF
FF
E7
FF
00
FB
02
FB
02
03
FC
FD
FE
05
02
FF
FA
F7
01
00
FE
FC
00
FA
FC
FC
0E
04
FD
01
00
04
FE
01
F8
04
FD
EE
F8
FA
FF
02
FB
FD
FA
01
FE
02
FC
FB
01
FF
02
FF
00
FF
FE
FF
FF
01
00
FD
FE
FA
FE
03
FE
FA
02
FD
FE
FB
01
01
FA
FE
FD
02
00
01
FE
FD
01
00
FD
02
FC
FA
00
FD
FD
FD
FF
FF
FE
FF
FD
FF
FD
F8
FC
FE
FC
FD
FC
FA
FE
FF
FB
03
02
FD
01
FD
FC
00
01
FD
FF
FA
FE
FF
FE
FE
06
FD
03
F3
FD
FE
F5
FD
03
FB
FD
01
FF
02
FD
FA
FE
05
00
02
02
FC
0B
FF
F1
FF
0A
F8
FE
FE
FD
02
09
FD
07
0F
05
02
F8
FC
01
F6
F9
F0
01
FF
00
00
FE
02
00
FF
FE
FD
FD
FE
02
FE
FD
FF
FD
FE
FF
FC
FD
FD
00
FF
FE
03
FD
02
00
02
FE
FB
FD
01
FD
FF
01
05
FE
FF
FC
E6
07
01
FC
FE
09
01
00
FD
FA
F9
02
01
FE
FA
FF
00
F9
02
02
F3
00
F6
FE
01
01
FD
05
03
00
00
02
FF
06
03
04
FE
FC
04
00
FE
FC
FD
04
01
FC
01
FE
FE
FC
08
03
F8
FF
06
FA
02
01
00
FD
00
FE
01
FD
FF
FD
FD
01
02
FF
FB
01
01
FF
FC
01
FF
01
FE
02
FE
FC
FF
FF
02
FF
FE
01
00
03
FD
FE
FC
01
03
F5
FE
F5
FD
F9
FE
FC
06
00
FE
F7
FE
00
02
FD
05
01
01
01
02
02
F9
F7
FD
FE
00
FC
FF
FF
00
FF
01
FB
FA
FC
FE
FE
FE
FF
00
FF
01
FF
F5
00
02
FE
FD
FD
00
FB
03
02
EE
04
0A
FF
03
01
FE
03
00
FE
FD
FF
00
FF
FE
FE
02
FD
FC
FD
01
FC
FC
FD
02
FE
00
FE
01
FD
FF
FF
01
01
00
03
FC
FA
F7
F9
06
01
FF
F9
E1
FE
01
00
01
FB
FB
FD
FD
02
FA
05
00
03
0B
02
FD
ED
FE
03
00
04
FE
FE
00
05
00
FE
00
00
00
01
F9
F2
02
FE
FD
F7
04
FF
FE
FF
FC
03
00
FD
03
00
01
F4
00
02
F7
07
00
00
06
01
FE
FE
00
FF
01
FC
F9
FB
FE
02
FF
00
FF
02
FE
FC
FE
FC
01
06
FE
03
FF
FC
00
FE
FF
FD
FD
FD
FF
01
03
F9
FF
FE
02
02
FA
FF
01
04
01
F4
EE
04
03
F9
FC
02
02
00
FF
FC
02
E3
FC
00
08
04
FD
FE
00
02
02
02
FD
00
02
01
00
FF
FD
FC
02
02
FF
FF
00
02
03
FD
FF
02
FE
00
FE
00
FE
01
FF
FF
00
FD
01
01
FC
00
00
FF
02
EE
FF
02
02
00
FF
FC
FD
00
00
F8
FD
02
FE
FF
00
FE
01
F7
FF
02
04
F8
06
FE
00
01
01
00
FD
02
01
01
FB
04
00
FF
FD
F6
02
FF
02
04
FC
01
00
FE
FF
01
FF
04
FE
00
FC
FD
00
01
02
EA
FE
FB
08
FF
02
FF
F6
DD
FF
02
FD
FA
FD
00
00
04
03
00
FE
FE
10
02
00
ED
F4
03
FD
F8
00
FF
03
FA
02
00
FF
02
01
E2
F6
F3
01
FF
01
FF
F7
03
00
FC
F2
01
02
06
06
FF
FD
FD
02
FF
08
FE
FA
FE
FC
F5
FF
FB
04
FE
01
FD
01
FF
04
05
FB
F6
03
FF
FD
E7
00
01
FE
04
05
02
03
DD
F6
04
00
F1
F9
04
02
FD
FD
FB
FF
03
03
F8
E7
FF
FE
FD
02
FA
FB
FE
FE
04
FB
F9
FD
FE
FC
02
FD
F5
02
FE
FE
07
FD
01
FD
FF
FD
FE
FD
02
02
F9
FA
FE
FE
F9
00
FC
FF
00
FF
FD
FD
FD
FD
01
02
FE
00
FF
F9
02
00
FE
FA
01
FC
FE
01
03
FD
02
FD
FC
FC
00
FE
FA
01
FE
F8
FF
FC
02
FF
FC
01
FC
01
FF
02
FF
FC
FF
FB
FD
FD
04
FE
EF
01
FE
03
FF
FF
FD
00
06
FF
01
FF
F7
FE
01
FD
E5
05
02
02
04
05
01
01
FE
F6
02
FD
EA
FA
03
00
01
FD
00
FE
FD
02
01
FE
00
FD
04
02
FE
FE
03
FE
01
FE
00
02
FE
FF
FC
FF
FE
01
02
FE
FD
02
FE
FE
F9
00
01
FC
02
02
03
F3
00
02
FE
02
01
F3
02
FE
F1
02
FF
00
01
0F
02
FF
FC
02
02
00
EE
00
01
FD
FE
FE
FE
00
01
FF
00
FE
08
00
FF
FF
FE
02
FE
FE
FF
02
04
FE
03
02
FF
02
F0
02
FE
FC
FC
FD
FA
04
FF
FF
00
FF
FE
02
FC
FC
F9
00
FD
FF
01
F9
02
01
F5
02
FE
FE
02
FF
00
00
FA
F8
FF
06
FA
FB
FF
01
F7
FC
FE
01
FE
FF
04
FF
02
FF
FF
00
0F
F4
01
00
01
FC
00
FE
00
02
FC
03
FD
FC
FF
F5
0B
01
01
FE
FF
03
FC
FF
02
02
FC
FE
00
FE
FD
00
FD
00
FE
FE
FE
00
FC
01
00
04
01
00
01
00
01
00
FC
FD
00
01
FC
FF
04
00
FE
02
F6
FD
00
00
FD
02
FE
FB
02
01
01
02
FF
FF
FF
01
FF
00
FC
06
02
F7
FA
FF
02
02
00
03
FE
FD
02
01
FF
F3
EB
FE
FF
01
F4
F3
FE
00
05
01
F7
03
FE
FD
00
02
F7
FD
00
FF
07
04
FD
FF
07
FE
FE
05
02
FE
FE
F0
08
FF
FF
01
FD
F8
FE
00
02
F4
FC
00
01
12
FF
FF
06
04
01
FF
FD
00
FE
03
07
01
F8
FF
00
FE
02
01
FC
00
01
FD
05
FF
FE
00
00
FD
06
02
01
01
FD
FE
E3
05
02
FB
03
FF
01
01
FE
FE
01
00
FD
FF
01
FA
FF
02
FE
FD
02
FB
FE
FE
01
FF
01
00
FF
FE
FD
00
FB
01
01
FF
01
00
FE
FE
F7
02
F9
FE
FF
FE
FE
02
08
FF
F4
01
FE
F2
00
00
05
FF
00
FE
FD
09
FE
FD
00
F9
FC
F9
03
00
FF
00
FF
FC
01
03
03
00
04
01
FE
03
01
FF
00
FF
01
01
FB
02
FD
FD
02
FD
00
FF
F5
FE
00
02
FE
FA
FC
FD
F9
FC
FE
00
01
FE
D8
F8
04
FE
FF
FE
00
FE
02
02
02
FD
FD
01
00
F0
FE
01
BD
FF
FD
FA
07
FC
F9
00
F5
04
FB
01
01
FE
00
F6
FB
00
01
02
F6
F1
FE
FD
FE
F6
00
FE
FC
06
FF
03
FB
FF
01
04
F8
01
02
00
FC
FC
03
FE
FE
03
F2
07
01
FE
01
FD
FB
FF
00
FE
0B
F2
FF
FE
01
F9
FF
FF
05
FD
00
F7
00
02
FF
03
02
01
FE
07
00
FC
FE
02
00
00
00
02
FF
FD
00
01
FB
0A
FB
03
04
F9
FF
00
F5
01
01
0E
01
FF
00
FE
08
06
FF
00
FD
FE
FB
F4
FE
02
FF
01
FC
02
FF
02
FE
FD
F3
01
FF
02
01
FF
11
03
FB
F5
03
00
FF
FF
FD
01
00
02
02
00
07
EC
F1
03
FD
00
F8
FB
FF
02
02
00
09
02
FC
FD
00
FD
DE
00
FF
F5
05
03
FE
04
02
F9
04
FF
FD
FF
03
00
01
FE
01
FE
FA
03
01
FF
01
0C
03
02
02
09
FF
FE
03
FD
04
08
00
00
FD
02
F7
FF
FC
FF
01
00
FF
07
04
01
FF
03
FE
ED
FF
00
E8
01
FA
FD
FF
00
FE
FE
F8
F9
FF
FC
EF
FE
00
FD
02
03
FF
02
01
02
00
FD
00
01
01
FD
03
FC
FF
FD
FB
00
FE
01
FF
FC
00
01
FF
FB
00
00
FD
FF
FD
FE
01
01
09
FD
01
00
07
EF
E6
FE
FA
FE
FB
08
FD
FE
06
E8
02
02
FD
00
00
FE
FD
03
FD
EE
0F
04
FF
01
00
00
F5
FB
00
FE
F0
F5
01
FF
04
FE
05
03
03
03
FD
FF
F1
FF
FF
03
04
01
FB
06
04
F8
FE
F5
01
FE
FD
FC
FF
FF
00
FD
FE
FD
00
FF
03
FD
FE
01
00
02
00
FD
01
FD
FD
01
FE
FF
02
FF
FD
FF
01
FE
FD
FE
02
F6
FE
03
00
01
E1
0E
0D
FF
FD
01
FB
00
03
FF
06
04
FC
FD
04
01
03
00
FE
06
03
01
FB
FF
00
FD
FC
FE
FC
08
FE
03
EF
07
09
02
FD
FF
FA
FE
03
01
FF
0C
04
02
05
06
01
03
03
FE
01
FF
F8
FA
FD
FD
01
FE
FF
01
00
02
00
FD
FD
01
00
FE
00
FF
FD
02
00
FF
FD
00
FE
00
00
01
FC
FE
FE
02
FF
FF
00
FE
01
01
00
F9
01
FE
F9
F1
04
02
FC
00
FE
0B
01
FE
FB
F7
F7
FF
00
03
02
FE
F6
08
FF
00
01
F8
02
01
02
F9
02
FB
00
02
FE
07
F3
01
FB
00
09
FD
FF
03
07
EE
FA
01
05
FF
FC
FE
FA
FE
00
F9
FC
FB
02
F8
03
FE
00
00
00
00
F5
FF
FC
00
FC
00
01
00
FC
03
FF
0F
FF
03
FD
F1
01
01
02
05
01
EE
FC
03
02
01
F6
03
FC
FA
FF
FF
0F
EE
FC
FE
03
FF
01
F4
00
00
05
ED
FE
03
FE
03
FD
03
FE
FC
02
01
FC
0C
00
FE
F7
02
FD
00
FD
FD
F6
07
05
FE
01
FF
FC
F4
FD
01
EF
ED
FF
02
02
FB
01
FF
FD
FA
01
FD
FA
01
01
00
F6
FB
00
02
FE
01
04
FA
0B
01
F4
02
10
EB
FD
FE
00
01
02
00
06
FA
01
FD
FF
EC
FF
F9
F1
F8
03
FC
F2
FD
00
02
02
FE
EE
F4
06
FF
FF
FF
FE
F9
01
FF
0B
03
02
01
03
08
00
01
FB
08
FF
05
05
FE
00
FC
FA
03
04
01
FF
00
00
09
0B
FF
FE
01
00
F9
05
FD
DC
05
01
FE
01
05
FE
FD
F4
F9
00
F9
E1
FE
FF
00
F3
FC
FB
04
02
FD
F4
03
00
00
02
FE
FB
FD
00
02
E2
06
FE
FF
FE
FA
01
03
FD
F5
FF
0F
E2
03
FD
FD
FF
FD
FE
01
FE
01
FE
FC
01
FD
FE
FE
02
FE
01
01
FF
01
01
00
02
02
00
FD
FF
FF
FE
01
01
00
03
00
FE
FD
FC
02
FD
02
01
FF
00
00
FB
FF
FE
FC
FF
01
FF
01
FF
FF
FE
FD
01
01
00
FF
FF
FF
FE
02
FF
FE
00
FF
00
FF
FD
FD
FD
01
FE
FF
00
FE
00
02
FE
00
00
01
FE
FE
FD
FE
02
FD
FF
FF
FE
FE
FD
00
00
02
F5
01
FB
01
FE
03
FD
FE
F3
FD
FE
02
FD
04
02
01
00
00
FE
FF
02
F4
04
02
FE
EF
01
FE
04
F7
00
FF
00
02
FF
00
03
FE
00
FA
F9
FD
FE
FF
FE
FC
05
FE
FD
00
01
02
01
FA
FC
FE
FC
FC
01
FE
FE
04
02
FE
FF
FE
FE
04
01
FF
F6
F4
FF
FF
02
00
F8
00
FD
FE
FF
FF
F3
01
00
04
00
FF
F5
03
FF
FC
FC
FB
00
01
FF
FE
00
FF
FE
FE
02
FE
FE
01
FE
00
FF
00
02
02
FE
FD
FE
02
FD
02
FD
FE
FF
FB
02
FF
00
FD
FF
FD
FB
03
02
01
00
FE
FA
02
FF
03
FC
01
FE
FF
03
00
FD
FE
01
01
05
01
03
00
FF
F8
01
FA
FB
FA
00
FD
FB
00
00
02
03
FE
F7
FB
06
01
FD
01
FF
FB
02
03
FC
00
00
FE
01
02
FF
FF
FF
00
00
01
01
FA
FC
FB
FE
FE
00
03
02
FF
E4
01
09
FD
02
01
00
FB
FE
00
03
FB
02
FD
FE
03
FE
FE
F1
F3
FD
FC
05
F7
00
FF
F6
FB
FE
04
01
FD
01
FE
00
00
FE
FF
04
F7
FF
02
FF
F8
FE
00
FF
FD
00
02
01
00
FE
EC
11
03
FF
FD
FC
FB
01
FE
03
03
F9
01
00
02
01
FE
05
FD
02
00
01
06
00
01
02
FB
FE
02
00
FD
02
FD
FF
06
03
FC
06
01
02
00
FF
FE
02
01
01
FF
00
01
FA
02
FF
FE
03
FA
02
00
FF
01
FF
FD
FD
04
02
09
FF
FE
00
04
03
FD
06
FE
00
00
D7
FF
01
02
01
FE
FE
FF
01
01
01
F9
FE
FE
FF
04
00
FF
EF
FD
FF
FA
01
FE
FD
FF
05
FE
FB
FD
03
00
F9
00
EE
FE
01
02
03
03
FC
FE
EB
FF
FD
FE
FE
FE
03
03
E2
02
FE
02
F5
FE
FB
FE
FE
FD
F7
03
FF
03
FA
DF
16
FE
FE
FF
01
E9
01
FE
F3
00
F9
FD
FD
F9
FF
FF
FC
FF
00
FE
04
00
FF
02
F1
FE
00
FA
02
FD
00
FB
06
FF
F6
FF
FC
EF
FD
02
00
04
FC
FE
FF
F2
03
FF
FC
E5
01
E6
03
01
02
FF
FE
00
FE
00
FE
00
FF
01
01
FE
FB
FF
FD
FE
FE
01
FE
02
02
FE
FF
00
00
00
FD
00
01
FF
FF
FD
01
FF
02
FF
03
FD
02
01
FE
FC
F3
FD
FD
FD
00
FF
FF
04
00
01
FF
00
03
FD
01
02
F7
FE
FE
00
FE
01
FD
01
FB
FE
FF
FE
02
02
FB
09
02
FF
03
02
FB
01
FC
FF
EC
F7
FD
00
03
FD
03
02
FF
FF
02
01
F0
F6
FA
00
FE
03
04
04
FE
03
E8
07
16
02
02
02
01
03
FF
FF
02
F7
03
03
04
01
FF
FE
FD
02
FF
01
04
05
FC
02
02
FB
FF
FA
03
01
FA
CA
06
02
03
00
FA
05
FB
00
FF
03
05
01
FB
06
FF
FF
03
08
00
FA
05
FA
00
03
FF
FC
03
FF
00
FF
00
F6
F7
FF
00
FE
02
00
02
FE
FA
04
05
FF
01
0B
FD
FD
F6
06
FE
05
FF
06
03
FE
F3
01
07
FA
FF
02
EE
0A
0D
00
01
03
02
F1
FF
03
FC
FC
04
02
FF
E9
FE
01
FC
F9
FE
01
03
FF
FF
02
FE
00
04
FD
03
02
FE
07
0C
02
01
FE
FE
FD
FF
FF
00
00
FF
00
FB
FB
00
01
FD
FB
FB
F3
01
FF
02
02
02
FF
00
FF
FF
FE
FA
FE
FF
02
FE
FE
FE
00
00
FE
FE
00
00
01
FF
00
FF
02
FE
FD
FF
FC
FF
FE
00
00
01
F8
FC
06
02
00
F6
02
01
02
05
FF
F6
01
FE
FF
F3
01
02
02
06
01
FF
FF
05
FB
01
FF
FA
F8
02
04
FE
FA
F8
FE
FF
FF
F7
F8
FE
04
02
00
FE
02
FD
01
FB
FC
F8
03
FD
01
03
FE
F9
FF
01
FA
FF
00
FC
02
00
FE
00
01
FE
02
FF
FF
FE
FD
FD
02
FE
FE
00
FF
01
FD
01
00
02
FE
02
03
02
01
FF
00
01
02
FE
02
05
FA
01
FF
FF
FD
F6
01
DB
03
01
FF
F9
00
FD
01
F4
FC
01
03
01
00
FF
FF
02
FB
01
00
F3
F9
01
03
F2
00
00
02
02
FF
FE
07
02
FF
FD
01
00
EF
FD
03
E5
FF
00
FF
FF
FE
03
FF
FE
FA
FD
0D
E5
FF
FC
FE
01
FF
00
FE
00
FE
FC
F4
FF
01
02
02
FF
02
02
02
01
F8
FA
01
FE
F9
01
01
F9
05
FF
FF
FF
FA
FB
FD
FB
03
00
00
FE
01
10
F9
DE
02
02
FF
F7
FF
00
02
00
05
00
FE
01
FC
01
FE
03
FB
03
04
02
FE
02
FD
F0
FF
FD
05
FF
02
FB
03
E6
FF
00
00
FC
F4
FD
02
FA
0C
FD
FE
01
FB
FF
01
FB
EA
01
FF
FA
05
FD
00
01
02
FA
01
FF
03
FE
FE
08
FF
03
01
FF
FE
FF
FF
F9
FD
FD
FF
00
03
FE
FE
FD
FC
00
01
FD
00
FF
01
FB
00
00
FD
FF
FE
00
04
F6
01
01
FE
F8
09
FF
03
FA
E9
FF
03
03
0A
FC
01
EB
FC
FF
EE
04
F7
FD
FD
05
01
FD
00
02
FE
08
F2
FC
FE
FC
FF
00
0B
02
01
FC
FB
FF
01
FF
06
FE
02
FE
0A
FF
FD
FE
02
FF
02
F5
FD
FC
FE
00
00
05
02
09
FD
00
01
FF
FE
02
01
03
FB
FC
FE
FF
00
00
00
DC
FC
01
FC
00
01
00
FE
FA
FF
FB
08
FF
03
F0
01
FE
FE
FF
02
FC
FC
FD
02
FB
01
FF
01
02
06
00
FE
01
FC
FC
FB
01
FB
02
01
0D
FE
F4
FD
02
FF
EC
FD
FB
01
02
00
FD
00
FF
FE
00
FD
03
FF
00
EA
FC
FD
F0
FD
04
01
FE
F9
FE
FC
F9
FC
FD
00
FE
FF
E0
00
0D
00
01
FC
FC
FB
01
FD
02
FE
FE
00
FE
F2
FE
00
EB
07
01
01
06
F9
FF
FF
05
01
FE
FD
FE
02
02
F4
05
01
FD
FF
00
07
FE
FD
02
F6
04
00
03
07
01
02
0E
04
00
05
09
FE
03
00
FE
FD
FE
01
FE
FE
00
FF
01
FE
00
FD
FC
FE
02
01
01
FB
FC
02
FF
FF
FE
FE
FF
01
02
00
00
FB
FF
00
FA
FE
F9
FA
00
01
0A
F4
F6
FF
FD
01
03
01
FF
02
00
FD
00
02
03
FF
00
02
FA
01
FF
01
FB
03
00
01
FD
FF
01
FD
FD
02
FA
FE
FB
FC
02
01
FF
FF
FE
00
00
FE
02
00
00
05
02
01
00
02
02
FE
FE
FD
FE
FE
FC
FF
FB
02
FD
00
ED
02
05
01
FF
02
FE
00
05
FD
FE
00
FB
03
05
FB
01
02
F6
05
00
10
FB
FF
FE
02
F7
FF
01
02
00
02
FA
F9
F9
01
FC
FF
FE
F4
FA
FE
05
F4
01
00
01
0D
03
00
FB
FE
00
FD
00
FD
01
01
07
FF
04
00
02
02
E6
00
08
01
FC
02
FF
08
FE
02
F9
F9
FA
FE
00
02
00
FF
FB
05
01
01
FE
FC
FF
01
FD
02
FF
01
02
01
01
FF
FC
FF
FB
FD
00
02
02
FE
FF
FF
FE
00
00
00
02
FF
00
FD
00
01
FE
00
00
FE
FF
00
02
FD
FE
00
07
04
FF
FF
FA
00
FF
F7
FA
01
FF
F9
02
FD
02
F9
00
03
F8
F4
00
0A
07
05
00
FD

