10
FB
FB
02
01
FA
FA
09
FA
F3
FB
DC
F5
10
0A
FF
04
F5
F1
E7
F5
B4
ED
11
C9
E4
E4
0B
EF
F8
01
DE
D3
09
03
DE
FE
E2
0B
09
15
0E
0A
03
16
EC
BA
DD
04
EC
FA
A7
FE
F2
F7
F5
0E
FD
13
03
06
E0
FD
CA
05
0F
F4
03
FD
07
FE
B9
0C
EF
11
04
FA
02
0E
06
C7
04
10
02
00
06
F9
F9
FE
12
CE
CF
F9
FE
DD
05

