2B
DD
0F
F5
DA
22
04
0F
1C
0A
FA
1F
29
FA
06
0E
22
EF
D8
CF
FC
EF
DC
FB
08
FC
13
07
01
F9
0A
0F
00
0B
F8
0C
07
F3
FB
00
02
FD
E9
FA
1C
19
D9
03
19
13
F8
03
CF
F7
D0
05
F4
EC
EB
BD
F5
FB
E9
1B
FC
04
BA
F4
DF
19
0B
FE
02
01
35
04
DE
06
2A
E1
09
24
16
F5
0D
FB
27
F7
06
1C
F0
10
F3
1E
E7
F3
FC
07
11
E2
F1
EE
DE
EB
08
D7
D9
0C
EA
16
00
0F
3B
D8
E5
12
20
CD
F4
16
00
06
ED
17
D2
06
0C
FD
F2
06
09
1A
19
EC
03
F5
20
F2
19
E5
FC
14
E0
0E
F0
FD
27
FE
C0
04
3B
D1
17
07
5A
18
E1
F5
D8
03
DC
04
07
1E
E8
F3
ED
E2
F8
15
DD
F8
08
07
FD
1C
E5
20
1F
E7
DB
0A
DF
23
E5
E1
F2
FE
0F
3D
F8
DD
05
DB
EC
06
24
D6
0B
EF
00
10
16
13
14
18
03
0E
F2
FE
09
E6
0A
07
CD
2A
E5
09
08
2A
F9
0F
33
13
09
03
DD
BE
28
12
05
C8
2D
E1
D8
F6
DF
FA
FD
C5
DF
0B
15
26
EA
06
F1
CE
EA
D9
0C
21
15
35
01
11
0A
32
E1
20
02
04
FF
03
F5
F0
FF
EE
03
20
ED
17
F6
21
EE
F0
04
1A
0E
F6
FD
EC
2D
FE
26
21
FE
EE
16
02
0C
10
F2
10
F0
0E
F6
D5
D6
F5
DA
E6
01
FD
11
02
FA
14
13
0E
1B
11
06
FB
0E
17
06
E5
F2
E0
E8
16
DA
0A
08
E4
DE
F8
00
F2
15
CA
16
E0
06
FA
28
0F
0F
F6
F8
F5
08
EF
11
E9
12
02
09
F6
29
F2
FD
00
05
21
0F
1A
00
46
F3
FC
D4
F7
10
F5
0C
F3
03
CE
3A
E6
E5
E4
0B
CF
FD
28
36
FF
D8
1C
F1
D5
FA
07
E0
33
E5
28
1B
FA
08
04
3E
1F
D4
FC
15
F6
E2
1C
2B
E6
2A
0A
02
04
0D
F9
3B
11
E4
FD
00
E6
10
EA
FC
1B
23
05
FA
0C
00
05
00
2A
0A
10
FE
05
31
0A
E9
23
F8
E7
03
F6
F5
DB
F5
02
06
FB
F6
08
07
1F
38
01
04
15
EF
1F
2C
E9
E5
24
23
DA
DE
E6
02
E6
21
19
0E
D7
0A
0A
F0
B4
0F
C6
0C
37
25
F5
F0
13
F3
2F
0B
F6
EE
17
15
E9
F5
07
1F
02
F0
14
00
14
FC
11
12
F1
E5
08
08
19
EE
F7
12
25
10
15

