0D
FE
FB
FB
F1
FC
F3
FA
F3
F4
ED
F5
FA
FC
FC
F1
05
04
02
05
02
00
F6
FA
03
FF
FA
0B
06
FC
FC
00
FA
F8
05
05
0C
04
04
EA
04
E2
04
FC
09
FC
03
FE
08
F8
F1
10
01
03
D3
FC
01
08
F4
EE
FC
FF
0B
03
FA
FF
FC
FC
F8
FC
05
02
06
FC
06
F6
F6
FC
01
01
00
FC
F7
FC
FE
FD
FB
FD
FB
FF
05
F9
FE
F4
FD
03
F7
F8
FB
F9
08
F7
FC
FA
01
FF
FC
0C
FB
FD
F7
FE
F9
FB
01
03
F8
F9
F9
FE
FF
FA
FF
0A
FB
FA
F8
FB
02
FB
FD
FC
FB
FF
FF
FF
02
FA
FC
04
FB
03
FE
03
02
04
02
FB
FE
FC
FC
02
FD
FF
04
FD
FD
01
FE
FB
02
01
FD
00
01
FB
FD
02
01
01
FA
02
FD
01
FD
FE
FC
FD
FE
FD
FF
02
FE
01
01
FA
02
FC
04
FF
FF
FE
01
F4
F5
0F
0C
EE
01
FE
FE
E8
FB
FA
F6
F5
F5
04
FC
FA
0C
05
FE
EE
01
01
FD
F3
FD
07
F3
E2
0F
FA
D8
06
06
07
14
0A
0B
FA
15
09
0A
0F
09
0C
F9
10
05
F6
F7
DE
00
FF
FD
1A
01
00
FF
F0
E0
0A
03
1B
05
FF
F3
B9
FE
EA
FC
FD
BA
00
E8
E4
F5
07
F9
F4
FD
F1
16
01
0A
08
0B
D8
08
FF
DB
F5
0C
DE
F5
F9
FE
FD
FA
FE
FD
00
FC
02
02
02
00
02
03
FB
01
FD
FC
00
FD
00
FB
01
00
FD
FB
FD
04
FC
FF
02
05
FA
F7
FF
09
FD
0A
0A
03
EE
FE
FB
03
F8
04
E9
09
F2
09
FB
F8
F1
08
0A
E0
F0
FD
09
EA
F6
07
04
08
11
0C
03
F9
FE
08
03
CF
11
0A
05
F8
16
FC
06
00
DB
06
06
15
09
FE
00
1D
09
FD
FB
EE
15
F5
04
11
00
1A
FD
F6
15
F7
EB
EE
0F
E3
E9
E8
FD
FD
EE
F9
F2
0E
08
03
2B
03
F7
09
04
03
01
EF
1C
F5
06
17
F1
00
F5
ED
FF
FD
F9
05
ED
F8
F1
06
EE
F3
FF
F3
FF
F8
FB
03
FC
FB
F8
F3
F6
F7
F9
FF
FD
00
FB
FD
FE
11
03
FE
00
04
01
FA
12
06
06
F9
15
00
07
02
DE
01
05
15
F1
FA
FB
23
03
03
FD
EF
10
F5
FE
0F
EC
F4
0B
03
F7
E8
FB
15
05
17
06
0F
00
05
08
E7
FF
E5
00
F4
F7
FF
F1
0E
12
0A
FF
10
02
F5
04
EF
04
02
03
FE
00
FC
01
02
04
FE
FF
03
FE
FC
03
FC
FB
00
05
00
03
04
03
FD
05
FC
02
FE
FD
FF
FE
02
00
FD
FF
FE
01
FC
03
FF
03
02
FC
FD
FB
FA
FF
02
02
FF
FE
02
00
00
00
02
FC
01
03
01
02
00
FE
FB
FC
F6
F8
F5
F1
F7
F6
01
FF
FC
04
FF
FA
F6
06
FB
F9
FD
FA
FB
F7
00
FB
00
F5
00
F7
01
FD
00
FB
F5
00
EF
FE
F3
F9
FE
FD
16
F7
EC
FD
FF
01
FA
FD
FD
04
00
06
E1
F4
E5
DE
02
02
F8
ED
FF
E4
D1
F6
10
1E
06
FB
F9
0B
F6
04
ED
0A
D0
F5
E9
FA
00
FC
FA
FC
1A
0C
0B
25
03
02
FE
F5
F7
01
F7
07
01
04
1A
F9
FB
FE
10
0A
12
02
FC
F5
06
E9
02
02
06
EC
06
FD
07
FB
F0
FC
02
03
DB
00
FE
03
F7
FE
FE
06
02
FB
FE
F6
FE
F6
F7
F9
EE
F6
F7
FE
F7
F5
F8
F1
05
FB
00
FA
FD
F4
03
FD
F8
F0
00
FD
F8
FF
04
FB
FB
F0
FC
FD
FD
01
FB
04
03
FD
FE
FC
01
02
F8
FD
FF
FF
00
F9
F8
02
F9
FE
FA
00
FD
FB
05
F9
FC
FA
FF
01
F0
07
FF
EA
D1
05
FF
02
0E
14
07
12
00
07
FA
CD
00
07
F6
00
FC
FD
02
14
FB
FB
F3
F8
FF
0C
D6
02
09
F6
F7
F3
FE
F4
0B
CA
0A
0D
13
E9
D6
04
03
F1
F3
FD
17
F3
F2
02
DD
D6
F9
F7
15
1A
04
ED
EE
FC
FC
FE
02
01
01
FF
F3
F6
F8
F6
FA
00
00
EE
01
FA
F7
F5
FB
01
04
FF
FB
EE
FE
00
F2
FE
F5
F7
FD
F6
04
00
F6
06
FF
FD
01
FD
00
F6
FC
F9
F6
F7
F6
06
F9
FC
0A
09
FB
ED
FC
F5
FC
F2
EB
08
F7
EF
06
F4
FC
FB
01
FF
FB
04
FD
00
FB
FE
FF
03
03
FC
04
01
01
03
FF
04
02
FD
FB
FF
FF
03
03
FE
FD
FF
FE
01
FF
FA
01
F8
01
02
FC
F8
03
F9
FD
02
FB
FD
02
01
00
FC
F8
F6
F5
01
FB
F2
00
F7
00
F8
F7
FC
F5
FF
15
08
FB
02
13
FE
F3
0E
0A
02
FA
07
FE
FE
06
ED
00
0B
03
06
FF
FB
1D
0A
01
04
FA
17
F2
08
11
F2
08
02
07
02
EA
06
F0
04
DF
02
EC
F2
08
F2
04
E7
F1
09
01
2D
0D
09
FF
ED
FD
0C
F4
09
0E
09
FF
F6
0F
E6
F9
00
07
E6
28
B9
07
A4
FC
E7
F0
EB
06
13
FB
B4
06
02
EE
E7
D2
07
FF
F3
14
DA
E9
D8
16
F3
FA
F8
F9
02
02
02
05
F8
02
F5
03
FF
F4
00
F5
04
FD
F5
FA
FF
F5
F7
02
05
01
F2
FF
F7
FC
F6
0A
00
FE
F8
E8
FC
FC
FB
F6
FC
FB
FE
FF
EE
E9
FC
F9
F8
F8
F7
02
FC
FD
FA
FE
FD
F8
F8
FE
FD
01
F2
01
FB
FD
FD
FC
FF
04
03
FE
05
01
FB
00
FE
FF
FB
F9
01
FC
FB
05
F9
FD
FC
01
02
02
01
01
FF
FE
03
FB
00
FE
FD
FC
FD
F9
00
F9
F8
F8
FF
FB
F9
FD
F3
FA
FB
FB
FA
FF
FE
05
FF
FC
ED
FF
FB
F6
FB
03
FA
FD
00
FE
04
FF
FB
FF
00
03
04
01
FB
FF
03
02
03
02
FD
03
FC
FF
FE
FF
00
03
04
FF
FF
FD
04
04
00
03
01
01
FF
01
FE
FC
FB
FF
04
FC
04
FB
01
00
FB
FB
02
03
03
FE
FD
00
FF
00
FC
01
FF
FC
FF
FE
02
03
FF
F1
02
05
F7
E7
04
F0
FB
0D
D8
FF
FD
06
F7
E9
08
07
FA
00
E8
05
F9
EE
08
FD
02
F6
F8
F4
00
F6
F5
EF
FD
08
F3
F1
F0
F0
F3
05
EF
FC
E4
05
D5
00
05
0F
F9
F9
FF
06
01
F6
FE
01
03
F5
00
F5
FB
F1
F9
02
05
E7
F5
FE
03
04
FB
FC
F4
03
E5
FE
F5
F0
06
03
FF
0B
07
05
D6
F3
F6
FF
F8
03
04
02
E4
00
02
FB
F8
F8
F8
FD
FC
F8
EF
02
06
06
08
FB
01
04
EB
FC
F2
F0
F4
F7
00
F7
F7
FD
FE
FF
FA
04
FC
F5
F6
F4
F2
07
FE
E3
07
DE
01
00
EB
F6
FE
00
ED
08
FD
FF
0B
F4
03
FC
04
FC
FA
02
03
03
06
F9
FF
FF
F1
FC
01
04
FE
02
FC
01
FE
04
03
FE
FB
01
FF
04
FC
FD
FC
FD
00
03
FF
04
05
00
FB
FD
03
01
FB
03
03
FC
00
02
FD
F9
00
03
FB
FC
F5
04
FD
FF
02
FB
FC
FE
01
03
F8
F9
FF
F6
FB
02
FC
FD
00
FE
00
00
04
01
FC
FC
03
00
FF
03
FD
02
FF
05
05
FE
01
F8
07
FD
FD
FC
FC
00
F8
03
02
FA
FD
FA
FB
F8
FE
05
00
FC
F5
F1
02
FC
F2
04
00
08
E9
FD
FE
F0
ED
F5
0B
FF
F8
FD
15
03
EB
00
07
FE
EF
FD
F8
F3
EE
08
ED
FD
04
FB
FF
03
FF
FE
00
FF
FF
FF
FE
00
03
03
FD
FE
FC
FF
FB
FD
01
00
03
FE
04
02
FE
01
FF
00
FD
FF
FE
02
03
01
01
F4
F3
FA
03
FB
04
FA
F4
FE
F2
01
F7
FB
FF
FB
04
F6
F5
FF
FC
FA
00
FB
00
01
FD
FB
00
0A
F5
E6
06
E3
ED
FA
FD
FF
01
0B
F1
07
EF
0C
08
F4
EF
03
05
E9
F2
FF
07
FB
F9
01
05
F8
F8
FC
FE
0D
F8
F3
02
E8
F3
FB
EF
FF
EC
0F
FF
FA
FD
F8
FA
00
F7
07
08
F2
F8
04
03
F3
F6
FD
FE
EF
CD
02
01
FF
01
FC
02
02
01
FC
FF
FB
FD
02
FF
01
FF
FB
FD
FF
01
FE
FF
03
03
02
03
FE
03
FE
04
FD
FE
0F
FB
ED
13
01
CC
FE
EF
E8
DF
EF
00
F6
F5
F6
E6
FD
EA
16
19
19
EC
EF
F4
0B
F9
FB
F5
0C
CD
0E
00
03
00
FE
FA
00
FE
FD
F9
F9
FB
FD
FE
FA
FD
02
FC
FF
FD
FA
02
00
FE
FD
02
04
FF
05
01
FE
FC
F7
00
05
FA
05
FE
03
06
F8
02
03
F5
07
FF
05
F2
F8
0A
FD
08
FF
FC
F7
F8
F0
F4
FB
FD
F8
F2
DC
04
F3
F1
FD
F4
FD
EE
03
00
EF
CF
F9
F5
FE
EF
F4
F5
15
FE
05
F0
01
0E
F6
01
BC
F9
F6
03
0E
EA
00
F5
F6
DF
04
04
FB
FE
9F
01
F6
12
12
03
FE
FF
03
F4
FA
E5
FD
0F
0A
02
00
FD
1B
13
FC
04
FD
07
FB
07
F5
F4
00
03
FD
FB
00
02
F5
04
07
FA
FA
05
01
FD
FF
F9
FA
05
03
03
FF
FF
FB
01
FE
F8
FD
FA
FC
FE
FE
FA
00
FD
FE
00
FB
01
02
FE
FE
FE
00
00
FF
03
FC
01
01
FF
FD
FD
FD
04
05
FE
FC
FC
00
FF
FF
FF
01
FC
FD
03
FF
02
02
02
FD
FB
FE
00
00
03
00
FB
FC
FB
03
03
02
01
02
FC
00
03
FE
FE
FE
01
FE
FD
FE
04
EF
F6
0F
D6
FC
0E
E2
FB
F5
0A
DC
15
0A
0A
F0
FC
05
F3
13
E4
01
12
0B
ED
01
07
F2
EC
F4
00
F5
00
F2
06
0A
EE
F6
05
12
FA
1E
0A
0C
15
02
FF
00
FF
F4
05
FB
CE
F7
04
FF
0E
09
FB
0F
F8
F9
0B
F2
03
0C
09
FA
04
FE
FE
F8
10
12
FE
FB
18
04
06
FA
CA
0A
03
10
02
FE
02
19
0B
FE
02
F3
0E
F1
01
FD
00
FC
01
F9
F8
F2
08
F6
F2
EC
FD
E9
F6
FB
FF
00
FF
03
00
F9
F9
01
00
ED
FC
FC
FA
FD
FB
FD
01
F3
02
FE
F7
FA
FF
00
04
02
FB
02
FA
04
06
FB
FC
F0
01
FC
F7
FE
FE
F0
F9
FD
FA
FB
FA
F9
F1
F6
FD
FF
FB
F9
F1
10
F4
05
0C
C9
F4
FE
F0
ED
15
06
F6
0F
02
06
F9
12
EE
FE
15
FF
FD
06
01
F8
E1
E2
FC
E7
F6
0B
DD
EF
04
F2
F1
28
EE
0B
D7
03
F4
E8
FB
FD
0F
FA
FC
09
0D
EB
E9
F0
02
00
E9
14
EC
EC
DF
12
04
02
00
FF
02
01
FD
00
FC
FC
00
FF
01
03
FD
FD
01
04
FF
00
FC
02
03
FD
FC
01
FD
FC
FC
02
FD
FF
01
02
05
FA
01
03
09
FF
10
15
02
FA
1F
04
0F
FB
BD
00
0C
06
F4
FC
FE
1C
11
FB
FE
F6
08
F7
0A
FA
FD
F1
00
0B
09
F7
05
F5
F9
02
0B
FE
F3
06
ED
F1
F5
FB
01
F4
ED
02
0C
F0
03
00
06
E8
F5
0C
0B
F4
04
FB
0A
07
FF
DC
0A
E1
06
01
04
E0
0B
0A
FC
F1
F2
EB
0F
05
E5
08
00
FB
F7
00
07
F9
EE
F4
05
FF
08
03
FF
03
03
00
FC
FE
03
04
02
02
FC
FD
FF
FE
FF
02
03
FA
01
04
03
04
FF
FF
FB
FD
FC
FD
01
FB
FF
FB
FA
FF
F3
EF
04
E9
FB
F9
F1
F4
FB
03
FA
00
FD
FE
02
07
FB
FD
03
FA
F7
00
01
F9
01
FF
FC
FC
FC
00
FC
FF
FF
01
FD
02
FE
FC
04
04
FD
01
02
FF
FF
FB
00
02
05
FE
FD
FC
01
04
FD
FD
FD
00
FF
01
02
EF
03
06
10
F6
F6
FD
E9
0F
EF
08
F4
F3
F2
E8
EB
06
F2
F2
03
F8
00
DF
F6
FB
03
04
F7
00
F9
0B
F9
EE
FE
04
FA
12
FE
0F
F7
12
0A
02
FB
06
06
F5
10
18
02
F9
E6
FA
EF
F4
09
FB
FD
FF
06
FC
06
02
18
FC
FD
F8
01
04
F9
02
01
FE
F8
FC
FE
FE
FA
FF
FD
FA
FA
FF
FB
FC
FB
FF
FC
FE
FF
03
F9
F9
00
02
00
F8
FD
00
FE
FD
FD
05
FA
00
01
FF
FE
00
FF
F5
08
00
FA
02
FF
F7
FC
FD
06
FD
F9
FA
F2
F3
04
FE
FF
FA
FE
04
02
FB
FD
01
FB
06
F8
01
01
01
FD
F4
01
03
FD
02
00
F5
FB
FA
07
02
F9
01
FF
FF
FA
FC
FD
F6
00
FF
FB
E8
FD
EB
FA
FB
FB
F6
03
FD
FF
F6
F2
00
FE
FA
F9
FC
03
00
03
F9
F9
FA
EB
F9
FE
FA
FF
FB
F7
F8
07
02
FC
03
F9
FF
F1
01
FB
F7
01
F7
FD
00
FD
01
FA
F8
F9
FC
FD
01
01
FB
F9
F9
FF
06
FE
02
FF
FB
FE
01
FD
01
01
FF
01
01
FE
FF
FB
00
00
00
00
FE
04
FC
00
FE
FC
FB
02
FB
FC
03
02
FF
FF
01
E9
F3
FE
F6
01
F7
F2
06
F7
FD
F9
F4
04
F6
00
FA
FC
F4
FC
F7
F8
F5
F5
F9
F4
FF
FB
F9
F1
FB
EE
FE
04
00
0C
15
FB
FD
0E
0A
EF
DA
0D
FF
D4
FC
18
FA
0B
13
F5
01
04
19
FD
08
03
FF
EE
CD
F2
F4
FB
FC
FF
FD
FD
FC
FC
FF
FE
FD
FF
FC
FC
FB
FF
02
FD
00
02
01
FB
FF
FB
FE
FC
FC
01
FF
00
FE
02
03
FC
04
FD
00
FF
03
03
01
04
FD
01
FF
00
FF
01
FB
FF
04
FF
04
03
04
FF
FC
FF
FE
02
FF
00
01
FC
02
01
0F
FF
F2
EE
E4
F9
FB
01
CC
FF
F4
05
F8
09
F6
FB
FF
05
F5
00
F6
FC
F4
E5
F8
F7
FE
14
FF
07
02
FF
F9
F4
06
FA
00
F7
EE
F6
E9
07
00
04
F1
F8
05
EE
17
F4
E6
E9
F7
04
F6
ED
F9
03
0C
FE
06
08
FE
F2
00
FA
00
FD
FC
F9
05
F9
02
00
03
FD
FF
FA
FF
02
FE
FE
FE
FA
FC
FE
01
FC
FE
FC
FD
FE
FF
FB
04
FB
03
FA
03
01
03
00
FE
00
FE
00
00
FF
FD
FD
02
FE
00
04
FE
00
FC
03
FE
FB
00
FF
02
04
00
03
03
03
05
FB
E5
F5
00
F3
E5
FE
F7
04
F1
D4
EA
01
0E
E8
F7
00
01
F5
04
FE
F3
C7
F9
FD
FA
0F
06
FF
FD
EC
FF
E7
EF
F9
F9
FD
01
F3
FE
04
0C
FB
EF
01
F8
EE
F3
05
02
F8
F3
FE
EF
E7
FC
F3
05
F9
FD
00
F7
F8
F6
04
02
04
F6
FE
07
FC
02
FA
FD
FE
00
01
FC
FF
FE
FE
00
FA
F8
FE
FA
FE
05
FF
01
F4
FF
01
00
FF
F3
F0
D3
03
F3
F1
F9
C4
0A
01
0C
C8
E0
0B
F6
EB
16
DF
01
FE
FE
FC
E1
F2
F5
F5
0E
D2
10
F3
FA
F2
03
F9
01
01
F8
F9
FE
FE
FA
FA
02
02
FA
FF
F9
FF
00
FD
FF
FC
FE
00
FB
FE
F8
00
FD
FF
03
FE
04
01
FB
F8
FE
FF
01
00
04
FD
09
F1
01
FC
FB
FC
FF
F5
01
F5
FC
01
FC
FB
F6
FE
05
FC
FF
F4
FF
FD
01
FF
FF
06
FE
FD
F8
03
FC
FA
05
06
03
FC
FB
03
FB
FF
FD
FA
05
FA
FB
03
03
FA
00
00
01
F6
00
02
FD
FF
EB
FC
06
07
02
EF
F7
FA
06
EC
DE
F4
05
EC
04
02
FD
F3
00
FB
FB
03
FF
00
03
07
0E
FD
DF
FE
00
E3
EE
08
10
F7
FE
04
FC
F7
08
0F
08
FD
05
04
FA
03
FD
FB
FA
EE
FC
0A
F3
FB
01
03
03
F4
F6
0C
F2
03
FB
07
01
F2
EB
F9
19
01
0B
04
0C
06
04
0F
EC
EF
26
08
09
FC
F9
FB
F4
16
07
FA
EA
00
F6
03
DB
00
FB
FF
05
FD
E5
08
18
F6
05
E3
F8
F3
03
01
F4
F8
0F
00
EE
F7
FC
FC
F6
FD
04
01
F3
E6
F2
FA
EB
F1
0A
07
F4
D5
E0
FE
F6
03
F3
17
F0
08
F8
03
08
07
F5
02
F8
F8
06
01
0A
FD
00
01
F2
12
09
00
DB
F5
FD
FB
FC
FC
04
FD
01
FF
FD
02
04
FC
04
FD
03
FC
04
FD
FB
FD
01
02
00
03
FC
FE
FB
FE
02
04
FE
FF
02
01
FE
13
04
FB
FA
F6
F6
F6
05
00
01
E0
FD
FC
04
FE
E4
05
F9
F9
DF
03
07
06
FA
0B
F9
06
1A
F9
11
CB
EC
0A
04
EA
22
C0
10
C9
FC
F8
ED
01
04
0A
FF
DD
01
0E
E7
E9
D2
07
00
F1
13
01
EF
D7
12
04
02
F6
FF
FE
FF
FA
F2
00
E0
04
F5
E4
F8
FD
04
E8
F1
09
07
1F
0B
09
F9
0C
01
05
F7
00
0C
0E
F8
FB
F6
FE
F9
F8
00
F6
07
00
FA
FC
FF
F7
FC
FE
FA
03
FE
F5
F8
F4
FC
F3
F6
05
F5
FA
02
FB
00
03
F5
02
FF
FD
F8
FE
FC
01
F7
F7
EC
FF
FE
EF
F7
FC
FC
FA
FF
F9
03
FD
00
FA
F3
FB
F4
F9
FD
04
FE
F9
00
F5
E7
EA
F6
FA
FC
FB
F1
F9
FD
E4
F7
05
EF
E5
02
FE
F4
FF
05
15
FB
FB
E9
FA
FE
FA
08
F6
F8
EC
00
EE
ED
06
09
F3
FB
06
05
FB
15
0E
0F
10
04
06
FD
FB
F4
06
F3
E5
FE
06
F6
09
01
03
FF
F6
01
08
E2
0B
FD
FD
F9
FC
FA
04
0B
FC
FF
EB
03
F4
FF
F8
F5
FA
FB
FD
FA
EC
F4
F6
F4
FF
01
F7
01
E8
EA
FC
02
0D
FA
F8
FE
FF
F8
02
F9
F6
FD
07
00
F9
F4
FA
02
F8
00
F5
F7
FA
FD
04
F4
F8
F9
FB
00
F5
03
00
F3
FD
05
FF
F5
F8
F7
FC
FA
FF
F7
F8
F5
FF
F8
F7
F9
F4
FD
06
FC
08
00
FA
FB
FE
F5
FD
F5
02
01
F8
06
04
FE
C3
08
0F
08
F5
15
F0
13
F9
07
0A
04
F5
0C
0B
21
D8
DF
ED
E1
ED
EB
19
08
F5
13
F9
E7
FD
0D
10
E9
E6
F3
F9
11
FF
F6
C5
EF
12
FD
03
F0
0A
07
DE
FD
F7
FA
DC
02
06
DD
EA
FF
F6
F7
0C
07
F7
FB
07
02
FB
F9
FF
F9
03
F3
FE
FD
FB
FA
F4
00
FD
FB
F8
FD
04
F6
FD
FD
F4
F7
00
FC
00
FE
FB
FC
FE
FF
F7
00
D4
04
E9
10
00
F3
D6
FF
F9
02
FD
F0
FE
16
FD
09
F6
01
07
F1
08
AE
E6
FD
01
10
01
06
F3
E5
E8
00
FD
FB
FF
FD
FF
01
03
FE
FE
03
FA
02
02
FD
02
00
03
FB
00
FF
FE
02
01
FE
FE
FD
FB
00
FF
00
00
FD
FC
F7
FF
02
F8
FF
02
FD
F5
FC
FC
F7
FD
F6
0A
FE
FC
FF
06
F9
F0
F9
FC
FA
F2
FC
FB
F2
F5
04
FB
02
FE
FA
FF
00
FA
FB
FE
01
FE
FA
F8
00
FC
F5
09
02
00
FD
03
F3
F8
FD
05
00
00
FB
00
FE
F9
FA
FD
F0
F7
F7
F9
F3
FA
E3
FB
01
14
06
0A
FC
01
04
EB
FD
F5
F5
F4
FC
07
EC
F4
FA
FD
07
F6
04
0B
F7
D4
04
02
FA
F3
06
FD
01
11
11
0C
F8
24
00
FF
FA
B2
02
04
0F
F6
02
FE
1D
0A
07
02
F9
14
FD
01
CA
06
01
FB
FA
F9
F9
03
EE
F9
F7
F5
F7
F8
00
FB
FD
FF
FA
F5
00
FB
F9
00
FA
F4
FE
F2
EF
F4
FB
FA
F9
FF
F4
ED
03
FA
1A
04
ED
E0
FC
08
07
0F
FA
0B
FE
13
0C
ED
04
F8
FF
09
F5
D4
FA
FC
F3
F3
FE
FD
FB
F0
07
FE
02
FA
EA
02
E5
0D
C8
01
F4
EF
04
FA
04
F9
0A
05
10
1A
0E
06
FF
E8
FD
0C
F6
0C
12
FB
F8
EC
01
FD
FF
03
FD
FC
FB
01
FF
FF
00
F9
F8
01
F6
02
FB
F7
00
FB
FE
F7
00
F8
FC
FF
FD
FC
FF
FC
00
F9
FA
F8
EB
FF
F1
FB
FA
00
05
F9
FE
F6
F9
FD
F0
F3
F7
FB
F3
F6
FA
F5
FD
F3
EF
FA
02
E3
08
FB
FA
F2
FE
F5
0B
07
12
04
03
FA
00
F6
01
0C
0A
00
0D
0A
10
FF
F7
D0
F6
FF
F5
04
03
00
00
F7
E0
0C
04
11
F5
FE
F6
F1
ED
0B
F4
D6
E3
E4
F5
0E
02
F4
00
F0
01
FA
F6
00
FC
06
F3
F4
FF
F0
FF
E5
FC
FF
EE
FE
F3
04
FE
FB
1B
09
FD
0A
0E
FB
EE
14
01
12
09
CF
00
01
0D
03
FB
07
13
00
02
F9
EE
ED
CD
FC
FE
E9
0F
D8
EF
03
07
E0
28
C7
0B
CF
02
F6
ED
EF
06
0E
FC
D8
08
04
F4
E3
DB
FD
07
F0
13
03
E8
E2
0E
08
00
02
FE
FB
05
FF
FA
FC
03
FE
F9
01
FA
F9
FF
F9
00
FC
06
04
FE
FA
FF
01
00
02
FC
FA
FE
FA
FF
01
03
FA
07
03
E5
0A
E7
FD
EE
E7
F3
DA
06
D4
F6
F1
E7
01
04
17
09
0B
F2
E0
02
06
F6
FA
F3
01
03
01
00
FF
FC
FA
02
FC
01
00
02
01
FD
FF
FB
FF
01
03
02
FC
01
00
01
02
FB
02
00
FD
FF
01
FD
FF
FD
FB
FD
FB
F9
F6
02
00
F5
F1
F4
07
FF
FE
FA
FD
00
FB
FB
FD
00
F4
FE
FD
F9
F4
FC
FD
F9
02
07
01
F7
F0
01
01
00
FF
03
FB
FD
01
FD
02
FF
FD
FD
FF
00
01
00
FA
FA
FC
FB
FF
FD
FD
FE
FC
00
FE
FC
FB
FF
FC
F3
08
0A
04
E5
0C
0A
05
18
09
13
03
0D
08
FB
0F
02
06
E5
E4
00
F2
02
10
01
FD
05
FE
F1
0E
F0
07
F9
02
02
0B
10
09
FF
0D
19
04
0D
0F
03
FB
F8
DE
13
05
0A
EA
FD
FB
0F
19
01
F7
FA
F3
EF
00
FD
F0
F2
FE
00
F6
E7
04
00
E7
07
1B
0F
F6
F8
0D
01
E4
FA
ED
D0
E7
02
0A
E6
EB
03
FF
F8
F3
08
04
EA
F6
F6
07
0B
FA
05
05
05
FC
F1
FF
06
03
05
E8
FE
EE
FD
FA
F5
09
09
07
E6
F4
FD
08
F2
F7
FF
00
F4
12
06
FA
04
F5
E9
01
EE
09
E4
FA
EA
F4
05
0C
EE
29
17
02
03
03
03
F8
FE
F5
01
08
F4
0B
03
05
02
05
FD
FB
00
09
FC
FE
02
FE
01
FD
FC
01
F9
FD
EF
07
03
FA
FA
F8
F6
F4
FA
07
03
00
00
F6
FB
FF
07
02
02
FC
FE
FE
FD
00
F0
F9
F6
F5
FB
F8
FD
F8
03
F9
06
F9
00
02
FD
03
FA
F4
FB
FE
FB
FF
FA
FB
F7
F4
05
DF
0A
EF
0C
FE
FF
D2
F2
F7
07
F9
02
00
0C
01
04
F1
11
E4
F4
07
F3
E9
01
FB
08
FF
FB
FB
EF
08
FD
04
FD
FA
02
FF
FE
FD
01
01
00
04
04
FA
FE
FF
04
01
01
00
00
FE
FE
FF
FE
FF
FC
01
FD
FD
03
02
F3
FF
D1
F5
F6
FE
03
EA
ED
06
01
F0
F5
FD
F1
FB
FD
F4
FF
04
06
00
EF
E8
F9
01
FB
04
0A
00
02
FF
02
00
02
F7
F4
01
F1
F9
F6
03
00
FB
FC
F8
00
F9
FA
FC
F7
F7
FE
02
F7
F6
01
FD
00
FC
FB
02
FD
F8
0B
04
FA
07
09
02
FF
12
05
09
F8
0E
00
05
FD
E6
02
0C
10
04
02
FB
25
0E
FF
04
F9
14
FB
FD
F9
07
03
03
FF
FC
02
FD
FD
04
01
FF
FE
02
00
FD
01
00
01
FF
02
04
FF
FC
FF
03
00
01
03
01
01
FD
03
FC
F7
FC
00
F8
F1
02
F5
F2
F2
F2
F3
ED
01
F4
02
EE
01
EB
0A
1C
0E
02
F1
EF
FE
06
F8
F1
07
EC
00
F1
02
00
06
FE
F0
F8
FF
FF
E7
F6
F6
E3
FF
F9
00
EC
FC
02
FE
12
0A
02
F3
F4
FF
00
FF
01
01
FA
F6
F8
F8
FD
F4
F7
F6
F8
FA
FB
00
F2
FF
F3
F3
00
01
F2
F7
FA
F6
00
F8
FD
FA
FB
F8
01
05
FF
FC
F5
FA
00
03
FC
FD
FC
FC
FB
00
FD
FB
FC
03
FC
00
FD
00
02
02
00
FA
00
FC
F9
03
FF
02
FF
FC
03
FE
01
FC
FC
FF
FD
FB
FE
FC
FC
FE
00
FE
FE
FB
FC
01
02
02
01
FF
FF
00
04
FD
03
FD
02
03
00
FF
02
FB
FD
FE
01
F9
FD
00
FF
02
02
FD
FA
04
02
04
FB
FF
FF
FE
00
FE
00
00
FB
FC
00
FC
FE
FC
FE
03
FB
F9
FC
FD
F9
F4
FD
08
FB
F9
F6
EC
F5
F2
F8
F2
06
01
F3
07
F5
0C
FB
00
01
FC
06
F9
F7
05
00
F6
FF
FC
05
FA
FC
FA
FE
06
0A
16
0A
FF
F0
FD
ED
06
FE
08
EB
04
F2
0B
02
F8
0A
FE
02
E0
F5
FD
04
FC
FE
02
00
08
FA
F1
E2
05
10
08
00
0A
EB
FC
04
0B
DE
0A
FB
F2
12
0F
E3
F4
DD
EE
CD
F5
F4
ED
F5
F6
E4
E1
1F
04
13
F8
FF
00
FD
08
03
02
FD
FE
FE
05
05
03
FD
FB
02
FD
FA
FE
F7
F8
FF
FA
02
FF
FB
FC
F9
F4
FE
07
07
02
03
02
FB
04
01
FE
FB
FB
FD
FE
00
01
FF
02
FE
03
02
04
FD
03
04
03
03
FD
FF
FD
FD
02
FF
FD
02
FE
F8
FD
00
F7
00
FC
FC
00
01
03
FF
F2
FE
F7
FC
FA
F1
F9
FE
F8
F9
F8
F7
FD
F9
04
F6
FD
F8
FA
FB
E7
FE
02
FA
04
04
FC
E9
03
C9
E7
02
06
DF
FC
0A
06
0B
0A
01
01
FB
FD
01
05
02
00
00
E9
F9
10
E4
FA
FD
04
FC
F1
06
FB
F5
FF
F9
F0
02
06
00
00
F6
FE
FC
FE
F5
FD
02
FB
FA
02
01
F8
FA
FA
FE
02
FF
FF
04
FE
03
02
FB
02
FF
02
FC
01
FD
FE
FB
FC
03
02
00
03
03
FD
FB
01
FE
FC
FF
02
00
FC
03
FC
FE
F6
07
FD
F1
00
F9
FA
F6
15
0A
0D
F4
F7
05
FB
DB
EF
03
E6
F4
00
03
E8
03
FE
F4
FF
0E
03
F8
E4
FD
FD
F4
FE
FE
00
FE
FF
FD
08
FD
05
FB
F6
FD
00
FA
FC
F1
F2
FD
F0
00
F7
F6
FF
FD
02
FB
FC
F4
FF
FB
03
FD
FF
FF
04
04
FE
02
02
FB
04
FE
FC
FF
FB
00
02
FD
01
03
01
FC
00
05
03
FC
FC
FE
01
03
FC
03
0E
03
F1
FB
00
FC
00
0D
03
0A
00
07
FF
01
F8
EB
0A
0E
01
04
01
F3
1B
10
01
FD
FE
0C
03
04
EC
05
FF
FC
01
FB
FC
00
02
FC
01
03
04
04
FE
FC
FD
FD
01
FF
02
FD
00
01
02
04
FC
FE
02
00
FF
02
FF
01
01
FF
01
FA
FF
04
FE
FE
07
E9
FF
01
01
FD
00
F8
03
FA
03
01
FD
F9
FB
03
FD
FD
FE
F8
00
00
FE
00
FC
07
FA
16
08
F8
19
08
17
D4
F4
F7
04
F5
F3
0A
0C
0C
11
DD
F0
ED
13
1C
03
FB
07
E4
D6
04
19
14
E0
01
10
F4
E1
0C
0D
00
14
01
02
08
0D
08
F1
F9
FE
00
F8
FC
FD
09
F2
08
FF
07
F4
F0
ED
10
EC
0C
0E
D7
ED
FE
FC
ED
24
CA
0F
D4
00
F1
EC
F6
08
0D
F6
D3
0C
12
F1
E9
E9
07
FF
E6
11
E6
EB
DA
11
03
14
FB
F6
0A
15
F9
E0
0A
F5
F9
FD
FB
FD
07
04
F4
09
09
0E
F3
F9
03
15
02
01
F8
E9
24
F5
05
27
FF
0F
0A
F9
FE
0C
03
FC
0F
01
0C
F8
1E
02
05
01
C0
FB
0D
10
FD
05
FE
21
06
03
01
FC
1D
FE
05
EB
03
06
02
F9
01
0F
FD
01
13
0B
03
F7
14
02
06
03
EF
03
0B
1A
04
FE
00
20
0C
03
00
FF
1E
F7
02
16
07
F3
01
00
08
E7
F8
00
08
F0
F6
F6
F2
FE
FE
D8
FF
0C
FE
FD
FD
0C
F8
04
FA
06
01
ED
06
03
F1
13
EF
02
FD
F2
02
F6
F8
FF
FD
00
FF
00
FC
F5
FF
FE
00
FB
F8
FA
04
FB
FA
FF
FD
FA
F3
FB
F6
FB
FB
FD
F9
00
FB
FC
00
FE
01
FC
FF
FB
02
FB
FF
03
FE
02
02
01
FD
04
03
FF
FD
00
01
FB
FD
04
02
FD
FB
04
FF
FB
04
FC
FA
F7
FC
FF
F8
FC
07
04
FB
FE
02
FC
02
F9
00
F9
FC
F8
01
FE
03
00
FE
FF
F8
FE
05
FB
00
FB
03
FF
0D
01
0C
F5
FA
E8
00
01
EF
01
F5
FF
E7
EF
03
F8
13
09
03
EC
F7
00
03
FF
01
0D
02
FC
FF
EC
EB
04
E7
15
05
C8
C7
10
08
F9
FC
F6
F1
14
FD
02
DF
FF
D8
FB
0B
EF
ED
02
00
0D
EE
02
F8
D6
DA
01
05
08
FF
FB
02
06
ED
F0
FF
FA
E8
05
00
F9
E9
E9
FA
03
E7
09
0A
EF
DF
07
0A
F9
02
02
01
07
EA
13
08
F8
FD
11
01
F2
10
07
04
FA
16
FD
02
01
D5
FE
07
12
F9
02
01
1F
07
00
FF
F9
11
F7
05
FC
0D
10
FD
FC
0D
FB
EB
F4
02
DE
F8
EE
D9
F1
01
F8
F9
F5
F8
08
27
08
00
06
EF
09
FD
EE
1D
02
DF
07
FA
00
FF
FE
FF
FD
00
00
FF
06
03
00
01
04
FC
FB
FF
FB
FE
04
FC
00
00
00
FE
04
FF
01
F9
FB
F9
FF
FC
02
05
FD
FE
FF
03
FA
00
05
02
FD
01
FB
04
FD
00
FD
04
02
FA
02
FC
05
03
FD
F9
FB
02
F9
FD
F8
FF
FB
FA
08
04
0B
0E
0A
F9
01
F0
06
EF
09
F5
F4
05
12
00
ED
E3
FC
FF
DD
F9
02
02
F1
F7
F1
04
FD
15
FB
FC
03
EC
E8
04
FA
F9
F6
04
EC
09
04
FA
FD
F0
05
00
F8
F8
03
FF
FF
F7
02
05
FF
FE
FD
FF
00
F4
04
FA
FD
FF
FD
FB
F8
FE
FA
FC
FC
F4
F5
FB
00
F1
FD
02
F7
06
03
FC
F9
FD
02
FE
01
FB
04
00
FC
FC
0C
01
06
FA
FC
FE
0F
EF
E1
02
D9
F1
F9
F0
06
E5
F2
F9
03
06
09
04
F5
F0
F8
05
F3
06
03
FE
F2
FD
D9
07
09
E6
D6
07
F1
F9
17
0D
03
0F
08
03
FD
E4
F0
05
F8
03
FC
07
F1
FE
FC
01
EC
FA
03
07
EB
F0
F2
03
DF
C3
E0
F8
EE
F9
E3
11
E2
1E
F0
FB
FE
F6
FB
E9
09
EE
02
03
01
E5
02
F3
E4
B8
0F
F9
FA
D5
14
04
F5
03
16
01
F0
0F
ED
04
FD
FB
FC
05
0B
05
0C
0B
13
FF
0D
FA
1C
00
FD
06
F1
14
01
03
0B
02
F9
01
FF
DB
E3
FD
FE
F5
04
11
01
03
F3
FC
13
F2
FC
F5
DB
ED
FB
0C
FB
F9
04
FA
05
E5
00
FE
F3
F2
14
E6
F7
F8
F6
09
D8
F4
0F
F6
E8
FD
06
FF
FC
04
F8
14
00
EE
F2
F8
DB
FC
E9
F2
F0
0C
F6
02
0C
F3
EF
19
10
08
E5
11
C1
EF
EE
1C
FA
1A
0E
01
16
F7
0E
0A
EB
EB
0C
10
F1
FC
04
0B
E2
07
0A
18
FB
F7
F1
05
FC
03
D8
09
0A
04
1A
07
09
05
01
FF
D4
0D
EE
0A
03
04
FA
F8
02
11
01
F9
1D
01
F9
05
FB
EC
09
FB
F5
07
00
FE
06
FC
F8
EE
F4
FF
F3
FF
F1
F7
FE
00
0A
FC
FB
EF
07
F5
FA
F6
01
FE
00
EA
07
03
F7
FB
FA
01
F6
FD
FA
F7
05
FF
01
FD
F4
04
F7
00
F9
FE
00
00
F4
FE
F4
FB
FE
F3
FE
FC
03
F4
FB
FA
0A
FE
F7
0D
E8
03
FA
FF
C0
F0
E8
EF
FF
02
F4
EF
FE
06
09
15
0B
F8
FD
EB
FF
FF
F5
07
0B
FC
0F
F7
F1
F9
F6
F1
FE
EC
F9
FD
F7
D7
D9
01
F5
FF
F5
F4
FE
07
FA
FF
0A
F9
FA
F6
FC
FF
F9
F1
0B
F5
09
E2
01
F8
F7
FF
FF
FF
02
FC
FC
01
01
FA
F8
FD
FE
F7
F9
FE
04
00
FF
F7
FA
FA
FC
FB
04
06
01
00
FE
01
00
FF
FA
FC
F1
FB
F0
FE
F1
F7
F9
F2
FB
F3
FD
FD
FB
01
FA
02
02
03
FA
F4
00
00
FD
F9
FB
FC
02
F6
FA
FE
FE
FD
FB
02
05
FD
08
02
02
FF
FB
01
FF
FA
07
FD
F2
FE
F5
FC
F0
09
04
FF
FA
F7
F8
FE
F4
04
F5
05
06
08
01
07
01
F4
06
DF
FD
FD
03
FB
09
E3
01
FE
F6
15
08
00
DF
02
FA
08
F6
EB
02
00
01
04
FE
FD
FB
01
FA
F9
01
FE
FB
FF
03
F8
FA
01
00
03
00
00
FA
FF
F9
FB
01
FB
FE
FC
04
FE
01
FB
03
FB
FE
FB
FB
04
01
FD
FC
FC
FF
FA
FC
02
FC
03
02
01
FD
FE
FC
FC
02
00
03
02
03
FD
03
FE
FB
FF
01
FC
14
05
FC
FB
11
00
F6
15
06
05
F3
16
05
FF
06
E5
04
07
1A
01
FE
05
2B
0A
FF
FF
FE
17
FF
05
0D
04
01
01
FE
FF
FE
FE
FF
FC
04
00
01
00
00
00
FD
00
FC
01
FE
FD
FC
FC
FC
FB
03
FB
02
FF
01
02
FB
01
03
FB
00
FE
FE
FF
F6
01
FF
FB
F9
03
F9
F8
FE
F7
FD
F9
04
FF
04
02
08
FB
FB
00
FB
FB
FB
FE
FE
FD
0D
FC
EB
F8
F5
F3
0D
F1
05
E5
F3
FC
E6
FF
F7
F7
FE
F7
07
01
FE
ED
F4
03
00
EF
FF
02
03
ED
06
FF
FE
FF
00
FF
FD
FE
F2
F0
00
FF
F5
03
FE
FB
05
FF
FD
F7
F6
F4
F9
05
F7
F4
03
00
F7
01
F1
FE
FA
FC
F8
FD
F9
F5
FA
F6
01
F7
FF
00
00
EE
F2
FA
F9
F6
F7
FD
F6
FB
FA
FC
FA
FA
07
FC
01
F0
01
F4
F9
05
00
00
03
FD
04
FF
00
FD
02
FC
FE
05
FD
02
FB
FF
01
FF
FE
FE
02
03
02
FD
FD
FB
02
04
FF
00
02
FB
F2
FF
F1
F0
D3
06
EF
F8
EC
11
E6
FF
FB
03
E5
F6
FF
03
06
F1
06
09
FF
FA
05
FB
EB
DD
05
FC
FE
04
09
EF
FA
FC
FD
F9
F5
FB
FF
FD
02
F8
FC
FB
02
F5
FA
F9
07
05
FB
FF
F9
FD
F6
F8
FC
00
05
FB
FB
F6
02
FD
0B
08
FA
00
00
F4
FD
F1
03
F7
06
F3
F0
03
F8
00
F7
D7
00
FF
E6
FB
06
0B
F5
F9
FB
FE
09
03
F9
01
FE
02
FB
FC
0D
FD
05
FB
FF
01
03
FE
F5
FF
07
FC
FA
FC
FD
F5
FC
09
01
FF
F9
F8
F2
05
06
09
F8
FD
01
FE
FC
03
01
FE
01
02
02
FE
01
04
FD
02
FE
00
01
FB
F9
FC
02
00
04
FB
00
FC
FD
03
00
02
FB
FB
FE
FC
04
FD
FD
FE
FB
FB
00
FC
FD
FF
FE
02
03
FD
04
FF
FD
FE
01
01
03
00
FD
FD
FE
FF
01
FE
F9
EA
F4
09
05
FD
04
BF
11
F1
07
E9
F9
05
F7
02
FC
DC
EF
08
F1
F5
D0
0F
03
01
0B
EA
FE
F0
0A
F9
FC
FB
01
01
FD
FF
FB
04
FC
01
02
FD
00
FD
00
F7
FC
00
FF
01
FE
FD
03
00
00
FD
FB
01
03
FD
FE
01
FD
00
F4
F9
F6
F8
FF
F8
04
FF
FB
F8
FB
00
FA
F2
01
FA
FA
02
00
F8
FE
FC
F3
FA
FD
F7
06
F9
F9
F9
09
F9
FE
27
23
03
FA
07
FF
EE
FB
FB
03
04
09
07
16
0A
16
14
FF
05
14
FB
FC
FE
EA
0B
D6
FC
00
F4
E7
F9
04
EB
FB
05
FE
CD
F8
B1
F1
EE
01
DD
FE
09
10
E0
F0
1D
07
01
F0
05
F7
FA
FD
FF
F4
F3
E4
E8
FF
04
FE
02
F9
00
FC
FE
FD
01
02
FD
00
03
FF
01
FB
FE
02
FB
FD
01
FE
01
02
FF
FB
03
FC
01
FC
F9
01
FD
03
FE
02
FB
02
FF
03
00
01
F9
02
02
FB
02
02
FF
FB
01
FF
FB
FE
04
03
00
FD
FC
FB
01
FE
FF
02
01
03
02
FE
00
02
01
FC
FF
01
FF
FC
FD
03
FE
FE
04
01
02
FC
FB
FB
FF
FB
00
00
FF
04
00
01
00
FE
FB
01
FE
01
F6
04
00
04
F3
01
F8
FC
F3
F1
06
00
FC
02
FB
F7
F0
FB
02
02
FB
04
F2
F9
03
0A
FE
FE
FB
FE
02
FF
F9
F9
FB
00
FF
00
FB
FB
F8
FD
F9
01
FB
F4
00
FC
02
FF
FF
FF
03
03
FE
FE
FC
FD
FA
FE
FE
FE
FF
06
07
D6
E8
F5
12
F8
FF
FF
FA
FB
DD
EE
04
FD
F3
04
08
F3
E9
F8
FE
E9
EF
07
0A
FE
DD
01
FC
FC
00
FB
02
06
FB
FF
FC
00
02
FB
FF
F7
06
FE
F8
FD
02
F9
FD
FF
05
FD
FD
00
F8
00
FA
04
FA
F8
FB
FC
07
FA
04
04
FC
02
FC
03
01
F7
FD
FD
04
01
FC
07
05
FC
FA
F6
FD
FF
F4
FF
F8
FD
F7
02
FB
01
01
03
FC
02
02
FE
FB
FD
04
01
00
FF
FF
02
00
03
FB
03
FF
00
FE
FD
FC
03
FD
02
FF
00
FF
FE
03
FC
FA
FB
F2
E0
05
FC
FB
03
1C
0A
F7
FD
00
FE
DF
FD
FA
01
EB
04
06
F7
FF
FB
04
05
EF
11
0D
F3
E3
00
02
FC
FC
FB
00
F6
F0
EA
07
00
F4
F8
F5
FF
ED
FB
F8
F6
FF
03
04
F8
F4
03
FF
FD
FA
FF
F8
FB
F5
FC
FC
FB
F9
EF
F9
FC
E9
F9
05
FE
FD
F3
EE
FA
ED
02
F5
E8
F7
03
01
F1
E8
FA
FF
F4
DA
07
FB
EF
FA
FF
FE
04
00
F8
F5
04
00
F7
FD
FD
F5
FC
FE
FC
FD
00
FD
FF
FE
FA
F8
FD
FF
FE
FC
FA
FE
FD
FC
FA
FC
FF
03
07
0C
FA
0A
06
F6
13
D5
04
F4
09
F4
10
F8
08
F8
05
19
04
05
E6
0B
00
06
FF
E7
FA
FD
04
01
FC
F9
FD
EE
F2
03
FA
05
0C
04
FE
0C
F9
FE
F6
D2
05
FE
F0
FF
EF
01
0A
04
00
F7
04
F3
F4
0A
EF
F1
FB
F9
FE
05
FF
FF
F4
F7
F9
F2
F3
FE
F8
F8
00
EC
F5
FC
FC
0A
03
FA
F8
EE
FF
FB
F9
FD
FC
FD
06
F2
01
08
00
FD
B7
F7
F7
14
03
F8
FC
02
08
EE
F1
F2
17
0E
02
FD
01
F1
14
14
00
04
FF
FF
FF
0A
CF
F4
0B
06
02
FF
03
04
FF
15
06
05
F9
07
FF
FF
0D
EF
01
06
0F
F0
00
FE
1F
0B
FB
04
ED
04
F3
01
0C
EA
FC
FC
FD
02
FE
01
00
FB
FE
04
02
01
02
FC
FC
F9
FC
00
FB
00
FF
FF
02
FF
FD
01
FC
FA
FD
00
FD
FA
02
FB
00
01
FE
02
F9
FE
FB
F0
FE
FC
03
02
00
03
00
02
FE
02
F9
FE
F6
03
01
02
FA
FF
F9
F9
F8
02
02
FB
FF
FD
04
01
FE
FE
FF
FD
00
FD
FE
FB
FC
02
00
FE
01
FC
01
01
01
01
00
FE
02
03
04
FD
04
03
10
F3
F6
FC
05
FD
09
08
00
FE
FE
ED
F5
02
FA
FF
FB
04
09
F8
FE
FB
02
F6
FE
F4
F7
09
FC
F0
FF
06
F8
FD
F2
02
FD
03
07
F8
FF
FB
FC
09
F9
01
F7
04
04
FD
FF
01
F3
F0
01
FE
FC
F6
FC
F2
F3
FB
09
FA
04
FD
03
02
FB
00
FC
FC
02
FB
00
FB
FE
00
03
01
02
FC
FB
FB
03
FB
02
00
00
FF
FB
03
FB
FC
00
FF
DC
09
FF
F5
0C
0A
FB
DE
0F
09
02
F5
01
FC
FD
EE
E7
FB
08
03
FD
05
EC
10
02
F7
FC
F6
FA
EF
FF
FA
02
F9
FE
01
FD
FA
FC
FF
05
F3
F9
04
F7
FB
F5
03
F3
04
FB
FE
EF
FC
F8
04
03
F4
FA
FB
F8
F3
07
FF
FE
FF
03
FF
FE
F8
FB
FF
00
FE
00
02
F8
FC
01
F6
FB
01
F5
02
FB
FE
F8
F8
FB
FF
01
F8
01
FA
FF
FC
CE
FA
08
0D
FA
FD
FF
03
06
BB
0E
F0
0A
FC
F6
F3
F9
F5
0D
FF
FD
01
00
07
FE
0A
FA
01
ED
FC
0F
01
F9
FF
FD
FC
FB
00
F6
00
00
FF
FD
FF
F8
FE
02
01
04
05
04
FC
F9
FC
05
05
FF
F8
FE
FC
F9
FF
FD
00
FD
F2
FC
FA
DF
08
06
EF
14
1F
17
ED
01
06
FA
DE
14
F2
F4
E9
07
07
E6
DC
02
00
02
DA
0E
11
F1
EA
EE
FF
08
E9
F3
04
F5
F7
0C
0C
0C
07
01
01
F0
08
11
F9
E7
01
F6
FE
F4
FB
FF
01
0B
EF
F0
09
F7
F7
0C
FF
F3
F0
03
06
09
FA
04
31
16
F8
FB
11
FE
D8
01
FE
F8
05
07
05
F8
F2
02
FB
08
00
15
0B
E8
03
F5
06
05
FC
C8
06
BC
02
F4
12
F0
F1
02
03
F0
EA
F2
04
F1
0E
06
0A
FF
06
05
04
FA
0C
0B
0B
EC
EE
FF
FF
FC
04
03
F6
0B
00
F8
00
06
02
FD
F9
F6
0A
07
FE
FE
F4
01
F5
FA
00
F8
FB
05
F8
ED
07
05
F9
E0
05
06
00
10
05
14
FC
16
0A
0E
0B
09
09
00
0D
02
FB
FF
DC
F9
FC
FB
18
01
FD
0D
F7
EE
09
03
13
01
FC
F8
FB
FF
02
00
FA
F8
01
02
FA
F7
03
FF
00
FB
F9
FC
05
04
FA
FA
FA
FB
FB
FB
FF
01
F9
FD
FB
00
F7
0C
00
E4
0D
DE
F0
FC
0A
04
F6
0E
07
01
EF
FA
F8
F7
F5
06
12
EB
FD
FD
0A
F1
F8
0A
0C
EF
02
01
02
03
00
FD
FA
F5
FF
FD
F6
FB
FB
FC
ED
FC
F5
FC
FA
FF
05
FB
03
FA
EF
04
FE
F8
FF
FD
FD
FB
FB
F5
F9
FE
00
03
F5
05
02
F7
FD
04
F9
FF
FA
F7
0B
03
01
FF
FF
F3
E5
F9
FF
EC
F5
FD
F9
EA
02
01
02
F0
FC
0B
F9
EC
00
E3
FF
04
F0
EF
08
08
E8
FE
03
0D
00
0A
0B
03
08
FE
EF
02
06
0A
02
F6
0A
FD
CC
06
0E
FB
F3
00
03
00
0F
06
1A
03
06
03
02
FE
CB
F7
07
0E
F6
05
00
21
06
03
FF
FD
09
0A
09
E6
00
F6
FF
01
FD
FA
FC
02
F6
03
FC
01
FC
FA
F9
F4
FF
05
FB
F6
00
FE
FA
FC
FF
05
FF
03
F3
FE
FE
00
02
FE
03
03
FF
F9
FD
FE
FB
FF
01
FF
FE
FE
00
FE
F5
FF
FD
F7
03
F7
04
F8
FD
FE
00
FC
FC
FE
00
FF
02
03
FB
F4
04
05
FE
F9
FB
02
EC
FD
02
F6
FD
FB
FC
F9
F9
07
0A
FC
F9
FC
FD
FC
FB
00
F9
F9
ED
FC
FD
02
FC
01
03
FB
01
FD
01
05
03
01
F9
FB
FF
00
FF
00
02
04
03
F9
01
05
FD
FE
FC
FB
F7
FB
FF
00
FA
01
00
FB
03
FD
F9
01
F7
06
FA
FB
FB
F5
F8
F3
FD
FD
FA
F6
FE
F7
FA
FA
05
FC
FB
FA
FC
FE
FB
04
F9
23
04
FC
F5
0D
FC
F1
12
F8
FC
FE
17
FD
E3
FA
FF
18
0B
11
02
02
FF
17
E6
FE
02
00
09
EE
FC
FB
FB
03
FF
FB
FF
FF
00
01
FE
FF
F5
F7
F8
FA
F8
FD
FE
F8
01
00
03
FB
FD
FD
FD
FC
FD
FE
02
F9
F5
02
F9
FF
02
02
FF
F9
FC
FE
02
FD
F7
FC
FE
FF
00
FC
FD
FD
FB
00
05
F8
FE
01
00
03
FE
FE
02
F9
F8
FE
FD
04
FA
F9
FA
FD
00
F8
00
FD
03
05
FA
FA
03
FB
FC
FB
03
01
F7
FB
F8
FB
FC
FC
01
02
03
05
F8
FE
01
01
FD
FD
FD
FE
FD
FC
FE
FD
00
FE
FE
05
01
01
FF
FF
00
FA
02
FC
00
01
FD
00
FD
FB
03
04
05
00
03
0D
FE
F9
04
D7
F9
F9
03
D4
FA
EC
EC
00
FA
F5
E5
FC
0B
F4
31
0D
FD
F3
E4
03
01
F5
FF
05
05
04
04
FF
FE
00
FE
FD
FC
06
FB
03
FF
FC
FA
FA
02
02
01
FF
FD
FB
01
FC
FE
FB
FD
FF
FB
02
05
FC
01
FE
FE
00
F8
FF
FE
FE
00
F8
F8
F9
FF
FE
07
02
01
FD
06
FD
06
01
FC
01
FF
FF
FD
FE
FA
F8
FF
F4
00
F9
FE
01
03
0A
F6
F1
05
FE
F8
09
00
FD
E6
0C
FA
FA
04
04
FE
F6
DF
0D
05
F6
00
FA
07
F9
F5
F1
08
FB
FC
16
00
E5
00
01
FC
F2
0B
EA
07
D4
0D
F9
FE
FB
F9
FC
0A
0B
07
04
FD
0A
EB
FC
F7
F7
0E
03
FA
02
F3
F9
F5
02
FA
FA
FF
05
F9
04
F8
03
F5
FB
F9
FB
FE
F8
F7
FD
FE
F5
FF
F8
F9
02
FE
00
FC
01
F9
FF
FF
00
FD
04
EF
E7
FB
E6
F5
D9
F8
F5
EA
07
FE
F7
E0
E1
F9
F6
FA
06
06
F1
DE
0B
00
F1
F6
FD
06
F6
F0
FD
01
01
EC
EE
0B
E6
07
06
E6
D3
F8
07
E2
F4
1D
10
13
18
F9
08
03
06
F1
F3
FA
F3
E1
CC
FE
F2
DD
00
FB
03
F9
FB
04
00
FF
07
F8
FD
01
02
FE
F7
07
FD
FB
02
FF
F9
FB
FA
09
04
FE
FA
FC
F9
04
FD
03
10
01
F3
F4
0C
02
F3
0C
FA
07
FA
0B
FF
07
00
D5
F9
06
FF
FE
00
F8
19
03
07
FF
FD
0F
05
06
E3
02
01
06
04
F9
00
FB
EF
00
05
09
09
16
FE
08
F6
BC
03
05
D6
02
F8
F9
01
06
FA
02
F9
01
02
0C
CF
03
F2
EF
E5
01
09
01
EF
EF
F4
0B
01
0C
FA
FC
03
FE
F7
15
0A
09
FD
FE
F3
03
FA
EE
FC
0F
00
FB
00
F7
0C
FA
F2
ED
26
F8
05
D3
FF
31
01
0E
E1
16
1E
F3
00
E2
0B
12
F0
08
F8
D6
00
EF
12
15
0B
F7
EF
FE
01
FD
FA
F9
FD
FF
FC
FA
03
FE
01
FE
FA
FD
FF
F9
00
03
FC
FD
F7
FF
FC
FE
FB
F5
01
FD
00
00
FE
F8
F0
F5
FE
FD
0F
06
F4
DA
FF
FB
F2
05
F7
E8
06
FA
F5
F0
07
FF
FC
03
FD
F1
FC
FD
FE
F3
F6
FA
F9
F8
07
ED
EC
0B
F9
B9
0A
F3
EE
F1
FF
00
EF
F5
FE
04
FD
E9
F5
18
01
EF
ED
F1
FB
F6
FD
06
F5
E6
0D
FA
0F
EE
F8
FB
05
00
09
FB
FC
F3
F8
F4
F7
F8
01
FC
02
00
04
FA
01
F5
EE
F7
F0
F3
FD
01
F4
FC
00
FE
EB
11
0A
05
E1
10
C5
F3
ED
14
FB
1A
0F
05
0B
F6
0C
00
E7
FD
0A
10
DF
FA
03
0E
E9
F8
05
17
F4
FD
01
E8
FD
0C
09
FF
FC
F7
08
F0
FA
03
F7
F4
15
00
12
F9
06
24
FF
00
F3
06
FA
F8
FC
FE
E2
ED
09
EF
FE
02
00
FE
03
FC
00
02
0C
FB
FF
04
FD
FA
F4
07
03
00
FC
F2
FE
F1
02
14
00
F3
08
01
F1
FC
F8
08
00
F2
F6
FC
09
01
EE
ED
FB
F7
FD
F9
F2
F2
03
F7
F6
F4
FC
03
FB
00
F8
F9
F6
F8
FF
F7
00
F6
F8
E7
FE
FA
FB
02
05
F9
F7
F9
FC
FB
FF
FE
FD
F5
01
FA
00
F7
FE
FC
00
01
FA
F8
FB
00
02
FA
FC
F9
FB
FB
03
FA
FD
04
03
01
03
F7
05
F8
FF
FD
FF
FE
00
F5
00
F9
F7
02
00
02
F7
F2
FF
04
07
F6
FD
FE
FC
FD
13
06
F7
FC
14
FF
F7
0D
F6
FA
F6
FC
FC
05
F9
1A
1A
06
10
FD
02
FA
16
FE
FD
03
ED
11
FF
FB
12
FC
03
F6
F8
FB
E3
0A
02
F5
08
15
10
EB
FB
FC
F1
EF
05
F9
F4
06
FB
FE
DF
E9
00
FE
06
F4
02
0B
FF
EC
F6
FF
0C
0B
0D
0A
F2
EF
F8
FC
09
EF
07
EF
02
F0
FA
FE
F1
03
03
07
E5
F8
FC
09
FC
F8
FF
FD
EE
09
D2
03
0F
EE
C6
07
02
0D
17
AE
02
F6
09
FA
F3
EF
00
0D
00
0D
F1
FE
05
1D
FD
03
F8
F8
F0
09
D0
FD
FA
FF
F9
00
FA
FD
F2
F7
FD
F0
F9
FD
FE
F3
00
FF
FC
00
00
FF
00
FA
FA
FF
FE
FE
FC
FB
F8
F8
F8
F4
F4
2F
07
07
ED
07
E5
EC
E6
B2
F9
FA
05
E3
F1
08
06
F1
E7
ED
06
FE
DB
2A
FE
02
EE
FD
F4
F2
FB
E6
00
01
02
FF
FC
00
03
03
FD
02
02
FB
00
FF
01
00
FB
FF
FC
FD
FB
02
02
FB
FF
00
FF
FC
00
04
FC
02
FA
FC
02
FC
F9
02
01
FD
FF
FC
FE
FB
FF
FD
FA
04
02
FD
01
FF
F8
00
F8
01
FE
FA
F9
FB
F0
FD
FB
03
F3
FF
0B
06
F5
0C
F0
F7
F7
02
FF
F0
06
EF
F6
F5
F2
FC
FA
FC
FF
07
E5
F5
FC
08
F1
F1
03
00
F8
09
00
FC
FB
FA
F8
02
FB
FF
FB
FC
F9
FE
FB
FB
01
F6
FD
FD
FB
04
04
FD
FB
F8
FF
FC
FC
F8
01
01
FB
FF
08
EE
FA
F6
F8
FD
01
EC
15
0E
0A
F2
FC
00
EE
EF
06
E1
EB
F8
03
05
EA
F8
FA
FB
08
DD
FD
09
FA
EC
0E
01
F5
F2
E9
FC
D7
0B
D8
F0
D8
E5
00
FA
F9
F4
F5
0B
02
04
07
F4
FE
EC
F9
01
E7
05
07
FD
0D
FB
FB
FE
FC
04
FA
00
F9
FB
02
00
FF
FC
02
01
FE
03
FB
02
FF
FA
FD
FE
FE
FD
01
FE
FE
FA
FB
FF
01
FF
FC
03
FE
FF
04
03
04
FC
00
02
FB
00
FF
04
FC
FE
FB
FD
FE
FF
FE
FD
FB
FC
FC
FD
FF
FD
01
03
02
05
00
FE
FF
00
FA
FA
03
FF
F8
FA
FB
FA
FE
02
01
00
00
FC
FB
01
04
FD
FB
FB
FF
FE
FD
FC
00
00
FF
FE
F8
FB
0B
10
0A
04
04
EB
FF
DD
06
FE
05
EE
F4
FE
01
FB
FE
F4
04
03
DB
FB
04
06
F3
FD
FC
FD
0C
08
03
F9
FD
FA
07
F8
01
F9
FE
FC
FD
FF
01
F7
03
05
FC
F7
00
FB
FC
FB
01
FE
FB
FE
05
01
F6
FA
04
04
FC
F8
F1
F5
FB
F5
01
FD
01
F8
FC
F6
F9
FA
FF
FB
F8
FD
00
FF
FF
F9
FD
FB
FC
F2
01
00
FE
FF
FE
FD
00
FB
F8
03
05
00
04
FD
FA
F6
FF
F8
FD
FD
FC
FF
FC
FF
03
FE
FD
FA
F9
00
FA
FF
00
03
F3
F7
FD
06
FC
FF
F9
06
06
F9
0A
FC
FA
F6
01
F3
FD
FA
FA
03
00
FB
FA
F9
F2
EE
F9
FA
FB
FE
01
FC
EF
FD
04
02
FA
00
0A
FF
13
03
15
05
09
DE
09
11
11
F8
F2
15
16
0C
DC
D5
D9
E8
F4
13
F2
FD
F8
E1
D0
13
02
20
0E
06
F8
01
0B
FD
FB
17
04
06
FD
17
04
00
FD
E2
01
0E
18
07
FE
FB
27
07
01
FB
F7
1A
02
00
FC
01
00
FD
FE
01
F6
FE
FD
03
00
FB
FC
FE
F8
00
F5
FA
00
01
01
FC
F4
F6
02
FF
FB
FC
F9
FF
02
FA
02
F8
FE
FB
FA
FF
FE
00
06
00
00
05
05
FC
FA
FF
F8
FB
FB
00
FE
F9
F9
FE
FE
02
FA
F8
03
04
FB
FC
FB
02
10
02
FC
00
0D
01
DF
13
FC
03
FA
06
FA
09
0C
00
FF
07
0A
FA
02
F6
17
04
03
03
EF
12
00
00
0F
FD
01
00
FE
FF
FE
F7
F5
FE
E5
F1
F3
F5
F9
F7
FB
F8
FA
FA
09
FD
FD
FF
02
F2
00
FC
EE
F8
FF
FD
00
FB
00
FF
FE
FF
02
01
02
00
00
00
FC
FE
01
03
00
03
02
FB
04
03
FE
FB
03
FC
FB
01
FE
FC
FD
04
01
FF
02
01
F7
FF
04
FD
FF
04
FB
FD
FC
FA
FA
FD
FD
F3
00
FD
FE
08
04
FB
FD
FE
FD
F8
00
01
FE
03
FF
01
FE
F7
FE
02
F6
FE
FA
F4
04
FC
F8
FC
F5
F9
FF
F9
FD
F7
F6
01
F8
FF
01
FA
01
04
FF
00
02
F7
03
FD
01
FB
02
01
F7
FB
F1
02
FB
FB
05
F9
F8
F2
FA
F9
F7
F9
FD
07
F7
00
06
F9
F9
FE
04
00
F5
F6
F9
F9
0F
01
FD
07
0A
F9
00
15
FE
00
02
07
02
FD
F8
FC
0C
09
01
05
06
F1
15
0E
03
05
05
10
F8
FF
FD
FE
EF
FF
FC
00
F5
00
05
FA
13
0B
0F
11
F7
03
F8
FD
FE
FD
EF
F2
FD
F8
FA
05
01
FA
00
F4
00
03
EE
FD
04
EE
FA
00
01
FF
FD
EB
0D
F2
FB
F9
F1
F9
01
F8
FF
EC
FB
03
F5
F8
EC
04
F5
FA
09
F5
01
EF
03
F4
FC
FC
02
FB
FF
04
F9
FA
0A
FF
F9
03
00
FE
02
F1
02
06
FD
FE
F6
05
FB
FE
04
FC
FF
F7
F9
FF
F8
01
FB
FE
FE
FD
00
00
05
00
FF
F8
02
FD
05
FA
FC
FD
FE
02
FD
01
FD
FB
FC
FF
02
02
FE
FC
FC
FC
FF
00
F9
21
0E
04
E1
13
C4
FC
F1
1C
F9
19
14
02
0F
F9
0C
0F
F9
E6
13
0D
F4
FD
08
0F
E3
03
05
15
F9
F6
F6
FD
DC
FB
F7
FF
E0
EC
DA
02
FE
FF
F9
F2
05
FB
02
01
FD
ED
06
01
EF
E5
FD
F4
E1
02
0E
F0
FE
E0
F9
E7
EA
04
F5
DA
1B
F8
09
E9
05
06
EB
FB
04
05
0C
FE
04
E6
ED
E1
FD
D8
FD
EE
0E
F5
EF
EC
10
0C
F7
FD
FF
FC
FF
FE
F6
F6
FB
09
FD
01
FD
FC
04
FD
FB
F7
F5
FB
F9
FE
F6
01
FD
F9
FD
F9
03
FE
FA
F6
04
00
03
00
FB
01
FC
01
FE
FC
02
FE
02
F9
F8
F0
FF
FB
02
06
FA
02
F8
FD
FD
FD
FC
01
FC
F7
FD
FE
FE
00
05
03
15
06
F0
F4
F7
FD
05
F4
0A
EE
0F
E8
00
00
EA
FF
05
05
E2
F8
00
01
EF
FA
09
02
ED
09
FC
FC
FB
FB
03
FC
FC
FF
FD
07
02
0A
F4
FE
FB
04
FF
02
F7
FB
F5
FC
FE
02
02
FF
FE
06
F7
02
FB
02
FD
FC
F9
03
FC
FD
02
F7
FF
FD
00
F7
FA
FF
FB
FE
00
FF
FE
FB
FA
F9
00
F8
F5
FE
04
00
FF
FC
03
FA
FD
02
04
01
02
FE
02
FF
03
02
03
FF
FC
FF
FC
00
FF
00
00
FC
01
01
01
02
00
FE
FD
FD
00
FB
FD
FC
00
01
01
F8
F4
02
F9
FF
03
FE
FC
00
01
FE
F9
04
00
06
02
F6
F7
F9
FF
05
00
FF
F8
FB
FB
FF
FC
07
FD
F0
09
EC
03
09
F7
F5
F8
F7
00
F9
0A
07
E8
0A
01
00
12
00
F7
FA
EB
EE
00
FD
F8
F1
F9
0A
08
ED
FE
FD
FE
FE
04
FC
02
03
FB
03
FE
03
00
FC
FE
FE
FF
FD
03
FE
FC
02
02
FF
FD
03
FD
04
FD
02
00
FC
FA
FE
0E
07
F7
08
00
F7
FF
E0
FE
00
09
F3
FF
F8
00
FE
F7
FD
07
06
DF
F4
F9
05
01
00
00
FB
0A
FE
0C
07
FE
FD
12
FF
04
0F
03
02
F9
13
00
02
03
E0
FF
09
11
02
FA
FC
21
01
FF
00
FB
18
F7
01
07
06
F8
FF
03
FE
FA
01
F7
FC
03
03
04
FA
06
03
F9
FF
00
02
EF
F7
03
01
F6
04
03
05
00
F4
FD
06
F9
FE
0F
FD
FD
05
10
F6
F5
0E
E9
F7
F4
01
FF
F5
03
1F
16
07
F8
08
EC
F8
0B
FD
FD
FC
EC
14
FC
06
29
F7
F4
FE
09
E8
EA
06
EE
FA
04
05
CC
0B
05
0B
EF
F3
07
01
0B
FA
01
0D
0D
EA
01
04
F7
E6
E2
F8
FD
FB
FB
03
01
EC
E4
04
EC
FF
FE
01
E3
07
05
FC
FA
F6
00
05
02
FB
03
00
07
F0
FF
FB
FB
F4
F2
FC
F9
00
FF
FF
01
05
FE
FA
03
FA
FC
FB
02
F3
FC
F8
FE
06
01
FA
F8
FE
00
FB
F8
FB
01
03
FE
F7
02
FA
FF
FB
F2
FE
03
14
07
EB
E5
F5
E9
E9
E4
F3
F9
DD
11
F2
FA
FE
01
09
02
03
FF
F8
FF
FE
FC
05
FE
EF
FF
ED
FF
04
04
00
F7
02
F5
FE
DF
01
F7
F2
0C
FA
0C
E5
F5
05
FF
10
11
0B
F0
F8
00
07
FC
FF
0F
0B
F5
05
F8
FD
02
F3
F4
F8
FC
F9
FF
FF
FE
FE
FE
FD
03
FD
FD
FC
F4
FB
F9
FE
FD
F9
FE
FF
F8
F9
FA
FA
EE
FC
03
01
FC
FE
FC
FC
FC
FE
FD
02
00
03
FE
FB
02
FF
FD
04
03
FD
FE
01
01
01
FE
FB
02
FD
FD
02
FF
FF
08
FD
FB
F2
E4
FB
01
D7
FF
18
0C
F5
FA
05
F3
EE
01
FB
E1
E6
01
07
E5
EF
01
FE
02
D5
08
0E
F5
E8
03
F9
FE
03
FE
FD
02
FD
01
02
00
03
FB
FE
FF
FE
FF
FF
FF
FE
FE
FA
FF
FB
02
FD
FF
FF
00
00
FC
01
F9
FC
D9
E5
00
F9
F7
EE
EE
04
0E
FC
F3
FF
F0
00
FB
FB
FD
F4
04
FC
F6
FE
FF
F9
EF
0D
0B
FB
FF
F7
FE
FF
FF
FF
FD
03
FC
FE
00
00
04
04
FE
00
FB
FD
00
FF
FC
FE
FB
00
FD
02
FC
FD
04
FD
FF
FE
00
FC
07
FA
F5
01
01
FC
07
ED
06
F8
00
F6
F3
01
FE
00
FE
F1
FF
00
F7
F8
F1
06
FE
FB
06
FD
02
EE
00
FF
F5
FF
09
03
D9
12
DA
F6
03
08
07
F4
08
F9
03
EC
03
FD
EE
F9
07
0A
E6
02
03
0C
F7
F5
0E
0B
EF
F7
FF
FD
00
FF
FB
02
FE
02
06
FE
FC
01
05
FF
00
FD
02
05
F4
FF
00
FF
F5
07
03
04
F8
F8
00
01
FB
03
FA
EF
E7
F9
F6
FD
EA
FD
05
FA
00
FE
ED
FE
EB
FD
FB
04
FC
00
F7
F0
F8
F9
FD
F1
FC
F8
FD
E9
F8
FA
EC
FE
0E
09
0B
03
EB
0E
F9
97
F3
EC
0E
D4
04
1D
09
1A
17
05
03
FC
08
0B
05
07
06
0C
EA
F5
1A
CE
04
FF
01
07
F7
03
FC
F5
F5
F2
00
F8
05
EB
02
DD
F1
00
FF
00
0A
07
EA
ED
F6
08
E8
F8
FE
01
FB
01
F4
FE
00
FD
FB
FC
0F
F7
00
F6
04
FE
03
FA
FC
08
FF
FD
F9
F0
FC
EC
F3
03
F8
F5
F7
EB
DD
FC
05
14
FD
FA
FA
FD
F6
FB
FB
FF
FF
FC
FB
FF
F6
FC
FD
F2
F9
F7
FB
FB
F8
00
01
FF
FE
F5
FF
F0
FA
FA
F9
F6
01
01
0E
FA
D1
0C
D8
F2
FA
01
04
EA
07
F6
F7
F1
F5
01
F6
FC
08
0E
E7
F5
02
04
F5
F3
08
0F
EC
FA
FB
FF
05
0A
11
FD
06
F7
F4
EB
FD
02
FF
E8
07
FD
10
FF
FD
04
02
00
EE
FD
FF
01
EF
F7
FD
FB
FE
EF
04
DF
F4
EC
18
EB
2F
B4
0F
EE
07
E2
EF
FE
04
04
F5
D5
03
22
ED
F2
CE
F8
05
F8
18
0B
00
E5
F5
17
FB
00
F7
DC
DD
02
B7
F9
F4
15
01
E8
FC
0C
01
B9
F1
F4
D9
02
04
05
FB
D8
01
06
FE
02
0A
06
DB
C9
F7
FD
F0
02
FC
EF
13
00
03
F8
F4
FE
F7
EE
F7
0B
FE
FF
04
09
00
E5
FD
02
F9
F5
FF
F5
F2
F7
0B
FF
0D
05
F9
05
08
FD
F8
0E
0F
00
F7
11
FA
06
FC
D2
02
0A
15
F6
01
FE
1F
08
04
FF
F2
10
F6
04
15
FF
FF
00
02
FC
FE
03
01
FD
03
03
FE
00
FD
03
01
FD
FD
FF
00
FE
00
04
04
FB
FC
FD
01
FD
FF
02
FE
FC
FC
01
02
FF
FB
01
00
02
FC
FC
FE
04
00
01
FC
00
00
00
FC
FB
FD
FD
00
FF
04
FB
FF
FC
FD
FF
03
FC
03
FB
E9
ED
26
FE
08
D9
07
2B
06
14
E4
15
10
E9
DE
F0
0D
08
F2
06
03
04
00
EF
17
00
08
F1
EC
FE
FC
FF
00
03
01
FB
FE
FC
FD
01
03
FB
FC
FB
00
04
FC
FB
FF
FF
FB
03
02
FE
FC
03
FC
03
FD
00
FF
FF
15
FF
F7
05
10
FD
EB
10
06
FA
02
03
01
0D
04
EF
09
0A
0A
EF
01
FF
1D
05
FB
FE
FF
11
F4
03
1A
0D
E7
06
FF
FD
F5
06
02
02
1B
04
00
D1
02
14
FC
F3
F8
08
13
D7
03
03
14
03
03
01
FB
FA
FE
DE
0F
FE
FE
FD
FE
FD
06
00
09
FC
01
F0
02
00
FD
FA
00
08
FF
F3
01
FA
F1
FA
FA
04
FB
FD
02
FE
F8
E9
04
02
EA
03
0F
13
F9
08
F0
FF
03
98
F4
F4
10
D5
F5
07
0E
0E
02
FE
01
00
F6
06
05
08
00
FC
F1
F6
17
BA
FE
02
F7
E9
0E
FA
FF
0A
FE
0D
00
1C
03
04
FB
FC
18
04
03
05
FE
FE
FD
FB
FD
FB
03
0A
FB
0B
BE
FE
06
06
05
EB
1C
08
FD
10
0F
FD
D1
12
FD
FF
04
C9
13
01
11
FC
F9
05
16
04
03
02
FD
F7
E6
00
FC
F2
FB
FC
FF
02
03
01
FE
FB
FC
FB
FE
FB
FC
FD
00
04
01
FD
FC
00
FC
FB
04
FC
FC
02
00
FA
00
FC
FE
FC
F7
01
EA
FC
0C
03
10
FA
06
E8
E8
02
E9
09
02
FD
FD
F1
DA
0F
F6
FE
FF
C7
F7
D9
01
C0
FA
FC
F0
10
F8
06
0B
04
E9
01
F8
EF
F9
F9
0C
F3
08
EA
FA
E8
01
FD
ED
05
09
01
DB
F1
02
07
F0
FC
FF
04
FF
FD
13
05
FD
FB
07
00
E3
15
FF
FF
01
06
FE
02
12
E9
F8
0A
0F
FC
05
01
20
05
FA
01
F1
14
00
FE
13
FD
E2
F9
F7
21
0C
F8
F3
F6
CB
04
E7
F1
EA
03
01
09
07
07
0D
1A
02
F3
04
0A
FF
F0
E4
19
FE
DD
1C
08
F3
FF
08
E7
DC
07
E0
F5
FC
05
E7
0A
FC
05
03
00
08
FA
FE
F8
06
06
F8
F2
01
03
F1
F1
FD
FE
FC
02
FD
E6
F3
12
1A
F1
F4
FA
DF
E5
F3
E8
EC
FF
0D
E6
F2
17
11
15
11
00
F6
F1
07
FC
F6
E7
09
E8
0A
FB
C9
F0
E2
01
DB
F9
FC
EC
2F
06
09
14
EF
12
03
EC
1F
E8
FA
F3
FE
F8
FD
EF
FD
EE
08
D7
0F
F9
F9
EB
FD
F8
FE
00
F3
FE
01
FC
FF
FC
FE
FD
F8
FE
F9
FC
03
03
01
01
F8
FE
FB
FE
FA
F9
00
F3
FD
FF
FD
FB
FE
FB
FD
05
02
FD
03
00
FB
FD
FB
00
FF
03
FE
03
FD
FC
FD
04
FC
FD
03
FF
FC
FF
03
00
FF
04
01
FD
12
FB
F4
15
03
DD
F5
06
CF
FE
FC
08
F4
E1
FB
D8
FC
FF
CA
FC
F3
B9
FD
00
F6
FC
F3
16
02
04
2D
F1
03
03
02
FC
FC
02
FD
FE
00
FD
FC
FF
01
04
03
02
FF
01
FD
03
00
FB
FF
02
03
02
04
FC
FE
FC
FD
FE
F7
E5
F3
FC
F3
FC
13
AC
09
F0
0A
E4
EA
02
FA
05
F7
E9
D6
F7
F5
F4
CD
EE
02
F5
11
F8
00
F1
00
FF
FD
FD
00
F2
F4
FC
F9
FD
04
FE
FB
02
FE
01
F4
FF
FF
01
02
F8
FC
F5
FF
FD
FD
F6
03
F8
FA
02
FF
FA
FF
04
FB
01
02
01
FE
07
FB
FC
FC
00
FF
FA
FC
FE
FF
02
03
04
FB
F9
07
FF
FA
FE
FE
02
F6
FE
00
F9
F5
FB
0B
0C
F3
06
FC
FC
06
01
FD
03
EB
01
EE
00
F8
00
03
FF
00
FD
02
09
F7
EA
F9
0E
03
F2
0A
FC
F9
14
07
F9
D4
0B
D0
F1
EE
13
FA
0C
0E
05
09
F3
05
04
EE
F6
09
0D
EB
FA
03
08
E8
F7
07
14
EE
EB
FB
F9
0D
0F
FB
08
07
ED
03
DE
FF
FD
04
EF
F4
FC
05
F5
ED
FE
07
01
D4
F5
04
05
FB
F8
FE
F9
0F
04
F1
02
06
02
0E
00
FF
F6
FC
E9
06
03
07
F6
FA
E8
FE
FE
F7
E6
01
02
EB
FF
FF
05
F0
F5
FA
03
F7
F4
FB
F9
F9
00
FD
02
FE
00
04
01
01
02
FD
FE
F4
FD
01
FA
FE
FD
F6
FD
FC
02
FC
FE
01
F8
FC
00
FC
FE
00
FE
FD
01
FE
00
01
F9
00
F9
01
02
F5
FF
F2
FE
FA
F9
FE
05
F7
FD
FD
FD
05
FB
F8
FA
03
F2
00
F9
08
07
F0
B9
C6
F8
F4
03
EF
00
E7
D5
FD
E4
F1
06
F5
00
14
FD
09
08
0A
F0
03
02
EE
D2
04
F1
EF
F6
17
CC
F3
09
FD
ED
1C
E4
16
E4
FC
FC
ED
F9
FB
11
00
02
0D
16
E8
EB
F6
0A
FC
F0
12
F7
ED
E4
0C
06
03
FF
05
03
07
00
F1
F9
FC
F0
0C
05
09
EB
05
F7
17
00
F0
F8
0A
00
E5
05
FF
03
F5
FE
FF
06
FE
F6
FE
FD
03
FD
FC
FD
04
FC
00
FD
02
FE
FF
FF
01
00
FE
FF
04
03
FD
FD
FD
FB
03
FE
FC
01
01
02
00
01
F9
FF
0E
D6
BD
08
CE
06
FA
14
EC
0A
0D
FA
E8
F1
F4
08
F0
EC
08
0B
FD
FB
03
07
FC
EF
02
0A
EC
EE
F6
0E
02
E4
F1
02
E3
F7
CA
BE
EB
00
09
F2
FF
FF
12
F1
FB
06
0C
00
00
EE
00
FE
E7
02
F9
07
E1
F3
00
01
E8
F1
0B
EF
09
E4
FA
19
09
02
E1
11
07
F7
DF
EC
0B
0A
E8
F2
E6
DF
F5
EB
10
09
08
F7
F6
04
F8
08
04
F7
E5
02
FE
F9
EF
E7
F7
F9
01
F3
FD
E9
E2
D7
EE
06
03
06
F1
F1
05
04
06
EE
FC
F0
00
01
0B
03
F6
05
A7
02
FF
0F
07
FE
FD
F2
01
FC
F7
E5
FA
0B
01
FD
FF
F6
1A
11
05
04
FA
0D
FA
06
F6
F6
CE
E4
FD
ED
19
FE
E4
CF
03
0F
FE
0A
F3
F9
14
09
FB
DF
FD
F7
FC
0C
EE
E2
FE
F7
0F
E2
FC
F2
CE
D7
02
F4
00
06
F2
FC
F7
FD
03
F9
FE
00
F8
F1
EE
08
F0
F8
FD
08
E7
FC
F6
07
FE
F9
FE
F6
EE
E4
FC
F7
0E
F2
F6
EC
C6
FF
08
F7
F6
F8
F1
00
04
05
EF
FE
09
07
F6
00
E4
EC
EF
EE
FD
ED
F0
10
F2
09
01
0D
03
04
FF
FB
02
03
00
00
FD
01
FD
FC
04
02
FC
01
03
FB
03
00
03
FD
FC
FB
01
FC
03
FF
FD
FF
00
02
F8
FA
FE
FF
FF
FD
FF
00
03
FE
FB
FD
F9
FE
FC
FE
02
F9
01
FC
F6
F9
01
00
FC
F9
FC
F6
F6
F7
FA
03
01
FE
FE
FB
01
F5
FB
C3
05
12
08
F0
E9
CD
0E
E5
EB
E2
EF
03
08
05
F5
EC
02
FC
E8
EE
05
D8
06
F8
FE
FE
02
FE
F6
FD
F2
F9
F8
EA
F8
F2
01
F3
F9
01
01
03
FF
F7
FF
FB
F7
00
02
FA
F7
F7
F8
F9
01
EA
01
FA
01
FF
FE
FC
FB
FD
F9
F9
00
FE
FC
FC
FD
FF
FE
03
06
00
FE
FF
01
FC
00
FC
FF
FD
FF
02
FE
01
FC
02
13
0C
EE
08
0C
F9
05
E6
FE
F9
0D
F7
F8
F6
02
F8
02
EA
05
03
E0
FE
05
07
F7
01
FC
07
06
0D
01
00
FC
00
FD
FD
FC
FB
FF
FA
FE
FC
F8
01
04
F8
01
F9
FB
01
FA
01
FA
FE
FC
FF
04
FA
00
FB
FB
FF
FA
01
03
F2
FC
0D
01
FE
0A
F8
FE
FF
07
0A
FC
F4
04
08
FD
EE
FE
05
EF
0B
FE
03
FF
F6
FF
08
CF
01
07
FD
EC
EC
F9
F8
FB
00
01
1C
0A
F6
EF
14
12
E1
00
FF
DC
0F
04
01
F3
FC
FD
EF
11
17
13
FD
E2
F5
04
EF
F6
EF
EF
FB
04
D4
12
F3
07
EA
EE
FA
F7
FA
F8
E8
ED
01
F5
FD
F8
FD
F7
F9
09
FB
02
E9
F8
F8
F4
01
02
05
E1
03
D5
FB
F7
07
EF
F3
00
F9
05
F7
0A
F4
F7
FB
02
0B
F2
E5
FB
07
F7
FA
05
09
F0
E4
0D
F8
ED
15
16
FF
18
06
E7
F2
FA
F9
01
F4
02
05
14
11
03
F5
F3
E7
F6
FB
F6
EE
02
F8
E4
EA
15
12
FA
02
FC
FE
F7
FF
01
FC
05
FE
01
FB
FF
FF
01
02
02
04
FD
F9
F9
FC
FD
00
FE
FB
04
FD
F7
FB
F9
FE
FF
FF
FD
FC
FD
F9
F5
FF
FA
FA
F8
FA
FC
FF
FD
F0
FD
FD
FD
04
FF
02
F8
FC
F9
FC
02
FA
02
F9
FE
FC
07
F0
DD
F8
FA
06
DC
08
0E
03
04
03
FC
06
EE
FC
F4
11
EF
00
F4
F5
03
09
F2
E5
E7
FB
FA
F6
F7
E9
EF
DE
07
0B
1C
F8
E6
E4
02
8E
F8
F5
FF
D1
FF
1A
03
D8
03
0A
07
F9
D6
09
FE
F9
04
FD
EC
EB
17
DA
FC
F9
07
E6
14
04
EF
F3
F1
C9
F5
F5
FD
ED
04
F9
F4
EC
EF
0B
FD
06
01
08
FD
FE
F2
09
EE
F9
F3
ED
01
F7
F5
F8
F6
03
F6
FA
FB
03
FC
EE
F8
00
FA
F2
FF
FE
F3
02
FE
00
F9
F0
02
FE
FC
00
00
01
FA
F9
FF
F6
07
03
E5
FF
F9
ED
04
F4
06
FD
FE
F9
02
EE
FA
EF
FE
FD
F4
00
F1
00
00
FF
ED
F5
F6
FC
F6
06
FE
01
00
F5
EC
01
F2
FF
FF
FC
EE
07
05
F8
FE
FE
08
FF
F8
FD
FB
00
F8
FD
FE
03
F9
F6
F8
FE
02
F8
03
01
04
C0
FA
0B
F3
01
F3
F6
E5
FF
03
E1
0B
02
EC
FF
08
FB
FF
06
05
EC
F6
03
F7
E0
CC
F8
DF
F1
01
FC
FE
FE
00
FC
FA
FC
03
FB
00
F3
F7
FC
F6
04
FD
03
05
FD
FB
F5
02
04
FE
FB
02
FE
FE
FB
FF
FF
E6
E7
EF
FD
FE
08
06
FE
F3
05
F2
FB
F8
07
F9
05
FE
01
03
07
EF
00
EA
FF
F7
F2
BA
10
02
E9
FC
0A
04
FD
F7
FD
FC
01
05
04
FE
F8
FD
F9
FC
FA
F4
02
FC
00
FF
00
FB
FD
FC
FE
FB
FD
F6
FD
F9
F8
04
FB
FC
03
FF
03
04
FE
FD
FD
FC
FD
00
01
FF
FE
FB
FD
FE
FF
02
FD
02
FC
03
FF
FF
FC
02
FC
FF
01
FB
FD
0D
07
FA
F8
01
01
F8
12
04
06
FE
10
02
0A
FD
DB
FA
0B
11
ED
04
FE
25
09
FF
01
ED
14
F8
01
0E
EA
EC
EE
F6
FC
0B
FE
C0
C9
FE
08
02
00
F1
06
10
D5
FD
EE
F6
07
00
08
DF
F3
03
F3
F7
FB
06
04
E8
D3
F7
EC
F3
F9
F9
FA
FC
DF
FF
FB
01
EF
F4
02
00
FD
FA
E7
F0
F9
F7
FC
F2
F3
FC
FE
04
F4
00
F4
F9
F8
F0
EB
F8
FC
FC
01
FE
FD
FD
F8
06
01
00
FF
FA
FD
FB
03
FD
FF
F6
F0
FC
F2
F9
F5
01
F6
F5
09
FC
FF
FD
07
06
CA
C7
0D
F9
0A
14
08
F1
12
03
02
F5
02
E8
08
FC
F9
F5
00
0A
01
F6
FB
FA
F6
F4
0C
03
FB
04
FD
01
FE
FF
FB
FD
02
03
04
04
FC
FB
01
FD
FC
FC
FB
FB
FD
FE
FD
FF
FC
FC
02
FF
04
FC
02
03
FD
FA
FB
01
F7
09
01
F8
F5
05
03
FC
0C
FC
02
04
F7
F6
F7
01
FD
F8
04
FE
F7
01
F7
FE
FA
EE
FB
01
FD
FD
FE
01
00
FB
03
00
02
04
FC
01
02
FA
FE
FE
02
02
01
FC
FD
FB
FC
00
04
FC
FD
FF
03
FD
FB
FD
00
D7
EC
FA
00
02
08
E0
D5
FA
16
FE
09
03
FD
00
01
15
F1
06
E6
07
0A
E9
02
04
F2
00
C7
04
FF
FD
E2
FA
FF
00
03
FD
FD
F9
FD
04
FF
FF
05
F9
FA
FB
06
01
FA
FA
06
FE
F9
FD
01
FE
FB
FD
FB
F7
F6
FA
05
0D
FD
FB
FF
F7
02
0B
01
FF
F9
FF
00
F6
FF
F8
FD
FB
03
FC
05
EF
FD
06
FF
01
FB
05
05
FD
FF
06
01
F9
07
04
F8
94
07
CB
03
05
0B
08
02
0E
FB
EC
07
0A
03
F6
05
0B
FD
00
0D
00
07
EF
02
02
0A
BC
D3
F6
FF
F9
03
EA
EC
EB
F7
F9
F9
EE
F9
F3
ED
E9
F3
FE
FF
07
12
04
FC
F4
E7
FF
FE
F2
F3
FF
FD
09
0C
F9
03
07
F8
E7
06
ED
FE
FF
F6
D3
05
07
F3
EA
FC
08
FD
09
F7
01
0E
07
EE
02
04
00
F4
DD
00
FF
F2
02
FC
02
07
0F
FE
01
F4
FD
ED
0C
F9
03
F0
FE
F8
FD
FD
F8
F9
02
FD
E3
F5
06
06
FA
F9
FE
FF
0A
04
FB
02
01
FA
F8
03
F8
F9
02
F6
FE
01
00
F9
F6
F2
FB
00
01
00
FF
02
F9
FC
02
FB
FF
F6
F9
FA
00
00
FB
FC
FE
00
FC
02
00
03
FE
FB
03
03
FF
03
FD
02
01
01
01
FC
FE
03
FD
FC
FD
FE
01
FE
FC
03
04
FA
03
FE
04
03
FF
02
02
FE
02
FD
FF
FC
04
FB
FF
FC
FB
02
01
01
FD
03
00
03
02
FB
FE
FF
FC
FD
FE
FB
0A
08
FB
FB
0A
00
EF
0F
0B
03
FD
0D
FD
F7
F9
CE
FB
0E
0D
FD
FE
FC
1D
0A
04
FF
EC
0E
F9
00
06
02
00
03
FB
FF
F8
FB
FE
05
FF
FE
FD
FC
04
FE
F9
06
02
FE
FE
FC
02
F9
FD
04
00
FE
02
FE
FE
FC
00
F9
0C
EC
F4
16
FD
F0
F4
EE
CC
EC
ED
E5
F2
00
00
E8
FD
01
16
2B
0F
FD
F5
E8
01
FD
F7
F5
06
DE
0F
F0
FD
03
0A
0F
F8
08
FE
F1
09
D9
03
FE
0C
F1
FF
F3
07
F8
FB
00
03
05
E6
05
FD
04
FB
F3
FE
00
07
03
FE
FB
F9
00
F6
FE
FD
F5
F5
F8
FE
FF
03
01
FA
F0
01
FC
00
FD
02
FF
F7
F1
02
FF
FE
F6
FC
F7
00
FE
F7
04
F7
FE
F3
04
00
FD
00
DC
F3
FA
05
F6
FB
FF
F7
01
FD
FD
07
FA
FB
01
02
FE
FA
F9
01
F6
F7
08
02
FF
FC
FD
FF
01
01
04
00
FF
FD
02
FD
FE
FC
FF
01
04
FF
03
FB
FE
03
04
FF
01
FC
FF
03
FF
FC
04
F8
03
0C
FF
EF
0D
CE
EF
F4
0F
00
EE
08
03
04
E1
FB
F8
F2
EC
0E
0F
E0
F9
FF
0C
EF
FD
17
11
E9
F7
09
04
01
F4
EB
F8
F8
0D
E5
0B
EF
FC
FF
0D
F7
2C
0C
03
05
03
0C
01
18
FA
FD
07
FC
1E
0B
00
FB
FC
01
FF
FC
01
FE
FE
FF
04
04
FE
FD
03
FB
FE
FB
FA
FF
FC
00
FE
02
00
FC
01
03
FE
FC
FF
FF
FF
00
FD
FF
FF
02
FF
FB
FC
02
01
01
01
02
FF
04
FC
00
FD
FC
FC
04
01
FE
03
02
01
04
FF
FD
01
FD
FC
FC
01
EB
FA
F9
F8
0E
04
E6
E6
F3
00
E9
04
F3
F3
0B
FB
EF
F8
02
F6
FF
FF
F6
E8
FB
F5
FB
FA
F8
F6
01
F3
03
FD
FB
FF
06
FF
FC
FE
FF
05
02
02
FA
01
00
04
00
FC
02
FD
01
FB
01
FD
FE
F9
FF
FD
FD
FB
FF
FF
FD
02
02
FF
FC
02
FD
FF
03
FB
00
FF
FF
01
FB
04
02
03
03
FF
FB
01
FD
01
FE
00
FD
01
FD
FF
01
03
02
FD
F8
01
00
F5
04
F9
00
F7
01
FF
FA
03
FB
07
FD
F9
FE
FF
FC
F3
FD
FA
FA
FF
FE
FB
FE
02
08
FD
04
00
00
FC
03
FC
FF
FF
FB
02
FE
00
02
FD
FE
FE
FD
02
FB
03
FB
F6
01
FE
FA
00
FD
01
F6
FC
03
03
F3
F7
0A
16
0D
FE
EC
F7
FD
93
F0
F6
07
C4
06
2B
13
E1
FC
0F
0A
FA
0B
06
06
FF
07
07
E4
E8
29
D0
02
04
FD
FD
04
FF
03
FE
FC
FB
FB
FE
FB
03
FE
02
01
FB
02
FF
00
03
FC
03
FC
02
FC
FC
FF
03
FB
00
FB
02
FD
FE
04
FE
04
01
FF
FB
03
03
FC
FD
FF
04
FD
FC
FE
FB
02
FE
FD
03
00
FD
02
00
02
03
02
FE
FA
00
02
06
F3
FB
05
F7
04
FC
FF
FE
FB
02
FF
FF
F9
FD
F3
F6
F7
00
F9
08
FE
FE
FF
F7
FB
FD
02
01
FB
FB
01
FC
FC
01
01
02
FE
02
01
03
04
FE
FC
00
FF
00
FF
FF
00
FE
FD
FF
FC
FE
FD
FD
02
FE
03
FF
FE
F6
FE
CF
F9
FD
D6
FE
F1
01
F2
17
FB
05
EE
01
20
01
10
FA
04
07
0D
EB
FD
FD
E3
D2
08
FC
FC
F0
FD
FF
FB
05
05
02
F0
FC
03
FA
FA
F9
FD
FC
F1
04
FE
FB
00
00
F2
FD
FD
0A
FA
F4
FC
FC
F5
F1
00
00
FF
F8
FB
02
FA
F6
F9
02
FE
F2
F9
F1
FA
F9
FD
F9
FB
FD
05
FE
FF
F9
04
00
01
FA
02
F8
FB
F9
05
F8
00
FB
FD
01
02
04
FD
02
FF
FB
FE
FF
01
FF
02
03
FC
00
00
02
01
FD
FF
01
03
00
FD
FE
04
FF
FC
FD
D1
E8
EB
07
F9
F9
09
F7
01
FE
08
ED
EF
06
F5
DD
FE
E1
EC
DA
FC
F4
F6
FD
FD
F4
0D
D9
06
E8
F7
01
09
FA
01
0C
0B
01
F4
0D
E4
F2
00
F9
FF
F8
09
FD
10
0A
0E
FB
00
03
0C
FD
07
00
F4
17
03
FB
22
FE
FB
FC
02
FB
FB
FF
FC
01
FE
02
FA
FE
FD
FE
F1
08
FE
FE
FB
FB
FF
F6
00
01
F9
F5
FC
FA
FB
FB
F9
FF
06
06
00
0A
08
07
CF
0D
1C
07
0A
19
03
03
FA
BA
07
0F
08
EF
FC
F9
14
17
07
FF
E6
09
FB
06
F6
0A
02
FF
FC
FD
01
01
04
FF
03
FC
00
FB
FC
00
FD
FD
03
FE
01
01
FC
01
01
01
FF
FD
03
FD
01
FB
04
FF
C6
DC
F1
07
FE
F5
17
FF
0B
F5
01
FC
F6
FB
FE
09
FF
F9
08
1B
E8
F1
01
00
FD
EB
0E
F0
EB
E6
16
E9
FF
FC
EF
03
F7
F0
0F
F4
02
F2
FC
F4
F1
F3
00
FF
F9
FC
03
F9
FE
E8
F9
05
FD
F4
04
FD
F7
F0
09
07
FE
01
0F
E5
E9
03
EC
08
FB
E9
DD
07
0E
F0
FA
F1
FB
00
0E
F4
00
0A
0B
F8
F9
04
E5
EA
F6
03
E3
FC
FC
04
02
FB
FF
FC
02
FD
FC
FD
FF
FC
FC
02
03
01
FB
FC
FF
03
02
FE
FF
FC
02
FE
02
FD
FB
03
02
FD
16
FE
05
F1
2E
04
E0
F7
02
06
D4
0C
FD
04
0C
DC
10
FB
14
DA
01
09
0A
E6
03
FB
F8
F1
DC
FC
FC
EE
F0
FF
F6
F1
F3
07
DE
EF
E6
11
EE
07
F4
09
F5
02
FA
FB
F9
FE
03
02
F4
E9
01
FE
FE
FF
0A
FF
F5
01
FD
04
FD
FC
04
FD
03
FB
FE
04
01
FE
03
00
03
03
04
FD
FC
02
FD
FC
FC
01
02
05
FE
00
FD
FB
01
FE
03
01
FD
FE
FF
FA
FF
01
FA
FD
FF
F9
FC
02
FB
FC
FF
FB
FF
03
05
FB
03
FA
FE
00
00
FF
04
00
00
01
07
02
04
11
04
04
00
FC
05
E7
09
F2
02
F5
02
E0
FE
FD
EE
02
F5
00
E2
00
03
FE
02
F8
F7
06
0D
FD
02
FE
FE
FE
FE
F8
F8
FF
EB
F0
EF
F0
FF
F2
FB
00
02
FC
04
02
07
FB
FD
F8
FC
04
FA
FF
FF
F6
FC
FB
04
FB
FC
03
F7
FE
06
FE
0A
F9
05
06
F5
00
F8
FD
00
FA
FB
06
F6
FC
F5
02
00
FC
02
FB
FB
F9
02
FD
F4
01
0E
F8
F5
08
ED
F7
02
E3
03
05
10
FD
F2
F7
12
08
F8
E5
00
02
F2
04
03
05
EB
F2
FB
07
E5
FA
ED
FC
E5
FD
09
FF
01
EF
E8
0E
F8
0D
EC
03
FD
FA
F4
0D
15
FF
EA
00
FE
FC
FC
F9
FE
19
00
CC
F9
FE
FC
FE
F9
FD
FC
00
FE
05
01
FA
02
FC
FA
F9
F8
F5
FC
FD
03
02
FF
F6
03
02
FA
FF
FD
F9
02
FE
F8
02
01
FB
FE
FD
01
03
01
00
03
FD
04
00
03
00
FE
FA
01
00
F9
FE
FE
FF
F9
FC
FF
01
FF
FC
F9
00
02
FA
02
FD
03
FB
03
02
01
FF
FC
01
01
00
FF
00
00
FC
FD
FD
00
02
FE
FD
00
00
00
03
03
02
FB
FB
00
FE
F5
F9
FC
FE
FC
FB
05
F2
FD
FD
06
F9
F4
FB
EE
00
F6
EF
FE
FE
E4
F4
00
F8
FF
F2
FA
F3
F4
F9
02
F2
03
FD
04
03
03
FE
02
00
FC
02
FE
03
FC
FD
FF
FE
FE
FE
FE
02
03
FE
FE
01
02
FE
FE
FF
00
02
FC
04
FC
02
0C
01
D0
03
E6
F3
FE
F6
F5
02
0A
F0
08
0E
19
08
F3
DE
FC
05
EA
0B
02
0A
FC
DF
FA
10
FF
D0

