01
01
01
04
E4
04
01
00
0A
FE
03
ED
18
FB
00
00
03
09
03
03
FF
01
F7
E1
FC
F2
21
FD
FC
05
0C
01
00
02
00
00
00
FE
00
00
00
00
00
FC
00
FF
00
00
05
00
FD
06
1C
F9
03
01
C0
00
04
02
F2
08
04
00
EE
01
10
0A
09
FE
BE
10
EE
03
C3
F8
01
02
ED
08
18
07
26
16
01
05
CC
10
07
10
6D
05
0D
F8
19
11

