FB
01
FF
01
01
00
FE
F9
00
00
FF
FB
04
03
01
FB
01
FF
FF
D4
FE
E9
02
FF
FF
07
04
02
00
FF
FF
01
01
02
FF
FD
FF
04
FD
FC
FB
00
FC
F9
03
FF
FC
FE
01
03
FA
02
02
FD
FA
FF
00
03
FE
FE
01
FD
01
FF
0B
FE
00
FF
08
FD
00
03
FB
04
00
FF
FC
FE
FF
01
00
00
03
05
0B
02
F1
01
FE
F1
FE
FD
02
FF
FE
02
06
02
FF
01
06
00
FE
EB
FF
07
F7
02
08
00
FC
FE
FE
01
02
03
06
02
FE
00
FE
F3
FA
01
00
02
00
03
FC
01
02
FE
FF
FF
FF
FF
03
02
FC
02
01
05
FE
FF
00
FF
02
00
01
02
FF
02
00
FB
FF
FF
FF
01
01
FE
FF
01
01
FF
04
EA
FC
00
01
01
FE
03
04
FA
01
F8
FF
00
FC
13
FC
0A
0A
00
01
09
EE
FE
FF
02
FF
FE
0B
FF
FE
FE
08
08
FF
FE
FA
01
05
FF
02
05
02
04
03
04
FC
F5
09
F5
F5
01
FF
E5
0A
02
05
01
FF
03
06
00
FF
FF
05
03
FE
FC
FE
01
FD
06
08
FF
F8
FC
FE
08
FF
FC
FB
FE
00
FF
02
02
F3
FF
01
01
FE
FF
FD
FE
03
FF
01
00
01
F7
07
08
FF
02
03
FD
00
FF
FF
F3
01
05
06
06
01
00
FE
FF
02
FF
01
01
02
02
FD
01
FE
02
FF
04
03
FF
FA
00
FB
FB
00
FF
FE
01
FF
FB
FC
FD
FE
FB
FC
02
02
FC
FD
02
FF
00
FE
02
03
00
FF
02
08
FA
FB
03
F9
00
FA
FE
02
FD
FE
04
FE
01
F8
05
02
01
06
02
FE
04
F9
00
00
02
01
FF
03
FF
FE
01
FF
F9
FF
05
FB
FD
FE
FE
00
02
00
01
FE
00
FB
FA
02
FE
00
01
01
00
FF
00
02
FF
02
FF
05
FE
FF
01
FE
FD
FD
01
F9
FD
FB
03
FF
FF
FC
03
01
08
00
03
FB
01
E4
FD
FE
00
FD
01
02
FF
02
00
03
00
00
01
FC
00
FF
01
02
00
F5
03
FF
04
F3
02
FE
03
00
05
FF
02
F8
01
01
FF
F2
01
03
02
FE
FF
00
FD
03
01
FF
00
FD
FE
FE
FD
00
00
FE
FC
FC
FE
00
FE
FE
02
FF
FD
02
FE
01
01
01
FE
FD
02
02
01
FE
01
FE
FF
FC
0C
08
05
FB
07
FC
FB
04
01
06
FD
01
03
00
DC
03
EC
FF
01
01
0B
11
FD
01
FE
03
02
09
FE
02
FE
03
03
00
08
FC
01
01
FE
04
FE
07
FD
00
03
03
EA
03
F3
01
02
02
01
02
01
02
FF
02
02
FF
01
FF
FE
FE
01
FB
00
F8
FF
FD
FF
00
FF
FE
02
01
FC
FF
FC
FE
F9
02
03
02
01
FE
FE
FE
FE
FF
FE
04
FF
01
FE
FC
FE
01
FD
FA
02
FE
FE
FD
FD
FC
FD
FF
FE
FF
FD
FD
01
FB
00
03
02
FB
03
FB
FD
02
01
01
FF
02
FF
FD
FD
01
FD
FC
02
FD
FF
02
01
FE
01
02
FD
FD
FE
01
FD
00
01
FE
FD
FD
01
01
01
01
FF
00
02
01
FE
FC
02
02
FD
FF
01
01
00
01
00
01
FF
FE
01
01
01
FC
FC
02
FF
00
01
00
FD
02
00
FF
00
FC
01
00
02
FE
FD
00
03
FB
00
FD
FE
01
FD
FD
00
FF
01
FF
FF
FE
FC
FC
FD
FE
FD
FE
00
FE
00
00
FE
07
FE
FE
02
07
09
02
FD
03
03
04
F7
00
03
03
0A
03
00
01
0D
04
03
FD
FD
01
07
F1
02
04
00
01
02
04
FF
00
01
FA
F2
FB
F9
05
FC
FC
FB
FF
02
0F
00
FD
F6
02
FD
01
00
F5
01
00
08
0E
02
FF
02
03
00
FD
01
FE
01
FD
FF
00
FC
01
FD
FE
FC
FD
00
FE
FE
00
FF
00
FD
FD
FF
FC
FF
02
FD
01
FF
02
FE
01
00
00
03
FF
FE
FD
FD
FE
FD
02
FF
FE
01
01
FD
FE
FD
00
FE
00
02
00
01
FC
02
02
01
00
00
00
FE
FE
02
0F
03
00
01
04
03
03
04
03
FF
08
FF
02
01
00
05
00
03
06
15
09
11
05
FF
FF
04
FF
00
04
02
02
FF
FD
FF
02
01
FE
06
FF
FA
00
04
07
02
FF
FF
03
FA
02
FF
03
E2
06
F3
04
01
02
01
03
02
FE
FE
03
02
01
00
FD
FE
FB
FC
06
09
02
FA
05
08
01
02
09
FC
01
FB
02
FF
06
07
02
01
01
FB
04
02
FE
FE
FE
01
FF
FE
FE
FE
FD
FD
00
04
01
03
FA
04
FE
FF
F7
03
02
04
00
F3
07
FD
F5
01
00
E5
FF
FE
02
02
FD
00
FE
01
03
FE
FB
FF
FF
01
FF
00
FC
FD
FF
01
FF
03
02
FD
02
FE
02
02
FB
01
00
02
FB
FF
01
FF
FF
00
FB
01
01
01
F7
00
03
0B
01
07
00
04
03
FF
F5
FF
00
03
FF
01
00
06
03
FF
FD
0B
F3
00
03
00
FF
FE
0B
FE
FE
03
0D
04
04
05
FB
01
06
09
FD
00
F6
01
00
07
01
04
07
03
00
FE
02
E6
F2
FF
00
00
02
02
07
FF
01
FE
FC
06
FB
04
FC
06
FD
02
01
FF
03
FF
FA
0C
FC
07
01
02
F7
FD
FE
F5
09
01
FE
FE
FD
02
FE
FE
02
01
03
F9
FF
FB
07
02
05
FF
01
01
00
F9
02
02
01
03
00
03
02
01
FE
EB
00
01
FF
FE
FE
FE
00
FE
02
00
F5
FA
FF
06
FB
02
0C
08
FF
03
05
03
05
03
02
00
03
01
04
FF
FF
E2
FF
FE
02
00
00
03
0B
02
02
02
FB
01
00
02
FC
02
01
F8
03
FD
F8
FE
FE
02
01
FD
05
FC
F8
FF
FF
05
01
FD
FF
01
FD
FE
FA
02
FE
02
F7
FD
00
FA
07
FE
FF
FE
01
00
01
FE
01
FD
02
FF
FA
01
FA
02
03
F6
01
00
02
02
FE
FE
0F
02
00
02
03
07
03
0F
06
02
F7
14
FC
04
08
07
01
FD
07
1E
FF
1D
0A
FE
FD
00
0B
FD
07
FF
01
FE
02
FE
00
FF
02
FA
FD
F8
07
04
0A
05
03
02
F9
05
02
04
06
0D
FD
01
04
FF
FF
FB
F3
00
02
FD
00
00
FA
00
03
00
FD
FE
01
00
00
FD
03
FF
00
02
05
01
00
F4
03
FF
00
FF
0E
02
03
FC
08
00
01
00
01
01
FF
01
01
FD
FF
01
FD
FC
FF
00
FD
FE
FF
00
FC
01
FE
02
FD
FD
FD
FD
FD
00
02
FD
FF
03
02
FE
02
01
F5
01
02
02
00
01
05
0C
10
FB
FB
12
FE
03
09
01
02
FA
04
07
0D
0C
0D
01
03
F3
0B
00
01
FF
01
00
03
00
00
FE
03
FF
05
02
FE
04
04
00
03
00
01
05
04
01
02
01
FE
03
FE
01
02
F4
04
FF
FF
FD
01
01
03
FE
FF
FE
FB
FE
00
00
FF
FD
FB
FE
FF
FD
F8
02
02
01
FC
00
FF
00
F9
FE
00
00
FC
FE
02
02
FE
FF
F1
FF
00
01
F8
FD
01
01
00
FC
F9
F8
FA
00
EC
01
FF
F7
03
03
FB
01
DE
FF
FE
01
F9
FF
01
00
01
FF
FE
00
00
FE
02
00
02
FD
FF
02
FA
FB
FF
01
FD
FF
01
02
00
00
FF
01
02
FF
FF
FC
00
02
02
FF
FE
02
EF
00
02
00
EF
02
FE
02
00
FD
F2
FC
FB
FD
DF
00
FF
FE
03
FF
FD
02
DA
00
FF
03
F3
FD
03
FF
FE
FF
00
01
02
01
00
FE
FF
FE
FC
00
FF
FE
01
00
01
FD
02
FF
FF
00
01
FF
FE
02
FE
01
FB
02
FD
00
00
FD
0B
FD
02
FF
01
06
01
00
FD
02
04
07
FD
FE
03
FC
FF
01
06
F2
02
F7
FF
FE
FD
F8
FC
00
00
03
02
00
01
02
01
02
FF
02
02
FE
00
FF
FE
00
FE
00
FF
FE
01
00
FD
FE
01
00
FF
01
00
FF
FF
02
00
01
FE
01
11
FD
FF
00
0F
F7
FD
08
EE
04
12
09
02
00
F9
FD
01
00
01
02
06
FB
F2
01
02
F5
FA
02
02
FF
03
FF
FC
00
00
FD
05
FC
FC
F0
04
03
04
05
04
00
FF
02
05
06
06
09
FB
04
05
02
FE
FB
F2
01
03
FF
00
00
05
02
01
FE
FE
FF
07
0B
F9
FD
FD
0A
02
00
FE
02
FE
04
05
00
F3
03
FE
00
00
FC
04
03
01
03
FF
00
03
FF
03
01
02
FD
FF
0C
FD
FB
03
01
FE
00
0A
01
FD
04
FC
F6
07
F6
FD
FE
FE
07
0C
FE
02
FF
FF
FE
E3
02
01
01
00
01
FE
19
0C
F9
03
FE
03
04
FB
FF
FF
F5
FD
02
FA
FB
FB
FE
FF
F7
F7
00
01
FF
02
02
FF
02
00
FE
FF
01
FE
02
FD
FD
FE
FF
FE
FC
FC
01
FE
01
01
01
FC
FE
FB
01
FD
FC
02
FE
00
02
01
FE
FD
FF
00
FE
FF
04
03
EF
08
05
F9
06
00
01
03
00
FF
FD
01
03
04
06
08
02
FF
FA
02
00
01
FF
02
02
FF
01
FE
02
FD
00
00
FB
FA
01
01
FF
FE
00
FE
02
01
01
FD
FC
FE
FE
FB
FF
02
FE
FB
00
FF
FF
00
00
FF
FF
02
01
0B
F9
FC
FC
FB
FB
06
02
03
01
FA
02
FF
07
FE
EF
09
F8
F9
00
01
0A
00
00
FF
02
FE
FF
FF
00
FF
00
FE
00
00
FD
FA
04
FE
FF
01
01
01
FC
FE
01
00
FF
FF
FC
FE
01
FE
04
FD
00
FF
01
FF
FF
02
FE
02
00
02
FF
00
01
FF
00
00
02
01
FD
FE
01
02
FD
FF
00
02
01
FE
00
FE
00
FE
FE
FF
02
FF
FE
03
FE
01
02
FD
F7
02
F1
09
00
06
05
01
FE
02
FD
00
05
04
09
F6
FF
04
FF
01
F8
FE
FF
00
00
03
FF
08
FF
01
01
01
00
02
0C
03
FE
07
05
FF
FD
0D
01
00
FA
04
FD
02
05
02
FD
00
F6
03
FF
01
03
02
FE
08
02
01
FF
09
04
02
06
05
00
01
F3
FF
FE
FB
02
FA
03
FC
F0
0E
F4
F1
00
01
AD
01
FF
FD
01
FE
FF
FD
01
FF
00
00
04
01
FC
00
00
02
FD
FC
FE
FD
FC
FF
FD
FC
02
FF
02
FE
FE
FF
FF
00
FD
00
FE
02
FE
02
01
01
00
FC
FE
02
FF
FB
FD
02
FE
FE
02
FC
FC
FF
FB
FD
FC
FF
02
FA
FF
FF
FE
00
03
00
02
00
02
12
00
03
FF
11
FA
00
F6
FB
02
1A
00
08
FF
08
02
FE
FD
01
FF
07
04
F3
FF
FF
01
FA
FD
01
03
03
01
01
01
00
02
01
02
02
03
FC
FF
00
00
00
01
FC
03
FD
00
FE
FF
FF
FF
FD
02
02
01
FC
03
FE
00
01
FE
05
00
02
02
06
02
05
13
01
08
04
03
FE
01
FE
08
02
01
09
14
06
10
0B
00
02
08
F0
FF
05
FD
FD
01
F0
FD
FE
FE
00
FA
FF
FE
F5
01
0B
F5
FB
03
00
00
07
00
00
FA
0D
F1
05
FE
02
F8
FE
01
FF
FE
02
02
E2
00
01
01
04
F9
FF
0F
F6
FC
F5
FA
FC
03
F5
FF
02
F8
FE
FD
FD
FB
E0
FF
00
F1
EF
FE
00
00
02
01
06
FE
FF
FF
03
05
07
13
FC
06
01
00
FF
01
00
05
00
FC
05
E6
00
EA
05
FE
FF
0A
00
01
06
01
02
03
FA
03
01
00
FA
FE
03
04
07
FD
03
08
03
04
05
03
03
FC
02
F3
03
F9
0B
01
FF
FC
F9
00
FF
02
01
FE
F9
FF
02
02
FD
00
01
12
0C
FD
0A
FB
01
03
0A
00
FE
0A
01
FE
FD
06
0D
00
02
03
0A
FD
01
01
FE
FF
FB
FF
00
00
FD
F9
03
F4
F6
FE
0C
04
FB
04
FF
FC
06
F6
00
FD
04
FA
0A
00
FF
FB
F7
01
00
FE
FE
FE
F2
FD
02
01
F9
FB
FF
FE
00
00
06
FB
FC
FE
FC
01
01
00
FF
04
FD
03
FA
00
00
01
F7
02
00
01
01
FF
FD
FF
FE
FF
FD
03
01
FE
FD
FE
01
FE
FC
FE
FD
FE
FD
FF
FC
FD
FF
FD
FD
00
FF
00
01
FF
01
FE
02
FD
11
02
01
00
0A
FE
FD
E9
00
07
02
05
0D
FF
04
FD
FD
08
02
00
00
06
08
01
00
0B
FA
01
FF
01
02
FE
FD
00
FF
FE
00
04
02
02
F8
FC
FF
00
FE
FE
FE
FE
FF
FB
FB
FB
FF
FB
F8
02
01
F9
FD
00
01
FC
01
FF
F5
00
00
00
FC
F2
01
E6
D9
03
02
EF
FF
00
FD
00
FE
F6
FD
08
EE
03
EF
02
00
16
E6
FE
01
01
03
01
F9
01
FD
00
FA
F9
01
11
01
FE
08
F9
02
02
02
00
05
FD
03
FC
01
FC
10
FF
FF
03
FB
01
02
01
02
02
01
00
01
FD
01
FE
02
00
FF
00
FD
FD
FB
FF
FD
00
FF
01
00
FB
00
FC
FD
00
FE
FD
FF
00
00
01
FF
FF
F9
00
FE
FD
02
FF
01
F9
FB
00
00
11
FD
02
02
01
00
04
01
00
FD
FA
FD
02
FF
FF
06
00
FE
FE
02
02
FF
02
FF
00
FE
FE
FF
03
02
FD
FD
02
FF
FE
FD
02
02
FF
02
FF
FF
FD
02
01
FD
02
00
FF
FF
02
FF
01
FA
FF
FE
02
04
FF
07
0F
05
FF
F3
1C
FF
FF
07
05
04
FE
08
16
05
0C
0E
FF
02
FE
09
FE
01
02
FE
02
F0
03
FE
02
F1
01
02
1A
04
08
FF
FC
01
FE
F3
04
FD
EF
01
01
FF
FF
01
01
02
07
F8
00
04
03
FE
03
03
01
00
02
F6
F3
01
11
08
FD
EC
F3
03
FB
03
02
FA
01
FD
02
F0
09
F3
FE
FE
00
FE
FF
F7
FF
FE
02
01
02
FE
FE
FB
FA
FF
07
00
FF
01
09
00
FF
08
02
02
FC
02
01
00
01
02
02
01
EF
05
03
FD
FE
FF
FE
05
01
02
03
FF
FC
FB
19
01
03
FD
FB
FD
FD
FF
FE
01
04
FE
FC
01
FA
F3
00
01
F1
FF
01
01
01
03
00
10
FD
01
00
FA
01
01
00
00
FD
00
F9
FB
01
EC
02
FE
F8
00
00
00
FF
E3
FF
00
FC
F8
01
02
FF
FE
FD
F2
02
00
01
05
05
01
FF
F6
00
F2
0A
FF
FE
FD
02
FF
05
01
00
FB
F6
FC
01
00
F5
F5
01
00
FD
FE
01
17
01
02
02
EB
FD
FF
0C
0A
FF
D3
08
05
FE
FC
04
FD
03
FF
03
F1
07
FC
01
00
FA
00
FE
FB
01
02
FE
07
03
00
01
0D
FD
FE
09
00
FF
0C
06
FE
01
FB
02
03
01
FD
00
05
00
FC
FF
02
03
F8
00
03
FE
00
00
12
FE
FD
00
10
05
05
FB
F6
02
15
00
FD
02
FF
01
05
FA
FE
F8
0F
00
01
FF
FF
E3
FC
FE
00
01
02
00
04
FD
FE
01
FC
FF
00
FE
F7
FC
F6
F6
FF
02
F4
01
01
01
02
FE
FE
00
EC
FF
00
00
FE
01
00
03
FE
01
02
FD
FF
02
F7
03
02
FD
03
07
F9
02
FD
00
F9
FF
01
02
00
FD
FB
FC
F2
FE
02
E3
F7
FE
FD
00
01
FF
06
FF
FF
01
FD
FB
02
0E
FB
F8
03
FE
FF
FD
0C
01
FF
F9
01
F6
FB
FF
FF
FF
FF
04
05
02
FF
00
FF
FE
09
01
02
FF
0D
FD
FF
0B
F6
FF
0E
F9
FD
FD
FB
01
01
FF
FF
F8
03
FC
F4
FE
FF
0A
FE
01
02
FF
FE
00
FD
02
FE
FE
01
FB
FF
FD
FD
01
FE
01
FE
01
FF
FF
01
02
01
00
FE
01
FF
FE
FF
FE
00
FF
FE
00
FD
FF
FE
02
FD
FE
FB
FE
FF
FE
F8
02
FA
00
01
00
F8
FD
FD
01
FD
F5
FE
FB
FD
02
FE
01
FF
00
FE
FE
FD
01
FE
FE
02
00
05
F8
F9
F5
04
00
02
08
00
00
F7
02
04
09
01
1A
FD
11
09
00
02
F6
EB
FE
04
01
FD
FF
11
00
01
FE
00
00
FD
F5
07
06
FA
FA
04
FE
F9
00
FD
FA
00
FF
FD
03
F5
FF
01
00
FD
FE
FF
02
FF
00
09
FE
00
00
FE
00
00
05
FD
00
07
0C
03
04
00
FF
02
FD
FF
00
FB
06
07
03
FE
E1
FB
FF
04
01
FE
02
FE
01
FE
FE
FE
00
FF
FE
00
FE
FE
FE
FC
01
FE
02
FD
00
FD
FB
FF
FD
FF
FE
FE
01
FE
00
FF
01
00
FD
02
03
00
FE
01
00
FE
FF
01
FF
02
FD
02
FD
FD
FE
FF
FE
00
02
00
00
FE
00
FE
03
FF
01
01
02
FF
FF
FF
FE
FD
00
00
FD
FC
FE
01
02
FD
FC
FD
FE
02
02
00
FE
00
02
01
FF
FE
FF
FE
FF
01
FD
01
FD
01
02
01
00
03
FE
00
FF
FE
00
FD
03
02
04
FC
00
FA
FF
01
01
02
FD
00
FF
F4
FF
01
E6
07
FE
00
01
02
01
FB
FF
02
00
03
00
02
05
01
03
FF
FC
FF
FF
08
03
FE
FE
00
D1
01
E9
02
FF
00
08
02
FF
05
01
FE
FF
0C
01
02
FE
15
FA
04
FC
03
05
09
FA
F9
03
FE
03
05
12
05
04
01
02
00
02
FD
D7
09
FD
03
FE
02
FD
01
FE
02
FE
FF
FF
FD
FE
FF
01
FF
FF
FE
FC
FE
FE
FE
FF
00
FF
FF
FE
FE
02
FD
01
00
01
01
01
00
01
EE
FE
00
00
F2
FD
03
00
FD
08
F9
00
02
00
F1
01
FE
01
00
02
FF
03
07
FF
FD
03
EC
FD
01
FE
01
01
EF
FE
01
FE
01
04
00
09
F8
FC
FA
F8
04
04
02
FF
03
F9
02
F0
F8
FD
FA
FF
00
12
F5
02
00
01
FF
00
F4
FD
01
01
FF
02
FE
F3
FB
FC
06
00
FF
02
04
FB
03
07
06
EF
FC
F9
03
02
FF
FF
FF
FF
02
01
02
FE
06
02
FF
FF
0B
FE
00
0A
00
FF
05
01
02
FC
01
F5
00
09
00
FE
0C
FE
05
01
01
FF
01
FF
02
02
02
FE
10
01
FD
03
E8
FC
05
E3
07
FD
E5
FE
01
FC
FC
02
FE
0B
FF
FF
E7
00
FB
00
FE
02
FE
03
FD
00
FD
03
F6
00
01
FE
00
02
FE
02
FF
02
0D
FC
04
00
05
FB
FD
FD
FF
DB
E4
F4
03
02
00
0C
FF
00
01
02
FE
03
FD
00
02
01
FB
04
FF
0C
04
FB
04
FF
00
01
06
FD
02
FC
FF
FA
FF
FD
00
FE
FF
F2
F9
01
01
00
FE
00
F5
FD
00
FE
07
02
02
E7
01
04
08
05
01
01
0A
FC
01
09
02
F3
F4
FF
07
02
00
10
06
FE
02
FF
FE
00
01
FD
FE
FD
FC
02
FD
FE
FD
FE
00
FF
FD
FF
01
FF
FD
FE
02
FD
FF
01
FE
02
00
FE
FF
02
01
02
FF
02
FC
FE
02
00
FF
02
FE
00
FD
FD
02
03
00
00
FE
FD
FF
FF
01
FF
FF
FC
FF
FE
01
00
FF
00
FF
FD
FF
FE
F8
FE
FF
01
FE
FB
00
06
00
FF
07
08
FE
01
02
02
03
FD
06
00
FC
03
03
01
00
F0
03
02
02
FF
FF
02
02
FD
01
FE
02
05
03
FC
FE
FE
FC
F7
01
FD
03
FF
FE
FF
03
D7
03
E9
01
00
FE
0D
16
FF
03
02
FF
01
FD
00
01
FD
FD
01
FF
FD
FC
FF
FF
01
FD
FD
FE
FD
00
FF
FF
FE
FD
FC
03
01
02
FD
FB
FE
00
01
00
02
02
01
FF
00
01
F3
F8
F0
03
01
02
05
00
FF
FD
01
03
0C
01
0B
00
0D
05
01
FF
FD
EE
FF
01
FE
01
FE
FF
02
00
00
FD
03
01
FE
01
FE
01
FF
00
FE
FD
01
00
FF
FE
02
FE
FF
FE
FE
FE
FF
00
FE
FE
02
FE
02
01
FF
00
FE
FE
02
02
01
FC
FC
FF
FD
FD
FE
00
FD
FF
FD
FF
00
01
02
FC
FE
02
FE
01
FF
00
02
FE
FE
E7
03
02
00
03
F8
FE
E9
FB
06
0A
06
FE
FE
0B
F9
00
08
01
F6
F5
FB
0B
FE
FF
1E
FF
02
01
01
02
FE
FE
01
FE
01
FE
02
01
01
02
00
02
00
FF
01
00
FE
00
FD
01
FE
00
FD
FD
02
00
00
FD
01
00
02
FF
00
FA
01
01
FF
FF
FD
02
01
FC
01
F9
FD
01
00
03
02
01
F0
02
FF
06
FC
07
02
FE
F7
07
FE
02
01
01
01
04
FE
01
FF
FF
03
03
FC
01
04
F6
F8
02
02
00
FE
00
F9
FF
FF
02
02
FB
02
01
FA
FB
FF
02
FE
00
01
00
00
FF
02
00
01
FD
02
01
FE
FE
00
FE
FF
01
FD
00
FD
01
02
02
00
FF
FE
FF
FE
00
FE
FF
FF
02
01
FE
00
02
00
00
FE
01
FF
01
FF
FF
FF
FD
FF
FE
03
FC
02
FF
FE
02
FE
00
FF
02
02
FD
02
FF
00
FD
03
00
FF
FD
01
00
FE
FF
00
00
FF
FE
00
01
00
00
FE
00
FF
FF
01
02
FE
FF
FF
01
01
FC
02
FE
FD
FE
00
03
FD
02
02
F3
FC
01
06
F7
02
05
FA
FF
00
03
FF
02
03
FF
FB
FA
FA
FF
FF
FF
05
06
FE
FF
FE
00
02
FC
02
00
FF
FF
FF
01
02
FB
01
00
FD
FE
FF
FB
FD
00
FC
FB
FB
FB
FA
FB
FE
FF
00
01
02
FF
02
FD
00
F5
02
FD
03
FD
0B
00
FF
FE
02
F7
F7
FE
01
0C
02
FF
04
01
DC
02
F2
01
01
02
0C
12
02
FF
FF
03
03
FA
00
00
03
FF
02
03
07
FB
FC
FF
00
03
04
05
FF
00
F5
FE
FE
F0
05
F3
00
FF
0C
FC
01
01
FD
01
FF
05
FF
02
01
F7
F7
02
00
FE
FC
F4
F4
FC
03
08
FB
FF
FB
FE
F7
03
F8
FC
FF
00
F7
03
FF
FD
03
02
FD
06
00
FE
02
00
04
FE
ED
FB
08
FE
04
02
FE
01
FF
02
0A
FF
FA
00
FD
FF
03
00
11
02
FD
02
FF
FE
02
FA
00
FF
01
03
07
01
01
FF
04
FF
FF
06
FD
E5
01
FD
F0
FD
04
08
01
02
FE
FF
03
DE
FE
02
01
01
01
08
02
01
03
FE
FF
FF
01
05
FE
FD
FE
01
FD
F1
04
FD
F6
01
02
01
06
ED
01
FD
FC
F7
FD
01
02
FE
FF
04
FF
01
02
FC
FC
04
07
FC
00
07
0C
03
00
02
FD
FE
FF
00
04
FA
0A
02
FE
02
E5
02
FE
01
03
FF
FF
01
02
02
01
03
F0
F8
F8
05
01
05
04
00
01
F5
03
04
0B
02
12
FC
11
0A
01
01
F2
ED
01
00
FF
01
00
F6
00
FF
01
01
FC
04
FD
00
02
F9
01
FB
FF
FF
01
01
07
05
FD
FB
FE
FB
01
00
EE
FD
FD
01
00
02
FF
FE
00
FF
02
FE
00
02
FC
FB
FB
FD
FC
FE
01
02
FE
FE
FF
FE
FF
00
00
FB
FF
01
FB
FB
00
02
02
01
FF
02
FE
03
03
F7
00
F9
EC
04
FF
03
03
02
FE
FD
05
03
07
09
05
FF
05
06
01
FE
F5
FE
01
FD
FE
FF
02
FE
00
FE
FE
01
00
01
FF
05
FC
FD
FF
02
01
02
FE
01
06
FE
EC
01
F9
03
02
FD
01
FE
FE
01
00
01
FE
E6
02
02
01
FA
F5
00
09
F6
FA
F5
F1
FF
05
F8
00
01
F9
FD
06
F9
05
DD
02
02
F5
F6
FF
02
01
03
FF
0E
FF
02
02
0A
09
05
14
FE
06
06
FE
FF
00
FE
03
00
FC
04
03
09
FF
06
02
FF
00
F6
FD
04
01
00
02
05
FE
00
03
09
F2
FE
02
02
00
03
FF
01
FB
01
FF
01
04
03
FA
FB
F9
04
FF
FD
06
F5
00
FE
01
01
00
01
00
FE
00
FC
01
FE
FF
FC
00
FF
FF
FD
01
FF
00
01
FE
FE
FC
03
00
FD
02
01
01
02
02
01
01
FD
02
0E
FE
00
01
05
F6
02
01
F0
00
12
F6
02
FE
FC
FE
02
F9
FE
FF
FE
00
F5
00
FE
14
E8
FF
FE
03
01
02
FE
01
FD
00
01
FE
01
FF
FD
00
02
FA
FC
FF
03
04
00
FF
01
FF
01
F9
F8
00
00
FE
FF
FD
00
FE
01
01
FE
02
02
02
00
FE
01
00
FF
FD
FA
FB
FC
FE
00
FC
FF
01
FF
FD
F9
FF
FB
FF
01
00
00
01
01
01
FF
FF
01
FE
FF
01
FF
01
00
FD
01
01
FC
01
02
FF
FA
FE
FF
01
00
FC
FC
01
FC
00
FF
FC
FC
02
FE
FF
FE
02
0A
01
FE
00
00
01
00
FD
06
01
03
F9
FE
00
EE
01
02
FD
02
01
FC
07
F7
02
00
F4
F7
FF
FF
FE
01
00
FF
01
00
FE
FE
FF
01
01
00
FF
00
01
FF
01
02
02
FE
FE
FE
FF
00
FE
FF
01
FF
FD
00
FD
FF
FE
FD
00
FD
FE
01
01
FE
05
FE
00
FC
FF
02
FE
FD
02
FC
00
00
00
FD
FB
FF
FD
01
00
FE
00
00
01
01
01
02
FE
F4
FE
00
FF
EE
04
01
0F
04
06
EE
F8
FC
FC
EE
02
FF
EE
02
08
FA
02
00
02
02
03
E5
01
03
FF
FF
01
FE
02
00
00
05
FC
00
08
00
FD
07
06
00
FE
08
02
04
02
FE
00
FB
03
01
FF
01
EC
05
00
03
FF
02
01
14
FE
FF
02
09
FF
05
11
0B
05
08
07
01
00
FD
FF
03
02
03
07
07
03
0C
02
FE
05
F9
00
05
01
FF
01
0B
02
00
01
0A
FC
00
FC
03
05
06
FA
00
FF
FA
01
02
06
01
01
06
FE
01
02
FE
FE
FB
01
03
01
00
02
EF
FE
FF
02
F4
00
01
08
00
05
00
08
FF
02
EF
00
02
FB
FE
FD
FB
00
03
01
FF
02
F0
02
01
03
FD
00
01
FF
00
01
01
FE
FD
FF
02
02
00
FD
FF
00
FF
00
00
FE
02
00
00
02
FD
FF
01
02
01
FE
01
01
FE
02
09
FE
FE
FF
02
01
03
F9
00
01
00
FC
FD
FF
01
FF
FF
FF
FF
FF
02
02
F4
01
02
02
FB
00
FC
FE
00
00
03
FE
02
00
05
FB
00
FB
FB
FF
01
01
FE
03
01
02
03
00
00
FB
FF
00
00
02
00
F2
02
FE
FE
02
03
01
03
00
FF
01
FA
09
01
03
01
09
FB
F1
FB
FE
E7
00
02
07
FE
04
FD
04
03
FE
02
FE
FA
FD
00
FE
FE
02
FE
02
01
FF
03
03
FE
FF
FB
FF
09
F9
FD
03
00
F9
04
F5
FC
EC
07
F0
07
00
03
01
FB
FF
03
FE
FF
FF
00
FF
FF
FE
02
03
FF
E9
F2
09
FF
F0
02
FA
04
00
02
09
FB
FB
FA
F0
03
00
02
08
06
FE
00
FE
FD
FE
05
FE
FF
01
F9
F9
FC
FE
01
00
04
FF
FF
00
12
03
FF
EC
02
02
FF
02
FC
FF
FF
03
0D
02
03
03
00
FF
F9
FD
01
01
02
00
04
14
04
FB
09
06
FF
FF
06
FD
FE
02
01
03
FE
06
08
FF
FD
FA
09
FF
FD
02
00
01
04
01
02
FD
FE
FE
FD
04
FE
02
02
FF
04
02
F9
FF
01
00
FE
F7
FE
FA
FB
03
00
FF
01
FE
02
FF
FE
02
FE
FD
FE
FF
08
F8
FD
09
EF
01
02
00
08
04
FA
01
01
02
FF
03
05
00
02
03
02
04
FD
FD
00
01
03
FE
00
FD
02
03
04
FB
FD
0B
FC
FF
02
FB
FD
FA
04
FB
02
08
EF
E0
E8
DF
04
FE
FF
05
03
02
FF
01
FF
02
F3
FE
00
03
F7
09
02
14
F2
01
EF
F7
00
04
05
FE
FE
F8
FC
E5
08
E8
F6
03
FD
F3
19
00
02
FE
FE
FF
EB
01
02
FF
F2
00
00
FF
04
FF
F6
F9
F6
01
EB
03
00
FA
02
02
FE
03
DC
03
FF
FF
FF
00
02
FE
FE
FE
FC
03
00
00
06
03
04
F4
00
FE
0F
03
FC
03
01
03
06
FB
FD
02
05
08
09
02
02
F7
00
FF
FE
FF
FE
01
ED
00
01
FD
F2
02
01
FF
FF
00
FA
F2
F5
FD
EC
03
FF
FA
02
FF
FB
01
E3
03
01
FC
FA
FF
02
FF
01
00
06
FE
02
FE
0C
00
FE
F8
FA
00
09
08
FE
00
F8
FF
02
03
FF
02
0F
01
FE
02
FE
EA
F0
FD
02
FE
00
03
02
00
FE
02
FA
00
FE
FF
FE
01
FF
FE
FF
FF
FD
FF
FE
FE
FF
FC
F9
FE
01
00
FE
FD
F9
FF
FF
03
FE
FF
F5
FD
FF
00
F7
FF
FF
06
00
03
03
02
02
FF
EE
FF
01
F6
FD
FC
FE
00
05
00
02
03
E8
01
FF
01
FF
01
FD
FE
00
00
FD
03
02
FE
FF
00
FE
00
FF
FE
01
00
00
01
00
FD
00
FD
FC
FF
02
FD
FD
00
01
00
03
00
0C
03
FF
FE
F9
F7
FE
09
07
FA
F8
00
00
FF
F8
00
FD
FF
FD
05
F3
04
F6
FE
FE
FA
FC
FF
F9
02
FE
00
EF
FF
FE
FE
EE
02
01
04
03
FD
F0
00
F9
00
E3
01
00
F8
02
01
FD
03
D8
01
01
01
FD
02
02
01
02
00
F7
02
02
FF
FF
04
01
0E
FC
04
FF
FD
FC
FD
EB
00
00
F0
FC
05
F6
07
04
FD
FD
0E
D1
FF
03
FD
02
FE
FD
01
03
FF
02
FE
01
FE
00
00
01
FE
FD
FD
FD
FE
FE
01
02
02
02
FE
FE
FD
01
00
00
FD
FE
FD
FD
02
FF
00
FE
02
01
FF
FD
00
FF
FF
01
FD
00
FD
FF
01
00
FF
FD
00
01
01
00
02
03
FC
FD
00
FF
FF
01
FF
F9
01
FF
FD
FD
00
02
0B
F8
FE
01
03
00
01
03
FC
01
03
00
E1
07
EE
05
01
00
F7
FD
00
FC
FF
FE
02
0D
FE
01
03
09
00
FE
03
F4
05
FF
FB
05
FE
EA
FD
00
02
FA
FB
05
FB
00
FE
01
FC
DB
01
FE
00
00
FE
FF
FD
00
FD
01
03
04
F3
08
06
08
03
FE
02
07
FC
01
07
05
EF
FE
03
07
02
FE
04
04
01
00
FE
00
FE
F4
FE
00
02
FE
07
04
F1
0C
07
03
0E
01
04
09
FE
03
FC
05
08
02
0A
12
01
FD
FB
09
FE
00
FD
02
03
FB
FE
01
FE
06
FD
FE
01
FD
02
07
09
01
FC
07
F2
03
0C
FE
FB
FB
00
06
00
00
05
09
FE
01
02
03
01
FD
FF
01
02
FA
FF
04
01
05
FD
FA
0C
FD
FE
07
FF
01
F8
01
05
01
06
0C
00
FF
FA
02
01
00
FE
02
01
08
00
FF
FF
0D
00
06
06
02
02
08
00
04
01
03
FE
02
FC
00
FF
08
FD
06
02
02
FB
03
02
FD
02
FF
FE
F6
03
03
00
F4
F9
FE
FD
FE
FE
07
10
05
03
06
02
01
00
01
FF
F0
02
03
01
01
E4
02
03
03
FF
FF
01
08
01
01
FE
0C
FF
01
02
08
00
07
FF
00
04
FA
04
FF
FF
04
0D
0D
06
F9
02
FE
FC
F0
02
01
FF
FF
01
ED
02
FF
03
FD
00
02
F8
F6
03
02
FA
03
FF
02
FF
02
F9
01
F4
F3
F0
F7
02
01
0E
FF
00
FE
FF
FE
01
03
FD
01
02
00
01
FE
01
FE
FD
01
FE
FF
FF
FF
02
00
FD
FE
00
FC
FF
FE
FF
FD
01
FC
FF
FD
02
02
FD
F7
FF
01
FD
FD
F9
FB
F4
03
04
08
09
01
01
F7
04
01
06
02
11
00
0A
07
02
02
FB
F5
02
01
00
FD
FE
FA
FF
FF
00
0F
00
03
0E
F0
FF
FE
00
FC
04
00
01
02
01
FE
F9
15
F7
ED
02
FE
DF
05
FE
FE
FD
01
03
F0
01
00
00
F8
05
03
09
F8
08
EA
FC
01
02
E4
FF
00
FB
01
FF
FB
FE
03
02
FE
07
F5
02
03
FF
FD
FD
08
02
00
FE
09
01
01
0C
FF
05
02
00
01
01
F5
FE
FE
01
02
02
10
06
FD
02
FE
02
FB
01
04
FF
01
FF
FC
FF
03
02
02
FD
FE
FD
FD
02
02
FF
FF
02
00
FE
01
00
FF
FE
FE
00
FD
00
01
FF
FF
FD
00
01
01
01
FE
00
01
FF
FF
FF
FD
FD
FE
FE
01
01
FE
00
FD
00
02
01
FD
FC
FF
FE
FC
01
FE
02
FF
FE
FE
02
00
FD
F9
01
02
FF
FB
F7
05
0C
00
F7
F8
EA
03
02
08
FF
FD
01
FC
EE
FE
F8
FD
00
FF
07
0C
FF
FC
FF
FF
FF
03
FD
FE
01
FF
FF
08
FB
FC
FE
01
FC
FF
FE
06
03
01
FB
FD
D6
00
EA
02
03
00
08
06
02
03
00
03
01
F8
FF
FF
00
04
05
01
FB
00
06
FE
FC
04
FD
F8
02
FB
FA
FD
07
FC
00
00
FF
01
08
DB
02
02
FF
FD
FE
02
01
FE
00
00
FE
FF
FF
02
FE
FE
FE
FE
FE
FC
01
FD
00
00
FD
FE
00
02
00
FF
FF
00
FE
02
01
02
FE
EE
02
01
01
F5
03
FF
01
02
FC
ED
F7
F8
00
E8
FF
00
FA
03
04
FB
03
DD
FE
FE
FF
FB
FF
FF
00
01
02
09
FE
00
01
06
FD
00
12
02
03
02
02
02
03
02
02
00
06
07
05
03
FC
09
FE
01
06
EC
01
02
FD
FE
01
D9
02
FE
00
03
F8
01
E4
00
03
09
07
02
00
0E
F7
00
0C
03
F3
00
FE
0B
01
FF
24
FE
00
02
FE
00
FD
06
FE
02
03
F5
F9
FC
17
02
00
DB
EA
FB
02
00
FE
FD
07
FC
D6
F5
E9
FD
00
FF
02
FE
03
01
00
FF
02
ED
02
01
FF
01
FB
01
F4
0E
04
FE
0D
03
02
0E
FF
01
07
09
03
02
0A
0D
01
02
FE
01
FF
02
02
FF
FE
04
00
03
02
03
F5
00
05
01
FC
07
05
03
02
07
F8
04
06
04
F4
02
F7
0B
FF
01
05
F7
FF
03
FE
01
03
FE
00
FF
FE
FE
FE
FE
03
00
FF
02
00
FE
02
FF
00
FF
01
01
FE
FF
FD
FF
01
FF
02
FF
00
03
FF
01
00
EE
FF
FE
02
EC
06
02
01
01
00
ED
FE
F8
00
E2
FF
02
F9
04
04
FA
03
DA
FE
FE
00
F8
FF
05
FF
00
03
08
03
02
FE
00
F9
03
FA
01
06
FF
FE
04
FF
04
FB
FD
FB
02
FF
FD
02
FA
02
03
07
FB
FD
02
FD
03
02
01
FE
FF
FD
FE
FE
03
05
FF
FB
02
0A
02
FE
08
02
FF
03
FC
04
F7
03
04
FF
01
F0
02
FF
FE
02
FE
FF
F4
00
02
03
F8
0C
04
FA
F6
FC
F0
E4
FE
00
03
FE
00
04
FD
E3
FE
EB
03
FE
02
05
12
01
FF
00
01
01
FA
00
02
FF
FD
FB
01
F5
06
03
05
0C
02
01
02
04
FF
04
06
0A
F9
05
02
FE
02
F7
FD
00
FF
FE
FF
02
FF
00
00
00
01
04
04
FA
FC
02
FE
FF
03
FD
01
FB
FC
03
00
FE
02
FD
F7
02
FE
06
FE
FF
01
03
FE
FF
0A
FD
03
FF
F9
FA
FF
0E
00
FA
ED
F9
06
FC
FC
01
FC
F4
02
FF
00
07
F8
FF
FF
03
FD
03
FD
FE
00
FF
02
00
00
02
FA
FE
FF
FF
01
FE
00
F5
F6
02
F8
02
FC
00
03
F7
08
FE
F8
FE
00
D5
FF
FD
FF
FF
00
02
FE
FE
FF
FF
F4
F7
FD
0C
01
FE
F8
FD
00
FC
FD
00
FD
01
00
FD
FD
FA
FD
02
00
03
FB
01
FD
02
02
01
05
FE
FD
01
02
03
02
06
FB
01
07
03
FF
FF
FB
FE
FE
0D
02
00
07
FA
FB
02
00
04
01
FF
00
01
00
FE
01
FD
02
00
FB
FF
00
00
FD
01
00
FC
FD
FF
FE
01
01
FE
FE
01
00
FE
FF
FD
FF
01
FF
FF
00
FF
FD
02
02
00
01
01
02
FF
02
00
FE
02
02
01
00
FE
FD
03
FF
01
FF
FC
01
01
01
00
01
00
FE
01
00
02
FD
FD
FD
02
03
FD
FF
FF
00
FE
00
FD
FF
01
00
00
00
00
FF
FF
01
02
FE
FE
FF
FE
FF
FF
FE
FE
FE
00
00
FF
05
FD
01
FF
FE
01
03
0B
FE
01
FE
00
01
00
02
FC
01
FF
02
DC
FB
F1
02
01
FF
0C
01
01
01
FF
00
02
F9
00
02
00
01
05
04
FE
EF
FF
F9
FA
FF
02
02
FE
FE
00
FC
E4
08
EE
02
FD
03
E4
0C
03
01
01
00
00
FE
03
FF
01
00
FC
01
00
FE
FF
00
02
00
FD
03
FF
01
FF
FE
00
FE
00
01
FE
00
FE
FE
FF
01
FF
01
FE
EE
FE
00
01
F1
01
03
FF
00
FE
F6
FE
F7
01
E8
03
FD
FB
FE
04
FB
02
DB
02
00
FC
FC
FD
04
FF
02
FF
01
FF
01
02
03
03
FF
FC
03
02
06
04
00
02
06
FA
01
07
00
F4
FB
02
03
02
FE
03
03
00
FF
FE
03
02
FD
FF
FE
FF
FE
01
03
00
FE
03
FC
02
FF
FF
02
FF
01
00
03
FF
01
FE
FD
FD
02
F9
FE
FE
00
FF
FE
01
00
FF
02
FD
FB
FD
05
FB
F3
FF
03
09
02
FA
FE
FE
FE
04
FE
03
FF
00
FE
FE
02
FE
00
00
FF
FF
FD
FF
04
FE
00
02
05
FA
FF
FE
08
06
F5
FF
05
03
FC
01
02
FB
05
07
06
0A
FC
01
01
F9
F9
01
FE
FD
01
02
FD
00
FE
FD
03
F8
FD
F3
07
00
00
05
02
00
F9
03
04
0A
04
19
FC
10
07
FE
FD
FF
EF
02
04
00
01
01
F8
00
01
02
FC
F9
FE
FB
05
08
03
08
FD
02
FE
FF
FF
08
04
03
F7
02
05
01
FF
F7
FC
03
03
FF
00
FF
05
00
FE
FF
FC
0B
06
00
FF
FF
F9
F7
FD
02
08
FE
FE
FE
FF
DA
FF
EF
02
00
03
16
0F
00
02
02
02
FE
DD
03
00
03
0D
FD
FF
16
F5
01
10
0D
FC
03
01
03
06
FB
00
04
03
F9
FD
FF
00
F4
F8
FF
FE
01
02
02
00
00
01
03
FC
FF
FE
02
00
FD
01
FA
01
01
01
FE
00
00
FE
FB
FD
FC
00
FF
02
00
FD
03
FD
00
FD
02
F9
FF
FF
00
F9
04
01
07
06
FC
02
FB
FF
01
03
05
04
F9
01
FB
02
F3
08
00
01
01
06
FE
01
FD
01
02
FC
FF
01
00
FF
07
02
0B
FD
FC
02
05
02
FD
09
FE
FF
FF
02
F5
02
FE
03
FF
01
F4
0C
01
00
02
02
01
13
01
FF
FE
0B
01
05
0D
05
03
04
08
FD
FF
FE
04
00
00
04
19
0F
13
04
00
02
02
F4
FE
00
FF
FE
00
00
03
00
02
FC
F8
FC
F2
03
01
02
07
04
FF
FD
00
02
04
02
01
F9
FF
06
02
01
F5
00
FE
02
01
00
03
01
FF
01
00
0A
0A
FE
F4
F5
01
0C
F3
04
05
00
05
02
08
FF
ED
0E
EE
FC
FE
01
EE
0D
02
00
00
00
01
FD
01
02
FF
FA
FF
00
FE
FE
FD
05
F4
FC
00
FD
FE
FF
FE
FC
FE
FD
FC
FA
FD
FF
FA
FC
FE
03
02
00
FD
02
01
01
FD
03
01
01
06
F6
08
02
07
02
01
FC
FF
01
0F
02
FC
05
F7
FD
FF
01
FF
01
FE
02
01
02
FF
FD
02
FE
01
FC
02
FD
FC
FE
FE
FF
01
01
FE
01
00
FF
FB
FC
FF
02
FC
FC
01
FE
00
01
FE
01
FF
00
FD
FF
01
01
02
FE
01
01
0E
FB
FE
09
FF
02
03
0D
FF
00
FF
FF
D7
FC
EE
08
FF
02
13
00
01
04
FE
03
03
0F
FF
FF
FD
02
FF
FD
FF
FF
04
00
05
04
FE
F0
FB
FE
FF
03
03
00
03
FC
FE
00
01
00
00
01
FE
01
FF
FD
01
02
FE
09
FD
00
ED
FB
FA
02
09
FE
03
06
FE
03
02
04
04
FE
02
FE
02
00
EB
FE
FD
FF
FE
FE
02
07
FD
01
FE
FB
EF
02
12
00
F7
F2
F4
F8
03
F5
03
02
F4
FF
00
FD
FF
D3
03
03
EC
F2
03
FD
FF
02
FF
FB
FF
00
01
01
FF
01
05
FF
FE
03
00
00
04
05
02
03
F7
FF
03
FF
FA
01
FE
FF
F7
F3
01
03
00
01
01
04
01
00
FE
F3
FF
04
05
04
01
F8
FA
00
01
0A
00
FD
F4
FE
02
04
FE
FA
FD
01
F3
08
02
02
02
01
FE

