F7
ED
03
0C
F8
F9
ED
FD
F7
FA
FE
FF
E8
F4
E8
09
FD
F5
08
FC
02
F9
04
04
04
F7
03
EB
F0
FD
FA
F4
F5
EA
E0
F6
04
FD
EC
06
10
0F
0F
0D
E5
01
03
F1
08
0C
0D
EB
07
01
04
FD
09
0D
EC
05
02
F3
01
1C
FB
FE
02
FE
FF
06
FE
04
FC
03
05
00
FF
FE
02
FC
00
02
FE
FD
FA
FF
FA
00
FD
01
04
04
FC
FE
FC
FB
FB
FB
07
06
FE
F3
FD
02
EB
F6
06
F4
10
F8
F7
FD
D8
FA
F9
01
07
FD
F9
09
F9
F6
FE
FF
FD
0C
F9
07
FC
01
FD
01
FB
04
FD
FE
02
FF
01
03
03
03
FD
03
00
00
FD
FD
FB
04
FD
FE
00
FC
03
00
04
03
FC
FD
FE
FE
FC
02
03
FC
00
02
FB
00
01
FF
02
FD
FC
04
FE
04
01
03
FC
02
FB
FD
03
03
FE
01
04
01
03
FC
F5
FF
05
FA
F7
04
E5
0C
FC
FC
12
00
FC
F7
E1
FE
FD
FC
FE
FE
0C
FE
02
0D
FD
FB
FA
F8
F1
F4
EE
F6
FC
14
DF
0A
0F
0D
FB
F6
0D
1C
0C
ED
1D
EA
1E
FA
F6
F7
F0
1B
10
13
FA
EC
FA
08
F5
F0
0D
02
06
1B
F9
F2
17
F7
E8
DD
DB
FD
DB
ED
EF
00
F1
06
EB
10
FC
E9
03
0F
F6
F8
00
EC
F9
DD
F0
EF
EC
0C
F0
E4
01
03
02
02
FE
02
00
FD
FF
01
FB
FF
00
01
FE
02
FE
00
FF
03
FF
FD
02
FE
03
00
FC
02
FD
00
FD
FF
EE
E8
E3
04
03
F3
D9
EE
05
FA
F0
05
F1
FC
05
FD
07
FD
07
E5
FB
08
04
FE
08
0F
DA
EE
FF
FE
F5
0B
FD
1E
15
FF
06
D3
F6
05
EA
D3
DD
FF
27
00
FF
03
F0
E7
FA
3A
04
F9
F8
CB
EE
E8
FB
FC
0B
13
FC
04
EF
00
12
FD
F8
FB
FA
1A
F5
EF
F9
06
D8
02
C8
FB
FE
08
FF
03
E9
EF
01
04
FB
F2
F2
0F
04
04
EB
F3
02
FF
FB
FC
FC
07
FC
00
FF
F5
F9
04
05
07
F4
FE
02
FE
FC
FF
FB
F9
F4
FC
FE
FB
FE
F9
F9
FB
04
FC
02
1B
1A
FB
09
FE
D9
F1
EE
B6
F6
FA
21
FD
06
07
EA
EE
F8
33
05
05
FF
E9
EE
E7
C4
FD
08
0D
F4
06
10
19
F7
FC
09
10
08
FA
07
0C
15
FC
1E
EF
E8
FB
01
F9
FD
1C
E1
FE
FA
09
01
12
04
E1
F8
07
08
E3
FA
02
00
FC
03
00
FC
FC
FC
03
FC
FB
FF
02
FC
01
FB
FD
01
FD
FC
FD
FD
01
FE
01
FC
FC
02
FE
FC
FF
FB
FD
FE
04
03
01
FE
FC
01
FE
04
03
02
FE
03
00
FF
FC
01
FF
01
FD
03
03
FE
00
FE
00
FF
02
00
00
01
FD
FA
FF
03
FF
FF
FB
FD
FB
F9
FC
00
00
FF
F5
FD
FA
FE
06
F5
F8
FA
FD
FA
03
03
00
F7
01
03
ED
FF
EB
EF
FF
0A
06
F4
FF
07
17
FC
F6
FC
F4
12
FF
03
FB
F6
FA
FC
09
FC
EF
FF
F8
FA
FF
12
E4
0A
F3
F3
F3
0E
05
00
F6
FC
1D
EF
EC
EA
06
E9
08
CE
09
01
F7
06
FA
0B
00
FD
FB
FB
EE
04
0A
1E
FB
FA
01
FD
EE
E2
FD
FA
F1
E5
01
11
E8
01
0C
DF
00
00
F3
05
FE
02
E9
FE
E9
0D
F4
0E
0C
E2
00
08
F4
EC
0C
02
F3
04
05
FB
F0
F5
F4
F7
FE
EC
F7
F7
FD
F8
01
F8
F7
03
FF
FF
00
04
F9
FC
F9
F8
FA
01
FF
FB
F8
07
04
FC
FE
FC
FF
FF
03
FD
FB
FF
01
02
FE
00
FB
FE
03
FF
F5
FB
FC
FA
03
F8
01
FD
03
FB
FC
01
01
FA
0B
03
F6
FD
F3
02
FC
04
E9
FD
FB
18
09
CE
04
F1
E2
FD
0B
EF
F3
F8
F8
F3
09
12
F5
F5
03
0B
CD
0A
F2
0A
F6
13
04
0B
0E
0B
06
2A
03
12
0C
F5
08
FE
0D
F4
16
F5
FB
FF
26
F6
0B
07
FB
03
F0
04
01
FD
F7
FC
02
F5
FE
F2
FD
FA
F7
F7
04
FC
FB
EF
FE
F8
FF
FD
FF
F9
02
03
FA
FA
FB
ED
FF
00
F9
F1
FC
F4
02
F7
01
F9
00
E7
04
FD
01
F5
FB
00
F7
F1
00
01
03
F8
FE
FA
01
FD
EE
FD
FE
F6
F7
08
FE
F6
FC
00
FE
FD
FF
FE
FD
FF
02
FD
FF
02
FF
FC
02
02
FE
03
00
04
FE
00
FE
01
03
02
02
FC
03
FE
FD
02
FF
FE
F1
01
FB
FD
F9
FD
F8
FE
05
01
FB
F8
02
08
FE
FE
05
FC
FA
FA
00
FF
00
F6
02
FA
02
06
FE
F6
F8
F7
0F
11
F5
03
ED
08
02
F8
D6
F8
D1
1A
F0
06
02
F2
ED
F9
11
01
FA
F8
F8
01
F5
F2
08
0D
0C
E9
12
F8
EF
0C
06
F3
F9
F5
05
F0
ED
E1
0A
E4
09
D4
06
FB
FB
12
E8
FD
F2
02
FC
FC
F0
FE
0D
F8
03
F9
ED
09
14
FD
F8
F7
13
04
13
04
08
2C
FD
11
F2
0B
0E
FB
04
F7
DC
F3
FC
FE
20
F9
01
FD
04
D0
EC
F9
E6
FE
03
FF
FC
00
09
F8
06
FF
FE
FE
02
05
FD
FA
FC
03
03
F7
F8
F7
03
FE
FE
FB
FA
01
FF
FB
FB
00
F8
FE
FF
05
F9
02
02
FC
FB
01
01
08
02
FD
FA
F0
04
FF
FE
00
F3
F8
FC
ED
06
FC
F9
00
FC
FE
F8
FD
FA
00
07
F9
FD
FC
02
FF
FB
FE
FC
FC
01
03
FB
FE
F8
FD
FF
FF
FE
FD
FA
FF
FD
01
FD
FB
FA
FD
02
FC
00
02
F9
F8
03
FD
F4
ED
F6
FF
FC
F8
03
F8
FA
00
06
FE
FB
FE
F2
00
FC
FE
FC
04
FB
F5
F5
01
03
F6
F9
02
FB
FD
02
02
FF
FC
04
04
FB
00
FD
00
FD
03
FE
FF
03
00
FE
04
03
03
FF
03
FE
FC
FE
FE
04
04
FC
FB
01
FC
FE
FE
04
FD
03
02
03
01
03
FD
02
FD
FB
03
02
FC
FD
00
01
02
FC
FF
02
00
FF
FF
FF
00
FF
F8
FB
F5
00
F3
E8
DC
00
FC
F7
FC
00
F9
F9
0D
F3
F2
05
F6
00
E3
F7
08
FE
F7
02
F1
F5
12
F8
E8
E7
F7
FA
F4
04
E5
F4
E7
FD
F4
E7
E4
00
FF
17
FD
F6
EC
04
03
F9
CC
FC
0D
D9
F7
05
E1
0C
F2
E7
F5
E9
FA
02
EE
FC
FF
09
EA
0C
0B
0D
10
0C
FA
EB
E3
08
0E
F7
FB
ED
F3
07
DB
00
05
0A
F7
FA
01
03
FC
FF
FF
FF
FD
F9
02
FD
FB
EF
00
FB
F5
FE
04
03
FC
FA
FC
FB
FD
03
F9
FC
FD
F8
FE
04
FF
02
FA
F5
01
FE
FD
FA
F8
01
F2
F1
F8
02
F8
F8
EE
03
F9
04
04
0E
F9
FE
02
F2
04
FF
01
F1
F8
FD
F4
0B
13
FF
F6
E9
03
FD
FC
FC
FF
FF
FC
02
03
FB
05
FD
05
01
FC
03
FF
04
FC
00
FE
FB
01
02
01
FC
FF
FC
01
00
FD
00
FF
FE
F9
FA
FC
FB
F4
FF
03
FE
FE
FD
F9
02
F8
FF
FE
00
FF
F8
01
03
06
FF
FE
02
FC
FE
FD
00
FD
F2
04
FF
FE
FA
01
00
FF
01
00
05
FF
00
FF
FB
FD
FB
FB
F9
FF
01
04
02
FF
03
FE
00
02
01
FC
FE
FB
06
ED
F8
FB
FB
F9
00
DB
18
03
F3
05
08
04
07
F3
F6
00
06
F5
FC
FF
F7
FB
03
FC
FE
F7
00
E0
FB
F1
05
03
01
FC
FC
04
00
04
FF
FB
FF
FB
FD
FC
02
FE
FC
04
00
FF
FE
FD
04
00
04
04
FC
01
02
FE
FF
01
FD
F8
F4
01
FE
00
F6
FE
F8
FB
FA
F2
04
FA
FF
FC
FA
FF
FE
02
EC
FD
FE
02
FA
FA
FC
F5
00
FD
F8
F6
FB
F0
EB
F2
02
FC
F4
F6
E1
F6
E8
F1
FC
F0
04
00
01
F8
00
00
F6
E7
F7
07
EC
00
02
E4
F9
04
F7
F1
D8
D8
F7
F6
03
FC
F6
D6
F8
06
FD
01
FE
F0
F7
EB
FA
02
FF
07
12
FE
00
0F
EC
09
07
02
E5
FB
FA
F7
EA
FD
02
04
FD
03
FD
FE
00
02
FC
02
FE
05
00
01
FF
FC
03
FE
FE
03
FD
FD
00
FD
01
00
FC
FB
01
FD
FB
F4
F1
08
02
F1
05
E6
02
F6
EE
03
06
E5
02
C0
07
FE
05
05
E5
07
ED
02
10
F4
F7
FF
FD
F0
F1
ED
E3
00
F9
01
01
FC
FC
FE
FC
01
03
02
03
F9
FC
FA
FD
FF
FD
02
04
FE
FB
01
01
FF
FD
FB
05
01
FD
00
03
FD
F3
FF
FA
FD
ED
F8
FD
F9
15
0D
E7
FA
FA
08
ED
DD
EE
FC
FA
08
00
03
F8
04
FD
F7
F9
10
F9
EC
00
02
0F
0A
ED
07
05
09
0E
01
FA
F9
01
00
0C
09
F7
FA
05
00
D8
04
F5
FF
0A
FA
FE
FF
12
E1
F7
04
EC
E4
17
08
F3
05
01
C2
D2
F1
07
02
F8
1A
0B
EF
F9
F4
CE
06
08
9E
07
F9
FE
01
FB
9E
F5
05
11
F5
B8
F9
FF
FB
00
FC
F9
F8
09
F9
F7
FD
FD
01
FE
FC
01
F5
FF
00
01
05
01
FF
FC
FE
F9
FB
FE
03
02
F5
04
FB
02
FE
03
03
01
FC
01
02
FE
FF
02
FD
02
04
FC
FD
03
01
FC
FE
FE
01
00
FD
03
FA
FE
04
03
FC
FB
03
04
FB
01
FD
FF
FC
FD
03
00
FD
FF
FD
01
01
FB
04
FE
03
FD
01
FB
FF
00
FD
01
FF
02
01
00
FC
FE
F9
FE
06
FE
F9
DD
FE
DD
F4
FB
BE
01
00
FB
02
0C
05
01
00
EC
11
F7
0D
C3
F5
F3
F9
EE
F1
FC
FF
EE
09
1A
E6
FB
10
15
05
F5
0B
07
16
05
24
F3
0E
FA
05
FA
F6
0A
00
08
06
0A
FE
15
FE
FC
EE
0A
02
EF
E8
1D
13
04
02
F8
E6
FD
F5
BA
00
09
26
01
EF
00
FA
ED
F9
36
FE
FE
01
FE
F1
F8
DC
E5
FC
0F
0A
01
FB
E9
01
04
F7
F3
F9
F8
F7
FF
F0
03
F1
F5
FE
09
F8
F9
F3
E5
02
02
F3
F0
FF
FB
F1
F6
FB
FB
F9
EA
00
02
FE
00
FF
04
FD
FD
FF
FC
FD
F9
07
FD
FE
FC
FC
F8
02
FB
00
FC
FC
FA
FF
00
FD
FE
FA
FF
FB
05
E2
FE
03
FD
F1
F1
F5
EA
F5
01
F5
F6
FF
04
05
06
F9
09
FD
F6
10
00
13
F0
F2
FC
FB
02
05
EF
FD
FC
0F
0D
F6
F9
02
11
05
17
05
0B
1D
00
10
F9
00
E9
01
FF
F0
F9
E4
00
F5
20
F2
F8
06
05
D4
F8
FC
F6
02
00
04
02
00
01
03
FC
02
03
00
FF
FC
FE
FF
FF
FE
00
FF
01
04
01
02
FF
FC
FB
FF
01
00
FF
FD
01
F0
1E
12
0C
01
FE
FF
F6
00
D8
08
02
21
FE
03
01
F1
EB
FA
23
03
F9
F9
FF
FA
F4
F6
EF
03
11
FD
03
E8
F8
F4
00
00
E9
D7
E5
05
0C
F4
FF
F3
F9
EF
FE
FB
FD
09
E2
02
07
09
D9
09
09
EA
E7
09
F7
F2
F7
F8
08
F7
03
E9
EA
F3
DB
EA
13
D4
00
F4
EA
FE
02
FA
00
04
C7
00
FD
FF
D2
0A
00
FE
FD
01
05
FD
D2
FB
FE
FA
04
03
03
01
FC
02
04
01
FC
FF
04
FE
FE
03
FE
FD
02
00
FB
04
00
04
03
03
02
FF
FC
00
FB
F8
F9
03
08
F5
F7
ED
F7
F4
F4
F2
F9
F9
F9
FC
09
F9
FB
FD
F8
FB
02
04
F5
FF
F5
F7
F9
09
01
FC
D0
FC
FD
01
FD
03
04
FB
FC
03
01
03
03
01
FD
FF
FC
FD
01
02
FC
00
FB
00
FB
FD
02
04
FB
FC
FE
01
FE
00
EA
DD
F9
F1
FE
F3
0E
FD
F4
02
EE
FF
01
F2
E0
F1
FB
05
FC
F2
F7
00
08
F9
01
F8
EA
F8
E7
F5
F3
03
00
E7
F6
09
03
F9
F9
04
0B
13
F8
04
E2
10
05
FB
FA
F0
08
0E
01
06
F5
F9
08
FF
F4
0C
FC
03
06
FE
01
03
F7
02
FD
FC
00
01
FC
00
01
FF
FD
00
04
FC
FD
FF
FF
00
03
F8
05
FF
FA
FB
FE
04
03
FE
02
FF
FE
00
F8
FB
FF
F9
02
04
04
02
FC
04
F9
06
F8
00
F9
FE
F9
FB
FC
FD
FE
01
FF
F8
FF
FD
00
FC
FE
FF
00
FE
FC
00
FF
FE
FD
FF
FC
00
FA
03
FE
F8
FC
FC
FC
FF
FB
FC
F4
01
FD
FA
03
FC
01
F8
FC
F7
FC
ED
00
FB
F7
F7
F3
F9
F9
F4
FB
EB
01
F5
F7
FA
03
F6
FA
FA
F9
FD
FE
FA
EB
01
FA
F4
FF
05
FE
01
EF
04
03
FA
F5
FB
05
F7
01
03
06
01
FC
05
00
F5
F9
06
01
00
F5
FD
00
F5
01
04
FE
02
01
FC
F5
05
F7
00
01
FD
FC
02
FC
04
FD
FD
FE
00
FC
FC
FE
05
00
02
04
FD
03
FB
FB
00
00
02
00
00
FC
02
00
00
01
FC
07
FC
FE
01
FF
04
0A
04
F5
F7
FE
0C
01
FB
00
01
06
00
F8
01
F8
F5
FF
F9
FE
FB
F8
F6
FE
FE
F9
02
1B
0C
F6
EC
FB
FC
F6
DD
ED
FC
F4
1A
FA
F2
06
D3
06
FD
04
16
F5
02
FD
EB
F5
01
F7
F3
12
FB
0C
02
02
01
00
00
FF
FC
03
FC
FC
04
FC
FF
04
01
FF
FC
00
03
04
00
01
FC
FD
FE
FC
FD
05
02
FE
FF
FD
02
04
01
FD
FF
FB
FE
FD
FD
00
FD
03
FD
FF
FD
01
FD
00
FD
FB
05
01
FD
02
04
FE
02
FC
03
FC
FD
FD
07
EF
0B
05
F9
F7
08
0E
F8
F9
D5
D9
D5
03
F9
05
FB
03
00
04
F6
07
00
F3
FD
E2
0A
F9
08
F8
0C
E6
02
C1
17
06
F6
F7
FE
F7
E9
E5
F1
EB
E4
01
FD
00
05
E9
0A
F6
ED
FB
F3
FC
F7
F7
05
F4
F1
E2
08
F9
F7
FE
FD
FA
FB
03
FF
FF
FD
00
01
F9
FB
01
FF
FE
FF
02
FF
01
FE
FF
FD
01
FA
FA
F5
FD
01
FC
FC
FA
FE
FE
02
00
01
FC
FE
04
FE
03
FC
02
FD
FF
FE
04
FE
FC
FB
03
FC
02
01
FF
FF
03
FE
02
FD
FB
FD
FC
F3
C9
09
FF
FF
EB
04
F4
EB
E5
ED
01
E4
F6
01
08
FB
F8
06
DB
03
F7
E6
F5
03
ED
FC
07
E1
04
EC
F7
05
07
05
F0
0C
FE
04
FC
FF
00
02
00
0F
02
FC
F8
FF
02
F5
06
FC
F9
ED
06
F9
FF
03
F6
00
0C
FE
F6
FE
01
F7
FB
FB
FC
FB
00
00
FB
03
03
05
FF
00
F8
00
FF
FA
FA
FD
01
FC
FD
02
00
F8
FC
01
FA
00
FC
0A
FD
15
F5
FF
04
0A
F1
05
0A
0B
0B
06
FF
E8
F7
02
03
F9
E1
F1
FA
DE
08
01
08
13
EB
FE
EA
0D
08
04
FA
01
01
00
FD
FE
00
FC
02
FF
FB
FF
FE
04
03
01
F8
FE
FF
FF
03
FC
FE
FD
FE
FF
00
01
FB
03
FE
FF
FE
01
FE
FE
05
F9
09
03
FE
06
FF
00
02
F8
FB
FF
07
FB
F5
FF
FD
04
02
01
FD
FC
02
02
F6
02
FF
02
04
FF
FE
FC
FC
FD
F9
FF
00
00
FA
08
05
00
01
FE
02
F8
FA
FA
FD
00
F9
FF
FF
FF
FA
00
05
01
FA
0A
F8
FC
04
EE
F7
ED
F5
EF
EC
E8
DC
F5
F9
0F
CE
F2
F5
0B
FF
EA
F8
07
DF
FC
F7
E5
F2
E2
E3
FC
F9
02
FC
E3
00
06
06
FC
F4
0B
08
19
FB
11
FA
0A
FF
01
02
FC
03
07
0F
06
05
04
0C
FC
01
F3
07
0B
F9
EF
0F
DE
06
12
11
12
02
09
E1
F7
0A
0E
03
D9
01
03
F7
F6
0E
EB
F9
FD
F8
04
0B
FF
07
08
00
F8
EE
F6
FA
EB
03
01
F3
EC
0A
05
FC
F5
0A
F1
03
02
F8
00
09
00
EF
EE
09
06
F1
0A
0D
E9
F0
0F
FC
F8
DC
F0
01
13
F1
F9
F2
E4
FB
F3
E5
FC
E5
0E
00
E3
0A
E7
DC
FC
1E
F3
FC
F8
FD
F2
F4
DC
FC
F7
0D
FB
E5
FF
FA
00
00
FD
FF
FE
FB
01
00
FD
03
00
FD
03
FF
02
FC
04
FD
03
FE
FF
FD
01
FF
03
01
03
FE
01
FD
F7
EC
F3
01
F6
F9
EA
F6
0C
ED
11
00
DD
06
FA
F5
00
FD
09
DF
F6
F7
FF
03
08
0B
E3
EE
0C
EE
F5
FD
07
06
05
F8
09
15
00
1C
03
0D
2A
FC
13
FE
FD
FC
00
04
F8
FA
EB
00
FC
20
F6
00
FA
0B
DE
F0
FB
E1
F5
F3
0F
12
FA
F3
FD
07
FA
FA
F1
07
E2
0A
D1
07
07
FD
00
F4
01
F8
0F
FC
00
F6
06
09
F7
F7
F5
01
FC
FE
FF
F8
FC
06
00
F2
00
03
04
01
FA
F7
05
FF
FF
F8
F9
F9
FF
01
F0
0B
F8
FE
01
F8
FA
FA
01
FE
FC
ED
FB
00
01
F7
F6
FF
FC
FA
F6
09
F9
FD
FA
06
04
F7
FC
F8
FD
FF
F8
01
FC
FC
FC
FF
FF
03
00
FA
F9
F9
F4
F7
F8
02
FC
11
FD
05
10
FF
01
01
EF
F2
F5
00
F6
F2
05
02
FD
11
EC
F7
F1
FF
EB
01
F0
E5
01
05
E5
FD
0A
08
00
F4
0C
06
1D
0D
09
F9
F4
FE
00
F6
FE
02
FE
12
04
09
00
16
04
01
EE
FD
06
F9
03
F2
F4
F7
F8
06
F6
01
05
0D
0E
FC
02
01
FB
F3
FF
FB
F9
EA
03
04
F7
FF
01
01
F3
FD
0A
FC
02
F4
00
04
09
FD
FA
FF
08
FC
FC
FC
FE
01
03
03
FD
01
FE
FF
FC
F4
FB
FE
F7
04
FB
FF
FD
FC
FF
FB
FD
F6
F8
FD
FF
FC
FC
00
FC
03
F9
F7
F1
FC
F1
F8
F3
FD
FD
F8
FF
F5
FC
F9
F7
FE
FF
F6
FD
F9
FA
03
F7
03
0E
F5
FD
FA
FF
08
0B
FA
FC
13
1E
DB
EF
F1
1E
FF
F0
FC
F3
0C
0D
14
FD
18
EE
03
00
08
1B
F0
FF
06
03
DC
F5
EF
F7
F5
0A
D6
E9
FF
F5
07
E9
04
03
0B
02
02
EF
02
02
F7
02
E6
F4
04
FA
05
FC
F7
F8
0F
FC
F8
07
FC
F8
F7
00
03
F9
FB
FA
02
FB
FD
FA
FE
00
FE
FA
F9
FD
FD
F2
F3
02
F9
00
03
07
FE
00
F5
03
FA
01
0B
03
FB
14
10
FB
EC
01
01
08
0C
0C
F6
FB
0C
01
EA
01
E6
02
13
F8
02
FF
12
ED
03
04
00
00
00
FB
FE
FA
FF
01
FC
FF
FE
FF
01
01
FC
04
04
FD
04
00
FE
03
FC
02
FD
FB
01
00
FF
02
03
FB
03
02
01
00
01
F7
06
FE
06
FA
FF
F9
02
FD
FE
01
F6
FE
00
F7
FA
FF
FB
F6
01
F8
F9
FE
01
FB
FC
F8
FB
01
FD
00
00
FC
FF
FC
02
01
FC
00
FA
FC
01
F9
FE
FE
FC
F7
F9
02
FA
FB
FA
FF
FE
FB
FF
FE
FB
FC
00
FA
FB
01
FC
0A
F7
0D
FF
F7
F7
FA
F7
FF
04
FF
04
F2
F2
FC
0E
E3
FF
ED
FD
FA
FD
06
04
ED
F2
05
E1
07
1C
16
04
02
F6
03
F2
F5
EE
FE
F9
26
FB
07
04
F2
E8
FB
14
07
02
FF
FF
F0
EB
01
F8
FF
14
02
07
FD
F1
F7
05
F1
EB
F7
F6
F4
02
F8
02
EE
00
00
09
00
01
F3
FE
FC
02
01
F5
02
F8
F8
FF
FF
F7
F4
F3
F1
D5
0D
F6
DC
F2
09
F0
F8
FE
01
E4
DE
05
11
0D
DC
C5
FC
EC
10
EF
FD
F2
E8
D7
DA
FB
EE
E7
01
15
FE
F1
1E
08
FB
EC
F9
09
E8
FB
EC
06
CD
FD
00
0E
01
F0
0E
FA
F4
F2
00
FE
06
EE
04
F0
05
05
F8
E3
FD
FC
FD
FB
FB
FD
FC
00
FE
01
00
FE
02
FA
FD
FC
03
FB
FC
F7
FC
FD
FD
FD
FF
04
02
FE
F9
00
FF
F7
FF
03
01
F5
FF
04
04
F2
00
FC
E5
00
03
FC
FA
F1
03
F9
00
EC
EB
FC
F0
E6
04
F8
08
FB
F7
FE
01
F0
04
F4
F1
F9
04
0A
08
FD
09
0F
23
F7
FE
F0
17
F6
FA
02
F1
11
18
07
FB
07
FD
07
FB
06
07
F1
02
0C
E8
C4
F0
FF
F5
F2
EB
ED
F2
09
FA
F6
E3
07
0F
FE
FE
F9
F5
FF
FC
0C
FF
03
FD
EA
E1
05
02
EA
06
EA
F5
1A
0A
09
08
FE
FC
FB
F1
E6
FC
FC
1B
F7
14
09
FC
01
F4
FF
1D
F9
FC
F8
DF
F5
EB
01
02
08
FC
19
0A
0C
09
FD
02
10
07
19
01
0D
2B
FC
10
F8
06
06
00
03
F1
0A
F5
08
FB
28
F2
FE
02
08
D9
F7
FD
F0
00
02
FE
00
00
FC
FE
FE
FD
02
01
FC
FD
02
FE
FB
FD
00
FF
FB
00
FB
F9
05
F9
02
02
02
01
00
00
01
FA
F4
F7
FB
F9
E1
E6
10
F3
EE
F6
0D
F2
FE
F1
01
04
08
09
EF
F1
00
09
F8
08
FB
E4
F9
11
FE
E2
D6
FF
FF
00
FB
FF
03
FE
02
02
01
01
03
00
FE
03
FF
FF
03
F9
FF
FE
03
00
FC
F9
FF
01
FD
FB
FB
FC
01
FC
ED
FA
05
06
FA
FC
F2
04
FC
F2
F9
F8
01
00
FF
FF
FA
F9
06
03
FE
FD
F7
04
FE
00
FD
FA
00
FE
02
FF
FA
FC
FC
FE
FE
02
FE
FD
FB
00
01
FA
00
FE
FB
F9
01
FE
FE
02
FF
FB
FB
FF
FE
01
FE
01
FA
FC
FD
08
11
E6
0D
12
09
06
EF
07
18
2F
FC
0D
F2
1B
02
FD
FD
FF
13
F2
0B
06
05
FF
0F
FB
05
F7
0D
FE
DB
F6
1D
EB
FA
0A
FE
16
F1
FB
F9
FF
09
20
0B
E9
02
06
03
EF
D1
0E
FD
00
FC
F4
01
D2
05
10
07
ED
14
FE
E6
E1
F7
08
FF
0C
F0
FE
18
F8
0C
FF
09
08
FB
02
FF
02
E6
DE
10
F7
E8
FC
08
05
F8
FB
EF
0C
E8
EC
E8
F6
09
FF
DE
DC
0B
02
F9
01
07
E8
F6
F8
FA
05
02
09
DF
F7
04
01
FE
0B
0A
E6
F9
F0
FC
ED
01
F2
FD
0C
08
F7
E6
F1
04
DE
EE
EB
F2
C3
F4
13
0C
F8
C0
08
1C
EF
0B
FE
F0
01
F2
11
DC
0F
00
FD
F5
03
00
FE
FB
FB
08
F6
FE
04
03
FD
FF
05
FA
F7
FB
FE
FF
01
FA
FE
00
F9
F9
04
04
FF
FD
FF
F6
04
F6
FA
F0
01
F9
FC
F0
F6
03
FA
00
F9
FC
F1
01
FD
02
00
F9
FE
FA
04
FF
00
F1
FF
F9
F7
FB
03
F7
F4
FD
04
FA
FC
04
00
05
0F
F9
04
0F
23
F5
E9
FE
14
F1
FF
0B
F3
0E
07
06
0C
13
FA
07
05
09
0B
F4
00
FE
FB
FD
00
02
00
FD
FD
03
04
FC
03
F8
05
01
FC
FC
FE
03
FB
04
FE
F9
FE
FD
01
01
F9
01
FC
00
FB
03
F1
D9
04
07
03
FC
E5
FD
E3
FC
F5
08
FB
FC
F4
08
FD
EF
01
D4
FE
FB
D8
F8
00
F8
F0
ED
F1
02
EA
FD
02
F5
F7
FE
FC
F4
F7
F6
FB
FF
F1
02
F4
00
03
FD
FF
00
00
FF
F5
03
FF
EF
05
F9
F6
FE
02
F7
FE
E7
01
1F
1A
05
06
EF
00
01
E5
F4
02
F5
2A
F8
FC
05
E8
E9
FB
16
08
0A
F9
05
F1
EC
03
01
05
0C
FC
0D
03
FD
02
00
03
02
FD
02
FC
00
01
FE
FF
FE
FD
03
FE
00
01
FC
FF
FC
FD
03
FF
04
03
FC
01
01
02
FC
00
F4
F0
FE
00
F0
DE
FF
EC
D2
DC
03
EA
F5
F1
05
04
F8
0D
EA
F6
F7
05
ED
08
F7
00
EE
F9
FB
FC
DD
F9
EE
01
08
FF
F4
E7
0C
F5
F6
F5
F4
E2
F9
ED
02
FD
F0
0B
00
F3
02
FF
04
05
FC
01
F3
FB
FA
FD
F2
00
F9
01
F9
FE
03
07
F9
FD
FF
FA
FB
FF
01
F8
F3
01
00
03
FB
FA
01
F8
00
FB
FA
01
FD
F2
FD
FC
F3
FD
FD
FE
02
02
FB
FF
00
00
FD
FC
FF
FC
01
FD
00
FE
FE
FE
03
F9
FF
FE
FD
FE
FA
FB
FB
01
01
00
FF
04
03
02
01
02
03
00
FD
03
FA
02
FD
FC
03
FE
01
01
FF
02
FF
FC
02
FE
FE
00
FB
04
00
00
03
FE
FE
FD
02
02
FF
03
01
FE
FE
FA
FA
FB
FE
02
00
01
00
FF
FB
FA
FE
FF
FD
04
04
00
FD
FF
03
FD
FC
FB
FB
F3
F3
03
00
FB
E9
F3
F7
F5
FA
F7
00
F3
FE
01
ED
F2
F7
00
03
F2
FD
05
F2
F4
F6
FA
FE
F9
F8
F6
EF
EF
EA
E4
FA
03
ED
EA
EE
05
FC
F2
FF
D9
0A
FD
F9
0B
00
09
EF
15
07
04
00
0E
08
E5
E9
03
F1
EF
11
FE
FA
EA
F6
05
08
F5
F6
07
16
1E
EA
F2
DE
12
E5
02
FB
F2
13
D2
0C
EF
DE
03
02
F2
EA
16
F0
07
E9
00
F8
FB
02
FC
01
F8
FC
FF
09
F9
FA
F8
FD
06
FF
02
F7
FE
FE
03
04
FD
F1
FB
03
FC
FC
06
FA
01
04
00
01
01
FF
FC
01
FB
04
02
FF
01
03
FB
FD
02
01
FD
FD
FE
02
03
01
FE
FC
FD
01
FD
FC
03
01
FF
00
00
FF
01
FB
FF
01
00
01
03
00
00
FC
FC
00
FE
FA
03
FF
FF
FB
F6
01
FC
01
F8
03
00
FF
01
FE
02
F9
0B
02
F5
F9
EC
0B
E5
F1
FF
FB
E4
F7
FF
F8
0C
EF
02
03
FC
DD
0B
07
05
F3
06
FB
EA
F7
FE
FF
04
00
F6
F6
FA
02
FA
F6
F0
F0
F4
FC
E6
F8
F2
F8
07
00
FA
FE
FC
FF
FB
FF
FD
EF
00
FC
00
F8
04
FE
FB
ED
01
FD
FF
FB
02
FD
03
FF
03
03
01
FB
FF
03
FF
FD
01
FE
02
00
FC
01
04
FD
FE
03
01
00
FC
FF
01
FC
F7
03
EE
00
0F
F3
FB
F8
05
F6
F9
08
12
09
DF
04
FD
01
F3
27
F6
FF
FE
FB
FD
04
F8
F6
F6
FD
F9
00
02
FF
FC
FA
03
FD
01
04
08
FB
FE
03
07
04
F4
FA
05
01
FF
F0
F5
02
FD
06
FA
FE
FE
03
F6
FB
01
FB
00
03
FC
01
FF
FF
02
FE
01
FD
00
02
04
00
FF
FD
FC
02
FC
FF
02
02
FE
02
FE
FE
FD
FE
FF
02
FB
02
02
10
15
02
00
F7
07
FD
E9
F6
0B
06
23
08
E6
0D
F4
EF
00
0A
F2
08
ED
0F
01
FB
04
00
ED
0F
F4
FF
FF
FD
FD
FF
03
FD
FB
FD
FD
FE
FD
FB
01
01
FE
FB
03
01
01
02
FF
00
FE
03
FC
00
FE
FD
FB
FD
FC
05
F9
03
FE
01
FF
FF
F6
03
03
02
17
FD
FA
FB
01
FD
FD
03
FC
00
03
05
01
08
FE
00
FD
FD
FF
FA
FB
F9
0C
19
F5
FA
F7
13
00
FD
03
11
1A
E9
0A
E0
12
E4
F8
F8
FA
FC
DB
10
FB
16
F7
FF
FF
F6
0C
04
FF
0C
02
04
EA
0B
0D
02
F1
F6
05
F6
FF
04
FC
00
F6
F7
F8
FD
04
00
F1
02
07
E6
03
10
F6
EE
F6
F6
FA
DE
0B
11
09
FD
08
16
06
1A
08
0D
2B
FD
12
FA
03
F6
FA
FD
EF
FE
F0
01
F8
1D
F3
F8
FE
06
CB
F5
F8
FD
EF
03
14
07
F8
DC
F7
E8
FB
F8
DE
D8
FA
03
0C
01
FB
CF
FF
1F
0F
0D
06
E6
F8
E7
05
06
12
07
12
14
FF
21
1B
FF
00
F5
FF
F8
E9
F0
FE
F6
20
00
FD
08
E9
EA
F8
13
09
FF
F7
FD
F2
EC
FE
FC
FC
14
F9
0E
02
19
1B
08
03
F4
03
F8
E9
EF
08
F4
24
FA
02
01
EA
E4
F5
18
0E
08
FA
0A
F1
EA
04
FC
0A
11
F9
11
F6
FB
07
0D
F5
FF
FF
03
EA
FA
EB
E9
D6
07
F8
F3
F3
E6
0D
F3
E2
00
04
F5
FE
F8
05
E0
FF
02
02
ED
F8
FA
02
FB
03
01
00
0D
FB
00
FE
03
FC
01
F4
02
FC
03
FB
F8
F7
00
FB
01
FD
FD
04
04
F7
F6
00
F8
FC
01
FE
04
02
FE
01
FF
04
FF
05
02
00
FD
00
FF
FD
FF
FF
01
00
FB
04
04
03
01
03
FF
03
FC
03
03
01
FC
F6
FD
03
00
03
F8
00
04
02
FD
04
01
08
FC
FC
FB
FD
FD
FE
FD
F6
03
F7
05
02
01
00
03
01
F0
F9
EE
FB
0B
FF
F3
EB
00
03
04
F2
FF
E2
FA
FE
04
FF
FE
07
F5
10
05
03
00
07
02
FE
F0
FC
F9
F8
0A
07
E4
FC
E4
DF
FB
15
D1
EA
FF
FD
D7
01
12
0E
02
E5
03
F5
F2
11
F8
06
F7
EE
FB
EB
11
FE
F1
FF
1B
F4
E9
FD
08
07
E8
DF
E6
FE
F0
F7
FD
EE
00
E3
01
01
01
08
E7
FA
07
0C
05
06
06
E5
EB
EA
F8
ED
FB
F6
1C
15
FF
02
F5
FB
F5
EF
E5
07
02
1B
FB
03
04
F1
E5
F7
25
09
F8
FD
FE
F0
EB
F9
F9
0B
11
FD
09
EB
FB
05
05
FF
F8
F6
0A
F2
FB
EC
07
F1
07
D2
05
01
00
07
DE
E3
01
01
FA
F9
F0
F5
08
F7
01
E5
F8
01
FC
FB
FE
02
FE
FC
01
01
FF
FB
FC
FE
02
FC
F9
F9
FC
FD
FE
00
FB
FB
00
FD
01
FB
FD
FD
FC
FD
02
00
08
FE
03
FE
01
F9
01
00
F9
00
F9
07
F9
01
FD
00
FF
F8
01
FB
FE
FC
03
FD
FD
00
F8
FD
04
FE
02
FF
EE
E5
FD
FE
F4
ED
EF
08
07
07
F9
E9
FB
09
FA
FE
FD
05
E5
0E
0C
05
ED
08
0E
E1
DA
0D
F9
FC
09
F4
F2
FF
00
FD
F2
FA
F2
F6
F2
F3
00
F8
F9
FB
FF
FC
F5
00
FC
F1
FE
03
F1
03
F8
F2
F7
FB
FF
F9
D0
FD
F8
FC
05
03
F8
06
02
F8
00
FB
FF
01
02
FD
FD
F9
FF
FD
FA
00
02
FB
F8
FA
FD
02
07
FD
02
FD
F9
F6
E5
FE
08
FC
F1
F3
F4
F1
F7
00
FC
EF
02
EF
07
F9
F3
03
F3
00
00
07
FF
01
ED
EB
FD
E8
F7
E3
FB
F3
FB
F2
FF
08
14
FD
FB
03
FB
FC
FE
0C
07
F4
00
F8
FF
03
F2
F5
F7
FF
DE
F6
0B
03
01
F3
F8
FD
D6
F4
F3
0C
01
E7
DE
F9
DB
BF
E3
E3
03
00
07
FE
12
E5
ED
F1
03
06
FE
F0
F1
E4
E6
FE
00
F8
0A
F0
D5
04
09
22
FF
F2
F0
EE
E6
F0
FB
01
F7
FC
F3
16
0F
F7
DC
06
F9
0E
0A
FA
00
04
EA
02
08
10
12
00
14
01
FD
F6
F6
03
01
08
F1
E7
F7
F7
F5
17
07
FD
F8
ED
FF
FB
EC
DB
01
00
FC
E3
07
FE
09
FC
FD
F6
D7
CA
F6
09
FE
E6
E9
F4
D8
F2
0C
F1
CE
10
F3
0D
08
F4
CA
EE
04
0A
09
F5
EB
06
E7
E7
E6
1A
F7
0F
F0
ED
ED
FA
08
F8
AD
F5
CD
EB
F8
B9
FF
EC
FA
04
12
F3
F6
0A
0F
F6
FD
03
C1
FD
FB
ED
12
02
FE
F2
D1
12
0F
F3
09
05
18
F1
FF
06
00
FE
FA
1A
F0
EF
07
F8
F4
F9
10
F8
F4
FD
15
FF
05
FB
E8
FE
0B
05
D1
00
FE
00
FB
F3
07
F1
FF
FA
FE
0D
05
FB
F5
E7
03
05
00
F8
E4
FC
06
FA
02
FF
F3
FE
F3
FF
FB
F7
F0
F9
FC
FB
FC
01
F8
FC
03
04
F7
FA
01
06
FA
F8
FC
FF
FA
F7
F7
01
01
FD
F8
F9
FB
FE
03
FD
04
FF
F8
F4
E8
09
1B
E4
FC
EC
FF
F1
EA
EF
FD
CE
FF
DA
0B
FD
00
02
F0
05
E7
FB
F2
02
EC
00
F0
1A
01
FD
EA
F5
FB
F2
01
FA
08
E7
F5
F8
E0
C9
01
F6
00
EB
EB
04
FE
09
F5
F9
F7
FF
DD
06
F7
FB
FC
00
01
06
00
06
F9
02
FD
FC
00
04
FF
01
02
F9
F8
FB
FD
FA
01
FC
02
F9
01
FC
FE
F6
FE
FA
FC
04
F8
00
FF
00
FA
FA
F6
FF
01
FA
F4
F2
F9
FA
FB
ED
FD
F3
00
F4
04
F7
03
02
F9
FB
02
FF
F5
F9
F8
F8
FE
01
FE
F9
ED
F7
02
F5
04
FF
04
F2
F7
00
00
01
FA
02
FA
F9
FA
FA
F6
F9
05
FE
02
FD
F8
02
FE
F4
FE
FC
FF
F9
FE
F9
E5
EC
EB
FB
01
F2
FE
03
12
20
0C
EE
02
F7
F3
04
FF
06
EB
F5
F9
FF
00
06
0B
F7
0F
0A
F9
00
05
FC
FB
FC
FE
FB
04
03
FF
02
FC
FF
00
FE
FB
FE
FA
FE
02
FD
FE
FA
FF
FF
02
01
FA
04
01
FA
00
03
FA
02
FF
FB
01
02
FF
04
01
03
01
03
FE
FF
FF
FC
FD
FE
FF
FE
01
FF
02
01
FB
01
03
FE
FC
03
02
00
03
F8
1C
1F
07
FD
EB
FF
FF
E6
F3
05
F1
22
03
F9
06
E1
E5
FD
1D
0B
FD
F9
FE
F5
E8
01
00
0A
0E
F9
09
FE
FC
00
FC
FF
FE
00
FB
FE
00
FF
FE
02
FE
03
00
FB
FD
FB
04
03
FB
FE
FF
FB
FD
02
FE
04
FE
03
FF
FF
02
02
FD
FF
FF
08
01
FB
F5
FC
FD
03
01
F7
00
FF
FF
FF
01
02
FB
FE
FA
FC
F9
FD
01
FC
F9
FE
06
FB
02
00
FA
EF
07
DF
FC
F7
06
0B
01
FD
F4
D5
0A
FD
F6
F7
E3
F6
00
F2
05
FD
EF
FC
F6
02
F9
F8
EC
FE
EE
FA
FE
F0
F4
FC
FA
F4
F7
ED
F7
F7
01
FE
FF
F4
01
FC
FB
FF
FF
06
EF
F5
FE
F3
02
FE
FA
F1
02
02
FC
EA
FF
01
FF
F9
F1
F6
06
F8
01
06
05
FB
00
FF
FF
F6
EF
FB
02
F9
FE
FB
02
FA
FC
02
FC
FC
F7
FC
01
FF
FC
FC
FD
05
00
01
01
03
FB
04
FF
01
FD
FC
FE
FB
FD
FC
03
00
04
FD
00
04
01
04
FF
FC
FE
E8
F8
08
FC
E4
ED
E7
ED
DD
00
E3
FB
03
F1
F6
0F
EA
F3
F6
EB
FE
F9
F4
E1
E3
EC
ED
F1
F2
08
F3
B9
F9
FC
0A
FB
05
00
02
07
FA
F3
FD
03
0E
03
EB
01
FA
02
03
FC
FD
01
F4
02
F6
F6
01
FD
01
F5
F9
FF
FA
EC
ED
02
FB
FA
E6
F0
16
F0
03
07
EA
FF
FA
F6
06
FE
0B
D8
1C
FA
07
F5
11
0D
E4
F1
FA
FC
F3
E7
FE
01
F7
FF
00
FE
F5
F5
01
06
05
F1
FC
EF
09
FD
01
FA
F9
FC
01
03
FB
F4
03
FB
F1
F3
06
FE
01
03
02
0A
FC
FC
FC
01
01
FE
FF
03
FD
02
04
FF
01
FE
01
01
FE
FC
FE
01
FC
03
FA
02
FA
FB
FB
02
02
01
00
FD
04
FD
03
FF
00
02
FE
FF
04
00
FB
FE
FD
01
FE
02
03
02
FE
FF
02
03
FC
04
FE
FE
FF
03
FC
04
0C
18
12
F9
02
10
05
10
06
00
08
04
0D
06
F4
EE
07
08
01
F2
E5
FB
F9
05
00
04
0A
FA
F1
F6
09
0F
FC
FE
FE
FF
02
01
02
01
FE
FC
FD
FD
02
04
FD
03
FD
FC
03
FE
FD
02
F9
03
FE
FA
FF
03
FE
FE
FB
00
01
01
01
F5
03
FB
03
06
F8
01
FC
FE
FD
FD
FB
F7
FF
FB
FD
F6
F5
FC
F5
FB
F8
F9
06
02
FB
F8
FC
FC
05
12
19
EA
FF
D6
03
1D
0E
E7
F4
F6
F9
FF
F2
00
0C
00
FA
E8
27
00
05
E7
E6
E5
E3
0A
02
03
DF
2C
FA
00
F0
FF
CF
FF
E9
F8
06
F5
0E
F8
03
F9
05
E2
05
05
F3
FB
03
FC
08
0A
07
06
E1
01
F9
D8
FF
DA
FE
02
02
00
05
FD
05
02
FD
01
F9
01
02
FC
FE
03
FF
03
FC
FB
FB
02
FE
00
04
00
00
FC
FD
03
02
00
04
03
FA
FA
03
03
FA
04
FE
03
03
00
FD
FD
02
00
FB
F9
FA
04
04
FC
FD
FD
FE
03
FF
FA
FB
FF
FB
03
FD
FF
00
FF
FC
FD
FC
FF
01
02
05
FD
FE
FE
04
FF
FC
04
FC
FF
05
02
03
FE
FC
FB
00
00
FE
FC
FF
FC
FF
04
F9
FD
F6
07
F7
FD
01
05
05
F9
FF
F4
02
FA
FE
F8
00
F2
FB
06
F9
FC
FA
03
F2
F3
00
FA
F7
F6
02
00
01
01
FF
FF
00
FC
FF
FE
FE
00
FF
03
FD
FC
FC
02
FE
F6
FD
00
FB
FB
FD
03
01
FE
FC
FE
02
01
F4
E0
F8
11
FB
E7
FC
EB
01
F3
E5
01
F4
05
02
08
05
FF
05
FB
F8
09
FF
E4
09
00
F3
EC
FD
F6
F8
00
FF
FD
00
FF
04
03
04
05
04
02
01
03
FF
00
FE
FF
03
FC
FD
FD
F9
FC
FF
02
FD
02
FE
00
FB
F9
FE
02
00
01
FD
00
04
00
FF
00
02
FF
FD
02
03
FD
02
FC
FA
FE
F8
FE
FE
04
F7
01
FE
FE
F8
FB
FB
09
FA
02
00
02
00
01
FB
FB
FE
FD
FA
04
00
03
00
FC
FE
02
FE
FF
02
04
FB
FE
FB
01
FA
03
00
01
FD
03
FF
03
05
08
04
F4
0C
F9
07
F1
FF
0C
FE
03
05
0B
02
06
01
FF
02
ED
EB
03
FB
F7
FF
04
08
F5
FE
FD
05
DE
03
DF
01
F9
F8
EF
F9
F2
F7
F8
EA
FC
F4
FE
00
05
F9
F7
02
F0
02
01
FB
FA
FD
F5
F4
F9
FB
F9
00
FE
F9
E2
F9
EB
F3
F4
02
F1
E3
04
FD
FA
03
08
FE
F8
E9
FF
02
E1
EC
01
F6
F7
F3
FD
F0
FD
FF
FA
FA
F5
01
FC
FF
01
00
FD
FE
00
FE
05
F9
FC
FB
FE
04
FF
FE
00
FF
01
01
FD
F9
FB
FB
04
FB
FF
00
00
04
F9
F6
F7
ED
F5
FD
04
F3
05
10
14
29
06
F0
FE
03
EF
06
07
04
E5
F9
00
05
07
0E
0C
F6
0E
05
FB
FF
0B
F9
0D
05
FA
09
F6
0A
FD
F9
F7
F8
02
16
09
EB
F6
F2
08
FA
F4
E9
FD
F4
FD
EC
06
FE
03
03
FA
05
E6
F9
EF
FB
FE
FF
F9
EA
FE
FB
F6
F7
FE
F4
FF
F4
01
01
02
02
ED
07
F8
02
FB
FA
FA
F1
F9
03
01
F3
F7
F3
14
12
FB
0A
F4
F2
00
ED
07
04
02
F5
F0
D4
F7
F7
B0
04
F5
C4
0D
FF
F7
02
FE
E3
FD
09
03
F3
B4
01
18
1B
F9
0A
FE
EE
E0
E5
B2
F7
F9
1F
F8
01
00
EE
E9
01
27
03
01
F9
F2
F6
EC
C5
18
0D
0D
EF
04
FC
FF
FE
00
02
F8
03
01
F9
FE
FF
FA
01
05
FF
FB
F7
04
F9
FB
FE
F9
FD
FA
FE
FE
FC
FB
00
02
00
FD
F8
00
F7
01
01
FD
F5
FE
03
08
04
00
F7
FC
04
FD
FA
FA
FB
FA
FA
07
02
FE
03
00
F8
F9
05
F9
01
F6
FD
FA
01
03
FC
FA
FE
01
FD
00
FE
03
FE
FC
02
FE
00
00
00
02
03
01
FF
02
FC
FC
01
03
FF
FD
FF
FB
FB
FA
FF
FC
F0
FD
F5
F0
03
04
05
01
03
F1
EB
04
04
F9
F9
FA
04
FF
FC
06
FF
FA
FE
F2
0B
FE
01
F9
FC
06
F8
FE
FB
03
F7
04
01
00
0A
FF
03
FB
FD
F7
01
00
FE
FA
FA
03
F6
FD
FD
00
FC
FB
F8
FE
FD
FE
FF
FE
FC
FE
00
02
03
FF
03
01
04
FF
01
FB
FC
03
FC
FD
FC
00
FF
02
04
03
FF
00
FD
FB
00
02
01
FE
FD
18
E2
FD
01
02
E8
FF
F0
ED
00
03
19
FF
E8
08
01
09
EA
F6
10
FD
00
01
F8
02
D7
FC
CF
07
DB
15
FB
03
FC
01
FC
04
FC
05
FC
04
01
F9
FF
FF
01
F5
F6
FF
F7
01
00
03
FB
FC
F5
01
F7
02
00
F8
F6
00
02
FF
FF
F9
01
FC
03
FC
00
01
FA
FD
04
01
FA
FD
FC
FC
04
FA
F9
FE
FD
FC
FE
FA
02
FB
FE
F8
01
FF
06
09
06
FD
FA
F9
E9
07
F0
F1
FC
E9
F3
EC
E8
C2
E6
04
07
03
05
04
06
FF
EF
03
FE
EC
E9
F4
FD
F5
F9
0E
FF
02
FE
FB
F2
FE
F6
03
F7
FF
07
FB
02
FC
F3
F8
FB
FD
FD
03
FF
F9
FA
F8
F9
01
02
FE
FF
F4
0D
DA
0A
EF
0E
F8
0A
F5
FC
FF
F3
11
FD
0A
FC
01
02
02
01
DE
DE
07
EE
FD
00
06
04
FA
F9
EB
04
E3
F5
EE
EE
F6
0C
08
FF
0A
01
FC
06
01
0E
F4
0D
FD
FC
FA
02
FB
F4
FA
FF
01
FC
03
F9
F6
FB
F3
01
EF
0D
F9
11
01
14
FE
1E
E7
FE
02
FD
03
06
0A
FF
09
FD
FE
02
FF
E2
0B
EA
F7
FF
02
13
04
06
04
06
14
03
F0
01
00
FA
C6
07
01
DC
F3
CF
F2
E9
05
F9
0B
EB
F4
0C
0E
E3
F6
FE
D8
F7
F8
F9
F6
15
00
F7
BC
03
FE
FF
01
04
04
FC
F8
FB
05
FF
F3
05
F7
0C
F8
FB
FA
01
01
04
01
FB
F9
FD
00
FA
F4
FB
FD
FA
02
01
15
D3
0F
09
0E
F9
EF
0C
1C
1D
F3
20
ED
15
F9
00
F5
F0
18
F6
0D
F9
F7
00
0E
F6
F6
01
00
0D
01
00
04
02
FF
01
00
FB
07
02
00
02
03
FF
FD
F7
FC
FE
00
01
F9
01
00
FA
FF
01
FA
FC
02
F9
FB
00
01
F5
F2
F7
04
00
F1
F9
E8
02
F7
E0
07
F2
04
00
00
03
03
09
06
EE
00
0B
E8
06
0D
02
FE
0E
F6
03
DE
FE
FF
00
FD
F2
F7
FD
FC
FA
FA
FD
01
F8
02
F5
FD
F7
05
00
02
F9
FE
00
01
FE
03
F7
FC
FE
FA
F5
F5
FE
FE
01
F8
00
06
FB
FD
FD
07
FE
EF
00
E9
07
F8
FA
F8
FA
FF
FF
05
F6
F4
FC
FF
F4
FA
03
02
FE
FF
0C
FF
06
02
FF
F8
EF
FE
FA
DD
EE
02
FC
FF
0F
03
F2
03
FF
EF
04
01
0A
EE
F6
01
F4
FE
03
01
F7
C8
02
1C
23
06
06
F7
FB
EB
F1
02
FF
F9
2E
00
F8
0C
EE
EE
FB
04
FC
0C
F7
05
FF
F9
FD
FA
0D
13
FF
F7
00
00
FB
FF
02
02
FB
F9
FE
F9
01
FC
03
FC
FC
F7
F8
FD
FE
F7
FA
FF
FE
FC
03
00
FF
FF
FA
FA
F8
FE
00
FE
FB
FE
FD
F9
FD
F9
FE
FF
FD
02
03
01
FC
FB
F9
00
01
FB
F8
F9
01
FE
FE
02
F9
00
FA
FB
04
F6
FB
00
02
FE
FA
02
F7
0F
FB
FE
08
FD
FD
FE
F0
FA
02
03
FC
FC
08
FF
FC
04
F7
FF
FB
04
FA
F4
F4
07
FF
02
01
FC
02
03
FC
FF
03
00
FE
04
07
00
FC
FD
00
03
FB
FE
FE
F9
FE
FC
00
02
FB
FE
FB
03
01
FF
FB
00
FB
FE
FF
F9
FC
08
FD
FD
F7
FA
03
01
FD
FB
F9
FF
FA
F9
FF
01
FC
FB
FD
FF
FD
FA
FE
FA
FF
01
F9
0D
18
F6
E7
F4
F5
FC
FD
E7
FE
F1
0C
FE
13
0A
BB
E8
00
02
17
FC
F8
FC
ED
D4
FE
05
0B
0E
F8
13
02
FF
00
FA
F6
04
F4
06
F9
00
01
04
FB
FF
F4
02
FE
FE
FC
FF
04
01
04
06
FA
FA
FD
00
01
FB
F6
F7
FE
05
00
FE
FC
FB
00
01
02
FD
01
FB
01
00
00
01
FF
02
FB
FD
FD
F9
00
FA
FA
01
FD
FF
FD
FE
FF
02
05
FC
FF
04
FF
FD
02
00
FE
FD
FF
FE
03
FD
FF
FE
02
FB
00
02
F9
FC
FC
FD
01
FB
FD
FE
FA
FE
FD
F9
02
04
FB
FF
FC
02
FD
03
02
FC
03
00
FC
03
00
FA
04
03
02
FF
FE
FF
02
FD
04
00
FE
03
FC
FD
04
01
FE
E8
0A
11
F3
F8
E3
FA
F7
F8
EE
03
CE
01
D5
01
01
03
05
EE
D5
ED
F6
02
03
F9
F9
F9
E3
FB
FD
DF
01
03
01
FF
02
00
01
FE
00
FE
00
04
FB
00
F9
04
FC
04
02
FF
02
00
FB
00
01
03
FF
FB
FD
00
FD
00
FF
FD
FA
FF
FA
FF
FA
F5
FA
FF
FF
F4
FA
F6
02
FD
FE
F7
F3
FF
02
02
FB
FE
FF
01
FA
F8
02
00
00
FF
FE
FF
E7
FB
FE
F3
F5
F1
04
FE
EC
FB
01
01
F9
F5
04
FE
00
F2
F1
0F
0C
E7
05
08
FF
02
13
00
FE
EE
F6
04
0B
01
EA
F4
05
06
E2
F1
01
09
02
FA
E0
0B
EE
ED
F0
07
09
FE
EC
FC
FC
E6
05
00
00
0E
F3
FC
FF
FF
FA
FC
00
FB
09
FC
FD
02
01
FD
FF
05
FD
FC
F9
00
00
F8
FA
FF
FC
02
F6
03
02
02
FA
FE
FF
FB
E4
E4
05
01
F2
F6
DC
F8
05
F5
F8
F9
EC
FC
D8
F8
06
FA
0C
E7
F8
F1
02
F4
0A
00
FB
D1
03
EF
FD
E1
F8
0E
FC
FD
F2
E5
ED
05
E3
0A
F5
FB
FB
DB
12
05
E9
01
F3
F9
06
F9
03
E5
06
F7
FC
ED
0C
0A
E0
DC
F8
07
FB
FF
00
FE
FC
00
FA
FD
02
00
06
FD
FF
FF
FB
FD
F7
00
FE
02
FA
FF
FE
FB
FE
FF
01
FE
FB
01
02
0F
17
03
03
E6
03
FB
EE
F4
F7
F1
16
01
F7
0C
F0
E9
F8
0B
FE
F2
F4
FF
FD
F3
03
F7
09
11
01
01
07
10
F8
FC
11
EA
0A
EE
01
E5
E2
FE
1E
FC
F7
00
FB
D0
FE
1A
DE
FF
F6
E4
FC
04
05
F5
01
FF
0D
F9
00
F3
0F
06
05
E5
02
FE
C4
EC
FC
F3
0B
04
E3
0B
C7
E8
EF
05
07
FF
E7
00
00
E1
00
00
F2
0A
F9
0B
12
01
0F
21
0A
FF
2A
00
F4
03
FF
02
11
09
11
16
FE
FD
EE
0F
1B
F2
F0
09
EB
F3
18
20
02
F7
09
34
FE
FF
F7
03
06
FE
FD
F7
02
F8
FA
FE
01
00
F9
FE
FC
FC
FB
FE
FA
FE
F8
FB
03
04
FF
FA
00
03
03
FB
F7
E7
FC
F9
F3
F3
06
FC
FA
F4
00
F4
FC
FC
FD
FE
F8
FA
F9
07
08
FD
00
FF
F4
F6
E3
FB
03
F8
F4
15
F7
FE
F3
FF
F9
0C
E8
17
04
05
15
07
F9
FE
F4
E9
FE
08
FA
0F
CC
02
FD
05
FC
FE
E5
08
FE
FA
EB
E9
F5
FE
07
FE
F2
FC
F8
02
F3
00
06
FA
01
FA
05
00
F9
01
F9
F6
0C
FF
FA
01
F5
F6
F7
F8
05
06
FF
05
F1
F2
EC
0F
F9
BD
F3
D3
F0
FD
CE
FF
E4
F9
02
0F
F0
F0
08
18
F3
FB
09
D3
FB
FD
EC
10
08
F7
F5
D6
EF
0E
F4
F4
F8
F3
FD
1C
F5
00
03
01
0A
06
F9
F6
F9
06
E6
EB
0A
F9
05
02
F5
FD
F0
11
0C
F0
F9
17
FD
0D
F3
03
FB
FF
02
F5
FE
0C
0D
F4
07
F2
0C
FF
F4
FB
F5
FC
00
FD
F9
05
F9
FF
F9
F9
05
05
FF
01
02
F5
00
F6
F5
F8
02
00
FA
FB
EE
FE
F6
01
F9
F7
02
FF
F7
ED
04
FC
F5
F7
02
FE
FD
00
F9
F4
FE
07
FF
F5
FE
01
FC
F9
FF
F8
F6
F8
00
F8
F7
FD
FF
F6
FB
00
FD
F9
01
01
01
FF
FE
FD
FC
FB
02
F8
F6
05
03
F9
FF
FD
02
02
FB
FC
01
FC
05
05
07
04
F6
02
FE
03
FF
E4
FF
FD
00
03
06
08
F8
FD
03
FD
FD
FB
FE
09
13
05
FB
F0
FD
FA
E4
00
F3
02
FB
DD
1D
08
00
E0
01
FA
03
06
FD
F1
00
EB
08
02
01
0A
FD
15
10
E8
0A
F5
0B
F5
02
F6
05
FC
F9
05
F9
0A
0D
08
F7
0C
09
EC
EB
00
E7
FF
01
05
FF
F5
F0
FA
FE
EE
F9
EA
F4
00
01
ED
EA
F7
03
0E
FC
02
EC
01
FE
FE
01
02
0B
DA
08
12
08
FC
09
0E
EE
FE
00
F6
FB
0D
FA
14
EE
00
FE
FD
EF
0B
F6
FA
00
F8
02
09
B1
A9
D9
07
FD
FD
E6
F9
0F
01
FE
0C
F5
0B
FD
FC
FA
D1
F7
FA
FE
FF
F8
F6
F3
FB
F7
FC
FD
03
F9
FD
01
00
FD
FC
F9
FB
FE
FF
FF
F6
00
00
EB
FF
03
F9
F7
F6
07
EF
F4
02
BD
FC
E3
DE
08
F4
EB
09
EC
01
15
D7
0A
0B
FB
00
F1
F8
0D
EF
06
09
DB
EE
F7
D7
06
D0
FD
02
FB
01
FD
00
00
FE
FF
FF
00
FD
FD
02
00
FE
FD
FB
01
02
FD
FD
01
FD
FD
FF
FC
01
01
03
FB
FE
01
F8
FA
FF
FA
FE
FD
F6
00
03
F7
F5
FA
FF
FF
F7
F8
F9
FC
FA
02
01
FA
F9
FF
00
FE
FB
04
FF
F8
FE
01
EF
EF
FC
02
F0
DA
F2
05
FF
EC
01
F1
FB
F2
00
03
05
08
E3
02
02
06
EB
07
0E
EB
EE
FB
FD
FA
F8
FE
FD
02
01
F8
F7
F7
FA
F3
FA
F6
05
00
FB
F7
FE
FF
FD
03
F5
02
00
03
FB
FC
F8
FF
FC
01
F8
F9
F7
0C
04
04
E9
F3
FF
09
E8
FD
FF
EE
01
18
06
FC
F8
01
02
02
DD
EE
05
EF
FF
FF
08
00
FF
F7
EF
04
E5
ED
FE
0B
F9
EB
DA
F8
02
F3
F2
E7
FA
C5
F7
F9
09
FC
F3
07
D0
EF
F4
FC
E6
07
EB
FB
F3
12
FE
00
E6
FD
FA
FF
01
00
01
03
FF
00
FF
FB
FD
FC
01
00
FA
02
FC
FA
F9
FA
FC
00
03
06
05
FD
FE
05
FE
02
00
FD
FB
FD
FD
FC
FC
FB
FF
FF
FE
00
03
00
FB
00
00
00
01
FD
05
FC
FB
03
FE
01
01
01
FD
FE
FD
FE
FC
FE
F9
FB
FB
03
01
00
01
02
00
01
FF
00
FF
FD
FD
01
FB
FA
FE
FB
FB
F8
01
FF
FE
FC
F9
02
FF
FB
FB
F7
E3
DF
02
F7
FD
DC
00
10
FB
0B
09
E6
01
00
EE
0A
0B
03
E6
03
08
0E
F8
08
09
E8
EF
06
F4
FB
F9
FC
F9
FE
FE
00
FE
F6
04
FE
05
02
F6
02
FF
FD
FB
F5
F5
02
FC
FF
FD
FF
05
F9
F7
F9
FD
03
FB
FA
09
FD
FC
04
FA
FD
05
FA
FD
FC
01
04
00
02
FE
FA
00
02
FA
F4
FD
FF
FE
F3
02
FB
F9
00
FC
FD
FE
02
FA
FC
F9
00
02
F8
FF
F9
FB
FA
FF
02
F7
00
FB
04
02
F6
FC
FF
01
04
06
FF
04
FF
FB
F8
00
05
FE
02
FE
FF
FF
FE
FE
FD
00
FD
FB
01
0A
05
FD
03
FA
08
FC
FA
F3
F7
03
FC
FE
F3
02
F9
FB
FF
FF
05
FE
F8
08
FA
02
06
FA
09
07
F9
03
05
10
11
F1
EF
EA
14
FD
F7
FE
F5
19
F5
05
F3
F6
03
02
F8
F2
14
FA
01
14
FF
17
1A
04
04
F1
FB
FD
E5
F0
05
F8
22
00
F8
05
E8
E6
FA
1B
10
10
FF
01
F1
EB
07
03
02
13
F9
06
01
FD
FB
FE
00
FB
F9
FD
FE
F7
FE
FC
01
00
F8
FF
01
FB
FA
FF
FD
FF
FE
F8
FE
02
01
FD
FB
01
FF
F7
FF
00
03
FE
05
01
01
F8
FC
02
01
F9
09
00
FB
02
F8
F9
F9
03
FC
FB
F7
FF
FC
F9
FD
FF
FC
02
FC
FD
E8
0A
14
FF
08
E0
F3
F3
E2
DA
E4
ED
0B
FB
0B
04
F2
DE
04
0B
FF
05
FD
E9
F8
EC
F4
22
12
0F
F9
0F
FB
ED
07
01
F9
F1
E8
FA
F4
F0
F7
FA
E6
FF
EC
FC
F8
F8
03
FB
02
FC
01
F0
FC
F2
F6
FB
04
F5
EE
F6
02
01
FE
00
00
FE
01
FF
02
FE
FB
FB
FB
00
03
FD
FC
FF
02
01
FF
05
02
01
FE
03
FE
03
01
01
01
FB
FD
FA
07
03
FC
FE
FD
01
FC
FB
FD
FB
FD
FE
F9
02
FC
03
FF
F5
04
F9
00
01
FF
FA
FC
FF
01
FC
F9
03
FD
09
03
FA
F5
FC
F6
04
F9
01
FF
FD
FD
FE
F1
01
FC
02
02
F8
FA
FE
F9
02
00
FF
FB
FB
FA
FA
FC
FD
FE
FF
FD
FF
FC
FF
04
00
FA
FE
FE
03
FD
02
F9
F4
F8
FD
FA
F4
FD
FA
02
01
F6
01
FB
FE
FA
FD
FE
F9
FE
0C
14
03
07
FC
0A
03
E8
00
0A
03
1C
FC
E4
04
F3
E0
03
08
F6
02
F2
0F
FA
FA
02
06
ED
08
F8
10
05
10
E3
0E
10
FB
0C
F2
02
12
0D
F6
16
EE
0F
03
F6
F4
F7
FD
DE
F9
F5
08
FC
08
09
FA
EA
04
06
F1
FE
0E
03
F5
FD
01
FD
0A
01
FF
0B
FD
06
FC
F8
F6
FD
05
FB
F2
FB
FF
F4
03
00
FF
03
FE
F7
F6
FB
FB
FD
00
FA
02
F9
FE
03
FF
FE
F8
FE
01
00
00
00
03
FF
FD
F7
F8
FE
F7
00
03
FA
FD
FA
FD
00
FB
F6
FB
FE
04
FB
FB
01
01
F8
03
04
FE
06
FE
03
FF
FE
FB
03
FB
00
F7
01
01
00
04
05
06
FE
FB
02
FE
01
FE
EE
F8
F9
FE
F7
B7
F8
CC
EA
F7
C1
02
E6
F9
06
13
F4
F8
0E
0F
F6
F8
08
C1
03
FF
EE
0A
07
03
F3
CD
F6
DD
FB
03
08
E2
DF
DE
E4
F0
DC
08
EB
FB
FA
10
03
F0
F4
F1
02
FB
EE
D8
08
FB
EA
06
ED
FD
E2
F5
0E
03
02
EE
05
13
09
04
02
09
1E
F3
E8
01
0A
E9
FB
FE
F1
16
EE
0A
F1
1D
F7
F5
00
01
F7
FB
FF
F2
FA
F7
FE
FB
F8
F4
00
F1
F6
FA
FE
F9
F8
FB
FE
FD
FD
FE
FC
02
FA
FF
FE
FC
F9
FF
F8
FB
FA
FC
00
F5
FD
04
FA
FC
00
FC
FA
04
FE
FC
FF
FE
FC
00
F7
FF
F7
FD
F8
FB
01
00
FE
FA
F3
FE
FA
04
03
FF
00
07
FA
E3
E9
0C
05
E6
E3
F1
0B
F3
D0
09
DE
0F
0A
FD
07
FF
0C
E2
01
09
09
F1
0F
0F
EC
10
FD
F6
FD
15
02
02
FB
02
01
FF
01
F9
FE
FE
03
FB
05
F4
FF
01
F8
F3
F4
0A
02
FD
F5
FF
F6
01
FD
F7
FE
FD
00
00
02
FE
00
FF
FF
01
FF
FD
01
FA
00
00
FF
FE
FA
FF
01
FC
FA
00
FF
FD
F7
05
F8
F8
03
FE
04
F9
03
02
04
01
04
FA
FD
00
FC
FE
FB
FF
FF
00
04
FF
01
FE
FC
01
FB
FE
FF
04
FD
FD
02
02
FC
FF
FD
02
01
02
FA
04
FD
02
FB
FF
F6
00
FD
FE
FA
F8
02
FA
02
01
F9
01
FE
F8
FE
FF
FC
FD
FB
FC
FC
FD
07
02
01
F0
05
F9
FC
F9
FF
F7
D3
F0
09
E8
03
09
E2
E7
FC
F4
00
E6
05
EE
00
F4
01
F8
0C
01
07
C8
0F
EC
08
19
01
FD
FB
FF
FC
FC
03
02
FB
FC
FD
00
FE
FC
02
FE
FE
03
01
FD
05
FC
03
03
FB
FD
FE
FD
00
FB
02
02
FE
E7
E2
08
FC
F7
EE
04
0A
D5
F2
09
E1
FC
F3
F4
09
07
03
EE
E8
F4
07
08
08
06
EB
EF
07
F2
F2
F0
02
1E
16
02
00
FF
FD
F4
EF
E5
05
FB
21
FD
01
08
EB
EC
FC
31
09
F9
FE
FA
EF
EB
F6
FE
06
0D
F9
08
04
F8
F6
FB
FE
FC
F9
F6
00
01
FF
FB
FA
FF
FF
FE
01
FE
01
F5
01
01
00
F7
02
FE
FC
FF
05
FF
FF
FB
EA
FF
19
08
F8
D7
0D
08
F5
F5
E4
EC
E7
04
22
01
F8
D7
05
F9
FA
FB
F9
CB
FA
E4
EF
F6
12
04
05
0E
F5
0D
05
00
FB
F3
EC
02
E3
06
EA
ED
18
FD
DE
0D
E9
12
F9
FC
0B
FA
04
EA
E4
F1
F8
E9
FA
07
08
DC
FE
FC
00
FF
F4
EB
F8
EB
EE
F8
DF
F4
FB
F8
00
01
EE
FB
F9
F3
FA
FB
FE
E8
F9
F9
F1
F8
FF
FE
FB
D6
FD
FE
FD
01
FB
02
F8
02
04
00
FF
FC
01
00
FE
00
04
00
03
FA
FA
03
01
06
06
FF
F7
FC
FB
02
02
F7
F7
F0
01
FF
FA
FF
F9
FB
FB
EE
00
01
E9
03
FC
E0
F6
FE
01
02
03
F7
02
00
F7
F1
E7
10
FE
EF
ED
11
FA
F2
09
13
FB
F2
F5
FF
FB
F9
EB
0A
DE
07
E5
09
03
FD
10
EE
02
FB
03
00
07
F7
03
01
F7
FB
F3
F6
FD
FD
F7
FA
F4
FC
05
FA
F9
01
FB
FF
F4
FE
01
EE
00
FD
FD
00
F4
FF
FB
F9
F7
FC
FE
02
FF
FD
FC
F7
02
01
04
FB
FE
FC
00
04
FB
03
04
FC
FC
FC
02
FB
04
FE
FD
FD
00
FF
FC
00
03
04
03
FF
03
01
01
FC
01
E9
FE
DD
07
FD
0A
E7
01
00
F9
FF
02
0D
FE
02
02
00
FA
E5
D0
01
F2
FE
FA
09
01
ED
09
FB
06
D2
01
FB
FD
FB
FD
FD
03
FF
00
00
FC
03
FD
FF
FE
FE
FC
02
FC
FC
FE
FB
FD
FB
FD
FC
00
FC
FF
04
06
03
EE
E6
03
FC
04
ED
ED
F1
FC
F4
F2
02
01
FC
F3
05
F4
F9
F4
F5
05
F8
EF
F2
FB
FC
F6
F2
FF
01
F3
FE
FC
01
FA
F9
02
FD
02
01
FE
03
FE
02
00
FA
FB
FE
FF
FD
FC
FF
FF
02
FA
00
FD
FB
02
FF
FA
FE
01
03
FD
02
0B
F7
04
00
FD
10
05
02
08
03
01
03
F9
00
01
00
FD
FC
FE
06
F3
02
FA
FC
03
02
05
F1
01
FD
F8
F1
F4
FF
FC
EC
EF
E9
FF
F7
EA
07
EF
00
F9
FB
01
05
08
E0
ED
0A
0C
F0
0A
0C
FD
FC
04
F9
FD
CE
F6
F9
FB
02
01
F8
FD
FA
02
FB
FB
00
00
FE
F7
FD
FF
FC
02
FB
FB
FD
FC
FF
FF
05
FD
FD
03
FD
FB
01
F4
FA
FA
0A
07
E7
FE
02
08
F0
FA
00
04
FF
EB
03
02
FF
E8
F6
07
F7
E8
F9
FA
FF
FA
FD
03
07
01
FC
03
0B
F0
FD
E7
04
E9
0F
01
FD
17
F9
E7
FC
10
EA
06
01
FE
FD
1D
F9
11
0E
02
05
DF
FE
0B
02
EE
E2
DD
EE
F7
01
03
E8
DD
03
03
F8
05
0C
E7
FE
F7
FD
0B
01
07
FC
FB
F7
09
01
05
06
E0
F4
05
FA
F2
E6
FC
F5
FA
FD
FC
00
F3
F9
FE
11
05
F2
F9
F2
08
FA
F7
F9
FC
F8
F9
05
FE
EC
FC
F8
F7
F5
0A
F8
02
F2
FC
03
FE
F9
FC
06
02
FB
F8
FE
F4
01
01
01
FB
F1
F9
FF
FA
F1
F5
FF
F7
FB
F5
FE
04
01
FC
FF
FD
F6
FE
F4
FB
01
F5
EF
F7
EA
FB
F4
E3
06
F2
0B
F5
F8
01
0A
0F
F6
EC
03
0B
EB
0A
07
FD
FB
08
FA
01
C5
ED
E8
ED
02
F5
F5
EB
F2
0C
F5
F1
FE
EA
00
FE
F8
05
00
09
F6
04
04
05
F4
0C
01
E6
06
01
F7
FD
1E
13
0D
0B
0E
0D
1B
04
2F
13
10
36
FF
13
FC
F9
EA
01
0C
F6
0B
EC
00
01
33
FC
08
13
03
F2
E4
0A
21
07
EF
FB
FD
00
F4
0A
FC
EA
05
DE
FC
F8
F3
EA
09
FF
FC
02
FA
E9
FD
EB
D3
04
04
06
06
F6
02
0A
DB
02
00
F6
FC
FE
04
F7
02
FC
03
05
F7
FD
F3
FD
FA
00
FD
F5
F3
FE
05
F8
03
FB
F8
F5
F7
07
03
FC
FB
FB
18
19
FD
02
FB
EA
FA
F0
C3
05
FC
22
01
FC
06
ED
E8
FE
2C
0C
FF
F8
FB
EE
F1
D6
F6
0C
11
FB
08
FE
01
04
FF
00
FE
00
FF
02
FC
04
04
FC
FF
00
00
03
00
02
FC
FD
FE
FE
FD
FF
FB
03
01
FD
04
02
04
05
FF
FC
FB
00
01
FF
FE
FC
02
FE
01
FF
02
00
FD
FF
00
05
03
FE
FE
00
FC
02
FF
04
FD
FD
04
FC
02
0F
0E
06
FF
07
09
30
FC
FC
FE
0F
F7
17
0C
FC
0F
F6
04
E8
FF
13
FE
EC
0B
F1
F3
1A
14
05
FD
0D
33
02
FC
FD
03
01
FE
00
00
FF
FE
01
FE
FB
FB
02
02
00
FD
FE
FE
FF
00
FC
04
FC
01
FE
FD
00
01
00
FC
E2
16
13
03
01
E7
EB
EE
F2
00
00
ED
1A
FB
11
04
F3
F7
FA
2B
09
08
F6
FB
F7
EF
F7
04
07
0B
00
12
FD
18
BA
FE
05
FF
F6
E2
F6
05
01
07
20
FF
FA
FD
06
0E
FB
E2
F8
F8
07
FB
FF
0C
03
F7
DA
13
0C
01
FE
01
FD
01
FC
02
F6
04
FF
04
0D
FE
03
FC
00
FB
00
FB
FF
00
FD
05
FE
02
FD
FE
F8
F9
00
F6
FC
FF
05
0A
ED
00
DD
04
E0
F3
FE
EE
02
F6
EB
F4
10
ED
FF
08
00
E6
0E
D2
13
FF
03
01
E0
EC
0E
01
F8
DA
02
FB
11
05
06
F7
FF
FF
E4
FC
04
E2
12
FB
00
01
B3
F9
01
0B
05
F6
EF
07
00
F4
02
FB
E8
07
F5
0C
03
17
18
F8
DC
01
F6
00
E5
EA
02
E4
20
ED
F7
0B
DF
F1
F9
F5
1A
01
03
01
E4
E9
EF
F3
FA
02
0A
15
03
03
FB
FC
FB
FE
02
FB
FE
03
FC
00
FC
FD
FC
02
FC
01
01
00
01
FB
FE
FC
FC
FB
FB
00
FE
03
00
01
FE
E0
FC
F9
FB
06
00
08
03
0F
E2
0E
F3
09
FE
EF
0E
0A
E0
D9
F3
0D
F8
E3
F7
FA
01
0E
14
DB
04
18
FA
EC
ED
07
07
E9
E3
EF
08
FB
01
06
F1
05
F1
FB
00
02
0D
EC
06
FB
04
FE
10
11
DF
F8
01
F5
F0
F6
DF
16
19
F3
0A
E4
D2
F7
EA
E2
00
ED
15
F8
03
0A
EB
E5
03
19
0C
02
FE
F2
F8
EE
E6
11
0A
0E
F2
02
E3
F1
F4
11
03
F8
FD
0C
F7
05
EB
02
EE
01
D1
0A
FD
FA
FB
EF
16
06
FF
DB
F9
F4
00
0B
0A
FB
F4
11
FB
F7
FD
FF
03
E1
01
F8
EB
F1
E3
F2
FE
03
02
0C
F0
FA
02
F5
F9
FC
FD
EA
EE
FD
E9
FC
EE
04
ED
D3
F6
E6
0B
CF
EF
FF
F9
FE
F8
F2
00
03
DB
FE
CA
01
FE
FF
06
E7
17
F2
01
04
F6
FC
02
09
0A
E8
F2
17
0F
09
EE
E4
0C
0E
0B
F6
07
01
EF
04
FC
FD
EA
E9
02
05
FB
F2
AE
00
E0
FA
04
05
11
FF
FF
EF
0E
D2
FF
FE
03
01
05
FE
FE
06
00
F5
FD
01
02
01
F9
03
FF
01
01
FC
00
FC
FF
FE
F7
FE
F8
F9
02
00
02
FA
04
FD
03
FB
FD
02
01
01
02
01
04
01
FB
03
FB
FD
FF
FB
04
03
04
FF
FE
FD
00
03
02
FC
00
02
04
03
F3
EA
0F
FE
E3
F4
DE
03
00
03
FB
FC
AE
02
FD
F9
E5
F9
FF
E7
FA
FF
C7
ED
FE
EE
F7
FF
F4
F5
05
FD
03
00
FC
FD
FB
04
FC
FE
02
FD
03
02
FE
03
00
FB
03
FF
FD
01
04
FE
FB
FE
FC
01
FC
FC
FB
FE
FF
02
0E
EF
00
FD
06
15
09
0E
07
02
04
03
0A
07
01
F5
0B
06
FF
FE
C7
FF
FD
11
01
05
06
FD
FC
F3
07
F5
FC
FF
F6
F8
F6
FD
01
F8
FC
F6
FC
FA
FA
F4
FC
FF
FB
FA
F8
F8
F7
F8
F7
00
FB
02
FC
F8
FD
04
01
FC
FB
08
01
03
FC
00
01
05
FF
FD
FA
FD
FF
FF
F9
01
00
01
FF
04
F6
FB
FA
FE
00
F9
FA
FF
03
FD
F9
FC
00
FA
F9
09
0D
F2
E7
0F
06
F6
EA
07
01
F9
E8
06
0B
03
EE
FE
FB
FD
E8
F0
FA
FC
04
07
05
07
03
EF
F1
FA
ED
FA
FA
C4
F5
D8
ED
EC
D6
02
EF
FB
FF
13
F3
FD
0B
16
E8
FA
07
DA
FF
04
ED
04
F8
F6
F5
C5
F8
E6
DE
F4
FD
00
EC
02
11
01
0B
0F
E6
FE
EF
F1
09
03
0D
E5
FC
FD
0F
FD
0E
0D
EB
F0
08
F5
F7
F5
EC
F1
DF
04
FE
EB
F5
EE
09
07
F1
01
E7
02
F5
EE
06
01
05
D6
FE
09
0B
01
05
0E
E1
F3
04
F5
F5
10
FD
FE
FF
FA
FF
00
00
07
06
FE
FE
00
05
FC
FA
F7
00
FD
FC
F8
FA
FD
00
FA
FE
FD
03
FB
FB
FA
FF
F8
FF
03
FC
01
FD
03
01
06
04
FA
FC
FB
08
01
F6
FF
00
04
FD
FC
FD
FF
FD
FB
FF
02
02
FE
FE
F7
00
0C
FF
05
0A
0E
E4
EF
F8
F6
D9
FE
F6
FA
F5
07
FD
03
D6
E5
00
00
E9
F7
04
ED
F8
F0
06
F1
19
0C
E9
BE
06
0A
08
06
00
11
FF
14
05
05
17
FB
14
FA
01
FB
FE
00
F7
02
F2
00
FC
18
F1
FF
F9
FD
DA
F3
FD
04
F6
EA
F2
FC
00
E8
D9
F7
05
EE
FA
FF
DC
FA
FD
01
02
F6
0E
E6
DB
F1
04
FF
0F
08
E3
02
FC
FB
EA
23
FC
FF
02
FA
03
04
FD
FE
01
03
FB
FC
FC
FD
02
01
FC
03
FE
03
FC
FC
04
FF
01
FB
FF
FC
FB
03
FF
01
FA
FC
01
FA
EC
E3
00
DC
E7
FA
FB
F2
FE
00
05
08
E4
FD
09
B8
DD
FB
00
F8
ED
0A
EC
EE
05
FE
FC
A8
02
DE
F6
03
B4
F8
EC
E0
0D
E3
F6
04
D3
FD
02
DE
05
0A
01
FD
E3
E5
09
FF
05
00
E0
FC
F2
F3
FF
E5
15
09
08
FE
0C
FF
1D
0A
00
08
0B
FD
FE
0B
0A
FD
FC
06
EB
0D
FA
0D
F4
17
F1
FD
1C
11
03
FB
09
06
00
E0
EA
FD
FF
01
E8
10
FA
09
F6
0C
F1
F3
FD
EB
07
FD
08
F2
DF
F8
FC
07
09
00
F4
FC
D9
FC
FD
FC
F4
14
0C
F9
04
FF
E9
EF
F2
F8
03
01
0B
E8
DB
04
FF
BB
FD
06
9C
07
FA
01
FA
FE
C2
F9
03
11
03
DD
0F
E0
04
E4
F7
ED
27
F0
EF
CC
E2
F8
FE
0E
0F
00
F1
04
EF
DA
0E
F7
FD
ED
D7
FD
D9
19
16
EE
E4
13
FB
08
FE
FF
02
F1
FE
08
03
FE
02
FE
05
F9
EF
FA
F8
02
FB
E5
06
FB
03
FD
FB
FC
EC
02
F7
FB
EB
06
FD
F1
FE
08
F3
F8
E3
D5
02
09
F4
FA
03
FA
E9
02
00
C0
ED
F9
F8
06
E3
FD
02
EF
FE
F0
1A
F1
09
C8
03
FE
FE
01
FF
FE
02
FD
FF
FE
02
02
FE
03
02
FF
01
FC
FD
01
03
FF
02
01
02
FD
03
01
FB
02
03
FC
FD
FC
00
FA
FF
03
FD
00
FA
FC
FD
FC
FB
FA
04
FD
FD
FE
FA
FA
FD
03
FD
03
F7
FB
FB
00
FA
FB
FC
F9
F2
FF
C5
01
FF
FB
0D
02
F7
F8
F7
02
1E
15
E6
0D
EF
09
F8
F2
F6
F9
00
F2
E9
08
EB
04
FD
FC
E6
0F
01
F8
F8
02
F8
F7
F4
F4
F5
F9
FA
03
F5
02
02
02
01
03
FD
FE
F7
00
03
F5
03
FF
F0
F8
04
FC
F6
E6
FC
01
FB
FA
00
FF
FB
02
FD
FA
02
FC
FB
04
00
FC
02
00
FC
FC
01
FD
FE
FD
F9
F9
F9
00
01
00
FE
01
F5
EF
E8
FD
01
F5
E9
F9
05
F7
0C
0A
E7
03
FC
F3
01
01
06
F5
FA
FB
0F
03
02
0A
EE
FD
08
F6
F7
D0
FC
02
03
FE
02
03
FF
08
FE
FB
FA
FC
04
02
F7
F7
FF
FF
FC
F9
FA
03
FA
FB
FC
FD
05
FF
FB
FF
04
FF
EE
0B
DC
01
09
07
E6
EF
04
E3
03
17
FF
F9
16
FA
01
03
01
F2
EB
F5
09
15
0D
13
E6
EA
F9
FE
FC
F6
0E
F5
FF
FF
0E
FC
23
0A
F7
04
05
03
04
FF
13
0C
00
04
FA
FF
BF
09
E7
FF
F9
F6
12
0A
F1
08
0C
E0
07
FE
0D
F4
06
03
FE
04
F7
03
0B
01
17
02
FD
F4
FE
05
F7
F3
E8
FE
F7
0C
FF
FE
08
F8
02
EE
03
EC
F7
EF
FD
02
02
F1
EE
FD
00
D9
E1
09
01
F5
EB
03
02
FA
09
F6
EE
00
FE
E3
04
04
F0
F6
F6
FA
F4
DE
02
15
09
00
F6
09
00
E6
FA
10
18
DC
FA
E3
1D
01
EF
F8
F0
0E
1A
04
F5
0C
EF
F4
F6
05
21
EF
F9
19
FF
02
FA
FF
FA
00
F6
FC
FE
FF
FF
01
09
FD
00
FA
00
01
FE
FE
FB
03
02
00
F9
03
FB
FA
FF
01
FE
F7
FA
FA
06
02
00
FB
FA
01
FF
00
FD
FF
F7
FF
FB
F9
FF
FC
03
F9
FD
FB
FA
F9
FD
FD
FB
FF
FD
FA
FD
F6
ED
00
F3
00
06
F2
06
16
0C
E2
DF
02
0D
FC
F5
06
02
FF
F3
01
00
05
E5
E9
00
04
06
FB
05
01
FC
01
FB
02
F5
FF
E7
04
EB
1B
08
F7
0C
F7
FE
01
18
E7
FE
03
FA
D0
20
FD
0C
11
F9
04
E4
00
F0
F4
F4
CF
F8
F3
00
FF
D8
F2
ED
F4
02
F6
F7
00
EC
FF
09
DC
0A
08
FF
FF
FB
02
06
F1
04
00
DB
00
FE
F4
F4
05
F9
F8
02
04
FE
F1
04
FA
F5
FF
F8
F7
F6
FC
F5
06
FB
FF
FC
EE
F3
FA
F1
F6
FF
F8
FE
00
00
F8
04
F6
FA
F2
EC
FD
F9
E9
F7
FB
02
FE
F1
FD
FE
02
F6
E5
EF
07
FC
F3
FB
FD
02
F5
FC
01
F4
F8
00
F4
FD
EF
FB
FC
FD
FD
FA
F9
EE
F1
F9
F9
F7
F9
F6
F7
02
02
F8
01
FD
F6
F5
FD
03
F3
FD
FF
F8
FC
00
FC
F7
E3
E4
01
08
FA
F5
F8
DD
FC
FA
14
FE
03
02
FC
FD
F1
0A
0A
FA
F9
07
15
03
EB
FF
FE
FE
0C
02
FC
F6
E4
FF
02
07
03
FF
FB
FA
08
03
F8
FD
00
FD
FD
FC
06
01
04
FA
F8
FF
FD
F9
FC
F7
03
FD
FC
09
FC
FA
FA
CD
F0
E5
09
07
FF
FB
FB
EC
FE
D3
0F
FA
FC
D2
0E
0E
F9
F5
CB
0D
14
E8
D1
F7
E4
F9
0A
01
F5
FB
08
01
FE
FC
03
FC
00
F8
FD
FE
FE
00
04
01
F9
F5
01
02
FA
FE
01
F8
FB
F9
F4
03
02
FF
01
FC
00
01
FC
FB
FE
FE
01
FE
04
04
02
FC
01
FB
02
FC
02
04
02
04
00
FE
00
FC
FB
FC
FC
FB
FC
FC
FC
01
01
FF
FC
FF
1B
17
03
08
FB
E8
E5
E9
BB
F2
F4
25
F7
FD
02
EE
E7
F5
49
06
FB
FB
EB
ED
E7
C5
01
0E
0C
F9
07
F5
EB
F7
FB
FF
DC
06
F5
F6
ED
E9
F8
F7
FC
03
09
00
FD
FB
FF
FE
F7
F7
E7
FF
01
F4
0B
E8
ED
FF
05
00
01
01
F4
05
02
06
FB
01
FE
F7
05
04
04
FD
F2
05
03
00
F3
F2
FE
FB
05
FC
04
0B
FE
FF
F9
08
F8
FF
FA
FD
F8
FF
FB
04
FB
05
FB
FE
FA
F6
F9
FF
FA
FD
FE
F4
00
FA
F7
EA
F7
00
FC
03
FB
FD
FE
01
FD
00
0D
04
FF
F6
F8
ED
F5
E9
F4
FF
EE
18
E7
07
02
E0
00
FF
F2
EB
FB
F9
FF
F9
09
F3
F8
F3
03
FB
C8
02
FF
00
FD
04
02
00
FD
FC
FF
FD
00
FC
03
01
FD
FD
FD
02
FE
01
00
03
FF
FF
FE
02
FE
FE
01
FD
00
FF
FF
FB
F7
F7
F3
04
F7
FD
FA
F8
F9
07
FF
FE
F6
FB
FE
F5
FF
FA
02
01
FA
FA
FA
00
FE
FD
F6
01
04
00
01
02
FD
FF
00
FF
FF
00
FE
FA
04
00
04
00
FC
FF
02
FE
02
01
00
FC
FB
00
FF
02
FC
01
02
FD
FB
FA
F7
F5
F3
F5
DE
06
E8
D8
F4
DD
03
FD
02
1E
0D
F6
05
EB
CF
07
FA
01
DF
EE
F7
DB
00
FB
00
E9
0E
F9
05
03
F7
FB
F3
FF
03
01
FE
FA
FC
03
FF
F6
FA
FA
05
01
01
00
01
01
00
FB
00
FC
02
FA
F8
F9
03
FD
FF
03
04
01
06
FD
02
01
04
FD
FC
05
FF
F5
FE
00
FB
F2
FB
00
02
F8
FF
F7
00
FE
FB
00
FF
FC
FD
FE
0C
F2
E9
01
C9
03
E1
F9
E4
EA
05
FB
04
0B
03
FE
E7
08
E9
AB
07
01
CD
08
0B
F2
D3
FC
07
F8
9F
FA
EA
08
06
F6
00
EC
FC
F6
F0
F7
02
F6
FF
DC
FF
F9
F8
04
E7
FA
F0
03
FC
FB
F1
F6
FF
F1
FA
E3
F5
00
02
06
FE
01
F6
CF
F8
EE
0A
EE
EB
08
F2
EF
0D
E9
0F
00
FA
06
01
07
ED
ED
F9
FE
DE
FF
00
0B
D8
F6
E2
EB
F4
07
FD
E8
FC
0E
00
0E
08
E3
01
FB
F1
08
09
04
E5
FB
FC
06
FC
0D
0E
ED
FE
F8
F4
F3
14
FE
03
FA
FC
02
FE
FB
FA
FC
FF
FB
FE
02
FE
F9
FB
02
00
FA
EF
FE
00
FE
FA
03
FD
F9
FD
FD
03
FE
00
02
00
02
FE
04
FF
FE
02
01
03
FB
01
FD
04
00
FC
03
FE
FF
FE
FF
FC
FE
FD
FF
FD
00
02
00
FC
FF
03
FD
FD
01
03
04
00
03
02
FE
00
FE
03
02
02
00
FC
03
00
01
01
FE
FF
03
05
FB
FE
03
01
FC
FF
00
05
FD
20
16
FC
02
E9
F3
F8
EC
C6
08
FD
22
FD
06
00
EE
EA
F8
22
07
02
FD
FB
F3
F0
E3
F0
07
13
F5
09
FE
FC
F9
03
FC
FE
FA
FD
FB
FF
F7
F8
FD
FB
07
FA
F9
00
FE
F8
FD
01
F9
F6
FD
FD
FD
F7
05
FE
FF
F5
F0
EB
0B
FC
F4
FA
F2
09
F5
EE
F4
0B
EE
FF
C7
02
00
FC
09
E9
12
F1
04
00
F9
EE
FA
09
02
F3
F3
0B
FB
F6
EF
FD
FD
F9
F1
FE
0A
02
12
07
EB
FF
F0
F5
01
07
07
EC
F6
F9
0F
06
07
0B
EF
FF
0B
F3
FA
F7
FE
F5
FC
FE
03
F5
F2
FA
FD
F6
01
05
F4
FE
F5
01
02
FC
01
F3
F8
00
FA
F9
07
FD
F2
F8
FA
F7
FA
F6
06
F9
E8
02
F6
FA
E8
07
FB
05
FD
F9
EF
04
0F
00
FC
F0
FF
F9
FC
0D
01
FB
05
F9
EB
F6
11
02
06
DC
FF
03
00
03
03
04
FB
04
00
FD
02
03
00
03
00
FF
FC
03
FE
FC
FC
FE
02
FB
FF
01
FB
FD
FE
FE
02
00
F9
EB
F4
07
08
E2
F9
E1
02
FA
D9
04
E0
05
03
01
06
05
0D
03
FA
07
08
E2
0E
0E
04
07
03
FB
06
EE
07
04
1F
03
04
F0
FC
F3
DA
EF
04
01
FE
E7
12
0F
F0
E6
0A
09
E5
0B
FD
01
FC
EC
09
03
01
11
F7
E3
FE
05
FA
FB
FB
00
01
FC
FD
FD
FB
FB
FD
FF
FF
FE
FC
FD
00
FA
FE
00
FC
FD
FE
01
FB
FE
FB
FD
00
FE
FD
00
FC
FC
03
FB
03
FE
FD
00
FF
FF
05
00
00
FF
02
FB
03
04
01
FC
02
FE
FD
02
FE
FF
03
FB
FD
FE
F2
E8
02
FA
E9
FD
09
F6
FD
F1
F6
F9
FC
04
FE
F4
FB
F8
F3
FA
08
FE
FC
F7
00
F2
E8
05
FE
F4
F4
15
00
FA
FE
FD
FC
F8
FF
02
FC
FB
FE
FA
04
FF
F6
00
ED
FD
FA
04
04
FC
FC
00
FD
FB
FA
FE
F7
FD
F7
06
00
FD
FD
FB
FC
FE
FC
FD
04
00
00
04
01
01
FF
01
FE
FE
FD
00
FC
FB
02
FC
FC
FC
FC
FC
03
FF
03
FE
FD
F9
FA
FF
F7
03
F5
FF
03
03
03
FE
05
FA
FB
FA
01
F8
01
01
FC
04
FA
03
FC
FC
01
F7
01
FA
03
05
FA
FE
03
FD
02
04
F9
00
FA
04
04
FF
FF
02
01
FA
01
00
FF
FC
FA
05
F8
FF
FC
FA
FB
FD
02
04
FC
02
FC
F7
E8
FF
E1
0D
DE
18
03
FE
17
F9
ED
FB
21
EE
01
05
00
CE
10
07
13
11
FB
FF
D1
00
FD
08
EB
C0
FF
FC
04
FD
FF
FE
FF
03
04
00
02
02
FD
02
FF
03
00
02
FD
FE
FD
FF
FB
05
03
FF
FE
01
FE
01
FB
02
03
FD
02
FB
02
03
00
00
FC
FD
02
FF
03
FF
FE
01
FB
04
FF
03
FF
FF
04
01
FB
FB
05
FF
01
02
03
FE
00
01
F4
00
05
00
F9
F7
FE
FD
F9
F7
FE
FB
FF
F3
FA
FB
FA
05
F7
01
FC
F5
FB
02
00
F8
F7
FA
FD
F1
00
FE
04
00
03
FB
02
02
FE
01
02
FB
FB
FB
FE
01
FB
FE
FC
04
01
FD
04
00
01
04
04
FC
FD
FD
FE
03
D6
F9
18
0A
F6
C5
E7
E7
C1
F1
BC
09
FB
06
14
0C
FA
E8
FE
F9
17
FD
02
AA
F1
D9
00
F7
19
03
F2
DE
FC
02
FD
02
03
F7
FC
08
05
09
FD
FB
02
01
FD
02
00
03
F4
F8
08
02
F8
03
FF
FA
F5
FE
FA
03
FD
07
02
FE
FC
FF
F7
00
FB
F9
FC
01
FF
FB
F6
F6
FB
F6
00
FB
00
F0
FF
FC
FE
FA
FB
FC
01
F7
F8
F9
FE
F3
FC
02
03
01
FC
03
FB
01
01
01
FF
04
01
FB
FE
FC
FC
02
03
FD
FD
FE
03
FC
FF
FF
03
FC
02
03
FD
00
02
FA
F4
ED
00
0A
0A
DE
00
FE
E9
0D
FB
05
D5
FB
05
04
FD
EC
D2
EB
EC
F5
03
FD
0D
FA
DD
E8
0A
ED
F7
FF
10
09
F5
F8
03
FD
F5
F3
EF
D0
DE
FA
09
02
FA
C9
09
03
17
03
05
F9
FE
E5
06
F2
17
04
09
17
FE
F9
FB
FA
FC
01
F7
02
01
05
FF
F9
F8
FB
05
FB
FD
F9
FA
FC
FF
03
00
FB
00
02
FB
FE
FD
FA
FF
FC
ED
1F
F4
F2
04
D5
09
EC
FE
EA
FA
04
26
05
DF
08
F9
FA
F3
0E
04
FC
03
E2
F8
07
F5
FD
06
0C
FD
02
FF
00
FC
FE
02
02
FF
FF
02
FC
02
FF
02
FC
01
F9
02
04
FB
FB
F9
FC
FE
FF
FB
01
FA
FE
FF
FC
FA
FF
0B
F4
F2
F9
09
0C
0B
17
00
04
00
01
06
02
06
FC
FD
03
F7
ED
01
F9
F5
18
F2
F9
FC
09
DA
00
F7
0B
00
FE
FD
FB
01
07
FB
06
01
03
18
FE
03
F6
04
F9
FC
FC
FA
F8
FB
FE
F4
0F
F2
00
F6
FB
FD
03
FA
01
F9
02
09
FF
C2
ED
E7
E0
00
EC
F0
03
F1
F9
03
EA
04
07
02
FF
FC
FA
0E
E2
FE
F7
E8
FE
07
FE
F9
C4
FD
01
FE
FC
02
01
FC
FC
01
FC
03
FB
02
03
00
FE
03
01
FE
FD
FC
FE
FF
FC
FB
02
04
00
FD
04
01
02
F0
08
0C
E7
DB
DF
15
DF
CB
0C
EA
E4
0A
00
19
01
E5
FA
F2
08
1E
01
02
E8
E4
E4
E5
08
18
00
10
30
EF
E6
04
FE
F0
E6
F5
E9
DC
FE
FB
F0
F0
F4
F9
10
F4
E8
FD
ED
02
FD
E5
F3
FC
F6
F2
EC
FD
09
ED
F5
FD
FC
FD
FB
FB
04
FE
FE
00
04
FE
FE
04
FD
FF
FB
00
03
03
FF
04
FD
FE
02
00
FE
FD
03
03
04
03
02
FF
FC
FF
00
FD
FF
02
FB
02
02
FD
FD
FB
03
01
01
FF
01
FD
03
FB
FB
FF
FD
FB
FA
03
00
FD
06
04
FE
F9
F0
F6
01
F9
F8
FA
0A
0F
06
10
0C
EB
09
FD
F6
09
0E
07
E4
05
F4
FD
0C
09
0E
F4
05
0A
F2
F5
06
FA
F1
05
00
F8
F5
EE
FD
F4
FD
FB
FC
E0
F9
F9
04
FB
F1
08
ED
FA
02
FE
FC
00
FA
F8
ED
00
FE
F6
FC
02
0B
FA
FB
FE
FB
FC
0A
03
FB
00
02
06
FE
F3
FC
01
04
00
00
F8
FE
FA
FA
FF
FD
00
FB
FC
FD
FF
00
FA
02
E9
00
F5
DC
E7
E9
02
F1
FC
0A
F0
12
10
F0
F7
FE
06
DF
02
FB
0B
F5
08
0E
DE
F7
0C
F2
F5
DA
04
F9
0C
06
01
F0
FE
FD
C3
F8
07
F1
0E
F9
F4
04
C4
ED
00
09
0F
0B
EF
06
EC
D1
06
00
F8
1D
00
09
FB
FC
02
FA
00
02
FD
07
03
00
FD
07
F9
FE
FF
F9
FF
03
FC
F7
F9
01
FD
F9
F9
FD
FC
FF
02
00
00
FD
FC
FF
00
FD
FF
FE
00
01
05
03
04
03
03
03
FC
00
01
FB
FD
FC
FB
01
FE
FE
02
01
FE
02
FB
01
00
FA
FB
02
FD
FD
01
01
FE
03
FD
FD
03
02
FF
FC
FE
FE
FB
01
FB
04
FF
03
03
00
01
FE
FF
00
FD
03
FF
00
02
FB
FB
F8
FE
07
FE
06
00
FC
00
00
05
FC
FA
F4
00
F9
F4
02
FC
FC
F8
FD
FE
FF
FB
FF
E9
F9
00
02
FC
FF
02
FC
00
FF
FB
01
04
FB
FC
FD
FF
FB
01
01
00
FD
01
00
03
00
02
02
FE
FB
FD
FB
01
02
00
FC
FE
F5
F9
FA
E9
F2
DE
F5
02
DC
E9
03
E3
09
06
FA
FF
01
08
F8
E7
F9
05
E7
04
0B
ED
04
08
F1
F6
BC

