F6
2A
0F
E8
DD
27
08
19
E6
0D
08
F0
E8
E7
14
16
FA
FA
1A
04
F9
17
FD
07
0F
F8
05
26
F1
E7
22
C0
FD
D5
E0
E4
2C
E2
F0
FF
F4
F3
F3
10
01
0B
10
FA
FC
BB
F1
EF
37
E1
D6
ED
BD
EC
0D
24
DA
E5
E2
10
BF
1A
23
F6
ED
D5
EE
F6
DB
F5
D9
DE
0D
11
1D
DF
C6
31
FC
00
E5
0D
1D
21
28
E4
F5
20
F1
12
C7
F4
D0
0A
15
FC
AD
12
0B
FD
05
0A
CA
D5
1E
F9
D7
19
D3
25
D9
0F
DB
06
FF
06
0F
E1
0B
3C
3F
D3
E6
CE
0B
98
04
EB
13
F7
04
0A
ED
F7
14
BD
D0
13
F6
07
14
10
22
18
FF
EE
1F
FC
17
CC
EF
E7
0C
B5
E5
EB
E7
0D
74
0C
EB
FA
FE
C9
11
DD
D4
00
04
D0
0B
EE
00
E7
31
EF
E3
F9
39
EC
0C
F7
12
28
B3
F1
09
2E
E5
0C
EA
00
34
08
E6
ED
F8
18
E5
B6
18
0C
08
26
FD
F7
E5
FF
E2
97
27
1A
04
B5
0F
F3
04
DF
D2
F8
DA
08
08
0D
05
53
0F
FE
1B
F1
F7
06
05
17
3B
13
F8
AC
07
C0
38
02
04
FB
F6
EC
06
23
0A
2E
F4
E2
F3
17
F4
F7
1C
FE
25
E5
10
08
E6
01
06
FD
0E
0C
E0
0A
19
12
19
E4
E4
06
2E
E7
E9
E9
62
EE
35
F7
F2
1A
E6
05
0E
F5
06
E2
EE
0E
04
F4
19
14
00
DE
15
F0
36
DD
0E
F0
15
35
DA
E1
F5
C3
16
1D
B7
06
FD
1E
CA
11
C5
EC
20
F0
14
E4
1D
F9
DF
E6
F2
B8
EC
0E
19
FE
D8
36
E8
FD
11
E1
22
05
1C
0F
FA
FD
4C
2A
25
DA
00
0F
03
13
1B
16
1B
F0
EB
F7
0A
E9
0A
E1
FD
11
05
03
F2
EE
06
0F
00
DE
D9
F6
03
E7
EC
03
FC
13
F9
0E
E9
DC
EB
01
07
E2
EB
02
B8
17
F3
DB
ED
D5
FC
EE
30
15
00
14
1A
0F
DD
F7
F5
0F
19
CB
EA
FD
EF
1B
67
3F
E5
17
48
F2
2E
FF
21
2B
1A
E8
0B
0C
07
F0
18
52
2A
24
D8
AE
E0
DC
12
F3
16
10
D7
0A
3F
04
0C
B6
12
1E
32
23
D8
D7
FD
FB
CD
E6
36
F9
02
48
14
1A
E4
29
42
E2
BA
D5
0C
29
E6
E3
0F
E5
EA
0B
1D
E9
F0
19
E6
0E
CA
04
FF
FB
2D
BD
CD
E2
07
F7
0E
CF
0C
0C
C2
DF
0B
05
D1
33

