18
E8
1F
F5
C7
2F
00
0E
08
06
FD
14
16
03
10
09
19
ED
F4
E8
F8
FA
EF
04
FD
01
0D
FE
06
F0
F6
26
18
05
FA
08
F9
FA
F8
06
09
EF
F0
0A
08
0C
EA
F7
0F
13
FB
ED
DE
FD
C5
14
FB
F4
E9
E2
FD
04
E7
0F
FC
03
D4
FF
E1
32
FE
FF
FB
FE
3C
01
EF
01
17
F3
1B
20
04
F7
14
FB
16
F4
FD
0D
F4
0F
DA
0D
E0
FA
F2
05
09
EE
E6
F8
F5
FB
04
F1
D2
16
F8
00
EF
02
2E
D5
F7
0C
31
ED
EF
0F
FF
04
F8
12
C9
1A
05
FD
F5
FA
07
10
08
F5
FD
ED
13
FA
0A
DD
00
10
ED
15
FA
FE
19
0B
D2
1B
21
EB
1A
FE
45
22
F3
F2
E6
0F
F0
0C
04
15
E3
F7
F1
DE
DE
08
DE
05
02
0B
FD
1B
EC
0E
2A
F8
E9
12
DE
09
EB
F6
FC
F6
26
38
FF
EA
0C
EF
F1
FE
1B
DB
0F
E8
F8
0B
29
2E
17
10
FF
0C
E2
00
04
D8
FF
FD
DC
1F
EA
25
10
24
F2
08
1E
21
06
00
F3
EA
13
0A
09
C7
2C
C2
D0
F1
EA
F5
FD
EB
EB
05
0A
29
EA
08
F5
E9
FE
F8
11
11
23
22
1B
1B
FF
1B
EB
0C
04
02
E8
00
00
F1
FE
EF
07
10
F3
13
FB
1D
F7
FA
11
0A
09
0B
00
E5
10
FF
09
1A
FB
F2
07
00
0C
0B
F7
0C
F2
0B
FA
D8
D9
FA
EC
F2
F4
FA
09
05
FD
0B
0C
03
0D
0B
09
01
10
17
03
F0
D4
DC
F2
0A
D0
15
FB
F0
DD
F3
FC
F7
09
D9
0D
C6
03
F9
26
24
09
F2
FE
0A
06
F3
14
F8
13
01
19
F5
23
F5
FB
0F
03
18
08
12
11
14
F8
EF
E1
F8
08
E4
0D
EF
11
EC
26
FB
FA
E9
06
D2
E7
0E
2F
06
E9
14
F5
D4
FE
0E
CA
1B
EA
1E
17
FC
0D
FC
13
1D
D8
F3
08
F0
F5
1D
16
F1
18
0B
FC
04
06
F8
33
0D
EC
FF
FA
F4
06
EC
05
16
17
07
01
20
04
0C
FD
0F
0A
0B
00
FC
1E
10
F6
17
0A
F3
0C
E8
F2
DB
05
F6
06
FE
FC
02
F6
0A
18
00
05
0D
F8
1E
10
FC
F2
10
1C
ED
D8
EA
03
E6
34
11
11
DD
14
FE
E6
DA
12
E9
14
44
11
F3
F0
08
F4
11
03
F8
E9
0A
08
F6
F6
04
23
FA
E3
20
00
07
FF
15
0A
FA
FB
17
07
19
E7
F9
FF
05
12
25

