02
E5
0E
F9
20
FB
DB
13
01
FF
10
00
F7
EE
F8
F3
F2
00
04
02
06
EA
FE
EB
06
09
FB
FC
0F
04
F4
E7
E4
04
F9
F9
04
01
BA
F0
05
03
02
F5
EC
04
FF
01
00
E3
04
03
01
01
0B
11
FB
01
0C
EC
0C
02
F9
F3
06
EC
13
F0
FF
FF
02
0B
04
FF
E5
E9
EC
04
FA
FE
0D
06
F6
E8
FF
14
07
02
11
FD
E7
FE
FD
F8
E4
10
F5
02
FB
12
10
F0
06
06
FC
FD
D5
0A
F9
F4
F8
FC
FA
0C
FB
01
10
0F
09
11
F6
14
EE
DE
F6
00
FB
08
10
FB
08
0B
07
FC
DF
F5
FD
02
F3
EC
FD
FD
FE
FD
E4
F8
F5
F1
0F
FF
10
07
00
0C
EC
00
05
E4
FB
10
EE
10
E5
0F
FB
FC
02
F2
FF
FD
ED
F8
15
09
19
01
02
F0
03
D2
06
F4
03
FF
03
F6
FE
EF
D4
FA
FB
FB
00
00
06
0D
03
11
0B
02
16
F8
0F
0E
03
E4
09
FB
15
01
0E
F3
E9
E1
04
1D
FD
E4
F9
E9
DF
12
07
0B
F0
FA
F2
14
EB
FA
FD
F6
FA
EA
09
06
17
EB
EA
F5
DD
F3
03
FD
0B
FF
16
F6
0B
08
00
FA
07
03
04
F4
FC
F9
06
FA
FD
D1
04
11
F0
02
E6
0C
FF
0D
13
0C
F3
08
F3
FF
14
08
FD
FF
F2
06
FD
01
FF
FF
13
06
D7
F8
FB
02
F7
06
FB
EB
04
F6
09
FD
FA
03
09
FA
EE
FE
08
F7
F1
F6
F5
F8
1A
F0
F0
F5
FD
FC
FA
0B
10
10
EF
F4
0F
13
07
E4
DE
0A
F6
03
0F
F2
F1
1D
EC
0E
0C
FA
FA
E2
0B
F1
F3
FE
12
F3
FF
EE
0A
F2
F3
F3
F1
06
06
0C
0A
04
0B
07
FE
06
F0
05
D1
F8
E7
FF
00
F5
05
F9
EA
ED
08
F2
07
E1
FA
04
0E
F1
06
0C
F6
00
FE
06
D9
FE
0D
F1
FE
14
11
F4
EE
FE
09
FB
03
F4
0B
05
01
FC
F7
04
04
06
F5
0B
F2
EF
E9
17
F5
E4
FC
FD
EA
02
16
DF
05
FC
FB
EE
11
01
F5
FC
EA
0B
FF
00
0C
FF
FB
F2
05
FD
0A
03
07
F0
0C
13
FC
04
07
03
FA
FE
F8
07
FF
09
DD
EE
0F
DC
F8
EB
ED
05
05
FD
0B
DF
F5
0C
F6
EF
FE
FB
06
04
F6
F3
0C
F0
05
06
F9
F8
0C
DA
02
F0
E1
0A
F5
F9
EA
FE
F8
FE
E9
F6
00
F6
FB
FB
0E
11
DE
F6
08
E7
FE
F1
F8
07
F9
05
FF
0C
FA
0F
01
EF
EC
FA
FE
F8
09
0D
F9
F9
F6
E0
FD
FD
01
15
F1
EE
FF
0F
16
FA
04
00
07
01
09
00
02
FF
03
00
06
FC
F4
14
E6
0D
F3
F4
06
F8
07
F5
16
0B
FC
F8
10
EC
0C
F0
F7
00
EC
F9
13
00
FF
05
0F
09
FB
E4
F1
EA
FB
09
F1
F5
FF
F2
12
D8
0F
0A
09
FA
0A
00
F3
0F
17
ED
F8
0A
E8
F2
02
14
0D
F3
F3
05
09
00
0E
0B
FD
FD
BD
FB
EE
02
01
0B
09
13
FC
10
F7
05
EB
E9
0C
02
FB
02
01
F3
01
06
08
FD
09
01
06
00
EB
08
03
F6
FE
FD
FD
F4
07
FB
09
02
11
FE
F0
FF
E9
D2
05
03
F0
0C
EB
08
ED
0B
07
18
FF
08
ED
FE
F3
DA
FF
FE
0A
E1
FB
FE
03
F9
00
08
00
07
09
0B
06
EA
D4
F7
F5
0B
09
05
E9
0C
09
FF
F6
01
0B
F9
11
02
04
F1
12
F0
02
FC
FA
D5
E7
F7
FE
18
01
E8
02
E1
DD
09
01
00
FF
02
FE
13
05
F7
F8
FD
11
00
00
15
F7
E8
F7
03
E3
02
09
FB
07
08
18
DF
06
0D
03
DD
10
F7
FE
0B
04
FF
0D
00
F4
ED
00
0C
FF
1C
CF
0A
02
09
FD
F6
F9
F9
EA
DF
06
04
F7
04
F4
FC
01
0E
11
15
16
F3
F1
01
E7
E6
03
0A
09
F3
0F
EA
08
15
EF
0C
FA
FA
02
FE
F8
EA
F6
F6
EA
C5
07
F7
F9
F8
F8
F1
F8
09
01
04
E1
F8
05
17
0A
00
EC
FC
0F
EB
03
F5
E3
12
01
13
0A
0C
DD
F4
09
EA
DF
05
0A
ED
D9
E7
F1
02
C1
07
D7
05
05
0B
04
FB
0F
FE
00
01
F2
FE
E3
F9
ED
0E
FF
07
FE
06
EC
F7
0D
08
FD
F4
FD
00
FD
FD
0D
0F
F5
F5
06
03
F4
F9
0A
F9
F6
09
0A
EE
EF
0E
F7
05
0A
FB
E9
FC
08
FE
EE
F6
F6
04
E8
00
0D
E9
EC
07
10
EC
E4
E2
FA
06
F9
F5
08
02
CD
E7
18
01
F4
D1
F4
08
F5
FB
07
04
F7
F0
0F
F3
FF
FC
03
F7
01
01
ED
F2
01
0A
FD
08
E9
06
07
0D
B6
E7
0A
FE
00
F3
F7
FA
0A
FD
FA
F0
03
FE
00
07
03
08
E0
08
FF
F6
07
EC
0F
04
03
03
02
E7
E3
09
F6
02
EE
07
FA
00
FA
EE
01
EA
FE
0F
12
07
FD
0B
ED
03
F4
F1
F5
FC
14
D6
04
02
DE
15
0E
04
FA
FB
00
01
0D
F9
F9
0F
04
FC
FA
FF
F7
FB
07
FF
DD
F3
17
08
00
0D
F2
0A
0D
06
0F
04
FA
0E
ED
0A
27
05
F0
05
1D
0E
1C
02
F7
F4
E7
06
FD
23
04
FD
08
15
06
0E
FE
05
F8
06
0B
07
0B
FD
FC
F6
04
FA
F5
04
F9
0C
04
24
0D
05
13
F0
F7
14
FA
07
0B
03
04
10
FF
09
20
F4
E3
FF
EB
F9
FD
02
F5
06
14
10
F7
0E
DE
F3
07
F0
06
13
09
09
04
01
26
FD
08
F7
FB
04
F6
DE
0C
ED
F8
F3
0C
0A
E6
01
FE
FC
02
18
1F
FA
F8
00
05
FB
00
F8
DB
0B
0E
0A
00
11
F1
F9
14
FC
0E
F2
FB
1E
01
F4
00
07
F8
06
04
FC
06
FE
E4
FC
FD
0F
07
F1
18
0C
FD
F5
15
ED
13
14
00
E3
02
19
E6
1D
08
F3
10
FB
02
15
0C
05
13
F9
02
FF
08
14
09
E6
18
FF
01
0B
08
0D
FB
07
0E
04
0E
02
32
00
F6
0B
F6
02
F7
EF
FA
1C
05
F6
FD
F5
FF
D6
F0
0E
04
E7
13
F7
F3
FA
07
FF
35
11
08
F6
1E
FB
FC
F1
06
F7
E3
F3
FB
11
FC
1B
15
F6
01
14
D7
03
FC
03
E5
00
FF
1C
F7
1A
06
05
0C
FA
0F
01
0E
0B
15
01
FB
17
04
09
EE
10
03
03
E4
14
17
D4
0A
0A
FE
FD
FD
F5
04
03
02
08
06
03
ED
08
E9
F9
03
FB
F5
D2
07
0D
03
F6
10
0C
06
E0
14
09
11
ED
09
07
F1
F1
0F
FD
0E
0A
15
FC
07
0C
05
F0
17
FD
04
00
0D
0A
00
FE
01
F3
0B
04
EA
10
15
02
1C
0D
05
19
E3
1B
F6
01
E9
EB
EE
09
01
E4
03
09
E3
07
09
EA
F7
E8
0A
FF
FB
01
0C
FD
EF
0A
DF
FE
FE
03
FA
D3
18
16
F4
0E
01
06
1D
03
CF
E0
EF
05
FA
FA
10
0F
F5
1F
0E
F8
F8
FE
07
10
07
0A
14
EA
E1
03
12
02
F7
F7
14
0C
F8
0A
19
E8
EB
FF
FA
0B
1D
FF
07
02
02
F9
17
18
13
0C
F9
07
D9
F4
0D
06
FD
1B
F2
00
F5
E6
FB
F8
18
DB
13
05
FE
21
04
10
00
F5
14
10
FE
09
04
F4
02
FE
05
0E
FF
05
03
06
E1
EC
0E
F4
0B
EB
15
11
FD
02
F7
02
0F
F8
FD
0E
00
EF
07
F9
0A
F8
FA
E9
F9
E7
19
EB
0B
F4
07
FC
ED
FB
F8
1E
11
F0
01
05
E9
FE
F3
0C
06
18
1E
FD
1D
FA
0E
FC
16
E9
F6
11
E2
FD
F6
05
FD
F0
F8
15
03
F7
0B
F7
FE
FC
F9
FC
FE
FB
E6
00
08
13
F8
0B
03
EC
F7
0D
1B
0F
F2
F9
07
F6
0F
09
FC
F2
F3
04
0F
0B
F4
15
0C
F8
03
F6
01
02
FE
04
EA
EB
0B
05
0B
FA
F6
15
F6
FC
FE
F2
FD
0B
07
F6
E7
00
FB
01
F4
13
F7
FE
FC
FE
05
05
23
F2
F0
F1
00
02
F6
EE
FC
13
F5
0C
E9
01
FE
00
00
FA
1B
F8
EF
10
0A
16
00
0D
09
03
0A
E2
06
FE
05
1A
EF
01
FF
F1
FF
F5
09
FA
1B
07
FB
10
F7
F7
03
08
07
04
FD
FD
04
FB
FA
FD
07
FB
04
EE
13
F4
02
F8
05
01
02
FA
EC
F7
F7
FD
E5
F8
11
FF
EB
F5
08
ED
0F
F9
01
F6
07
FE
04
FC
0C
F3
0C
F4
FE
06
07
0A
0F
F7
04
00
0C
F2
FF
08
07
0C
E9
0D
F5
08
0F
06
FB
0B
04
F7
F3
11
FD
FE
F7
01
F8
FE
12
06
01
0C
02
08
FA
FF
F2
F7
FD
FC
F0
15
0D
19
02
F8
09
06
07
FA
F9
E3
FF
F9
FA
FE
FB
F7
F4
ED
08
FC
FB
FD
EC
E5
F5
F9
09
13
FF
FF
E4
FF
00
14
FD
F1
04
FD
0A
F5
12
16
FC
E8
F4
F7
04
12
FF
FC
04
0B
19
0B
08
04
0C
14
0A
06
0C
18
07
F9
F2
F2
0B
F4
03
F1
F0
09
FE
F4
ED
FE
FF
06
FF
12
FA
EE
FD
01
F5
07
F9
F9
06
EF
F9
FB
FD
06
06
09
F8
F7
07
F6
F1
0A
10
12
ED
02
00
FD
F7
F5
02
02
FE
FC
0F
0D
F9
FB
FA
05
1B
00
19
08
F4
FC
08
F8
19
06
00
12
03
F7
13
02
FA
03
F6
F4
06
09
12
EE
E9
FC
F1
F5
08
FF
01
0A
FD
F5
0C
03
08
07
07
FE
04
E9
ED
18
ED
E5
FE
05
00
FA
05
08
F1
F2
15
FA
04
0F
0D
02
0A
FD
F8
F9
15
FF
F9
FF
02
01
08
0C
FF
03
F5
F8
F5
0C
03
FD
F6
EA
FD
0C
02
F7
DF
11
F0
F8
16
07
F7
FB
E8
0F
F9
FA
F7
FF
FE
EF
03
FF
FC
0E
06
0D
F5
F3
02
00
0F
F1
FF
16
FB
EB
03
E3
F4
F8
DF
02
FC
FE
FD
09
FA
F9
F5
F2
03
F4
FE
11
FB
FB
FD
06
FA
02
F7
0D
F6
FF
FC
22
FB
F9
04
E0
F7
03
02
FD
0A
24
07
19
08
DD
F8
0C
F1
F9
C3
FC
F2
0E
ED
FE
FD
FE
D8
F3
07
FA
0A
DE
F6
10
05
04
EF
04
22
01
04
F9
F8
F7
F7
F6
FA
F9
EB
EA
12
05
E4
EC
09
1B
FF
0C
0C
03
ED
02
11
10
F5
0A
0D
F9
0B
06
EB
0C
09
FB
EC
08
DD
EC
05
08
F3
F2
F1
D4
08
02
F4
E8
0A
FC
FF
15
03
F6
EE
03
FD
EC
01
09
F8
13
0D
0A
E3
03
11
07
17
10
FD
FF
E6
0D
04
FD
06
16
00
D4
13
D9
E5
0E
E6
F1
E2
FD
F7
03
FB
FB
F8
0E
EF
04
FC
F5
FD
01
F3
14
01
11
F0
08
F2
FF
E8
F1
10
18
FE
ED
F7
F3
09
F8
07
01
E6
2C
FF
08
06
F5
DE
05
FF
08
E4
0F
DB
13
FF
EE
F8
F2
FB
F0
E8
DE
02
E8
24
F6
E5
F9
06
02
FA
10
17
E8
E7
F2
09
F1
DF
11
EE
0B
02
FA
F1
03
08
FC
0D
FA
25
0A
0E
03
FE
F1
EE
05
FB
F5
0A
DF
E4
F4
F6
0B
F7
04
F8
F2
F9
F9
00
01
03
F9
08
10
F3
01
00
1A
0E
F1
05
E7
01
0F
E0
EA
F3
FB
1D
24
01
0C
F3
EE
0C
F6
06
E4
0A
07
E9
EC
10
0E
F6
22
FA
EF
07
06
EB
FA
EF
F7
FB
19
DB
FE
08
0C
06
F1
FF
06
E8
0F
04
FE
19
01
05
0C
EB
11
E5
0D
EA
EC
DB
FA
01
DC
EB
09
FA
FA
FE
F7
F1
FF
12
FC
12
01
FF
04
02
E3
FE
FF
06
F8
07
01
0A
05
14
F3
F8
01
0F
0E
F5
03
05
F3
02
05
FD
1E
03
FC
C0
14
09
00
E5
EA
08
1A
0C
F5
0F
E5
FA
E5
07
02
FA
01
F9
F5
F7
FA
01
F6
F5
F1
FB
FF
F8
EE
08
F7
E6
EE
F5
1A
FE
0F
0F
09
E8
02
E3
DB
EC
08
08
0F
E5
F9
02
F5
F3
01
F5
01
00
0F
FA
EA
F6
F6
0A
18
11
E0
F0
F9
0A
03
08
F6
F0
0B
FE
E2
D4
F7
EF
0E
EF
12
F0
F3
F8
04
F3
05
05
11
E4
FE
00
DD
04
1B
F4
05
05
15
F7
E6
06
10
FA
F8
00
F8
EA
14
FE
10
02
ED
F4
E4
D3
05
FE
07
FE
F7
13
0D
09
D0
06
E4
00
11
FB
0A
F4
D5
FF
07
0E
03
25
02
0A
FB
15
11
08
11
0B
1A
1E
FD
15
06
00
02
19
F5
10
EE
F9
05
F7
00
10
F1
0A
FD
D6
14
FF
00
F8
01
0A
0C
FB
03
FB
17
F9
F6
FD
FD
EE
0C
06
08
F6
FA
08
FB
07
0A
0D
00
01
DA
05
FC
F6
00
E6
10
19
01
E1
09
FE
04
12
F3
F4
EC
F8
10
15
11
F7
08
01
0B
F4
13
FB
F3
F4
0A
0C
05
05
07
F6
F8
05
F0
D6
FE
F8
0A
FD
08
0E
03
00
CB
FC
18
0B
05
05
05
06
11
01
15
1C
0D
F5
FA
FE
FC
15
03
F8
F6
0E
FF
EC
FB
F9
EE
0D
EF
23
12
17
F5
11
01
14
07
F0
FC
F1
F9
FF
0D
0A
F8
F5
01
06
09
0E
09
ED
FB
EF
F1
1E
E3
F4
F6
F3
EB
FE
E6
F4
F0
15
F4
FF
14
FD
10
0E
11
F3
F9
E3
0F
0E
F8
EF
0B
F5
08
FB
E0
FD
05
D7
03
F6
07
0F
1F
12
F9
FE
FE
15
FB
F9
02
F8
01
06
13
E7
0D
F7
0A
02
F9
1E
FE
0D
17
E5
F9
ED
FF
0D
0A
10
DF
0C
14
09
F0
0F
0B
FD
0A
00
11
FA
0C
1D
03
10
03
F4
06
FE
F7
0C
17
FF
EB
FA
08
F6
F9
06
FC
FF
E2
04
0A
F5
0C
11
19
0B
F9
17
FE
20
F7
F3
EF
03
08
01
F6
FF
09
06
0E
10
EB
07
19
F7
11
11
0A
E7
11
F9
0A
E5
0D
16
08
14
F0
FE
FC
0F
E9
FF
01
03
FF
09
F1
DA
01
FD
ED
F6
0F
0F
08
02
09
FA
FD
01
F7
F6
EF
F4
03
F4
0D
FC
FC
FD
1D
04
F8
ED
FC
0E
03
0B
EE
07
06
0C
DE
03
03
20
F8
0F
FC
FC
E4
0B
DF
1B
F7
FA
F6
05
09
09
D8
09
FE
07
09
0B
13
1B
02
FE
D8
05
FB
E1
09
FD
01
1C
08
13
0B
FF
08
E7
E8
D7
F8
EE
0C
F1
07
F0
05
02
0F
04
FF
E9
E6
07
FB
FC
05
FF
F7
F0
FF
FF
0E
04
FA
FA
FB
19
0D
03
07
F6
04
08
FC
F6
F2
F4
06
F3
01
03
05
03
17
F5
EF
F2
F9
F3
05
F7
19
F8
F4
DF
FD
0E
05
11
EC
1C
11
1A
F1
12
00
F4
01
FC
F8
14
F8
E9
17
01
EB
1B
13
FD
11
09
05
DB
DC
00
FA
F0
0B
D7
02
ED
02
12
F8
12
FD
08
0C
05
12
00
0B
0E
FB
03
F9
06
02
F6
01
FF
F6
10
00
F2
01
0E
F3
00
F6
04
FA
0E
D2
19
11
FA
F9
11
FD
F7
13
FE
0B
FA
EC
03
F0
FC
FD
EF
F8
1C
D1
F5
13
FB
06
F1
F8
00
13
0D
FB
0C
F5
FB
FF
FF
FC
05
00
FD
04
FC
F6
F5
18
0D
0C
FC
01
F4
11
09
F4
05
08
FD
FF
0C
F8
FE
06
E7
20
07
0C
FD
0C
F5
16
06
FB
F0
F9
F1
06
00
08
FD
FE
FB
15
13
F4
00
00
04
FD
06
15
F9
01
F2
EC
02
FD
F5
FA
FA
08
09
00
0E
FF
0F
FC
08
10
0A
18
06
16
03
20
0C
0C
0D
06
ED
09
07
0B
17
F0
F8
FF
31
03
0B
FF
FE
F2
03
03
0A
18
16
06
04
1D
07
03
F3
00
F0
E6
F4
09
FE
05
FD
DE
F8
04
FE
07
0D
19
EF
00
02
06
F5
06
EA
EB
0E
F2
F6
04
09
0A
F8
00
F1
FE
14
0F
03
02
FC
0A
E9
0B
F2
0C
08
17
FD
F4
08
FF
FE
F3
F3
FA
00
FF
08
0C
01
00
1E
EC
0B
FA
15
F7
FF
06
08
12
FC
01
04
0A
FE
0E
14
F1
F6
FA
ED
13
0A
04
0D
02
03
FD
F8
F3
F6
F3
F7
0A
17
06
0A
E8
25
0D
EF
03
06
0F
FD
FD
FB
20
21
F2
F5
03
F8
F0
F0
04
06
F6
02
FF
F0
08
16
16
09
18
0A
F5
2F
06
00
EE
F7
04
F8
FA
0A
06
EC
1E
11
F4
24
0F
FB
06
EB
10
E9
0A
0B
0C
07
00
FD
E3
FE
F4
05
04
11
16
2A
0C
F5
22
F9
06
F5
0B
FA
FF
F0
14
19
0B
FB
0A
F3
09
F9
EE
FE
F8
F8
08
0A
0D
F5
F7
F3
F6
F6
FE
EB
F0
0C
24
0F
05
10
0A
F6
F3
FA
11
FB
FE
01
EA
11
EA
12
06
0B
09
0A
08
07
1D
00
00
F1
1F
FF
04
0B
08
E6
F9
05
F2
00
04
18
17
1A
FC
28
FC
FC
FE
EE
14
F7
F1
01
00
F4
08
FD
F5
FF
E9
FB
04
FD
0A
EC
02
00
F9
FC
0A
F6
0A
05
FE
02
00
07
02
10
03
0D
FA
16
0F
01
0B
FB
03
E7
17
E7
0F
FA
07
08
F3
F4
05
00
FF
06
EF
01
0A
12
01
08
00
02
02
07
08
0A
09
0C
0A
03
16
0A
FF
FA
FC
F6
00
05
14
FD
08
FF
10
00
08
13
08
F2
08
FF
FF
F5
0B
12
05
1D
06
01
F2
0E
FA
0A
09
0A
16
01
13
F5
1E
FD
FD
11
0C
F8
EE
06
03
0D
10
0C
FF
F6
FD
0A
F1
F2
F4
08
0A
E4
08
21
03
01
05
0D
0F
0D
F6
17
02
0E
0A
10
FE
0A
FC
F7
00
08
0A
F5
FD
EE
F1
0D
E8
09
06
FC
05
F2
15
FC
F5
05
F8
DB
F5
F4
07
FB
03
02
0E
0C
0C
1C
0A
F5
07
0D
0A
EB
01
FB
18
F8
F3
10
FE
FB
0F
0B
07
FB
FE
F6
0B
FA
25
FB
0D
F4
FD
F5
0D
FA
FF
FC
FA
04
F3
00
E5
06
03
FF
EA
FF
FC
FB
F9
FD
F1
03
F3
1F
F6
0A
08
03
14
EE
22
ED
10
00
07
F4
05
EA
0F
F5
00
05
FF
05
10
0C
F2
F9
FD
F9
F6
16
01
0B
06
09
F9
0A
F6
FA
FF
0F
12
08
13
0C
EE
07
14
0A
FD
06
F0
F3
03
04
03
F1
FE
04
F4
0A
10
F1
08
05
FE
03
02
03
F3
12
F9
FD
00
14
03
08
04
F5
13
08
F5
06
03
F1
08
F9
FF
0D
07
F5
01
ED
F7
F7
01
09
00
FD
10
FF
14
02
04
13
09
03
00
14
FB
08
00
E1
F5
FE
FA
F2
00
FF
18
F7
07
F8
06
F4
ED
EF
08
F6
14
00
FE
FB
F2
0D
FE
EA
EC
EC
14
06
0F
F5
0E
00
FA
0B
FD
0B
F4
F9
EE
FD
0F
F8
01
F9
DE
06
07
01
F3
0F
04
18
FC
04
02
EA
09
14
04
F5
FF
0B
03
F3
F4
FF
12
0A
FD
07
05
FF
F8
F7
13
04
0A
0F
F7
FB
0A
05
FC
12
FD
09
F3
FF
0B
F5
03
07
FF
FB
11
08
FF
F7
15
FF
05
FB
FC
01
05
FB
0A
00
FE
01
19
FC
05
FD
FD
F4
08
FE
0C
06
FB
02
09
FF
E5
11
FD
FA
06
F1
0C
11
08
0B
FD
0E
04
05
02
09
0A
05
F4
12
0E
02
FE
FF
05
F7
07
08
00
09
FF
00
03
FE
F1
FD
01
F0
ED
01
04
05
F0
FA
02
FD
0B
FC
04
F7
FC
FA
01
F9
FA
04
08
FA
F3
EF
FF
F9
FE
E4
02
F8
FD
E9
F2
F8
F5
FF
0B
FA
F7
F1
F7
03
FF
E3
06
FE
FE
09
FD
12
FC
FC
F6
FC
FC
EE
06
F0
0B
0D
08
0A
FD
03
FE
FA
FC
04
02
05
F0
06
0D
02
FD
F9
DB
01
0B
FE
0D
DC
02
EB
13
05
F7
06
03
0F
0C
F4
02
F0
07
F7
FB
F9
FE
F5
02
FF
FE
19
09
04
FB
03
02
25
04
F1
EE
FF
EF
00
03
F0
FF
F6
03
07
09
00
0A
07
0E
F9
04
01
09
0F
E1
F9
FA
E8
05
F4
F0
F7
F6
03
06
FB
03
FF
EC
FF
0A
10
FB
03
0C
FD
0C
FD
F5
06
F2
FC
03
0F
09
DA
05
F1
09
F9
F9
E6
0D
FB
EB
05
F5
06
E1
FE
08
19
1B
F7
30
07
DC
E9
F5
F5
ED
F2
E8
FD
22
DD
E7
FE
FE
1C
E8
1F
DC
0D
D9
05
0F
F3
09
F2
18
20
F7
F4
F9
08
EB
F8
D9
EE
EC
FA
06
11
00
F5
0B
0E
EC
E4
EB
EF
DA
EC
FE
F8
00
E9
E1
05
E1
FC
EA
F2
0A
09
FF
F3
ED
11
BE
08
0A
C0
0F
F9
D8
00
F6
08
DB
0E
05
D7
CF
E2
F8
0D
F8
E1
D3
13
F4
0F
E7
F7
F9
EB
F7
02
F9
04
F1
0B
FC
EA
10
F7
FA
CB
FA
F7
E3
19
FC
EB
C3
0F
ED
C5
FA
F9
D8
F3
0C
01
01
DC
18
00
F8
07
04
0F
0D
18
0D
F9
0F
F8
E8
FA
17
03
1A
F3
EC
F8
DB
CD
EE
FE
02
07
15
F4
17
0D
DD
E3
13
03
0E
F4
06
0E
FC
F3
F2
07
E6
FE
F9
02
FF
0C
DC
14
F7
F0
0E
F6
F9
F5
E6
F4
FF
E7
FD
0C
0F
EE
05
F2
03
F6
1A
F1
DE
12
1A
FA
F7
10
0F
06
FB
E4
EE
F3
10
18
ED
0C
06
00
E0
F7
F6
F2
04
F4
0B
DC
00
D7
F7
08
14
0C
07
07
F6
05
FA
09
13
23
E6
F2
E8
DD
02
F8
06
0A
10
FC
D4
EB
F4
11
FC
EC
08
F6
FE
DF
FF
0C
09
F8
EA
F9
F1
08
05
02
19
F5
FC
EC
15
F1
F8
F6
F7
E4
E9
FC
FA
F8
EF
E7
F2
04
0F
04
E6
D7
08
EA
F9
14
04
11
DF
F0
D0
E8
C3
F4
F1
09
03
1F
14
F8
1D
D6
01
EA
03
08
22
F2
F2
F2
BA
0A
0B
FD
20
12
12
0D
17
F7
F4
03
FC
FF
ED
08
00
E8
07
0C
F2
CE
0D
EE
0C
F8
E0
01
FF
12
FF
F6
FC
02
E8
02
F0
0B
04
EF
ED
EB
D2
D5
02
FB
03
E7
FB
F9
DC
07
09
D6
F0
ED
00
FB
B7
07
02
F0
FA
E7
D9
04
02
0D
04
C7
FD
02
00
D2
DE
DD
D4
1F
22
F1
F4
E0
E9
07
BF
12
F4
0B
13
0D
F7
F8
F8
F6
E4
09
E8
26
E0
11
F8
F0
FB
E1
E8
E4
F0
FF
10
1B
1B
E7
00
18
ED
0D
11
D0
F9
B2
0A
F7
EC
0A
FD
BD
FA
F4
FE
00
10
03
09
03
0B
05
E4
E0
F5
1D
DA
F3
10
0C
0E
F0
FE
01
FF
0A
EE
F3
13
F8
D5
01
FB
03
FA
1F
08
FE
07
08
0C
0A
0F
03
23
1B
19
FD
F9
11
00
EF
F4
FA
01
CB
F7
F1
0C
FE
04
DF
11
10
02
12
F3
08
FC
E3
FF
F8
16
1A
07
0E
DB
F1
FD
F3
F9
CD
F6
04
04
FD
F4
F9
EE
0B
09
FF
EA
00
E6
F3
12
04
04
F6
02
18
F0
0E
07
FD
E8
F1
02
EA
02
11
08
02
00
ED
0F
FA
0D
00
1F
FC
E7
FA
13
F5
0A
FB
DB
F0
F5
0D
05
F7
11
0D
F8
0A
EF
FD
DC
E9
07
10
05
D7
ED
05
08
04
05
02
F7
F7
01
0E
11
0C
10
E9
E7
F8
F8
FF
08
05
F9
EF
10
0F
01
11
FB
F3
11
07
13
FD
06
FF
02
FE
12
12
E7
E2
0A
11
04
20
0B
01
E4
FA
03
F5
12
D8
18
06
F6
EC
08
F8
0D
F9
07
09
02
F8
EF
F2
05
00
12
0B
01
F6
FD
FF
08
0C
0D
0A
19
F6
05
0D
FB
F2
F4
F6
EA
04
06
00
0B
0D
FF
F5
FC
FE
E7
F9
0A
07
13
0F
F4
F8
01
F8
02
F6
0A
05
EB
E1
07
FF
06
F5
06
FB
10
F7
0A
F8
07
00
F8
0D
1D
17
D9
0B
0F
10
F4
00
FB
0C
02
16
F4
FD
F6
ED
1F
F3
06
E0
10
F6
FD
E7
01
0D
07
10
FD
00
09
FA
F5
02
EE
05
F9
FE
FC
DC
DC
FF
FF
12
15
0D
F8
FF
03
0D
EE
E6
01
FE
CF
F3
F3
0F
00
ED
F0
FA
F3
0A
0D
ED
FC
00
F9
07
07
09
01
05
0B
F8
E3
F1
00
EB
03
08
FB
16
DE
FC
F1
EA
00
F6
E4
EF
FB
00
F1
EC
03
E8
00
E5
E7
0B
F5
FF
05
02
08
DE
FE
FF
01
FB
F6
12
F1
FA
EC
01
02
F6
04
0E
0C
02
00
05
0C
F7
06
ED
F1
FF
F5
03
16
05
02
D8
1F
03
FD
FD
F3
16
FC
11
FE
ED
F5
04
E7
05
EF
FB
08
F8
D7
16
02
FF
EC
DB
02
E8
0D
09
E8
00
05
F9
FF
01
12
F2
05
FA
06
DE
F7
FD
14
F5
FD
21
00
11
F9
F1
07
EA
E4
F0
FD
FD
03
EE
04
F7
F7
F8
F9
0A
F3
FF
08
1D
0A
F3
15
00
F3
F5
E6
13
FC
02
01
F0
14
ED
01
FB
F7
0A
F2
15
FB
EF
FD
03
0F
10
08
FD
05
D5
0B
F4
F3
05
FC
DF
07
1C
E0
DC
15
FF
0E
00
E1
FD
FB
FA
EC
F9
01
E9
03
0D
0F
0A
D8
FC
14
00
0F
06
06
F4
EC
F8
F4
03
02
12
05
FB
06
12
1F
D5
FF
F7
05
0B
05
0D
0E
FE
F5
FD
F8
00
01
3B
0B
F2
06
15
DE
01
0A
B9
18
13
FC
F2
08
0F
15
0A
06
FD
0D
03
F6
FB
0A
F8
0B
FE
0B
EB
FE
1A
FF
05
20
F7
0C
03
0C
03
FC
EA
15
E0
15
28
19
EA
03
0D
0D
28
16
F0
F7
DC
FB
04
20
FB
06
FB
1E
F8
18
0D
10
09
02
0D
0D
0B
06
F6
F3
FD
05
E0
18
00
12
00
2E
21
FA
0E
02
03
16
06
05
0E
FB
0D
14
FE
22
25
F7
00
ED
EF
F6
0E
02
06
EF
22
06
DF
08
C2
E6
FA
CE
1B
0F
15
FD
FB
02
1B
04
11
F7
0E
0F
E5
F7
0A
EB
F2
F5
0E
F6
EC
04
DD
0F
FF
0C
27
D1
08
12
0C
F7
00
E4
D9
00
0D
16
FA
16
07
F8
0C
01
11
15
F0
21
1F
F0
FC
06
01
0E
03
04
0C
F8
E5
12
01
0D
06
05
1D
01
08
EE
26
E9
10
09
16
ED
05
2B
CE
29
01
DF
F8
10
0E
0D
FE
0F
06
F2
FB
0D
05
18
0F
C8
07
16
01
00
FF
0B
0E
0C
02
0B
04
0C
1C
FD
FF
FF
F3
FD
FE
F1
0F
1E
1D
EF
00
11
FB
D7
E5
05
FF
DD
13
E7
E1
09
0F
05
21
13
FC
08
17
0C
07
F8
03
FE
04
EF
04
FF
0F
27
1D
F0
0F
0B
DE
FE
1B
00
DA
00
F8
10
DA
1D
26
09
0C
08
10
13
21
1D
0F
FA
F9
13
06
05
DC
10
FB
FA
E6
26
17
DE
08
12
09
FC
FB
FE
FE
F7
F9
10
F7
FF
E0
FB
F6
FF
06
0E
E5
D9
0A
00
02
EF
08
10
16
DF
0E
01
14
01
0A
0B
03
10
04
F3
1E
12
10
FF
02
09
01
EC
10
E8
12
02
1B
01
19
FC
07
E4
07
0C
E6
06
0D
0E
16
09
05
1D
D2
06
F4
EF
EB
CC
FC
05
F6
DD
F2
05
E3
10
01
EB
F1
E2
F6
02
07
0F
07
F6
F7
0B
EA
04
1B
06
FF
DA
1A
16
0C
09
00
07
10
FF
D5
CF
F6
03
F9
F7
04
07
E3
1B
10
02
E7
03
09
FB
05
16
07
E6
D2
0B
15
05
02
0C
FF
2B
FB
04
2D
EF
DD
03
07
03
0C
08
16
0B
03
FF
1E
30
0D
08
0B
0D
0D
D0
04
FD
F3
12
21
FF
EA
D8
02
FC
1A
EC
21
03
12
1F
05
0A
07
FA
0C
12
07
13
FE
F7
04
11
16
0F
FE
0C
03
03
F6
F2
0C
FF
13
C8
3B
0F
0D
04
0C
08
06
FC
09
11
06
D8
FD
FF
14
F5
F0
FA
0A
D0
F8
02
F8
00
D2
EB
F7
17
06
E8
16
FF
C8
E4
DA
EC
02
E8
00
EA
EC
F1
EF
03
06
EC
F2
E9
1C
ED
03
E4
EA
F4
F4
06
00
FE
FA
F8
02
07
FA
F1
0D
0D
16
0B
EF
DE
F4
F4
F3
EE
E2
FD
FD
FD
01
FA
E2
12
FC
07
FB
FC
07
F9
F8
FA
02
06
02
F2
0D
03
DF
F5
E7
09
0E
0E
FE
F8
01
0A
24
06
FB
DE
04
0C
07
10
EE
1C
F9
13
13
20
03
10
09
12
FD
FC
FD
F6
01
FA
D7
F3
00
13
FD
07
15
20
0C
01
0B
EE
06
E9
FF
13
D1
FE
00
0B
0D
FF
18
FD
0A
FE
01
05
FB
04
16
00
F9
EF
00
09
09
E7
E7
03
1B
08
D5
00
F9
FC
00
FF
06
15
EE
05
FD
0F
FF
F4
F4
ED
F8
FA
02
F1
09
0E
0B
F2
04
03
EE
F9
08
12
FF
FB
0D
F8
07
09
0B
06
E5
F6
0E
01
0E
0B
0E
00
18
F3
05
10
FD
F8
21
03
09
FD
F7
00
12
08
F4
EF
0B
0E
E7
E3
11
0D
0D
FA
ED
E8
E3
0D
FD
02
E4
F6
0B
0F
17
F7
02
F9
07
FF
F1
F5
FE
FF
F8
FC
0C
FB
08
FD
09
DF
EA
F2
F9
06
07
F2
02
0A
00
11
EE
02
12
0D
F9
FB
F6
00
FB
F8
10
14
0B
FF
FB
0B
0A
F5
EB
00
F0
FF
04
11
FF
F3
19
E4
0E
FC
E7
E8
F9
10
05
F1
00
FE
14
05
E4
E8
06
FC
F6
EC
F2
FE
DE
F5
03
ED
FD
0C
06
F2
D9
0C
CB
03
16
04
F4
02
05
03
11
D4
F7
F0
FC
0A
05
F8
F6
F2
FD
0D
03
F8
0C
FB
03
F9
DE
F3
0A
0B
FF
DD
FF
03
F3
01
F6
04
F8
17
12
11
F6
0B
FE
11
00
06
03
FE
FE
F7
05
FA
0B
08
05
CB
08
05
FE
07
E6
01
E1
F1
01
03
12
03
00
22
DC
F1
F7
FB
FC
21
00
FF
03
F6
22
05
FD
F5
EB
F4
02
FB
0E
10
05
0B
15
03
03
03
E8
08
F1
EB
0A
0F
F5
08
FA
FF
14
F1
EE
FD
F8
18
03
F8
F7
F7
04
F8
03
F2
08
DF
FE
F6
24
05
F9
EA
19
05
F8
0A
0A
F9
F7
0C
03
07
11
05
DD
E8
02
FD
E8
F0
E5
0A
15
04
F9
1A
07
0A
FF
F6
FE
F4
F8
FF
02
0B
0A
FD
12
F8
EE
FF
05
00
EC
02
02
E0
EC
01
0B
EE
00
E2
EF
00
EF
FF
02
01
08
05
01
FB
21
0E
05
E3
11
F4
0D
F9
E9
0D
FC
11
04
00
09
FB
E5
FA
F9
10
06
02
19
07
1A
EE
03
F5
F5
EE
10
F4
F9
ED
EA
01
FD
07
FC
06
CC
01
0E
EF
F9
E0
01
08
FA
02
D8
06
F6
16
06
FD
FA
F0
04
19
1A
15
07
F4
08
F7
03
FE
03
E0
10
0A
06
07
F8
FF
FA
FD
FD
EA
F9
03
FA
FA
EA
E3
00
F1
FC
F2
F9
00
FD
F6
13
FF
F5
FF
FC
FE
F1
FE
E5
12
0C
0D
D4
15
CF
08
FF
09
FA
EC
F1
01
EA
07
FD
07
06
0C
07
03
F7
D5
14
00
FA
00
03
FA
F2
11
FF
F9
D0
E9
09
FF
04
FC
FE
02
0E
1A
D2
12
F7
F5
03
F0
05
07
FA
09
FA
F7
F0
EB
06
01
F5
1B
FE
0A
04
F6
04
F1
FC
E9
E9
F5
0C
09
04
F7
E7
EE
06
02
ED
F1
05
0C
E9
04
FC
FA
E6
ED
07
F7
F3
F9
08
FC
FD
FE
02
F0
13
0F
0C
01
03
F1
10
F9
15
0C
01
EF
06
CC
FC
04
F8
F9
07
F0
FE
19
01
05
F2
F8
03
EB
FB
0B
00
F3
0B
EA
00
00
FD
F5
CE
04
EF
01
EE
F5
F5
00
04
0B
E8
F3
F0
0E
03
FB
F2
F3
09
01
F7
E3
ED
E3
F7
FE
F7
0B
EC
FA
03
11
08
F0
F2
EF
FD
EE
12
06
FA
03
DD
0F
02
F9
0B
FB
04
1A
FA
F2
17
10
F5
03
09
E9
01
F3
02
0B
0F
05
12
0F
F1
F4
10
09
ED
02
F0
F9
17
FA
F6
03
F5
FD
E8
09
FD
0B
12
0A
05
08
09
E9
EE
06
0F
F1
FF
F7
06
1F
FD
05
08
FA
0A
FB
08
E4
F9
07
FA
F9
EF
EA
FF
0B
EF
05
FA
FF
F0
05
FB
0E
02
1B
0B
F3
0C
14
F6
F2
F6
FE
0D
FD
0F
11
EE
FC
10
F7
12
01
F8
0C
11
EF
FF
06
F6
F9
FE
E9
03
09
07
F3
E8
0A
FB
09
01
07
F7
09
FB
EE
15
FD
09
FD
FA
FD
04
FB
F0
13
F4
EC
09
0B
04
F2
07
08
FA
01
16
E6
0E
FE
FC
EC
07
FF
03
F1
FE
0C
F0
F9
00
EA
FB
F7
09
FC
02
06
02
06
15
18
F7
FA
06
05
EC
02
F4
1A
DE
F7
04
05
00
E1
F8
0D
FF
F9
FB
FA
FC
0B
0E
F7
F4
FC
0F
02
E8
04
03
00
0A
03
F8
F5
F5
FE
FE
F3
04
F5
F6
07
F9
09
ED
00
F7
FB
F4
F7
02
E5
FD
10
01
0C
04
03
F6
F9
09
00
11
FB
FD
E8
FB
F6
FC
0F
02
08
0F
06
0B
F3
EA
0A
23
0C
F8
FB
00
F4
0E
12
0C
11
0F
15
F5
FD
0C
DD
0E
1F
ED
0F
02
EF
FB
EC
F3
18
F3
F4
13
FA
00
FE
FE
0E
F4
00
01
02
02
13
FC
FB
11
F6
FD
FF
F4
F9
ED
EB
0F
F0
0A
FC
09
0B
FF
02
1E
F3
F2
E7
F7
F3
FF
1A
F8
F0
02
07
0A
06
F2
FB
FB
F1
EB
E2
10
F5
F3
F0
08
FF
E4
06
22
FB
EF
0E
08
00
0A
F8
EA
13
0B
14
F3
0B
F9
08
FB
20
02
FC
FF
02
10
00
0F
F7
06
EB
01
FE
F5
12
14
04
F7
E9
01
0C
12
05
E1
0E
EE
F6
07
FB
F7
08
F3
17
F7
01
F8
15
06
E8
FB
15
09
FE
FF
10
00
11
F6
03
03
F1
07
FB
0B
F9
02
0B
18
FC
F0
FB
08
ED
F2
ED
15
FB
02
0A
0B
F1
11
FB
00
FC
F9
07
13
08
09
00
F6
F8
FD
F5
FE
EB
FA
FB
05
0A
0D
F2
FA
12
1B
01
FD
18
02
F8
1A
05
FF
DE
15
22
10
1B
F8
F5
F7
02
EE
0D
13
FE
F1
00
00
E1
F8
F9
F1
F7
FE
18
1B
13
FD
F4
02
E6
02
EE
13
F2
06
EB
FA
F4
ED
F5
FA
06
F7
07
F7
EF
0E
19
FD
E8
F5
0A
F0
20
EB
EF
07
0F
FE
0F
02
0F
FF
EA
F9
04
EF
FF
ED
FD
F8
FD
01
FA
0F
EB
F4
10
0E
14
F5
0F
0D
0D
05
F9
FE
0A
0D
F6
F5
E0
FA
00
01
07
07
F8
23
FD
13
E5
0F
FF
06
01
1D
FE
EE
05
01
19
FB
01
0D
F5
1B
0D
06
04
F8
03
EB
12
00
17
FE
01
11
18
08
F4
10
FE
11
0A
F0
16
EB
1A
08
0A
05
F2
FE
F3
1E
EF
17
02
F8
02
F2
04
09
01
04
0B
00
07
07
03
F3
05
E3
F7
0B
04
09
ED
FF
FD
09
03
1A
F0
0E
F8
ED
F7
08
14
FE
06
11
01
EE
F2
06
EB
EB
05
02
F4
01
F3
02
F7
E4
ED
19
EE
FC
0F
FC
0C
06
02
00
06
F1
0A
EA
1A
F8
16
F0
14
03
05
0E
F9
FB
ED
EE
0F
0A
F6
05
04
F7
06
24
14
FE
EB
0F
17
F3
06
F4
FC
03
06
17
04
00
F4
F9
E6
F2
09
0B
01
FB
F0
EB
ED
1E
0C
F6
06
E5
EE
F7
F4
E3
F2
11
E0
05
11
F2
18
FE
F5
19
F9
F4
F3
06
0B
14
FD
FE
F1
F4
0C
FB
09
16
E7
F8
EB
F0
03
FA
05
DC
09
03
F4
ED
F1
F5
00
0C
EF
FE
01
02
FF
0D
17
02
02
0A
0F
F4
FC
0C
F7
02
24
F6
13
F4
00
01
F8
F9
0D
F4
FA
10
11
F5
02
15
1B
E5
F8
FD
FD
FA
19
F6
F0
13
0A
0E
F6
F6
01
07
F7
09
E9
0A
F4
08
0A
FD
0A
17
F8
FB
E9
F2
03
00
15
E8
00
F4
F6
10
14
FA
FE
FC
03
F2
DE
0C
FE
FF
F2
FB
05
EA
10
12
FC
E7
1B
FB
FC
10
E7
F9
19
10
10
07
FF
02
0A
10
00
02
F7
FE
E0
08
08
04
FB
05
EB
03
FD
E9
18
11
FC
0A
F8
09
0A
17
02
EB
FF
E5
00
0E
02
FF
10
FD
FB
09
FE
05
08
FE
02
FA
0E
0E
00
F4
F2
ED
0D
FF
F6
F6
00
04
08
18
11
01
10
1F
FF
07
F5
03
F8
00
DA
FB
06
08
FD
10
F2
0C
0E
04
14
F3
02
14
0A
0A
12
F3
04
FD
FA
F7
EF
F1
F9
F5
08
02
FE
07
0C
04
F2
F5
01
0C
F2
09
F3
FB
FB
03
0F
FB
13
F9
00
FD
F3
D6
12
0C
F3
01
FA
01
F5
01
FE
F6
02
E7
08
12
06
FB
0B
0A
0B
F6
0B
08
F3
FF
F1
F6
07
F5
03
F6
F4
08
10
FD
05
1B
0F
EE
00
08
0D
F1
0D
FF
FD
01
0E
FC
F9
09
15
FA
E8
FC
08
F2
0D
F2
02
F9
04
0B
00
06
E7
13
08
02
15
F2
03
06
12
08
13
F6
0F
1D
EF
F1
DB
09
F1
00
F9
14
FF
06
F5
13
FD
13
F9
16
11
11
08
FA
0B
0B
02
F6
F6
16
EE
1B
04
13
FB
02
F6
FC
0A
F8
FA
05
08
17
07
03
FC
F0
F6
FD
08
00
16
EC
0C
00
0A
FA
EF
0D
EB
07
D3
06
03
F5
01
04
EE
0B
FE
F1
03
F3
02
13
13
E1
07
E1
02
02
0E
0B
DC
08
07
03
F4
20
08
14
E2
DE
F5
05
28
13
FD
11
12
F8
0B
05
F7
E6
FB
0E
F6
F9
05
0D
00
F7
F5
11
FF
F1
1E
0A
0A
F9
14
F8
09
F8
15
F5
03
02
10
E8
04
FE
FB
08
09
FA
FC
F3
03
19
FB
FD
01
F2
12
26
09
EB
D0
17
17
FC
0E
FA
0D
F4
0E
0B
F5
01
FB
00
F0
FC
13
0E
FD
F5
FF
EE
F6
02
0B
05
0D
E1
EB
FB
03
F3
EA
F0
02
0A
0C
00
01
01
FE
03
FF
06
EF
08
07
13
0B
0D
F9
E8
07
0A
07
00
04
F7
0B
00
FB
F2
01
FA
06
08
FF
06
22
09
0A
13
11
F2
FE
07
F8
09
00
FF
06
F2
18
09
02
F7
EE
FC
12
F8
FB
02
F9
F5
00
F3
19
F7
E5
F7
E9
03
11
08
00
FD
F0
FD
EB
EF
03
ED
03
0C
01
FC
F3
00
EA
F3
F4
02
F7
09
04
F8
FC
FF
06
25
FE
01
03
09
08
00
F0
F4
F3
F6
FE
F5
05
F0
FC
F2
12
F4
E0
14
01
0A
D7
F8
12
F3
F3
31
FA
F9
02
04
F7
10
08
0B
F8
1D
05
F7
F7
00
FC
FA
0F
02
07
F9
F0
08
12
F7
0A
F6
F6
F4
ED
06
11
00
E0
03
FB
E0
04
08
FF
0A
F8
FC
10
05
F5
DD
FE
08
07
00
19
FC
11
0B
09
00
F8
00
F9
0C
FA
F9
FD
F7
F7
03
04
F8
10
F9
FF
08
1F
13
F8
01
FC
EB
FE
FD
02
FE
03
0B
09
F8
FF
14
11
05
03
FF
E4
F0
FB
F1
0C
F3
F0
10
FB
F0
03
05
0B
02
16
09
02
F2
04
28
FF
13
FE
0E
F9
FD
FE
04
01
17
07
F9
03
F2
03
DD
FD
01
F9
01
FF
0D
FC
EE
0E
EF
EE
0E
EE
EB
09
03
01
16
F9
FB
FE
21
FE
05
EF
02
0A
06
FB
02
E5
05
0C
10
E7
F6
F9
F7
24
EF
08
15
F8
EA
13
03
F5
10
0B
FD
F8
FA
15
F0
FC
FA
E8
FA
FB
FE
05
0C
14
F5
0C
01
D9
F9
0B
FC
22
00
18
12
F6
08
F9
01
0E
08
FA
F8
07
FA
F2
13
0E
F2
0D
EA
F6
06
F9
0D
08
25
00
04
EC
00
F7
FC
17
0C
FE
03
D7
0A
06
FD
07
0F
F6
F3
16
00
02
FB
07
FE
14
FB
04
10
E9
1A
01
FD
01
FB
17
08
04
00
08
09
FD
FD
0B
FF
E9
F9
11
E9
01
F1
00
FD
FD
0D
EB
EB
FE
00
FC
03
04
1C
11
00
09
09
05
F3
EF
F2
08
1A
EC
06
03
FE
08
FB
F9
E9
FC
FE
03
0E
FE
0B
02
12
EA
04
0E
04
FE
FA
02
09
F6
F1
0B
08
FE
FE
0C
11
0E
04
FF
06
E1
F5
20
0E
FF
FE
12
F0
0D
F4
F9
E2
07
F1
05
01
ED
EF
0D
FA
07
FE
0A
14
F5
E9
14
06
11
16
0E
09
03
0B
04
FD
0F
0B
01
FB
07
1B
07
0A
0D
F6
FD
03
0A
0B
02
FC
0C
08
05
F3
01
03
05
11
1E
E2
F5
15
0A
06
01
14
09
05
01
08
08
F7
00
08
0A
1E
09
E3
19
F4
EA
08
F0
FF
E3
02
06
07
19
FE
0F
0E
CC
EC
00
ED
E5
DB
F6
01
11
F6
00
01
01
FC
F0
10
F9
05
E0
F9
14
0A
F2
E9
0A
FF
E7
1F
FB
1B
F5
E9
FF
F1
E7
F8
00
07
09
F4
04
19
00
F3
09
EB
F7
EC
F1
0A
FA
FF
07
FF
E0
0E
04
12
FD
0E
EF
F5
F3
02
D3
F3
FB
EE
0A
C6
F2
06
04
FB
E0
04
F2
0A
03
FA
F4
05
FC
E2
E8
08
FA
F2
07
02
FB
F6
E7
F8
10
15
0C
DC
00
C9
11
FD
12
FD
0F
11
E1
21
E4
DF
FE
0B
F9
10
01
EE
08
09
07
F2
F3
E9
18
01
00
ED
10
E8
1A
10
07
F4
11
E6
F5
09
0D
03
1B
08
E9
EC
FF
FD
F9
F9
0C
00
15
F4
09
FA
D1
D9
01
03
F8
F6
10
F7
F7
F8
F9
01
F5
F7
F5
01
FC
01
D3
1C
E9
15
0C
EB
0D
F0
F0
13
F4
E4
00
F7
0B
D9
F7
00
F6
FE
FB
FF
E7
07
01
03
0F
12
FE
FB
0C
00
EB
06
FD
05
F7
0A
F5
0A
EE
FB
0C
E6
FD
E6
06
F0
04
ED
F2
02
FC
13
0E
F5
0A
F1
05
0B
F8
05
ED
FB
FE
EA
E8
F6
03
16
0A
06
03
EC
EB
0B
EF
FE
01
02
CC
FC
07
F2
FE
EB
0A
05
FB
03
0B
04
00
08
F9
08
1B
E3
FB
06
03
F5
E6
E6
05
E8
0C
FD
EF
07
E8
FC
00
EE
0A
02
07
FE
FF
02
F2
FD
FB
F0
F2
EC
E6
18
EA
09
00
0A
02
E0
03
EC
0A
11
10
0E
F7
17
AE
0E
0E
F0
0E
1C
01
0C
00
15
02
05
07
07
EF
F3
15
EB
1F
FC
06
EA
0F
03
01
00
DD
07
03
0F
17
04
01
12
DB
0A
E4
05
F9
F7
F0
1B
18
09
12
DC
F9
E5
15
F0
DE
0A
16
11
04
FD
1D
E0
F0
05
0D
E6
E2
E9
F1
02
0E
13
F9
D2
09
EA
FE
DC
FA
00
EA
FD
1A
FB
E8
F4
EE
E3
EC
16
ED
05
0B
09
02
E8
0D
0B
F4
EF
FA
10
F5
F8
0A
FF
06
F0
05
F6
02
FC
0A
0B
17
DB
07
00
E5
05
0D
E6
0C
DE
F2
05
F6
03
05
F0
1D
06
E9
04
1D
FF
0C
F5
FB
00
DF
E6
03
F9
F3
FA
03
15
11
01
DC
FF
F9
EE
F1
10
10
D6
E2
E9
E2
07
F6
18
E9
12
FE
19
18
F5
05
12
0E
0D
14
02
F0
06
09
0C
FD
0E
00
ED
02
08
CF
11
F3
15
FA
EB
0D
03
0E
04
09
0A
F7
E8
FF
EE
FD
FC
03
17
05
09
D9
F8
FD
EC
E8
06
08
03
F7
F0
09
FA
0C
F8
08
C0
FD
02
FF
FC
E6
E9
09
07
F4
E0
FE
F9
08
07
F7
FF
FC
0C
16
08
18
06
ED
FB
FB
04
EF
05
DE
02
08
13
0E
10
FE
FD
E7
FB
EE
07
FD
06
EF
E5
F0
FF
04
FD
F4
F2
FF
FC
F2
08
00
E9
FE
E9
EF
D6
0D
F2
08
0A
08
E3
09
D6
FE
F7
FE
E4
EF
F4
0A
DC
0A
15
F9
02
04
0C
0A
F9
EE
0D
F7
04
09
08
F5
FA
13
01
07
DB
EB
09
F7
FC
EE
02
08
17
0F
EF
05
01
FE
FD
F9
03
FA
FD
04
E9
D8
EE
F8
08
0E
01
0C
E9
0A
0F
F7
06
F6
07
F3
F0
F5
0C
0E
11
EE
F8
FE
08
19
F5
EE
F4
FE
E7
F7
07
F0
DF
EB
05
02
FC
F3
FF
0F
F6
0F
FE
FB
15
06
FE
ED
04
F0
0C
05
02
FA
02
FB
01
D4
FB
0A
0C
E9
F7
F1
ED
0C
09
05
FB
06
01
F7
00
06
F8
F1
0F
F7
F9
12
FE
FE
D3
08
EB
08
F2
F2
F6
F8
00
FE
EA
0B
12
0C
FA
07
F8
F1
F9
01
0A
F4
FE
DD
F4
14
F5
FE
EE
FE
02
15
03
ED
F3
00
05
F0
0D
02
EF
FA
E3
EC
ED
06
03
E2
FD
1F
F4
F6
22
06
02
F3
F3
D1
11
FC
FD
08
12
0A
11
FF
06
F9
12
FF
E1
08
FE
E1
1D
DC
03
FA
E5
F8
F8
03
09
04
05
01
05
03
0B
EE
DE
02
0D
F1
0F
07
F3
05
FC
0F
04
EE
05
FB
11
D9
FC
0C
02
ED
0C
FA
F9
0C
D9
09
F3
04
F8
08
F9
10
02
12
04
FB
08
0C
E8
F7
F5
0B
08
FA
17
00
DC
FE
04
F3
15
02
F4
0B
0E
F1
06
18
01
FD
03
E5
06
09
02
03
E5
04
EE
FF
0D
0F
03
02
0B
E9
00
F7
14
FE
03
03
02
F8
D5
17
F1
D9
00
08
FF
F4
F3
FD
F2
09
1C
EE
06
05
D5
F0
FC
F4
03
DA
E8
FD
EF
F7
FC
F8
F2
EE
00
FB
0B
0B
FD
06
17
03
F3
FC
02
03
FA
0B
F5
0D
FA
04
E5
00
00
DE
FA
F2
FF
F7
06
F3
0B
F0
0B
FE
FF
02
10
FA
E8
FD
0E
03
07
F9
0F
FD
FE
04
10
EA
F3
F2
EA
0E
00
04
FA
EA
F0
05
DC
03
FA
F4
07
0E
15
08
F9
F4
EF
FC
02
19
FE
0C
F2
13
EC
01
0A
F4
0C
E9
FD
FC
16
1C
FD
13
FC
E9
E6
01
EF
12
FD
E9
FA
08
EF
F9
FE
F9
12
03
09
F9
09
FC
FE
10
00
05
FB
0B
06
0B
10
08
07
EF
03
E5
07
F6
F2
F5
F9
F5
F3
EE
10
F3
F3
13
F5
0C
FF
0A
FD
FB
03
03
F9
E6
0B
19
EF
FB
03
EE
F5
F4
0F
CF
00
F9
FA
FE
03
00
17
FB
09
E5
F8
05
F6
08
0E
05
F4
FC
F0
F1
16
EE
0B
EE
E9
FD
F8
F9
07
13
0B
07
06
04
D2
F5
F3
F4
07
07
F3
0A
14
F8
FE
01
11
F8
07
06
0A
FE
02
0F
03
F9
FF
11
0A
E5
0F
05
0D
0F
03
01
13
0D
FF
F3
03
09
14
0D
04
E1
F8
F2
06
FC
03
F7
FF
1B
F6
00
F5
DE
F4
02
F0
15
F8
14
F2
E9
F2
12
FE
EA
F7
FA
0C
F4
FB
E5
14
FA
0B
04
F3
0D
00
F4
E2
05
F2
0A
06
05
FB
ED
FB
01
EE
0C
06
DB
01
11
FE
EE
15
FA
F1
00
F9
F5
F1
F2
FB
0A
19
EE
F9
E7
13
0D
0D
0B
05
F8
EE
FD
F0
FC
04
0A
0D
10
F6
0B
09
0A
FD
02
1E
EE
E5
F2
F7
0A
F7
0B
15
0E
FF
F5
12
01
F8
0B
E5
05
06
0E
E3
0C
FC
FB
FA
F9
01
EE
0C
0D
04
08
06
F1
EF
14
FC
F0
04
FD
E2
E6
F8
F8
FB
1C
F7
05
03
08
EB
EA
F5
FD
F6
0C
F3
06
FC
E6
F9
FA
EA
EE
05
0F
F7
0B
01
F7
04
15
E1
F9
EA
04
08
03
FC
FE
0C
BF
F9
F6
01
0F
13
00
04
FC
00
FB
FF
03
07
FE
02
FC
DD
23
09
FE
FE
0A
05
F5
0B
F7
F8
03
0D
0D
FD
F2
04
F5
F2
03
04
01
EF
05
02
01
FD
04
05
03
EE
FA
03
F4
F2
FD
11
F5
03
10
0A
07
01
09
F0
FB
F6
F6
FD
12
10
EF
C5
09
0F
F5
DA
01
FA
FA
08
11
F6
F7
04
FC
FA
F6
13
FA
0A
FE
11
FB
00
0B
04
02
02
FD
08
E4
1C
04
F1
0A
E6
EE
F8
F5
02
01
19
09
0C
17
0C
F8
03
09
07
FC
DC
FB
04
FD
05
05
D5
04
FF
05
17
21
FD
2F
F5
08
0D
E7
E1
FD
04
04
00
0C
0A
1A
E9
03
1B
11
1A
F6
F3
FE
0E
F2
FE
FF
FB
05
FF
FD
FC
F7
06
10
0C
1C
0A
F6
0A
0D
00
F8
03
F5
02
FA
F6
F9
01
01
05
04
12
01
F0
13
00
FC
00
EE
01
F0
F9
00
11
18
0E
18
05
E0
FA
F8
E4
EF
E7
02
19
01
E1
00
F3
FB
F8
FC
0E
FF
02
EA
F6
0C
FB
08
F5
F7
05
F3
0B
07
0E
EC
E7
F4
FA
04
F8
EC
17
06
E7
F5
0E
04
FA
0E
F4
01
FA
FE
FF
08
FC
F6
09
E9
FD
F9
0C
10
16
F6
FE
DE
F8
D7
EF
00
FC
FA
CC
E8
FE
07
06
E8
0A
EA
FA
0D
FC
02
F0
FF
EF
D6
06
01
F7
01
FF
02
F9
07
01
01
0E
13
E2
15
CF
15
08
05
F7
0A
F6
F0
10
D9
E7
07
12
F4
DC
06
F1
FD
00
09
F2
02
E5
12
F0
FB
EA
04
F5
12
07
07
EB
0A
05
0A
FE
02
FE
10
0D
DD
F2
F8
05
F9
04
0A
F8
1C
F8
0C
F9
DD
DB
08
FB
FF
F6
05
04
07
06
FB
ED
FB
FB
EE
00
F4
0D
E7
13
F3
03
0D
EC
02
E5
FB
F7
EB
E4
02
0D
FE
F2
08
F6
04
0F
07
F4
E7
08
FE
0C
11
23
02
F9
FE
FF
FF
F9
10
04
F9
0B
EE
06
ED
F0
12
E2
FB
F8
FC
E2
09
F2
00
08
04
11
04
F3
0F
04
F3
07
09
04
EF
F9
F4
EF
F2
EF
03
08
05
F6
FC
F2
E3
10
EB
FC
F9
01
D5
E5
F3
0B
01
DE
F8
04
FD
15
0B
0B
F0
FC
F6
0A
0E
E0
00
08
0F
F7
E7
F6
02
F5
FD
04
F2
0B
E6
FA
01
E0
06
FC
01
FE
EC
15
F0
02
EB
F3
E0
EC
F3
03
F2
FD
FB
13
01
E6
FE
F0
04
05
10
14
F7
02
CB
09
05
F9
05
17
09
08
02
0E
0B
07
FC
12
05
F6
0D
ED
22
FD
0B
E8
18
0A
FA
03
D3
06
0D
0B
F9
EB
E6
0B
D9
08
FB
FB
09
F4
F4
15
08
04
06
E9
19
F3
FC
09
E0
0D
06
FC
01
FB
10
F9
EE
18
0E
F4
02
E5
DD
00
F9
03
02
E1
0B
F8
FE
E2
F0
FB
F4
FD
04
F1
D9
F4
F6
FF
F1
11
E6
F9
17
07
07
F7
06
09
EC
FB
E9
02
EF
F8
01
F9
0E
EC
FF
F4
F4
03
FD
14
0F
DE
F7
FA
EF
10
19
EF
12
EE
FF
06
FC
03
08
EB
0B
15
EF
07
19
F6
10
F3
02
01
EE
D4
00
02
07
F2
09
03
00
FE
DA
01
FE
F8
02
03
03
EE
DE
EF
F8
FC
0F
13
FA
02
01
18
17
EB
08
FF
16
FF
06
14
F3
14
07
0C
F2
0D
FA
EE
08
FB
E0
09
F5
E1
01
F3
03
FE
04
09
FA
E2
F1
0A
09
F9
0E
F3
14
E7
E8
F3
FE
01
F4
F4
FF
F3
F9
02
01
0A
EF
02
09
FE
01
07
FA
FA
09
F2
FA
02
07
E6
11
F7
EF
F4
06
F7
FF
F5
04
03
06
FA
03
12
F1
01
FA
F8
09
F5
0B
F5
F6
05
EF
F2
CF
E7
D4
FE
07
FE
00
F6
06
0A
DA
08
F8
FF
FA
F9
E9
FF
0A
14
EE
FF
04
E5
F7
E4
0C
06
ED
CA
F5
FA
DB
FD
FA
EF
F7
12
FB
EA
10
EB
04
FA
13
DB
16
D8
06
EB
EF
04
F0
EE
08
F5
02
14
FC
03
F8
E3
E9
FB
11
F2
FA
03
0C
FA
F5
E9
04
01
0A
14
FC
08
F7
04
FF
CB
F7
05
FC
02
F5
EA
05
E5
00
03
06
FC
0F
F2
1B
F2
FD
08
10
10
FC
F7
E9
0A
FB
F8
F6
09
E2
08
EF
F7
EB
F5
DC
EF
0E
FB
14
EF
10
EE
02
D3
F9
0A
02
0F
F4
05
F9
0B
F1
11
19
E4
F2
E6
FC
03
04
01
E7
F3
F9
CD
0C
F4
05
F7
09
FE
09
F9
F8
FD
01
00
F2
FD
04
F2
E4
D9
F9
F0
07
07
05
F4
0E
13
FA
FD
00
EA
E4
07
E3
F7
EF
EF
0D
08
00
FB
E0
10
FF
F4
FD
EB
09
F5
F0
FB
F2
FD
F9
D9
F1
FE
F9
F2
FF
F5
DC
0E
09
0B
02
09
D2
EF
02
DE
E7
F7
03
E9
F4
0E
FD
FD
03
EC
E7
FE
FA
03
F3
01
F6
10
F1
03
E0
F1
D8
F8
F8
EC
F9
05
FE
06
E3
F7
00
EA
0E
00
02
D2
FC
F2
F7
F7
E9
F5
CB
0E
09
03
F8
E3
E2
FD
F2
FB
0A
05
F2
F8
06
07
FF
0A
EB
12
12
03
05
05
F0
03
0A
F6
FB
04
06
EB
F6
F0
0F
FF
F1
04
0B
EB
07
12
1D
09
EE
FB
01
F6
03
0C
11
01
0C
03
F5
EF
F3
05
F7
EE
00
08
F6
E3
EB
05
0E
F7
F4
F6
EE
FB
F4
0F
F7
F2
FE
FC
0A
F9
D1
F2
04
10
FA
0C
F8
F5
02
03
F0
0E
ED
EA
E2
00
D3
E5
F9
F6
0F
FE
FB
00
F5
FD
F1
F3
ED
F6
F5
0D
03
ED
FE
E6
F1
06
FF
0D
05
DE
0A
0A
01
06
E9
0C
D7
E3
15
04
E3
E5
FD
F9
ED
03
0A
00
04
EF
FF
F1
F1
06
F7
FA
F2
04
EC
F1
FD
09
E4
FC
F5
E4
F5
E3
F7
0C
F8
F9
10
FC
0B
ED
FC
17
F1
F8
E2
F8
FF
08
F4
14
09
FC
01
04
FC
04
0C
04
F9
FA
FE
1B
0C
06
F2
0D
15
F3
09
FA
FF
09
03
FC
EF
FA
03
11
0B
09
EE
F0
05
F4
09
F6
0E
F1
FF
08
00
FF
0B
03
00
00
F1
FB
FB
02
F2
FC
ED
F9
F7
F9
00
11
02
05
FB
FE
10
F1
F5
03
11
F9
F0
FF
F9
00
FE
03
0E
06
DF
04
10
F4
09
08
02
0C
F0
09
E4
0E
F8
FF
E1
FF
FD
08
08
F7
F6
F4
10
F0
0F
02
0D
13
F0
F3
E6
F7
03
06
02
02
FC
FD
F9
FE
0A
0E
F6
0C
EF
09
F9
FE
01
ED
07
00
FB
05
03
05
F3
ED
19
F7
E7
F1
05
11
E1
FC
06
F9
F6
03
FA
F9
04
16
0C
FF
FB
03
0C
F0
F7
F8
03
14
05
06
01
E3
F0
FB
E7
00
F4
02
0D
06
07
FF
0A
FE
06
FE
01
EE
06
F2
0E
F4
FD
04
EA
F5
FD
05
07
F4
FE
FE
EC
0A
F8
0D
F9
08
FE
EA
DF
0B
F8
01
F7
F9
05
11
EA
05
00
DF
F7
F9
FE
0F
F9
FF
0C
DB
E0
D2
00
F2
00
0C
08
09
FD
14
FC
05
F0
05
03
01
07
FE
0A
0F
DC
FD
F7
10
01
F1
08
02
03
EE
07
F2
F8
EC
12
EE
FB
F9
FD
0B
FB
FC
FD
FD
F1
0D
09
FC
FE
03
F8
09
0C
05
06
F3
F6
02
19
FD
EF
F6
06
0D
E1
FD
F4
E4
16
FC
FB
09
FE
01
F8
0B
14
05
DB
0B
F8
FE
0E
E5
05
FF
02
F9
04
E8
09
FA
07
DB
05
DF
02
07
10
F7
04
04
EE
F7
FF
EF
F5
FE
1A
07
F3
17
13
03
09
FB
FB
FA
FB
F7
0A
03
0A
E3
FE
F4
DD
FC
F9
0C
04
F7
FD
0A
17
0F
02
DF
FA
07
FA
FE
06
05
FA
07
FB
09
08
FE
FD
F5
0A
10
05
13
FE
EB
02
E6
EB
04
EC
01
0A
07
08
10
EF
F3
07
FC
0B
EF
0C
01
F5
EE
05
01
F8
FF
FA
EF
03
FF
03
04
FB
FF
12
04
0C
06
06
00
00
01
04
04
07
FD
05
09
03
FD
FB
08
F7
F9
F6
05
ED
F1
07
0C
FE
0F
E3
0F
F4
EE
F4
F6
F9
FB
FC
22
FC
0C
FD
E8
06
F8
F9
07
FC
F5
F9
FF
FC
1A
E9
F9
F4
FB
E0
05
07
0A
F6
F2
08
F9
FA
0F
02
FF
ED
00
02
17
FE
08
08
F4
03
12
F9
00
0F
F3
FA
03
13
EE
02
0A
F9
EF
FD
F8
0A
FD
02
F7
0A
0F
00
05
06
08
DB
06
FC
E6
01
00
09
FB
FE
0A
05
06
1E
04
22
0C
07
F7
04
F6
06
16
0F
FD
04
04
15
FE
02
F9
06
F6
0F
EF
F2
F9
EF
E4
F0
12
14
EC
F5
1B
01
0E
17
F1
03
F4
F1
FD
0D
F4
06
EE
0D
06
E9
FD
F3
FB
03
FE
07
01
08
FA
DD
EA
F2
00
01
0F
F5
00
23
18
F2
FD
02
F4
E7
DF
EC
1A
08
12
F4
FB
1A
E1
E1
FD
0A
FB
F3
16
0A
FC
F4
34
FD
F4
03
F8
F8
0F
F9
ED
0E
29
0F
06
04
19
F8
14
00
0E
01
EF
E7
0F
12
EE
EF
F4
FB
EF
E9
F7
18
0F
F8
05
FF
E1
FA
16
FC
FD
F4
EA
0D
03
F3
F8
01
FC
08
05
17
F1
20
00
14
F9
03
11
F3
07
08
09
07
F5
FA
FE
1A
E7
F0
FF
01
0A
1E
05
04
F1
D3
E9
FF
0D
F2
F6
F3
F2
10
08
E3
12
FA
19
14
02
EF
15
FA
FE
F5
FF
0E
11
E1
F5
F1
04
15
03
10
14
F5
EA
FE
1F
FB
30
06
0D
F9
F9
01
04
DF
0A
28
F8
04
E9
0C
E1
E0
F6
07
F9
F0
0D
ED
F8
0F
0F
F4
1A
FD
0F
06
26
0D
1D
FF
FB
F2
FA
07
11
F8
01
1F
F9
F5
08
F4
E0
FB
0A
F3
E8
02
1B
25
F2
02
11
02
E9
10
F5
FE
0F
1C
00
00
07
2C
01
0D
FD
EC
F7
FF
F3
07
19
F6
F5
FF
FB
EC
F8
0B
F3
18
F9
13
0D
EB
F2
F0
EA
0B
14
FE
E4
E0
0B
0D
08
00
FA
1C
04
F6
14
F9
05
FE
01
02
0C
09
FE
FD
F7
1A
17
02
FF
F7
11
0B
FD
17
0A
F3
F3
08
FB
F8
FA
FF
09
05
06
16
09
10
2B
0C
F6
12
D9
21
FD
EF
F9
FA
F9
EA
01
F1
02
FA
F7
0A
F1
F1
F2
05
09
F1
09
F9
FB
FB
F1
04
F0
09
10
09
12
F0
F1
09
04
08
06
F5
0E
F4
EC
E0
FC
16
04
03
FD
0E
E5
0B
00
F9
F4
0F
01
F3
FD
F9
02
E3
F2
ED
06
0D
F6
19
03
04
F6
18
07
F2
01
FA
E9
EF
E9
1C
01
FB
0C
0C
05
09
00
F2
E8
F7
02
EE
10
FD
EC
02
0F
08
F3
F2
0A
FF
FE
08
09
12
17
00
1B
FB
10
07
0A
0E
FB
13
0B
0A
00
FB
1C
F8
FE
F8
00
08
FF
FD
F5
0B
0B
FD
E8
FE
08
1E
02
20
F7
0A
1A
05
03
00
03
01
01
05
F7
E9
E1
FC
0C
05
12
F8
08
F2
EB
F9
06
07
F1
08
DD
F6
F5
08
FA
0F
0A
09
07
FA
08
ED
08
10
01
02
0B
1D
FC
EB
04
FC
12
FE
0C
0A
F3
0A
F9
F2
F7
17
F8
F2
17
06
FD
F2
FD
13
F4
F8
06
F9
F6
0E
04
F2
01
F0
FD
F2
EE
F3
FD
E6
12
03
03
02
0C
FB
07
00
0A
F9
FE
EF
F3
F1
0C
F0
EF
EE
FA
02
0C
08
FE
07
0B
F0
E8
F9
FD
F6
F8
07
13
04
F3
11
19
F7
FC
13
08
05
08
EA
E6
10
1A
0E
FE
F5
F9
0B
FE
06
FC
0B
0D
EB
16
FC
09
F8
FC
F6
F4
FD
F3
18
10
09
DC
EB
FC
12
12
FA
DF
0A
E3
FC
0D
0F
FB
09
EB
09
0F
FF
10
16
00
FC
E3
0B
09
0C
F2
19
F6
12
F8
06
FB
E2
FB
FC
0E
F9
DD
0D
ED
06
EE
F5
FD
00
E4
EE
FD
D5
04
E2
0C
EC
10
08
F7
06
05
FB
11
F6
00
0A
07
F8
15
F6
FD
EC
FE
07
0B
F8
04
F2
03
0A
13
E6
FE
0A
FF
02
0B
FC
06
F2
0F
1F
F0
0F
E7
ED
FA
01
DF
10
14
FD
E1
F6
07
E1
F7
06
F7
14
FC
12
1B
EE
05
06
FD
FA
F2
F8
0D
0F
1C
FB
07
01
00
0E
06
FB
F9
F0
F7
FB
0E
17
00
DD
E6
15
FE
1E
03
0B
F7
12
04
08
0D
23
04
EA
FC
04
FF
01
F0
F2
F3
FA
00
F9
14
F3
FB
09
0F
04
FF
14
0A
07
00
F8
F1
02
08
02
F7
E9
15
FC
F1
FE
06
07
F7
06
09
01
07
07
0B
07
1A
E3
08
06
E4
1E
09
0B
0F
07
06
01
05
11
FF
0B
0E
FD
F2
0E
0F
12
FD
1D
11
15
1A
FB
10
19
0E
1D
F9
17
0A
F9
FF
E2
FE
03
0A
E6
12
0C
F3
FD
FA
FA
F3
07
09
00
01
05
07
04
F5
14
E9
02
03
FB
03
E2
DC
FB
0B
10
1A
04
E9
0C
F0
FE
F3
0B
02
06
0C
0C
F1
ED
01
00
EB
FC
01
F9
02
F7
0C
07
F1
01
0F
ED
F4
0B
15
DF
F7
11
E6
FE
F7
02
E7
0D
01
13
F1
F9
FD
08
0A
D9
FE
02
F0
04
E7
F7
F7
FA
EB
0B
06
11
FE
E1
09
13
14
06
E3
02
06
E1
FF
05
FB
F2
F8
05
FF
16
05
06
FD
EC
FA
F2
24
0B
08
FD
F6
E4
05
F9
E9
ED
F7
FA
08
20
F4
16
F7
FD
1C
01
FF
F1
0E
0E
06
FF
0C
00
EA
00
FF
F8
10
F4
E5
02
F9
0D
0B
03
15
F5
F7
FB
F0
00
08
14
01
05
F0
E5
EC
F6
E8
F1
FD
FC
0F
F1
05
E4
0F
E7
10
05
F3
FE
FC
FF
FE
14
E7
EB
1B
02
0E
0E
E7
EE
EE
00
EE
02
DF
11
09
15
03
F8
FB
F1
FF
1D
06
F7
0D
0D
F5
FB
0B
FB
EC
DE
0E
12
F9
01
EE
EC
02
13
08
F8
0D
FB
FA
FF
E3
F5
18
0D
06
F6
EB
FF
C7
11
FB
01
08
00
D8
FC
EE
D9
E4
FC
01
04
E6
F5
F2
07
E0
0E
03
04
01
17
06
FF
12
CB
11
FE
F1
EF
ED
14
10
00
EE
F8
ED
D2
02
0B
F6
0E
FE
FE
1B
0A
E6
11
F7
FC
10
FC
FC
01
F1
01
D0
CC
0D
F6
16
05
DC
0E
0F
09
FC
10
0A
F1
E6
0F
05
F5
0A
0F
09
FE
05
E7
05
FA
FA
F9
02
F8
05
E1
12
F9
04
F8
FD
EE
0C
19
01
0E
02
FA
FB
F1
06
FC
15
FB
08
04
03
F0
1C
21
FC
02
04
F4
07
0E
FA
F0
F6
FE
02
F9
F1
0B
FB
07
F4
EF
EB
06
F4
0C
FE
07
D6
03
F8
08
D1
FA
0F
17
17
02
F6
05
02
0F
F5
06
E4
E9
04
EB
F2
E0
01
11
00
E1
0E
FD
FF
F4
03
11
E9
16
0C
E3
19
E3
13
E9
E5
05
06
0B
F4
04
E8
DA
11
FE
FE
E6
13
DF
0B
0C
E5
E6
DE
FF
F8
FD
06
15
02
F1
EA
EF
F9
FF
EF
F6
F8
F6
1D
FE
04
D7
0A
13
DF
DF
C9
12
FE
F8
03
F1
F4
01
FA
06
0B
FE
F6
04
E0
05
EE
10
DF
E3
1A
1B
13
0F
FB
03
0E
08
F3
02
FF
F9
F9
F9
10
03
FA
F7
12
12
09
00
F2
03
FC
12
FB
EE
11
F7
16
F2
0B
05
FC
E3
17
0B
06
FF
FD
12
FD
0F
F8
01
F5
06
07
07
12
0A
F1
0F
E0
F2
FA
DE
FE
11
03
E9
FB
E5
19
06
DD
EA
07
F1
FC
FB
1D
18
F1
F3
F8
F4
E9
FA
F2
08
03
E8
07
09
F3
10
07
EF
10
FF
D8
F3
0E
04
E5
09
EB
0E
F9
F7
F0
F4
02
F2
E0
09
16
FE
FB
E6
F7
0B
D9
08
16
F6
0C
0A
D8
0E
19
D3
04
EF
04
EA
ED
00
F8
F6
1A
08
01
08
06
10
00
09
FE
FB
F9
01
F7
06
13
12
F7
F6
EC
D9
07
F8
E3
F6
ED
F1
DA
F8
F9
DD
09
12
03
09
E8
FF
06
0C
06
EA
14
11
1B
0F
10
09
0F
0F
01
00
09
D8
EF
0A
ED
F9
F8
F6
CE
11
F1
04
17
13
FA
05
F7
12
05
0A
0F
FB
ED
0F
05
08
0A
F9
06
1F
00
0A
01
05
0A
04
F2
0C
FB
06
F5
2D
F0
12
FD
0A
02
11
08
E1
E5
0A
FB
00
27
0E
FD
E9
0B
07
DF
F3
06
F2
02
F5
00
15
F7
F2
26
03
00
EC
ED
08
17
FF
F3
F7
F9
00
FB
11
01
FB
E9
EC
D9
F1
18
FB
00
02
FC
FE
F5
00
09
FC
01
05
0D
05
1E
F5
EC
FF
06
0C
F2
00
EF
FF
EF
06
03
03
0C
FE
12
06
0C
08
F2
E8
02
0A
FD
0F
09
E4
F2
EE
03
12
F0
02
0B
0A
07
01
FF
FC
F7
05
02
1A
11
03
03
0B
09
E4
02
01
03
FA
E7
F6
FE
02
F0
FC
FA
FA
00
05
00
FA
F8
03
1C
F6
EB
FD
D1
E7
F9
07
ED
EC
F9
F7
FA
09
0A
F9
F5
F9
05
F1
EB
0A
FE
FF
07
D9
EE
FE
E9
DF
1F
FD
FF
FB
ED
12
EC
DE
11
01
F6
0A
F8
E3
01
10
FA
FC
17
FD
03
11
07
FF
F6
00
03
00
FD
0B
F3
FF
03
EC
E5
00
EB
FE
EB
F1
00
0B
FE
01
0B
EB
0E
08
0A
F9
08
FA
09
06
20
F0
FB
1B
05
F0
03
F5
E1
FF
F2
F9
00
F2
DE
0F
EA
F0
01
00
3A
04
FA
FE
E6
E0
03
FA
ED
05
FD
F6
FC
03
FB
FD
FB
F9
09
04
07
1B
04
06
04
17
08
0D
11
0E
FC
0A
FF
0A
16
14
1C
F2
09
FE
E0
0B
FC
E1
0E
19
16
05
00
F9
FC
FB
F1
FD
15
FC
0C
D4
06
0A
00
10
1F
01
FC
11
EF
16
FE
FE
0D
07
FD
08
0E
EC
04
FE
0A
F8
01
F9
FD
06
09
06
0D
E5
10
07
10
F9
FF
25
FC
02
F4
09
0F
09
F3
E7
03
F6
0E
05
04
0D
06
17
02
01
FE
E6
ED
F8
FE
01
F5
F3
0D
09
0A
0E
F8
03
05
F5
01
F6
18
EE
F5
FF
0A
F2
15
F3
06
09
F6
F7
0C
FA
F9
FD
0B
04
FF
04
F2
0B
06
01
0B
F4
F8
F8
04
FA
02
03
F1
F8
FC
F9
01
F5
0F
FB
F7
04
F9
01
04
FE
09
05
1D
04
FB
10
F1
27
11
FA
E7
1E
EA
FB
FE
EC
F8
ED
06
01
13
06
F5
FE
F7
00
EE
0F
02
03
D9
F5
E0
F7
D4
E9
EA
15
09
FE
EA
F8
FE
02
F4
F6
0B
03
0C
0A
04
08
FA
01
0A
10
0A
04
FA
E5
E4
F6
FE
0E
F4
FB
F2
00
EF
E9
04
09
DE
03
03
FE
FE
05
0B
09
05
1D
FA
F7
F9
E8
0A
04
0B
EA
EE
02
05
EA
13
F9
E2
03
F8
01
01
F0
01
00
09
F9
0E
F1
05
F0
E9
0E
06
E5
F4
E7
FC
F6
EF
06
FD
00
F1
FD
0D
07
F3
0E
28
0E
F9
DE
EB
E6
F1
17
16
F9
F6
F5
08
E6
14
07
17
E6
04
D3
FF
01
E7
0A
05
0E
13
F1
FB
0A
E4
02
E8
FF
0A
0F
16
E2
F4
0A
DB
F7
0F
03
F5
03
FC
F5
06
FD
12
0D
FE
1E
09
FF
04
03
15
DE
07
D6
07
EC
F0
EA
0D
F8
15
02
02
28
08
D5
FD
E7
1E
04
03
00
F7
08
F7
DF
1E
EC
F2
0C
F4
ED
E3
0C
10
FE
04
1F
15
E8
0C
08
07
17
FE
FE
F6
07
F4
17
EF
EE
F8
0E
11
E2
08
EB
FB
F1
F5
FC
0A
F7
23
FD
E6
11
0A
01
F0
FA
15
14
F2
D3
F9
17
10
F4
00
0C
E2
FD
E9
F7
C8
10
FD
FA
FC
01
FA
11
F0
FD
F7
0E
16
0F
FD
1A
17
18
18
16
F2
02
30
02
15
D7
E0
F8
0A
1B
E6
02
0F
02
F8
ED
F7
18
09
09
0D
D9
12
16
14
FE
0D
03
F2
0E
24
07
0A
0F
F8
E7
F5
1A
02
04
DD
F1
04
1B
FF
01
F6
E4
06
FB
1F
E9
F8
01
08
F6
DB
F9
F0
0D
FE
FF
FA
F5
09
E0
07
FC
09
0A
16
01
FF
17
03
10
0B
17
03
F8
FC
01
ED
09
F9
15
F6
EF
FF
18
09
FC
F2
DE
FF
26
FB
07
F4
0E
F7
ED
F0
FD
09
0C
14
FE
E6
14
ED
0B
0E
11
0C
FE
12
10
12
FE
EA
F0
E1
04
1F
01
2C
0C
16
DF
20
06
0E
0E
24
0A
FC
03
19
15
05
19
F6
1C
EC
00
FB
05
13
FD
1A
04
09
F1
0B
ED
F3
FB
EF
F7
EB
F1
DA
F9
0F
D8
05
F8
11
F7
09
15
0A
F4
09
03
DC
06
08
02
F8
FD
18
1B
E8
07
0D
EE
F5
06
0B
EB
FF
1E
F0
18
1A
FF
0D
02
05
E4
F3
0C
14
15
FD
F6
DC
E7
FC
F1
E9
04
0C
07
E7
F7
D4
FE
10
0F
0B
08
01
F8
E5
18
02
EA
10
FC
06
21
06
F4
E8
10
F3
09
01
0A
04
E5
11
05
0D
FF
FD
E5
F1
04
02
F3
C8
04
F0
D7
0E
FD
EC
0C
EB
FA
EE
D4
F3
1D
EB
05
20
0A
08
17
EC
FB
15
FE
01
F1
F4
09
00
06
F4
FF
19
07
FB
EC
DF
0A
0F
0D
02
05
07
FA
16
0E
19
FB
09
11
DF
EE
10
FD
FF
20
F7
EC
FA
F6
02
F0
FC
12
F9
F4
10
09
DA
03
FA
08
F6
08
12
FB
F6
0A
ED
FC
0C
03
FC
E9
FB
0B
FA
D9
03
F1
15
02
09
06
FC
05
20
FB
0D
EB
01
12
FF
1F
F3
02
FA
04
01
15
F5
06
FD
18
FF
E0
1E
FA
0B
EA
0A
E1
E3
FE
0A
02
F6
0B
0E
08
20
F5
FC
FE
0F
07
F9
FE
00
03
FC
0B
0D
FE
0D
10
04
02
04
04
ED
F1
15
14
F6
19
0F
FA
00
01
F1
07
02
E5
FE
FF
FF
FE
19
07
F4
0C
15
08
07
1F
F9
09
07
FA
FB
08
0A
0A
F9
FF
02
F4
08
0D
03
13
E8
00
02
0A
0B
FD
15
FF
FD
FD
FB
F4
07
08
E2
1D
02
19
08
F9
F2
F3
0C
08
F4
08
08
02
ED
04
FA
EC
05
02
F6
16
F5
FF
EF
06
FF
F0
0E
FF
14
02
F5
00
F1
F6
11
ED
05
FD
04
06
0C
FC
F5
ED
F4
F9
F2
01
0B
06
E8
09
04
E2
E6
05
00
FD
FE
02
0F
0C
01
FB
10
05
02
FB
15
F0
09
FC
0B
06
F4
FD
FE
00
0C
F4
FB
EA
01
11
FC
F0
01
17
ED
08
03
00
EA
02
0C
01
12
FB
FF
EB
02
01
E8
FC
02
0C
F3
12
07
FB
FC
E2
0C
0E
FA
15
FB
F8
01
02
17
00
0E
18
03
F3
05
FB
12
FD
11
EB
0A
0C
00
F9
FB
F1
05
FE
02
09
21
07
00
F6
10
0C
02
E4
0A
ED
12
FE
F9
FE
EF
FA
00
FF
10
FA
FA
0A
1E
15
03
F0
0D
EF
0A
00
FF
0F
04
02
FB
F5
F7
F2
0D
FA
F8
FF
FE
FB
00
EF
FB
F5
F6
FC
04
F3
FE
EF
FC
0E
09
FE
FA
FE
F5
09
11
04
06
F0
05
F5
13
0D
08
F3
FA
F9
EF
0B
0B
FB
F6
03
F6
04
1B
F7
FD
10
FF
F3
FE
E6
EF
FA
06
F3
09
F8
E6
05
0D
11
0C
F2
F5
FA
FB
0F
F9
12
EE
0B
FD
07
07
08
01
16
FD
E9
E5
06
29
FA
00
06
FD
01
15
0F
F0
FF
12
0B
05
04
0C
FF
FF
1C
08
13
03
F7
EE
EC
02
04
0B
F8
FD
F4
D2
06
FA
FB
F0
F6
FA
F4
00
E4
E2
F2
02
E8
08
0D
FC
07
08
F6
F9
F8
00
FC
0A
01
00
05
F7
FB
04
FF
F0
F2
F5
03
ED
E8
E5
0B
0C
16
FE
EF
FA
FE
0E
DC
14
11
FD
FB
F8
03
06
F5
20
07
01
ED
01
FD
03
E7
12
FF
10
E4
F5
0A
F3
F6
0E
07
F4
0C
DD
02
0A
01
07
F8
12
02
0D
F0
F5
18
F5
F6
FC
02
E4
F2
F1
0F
FE
08
0B
19
ED
ED
00
04
EE
08
EC
F9
DF
FC
E3
05
0D
FD
0D
E6
07
00
FC
FD
13
11
18
11
0B
E9
FB
0A
D0
02
E7
19
16
03
05
0C
FE
07
FF
F4
14
FC
11
DA
F6
F6
EB
FE
1C
06
F5
FF
F5
FB
FF
D9
10
17
EC
0D
08
E1
11
FB
26
F7
F6
E4
FF
FC
01
DE
12
E1
0E
EE
EC
06
0D
E1
F8
03
19
F6
0B
03
03
06
FB
F9
FD
0C
EC
0B
02
09
F0
0D
05
F3
EE
03
E5
D5
01
02
0E
1D
FF
F2
F9
DF
14
0B
18
F9
0A
10
06
EB
F5
EC
EF
00
01
0E
05
F5
17
F6
E1
13
0A
F6
FE
07
0F
DD
0A
E3
FB
13
13
D5
FF
E7
FB
F7
EC
E1
FC
DC
E5
04
0B
F0
FB
0D
E7
18
04
02
0D
12
03
F3
08
1A
FC
E6
E2
09
03
1A
1D
F2
09
FD
0C
E8
13
FF
0A
FD
02
00
F2
02
19
02
00
FD
00
06
01
0F
08
07
BF
10
FF
08
13
08
EA
F5
F1
F8
FD
F2
F0
FE
ED
08
13
F6
08
F8
15
F9
F1
07
FA
06
07
FC
0C
FD
FA
09
16
08
F5
FC
05
EB
F5
FC
F8
0A
FB
F6
04
0D
1D
F5
0A
20
F0
00
F1
FD
E8
02
D4
0A
03
FA
FF
FA
E2
05
E6
0B
FA
F8
D3
13
00
0B
F9
09
EF
EA
07
15
F0
FC
FC
DD
DC
E0
00
F8
11
F7
0C
08
06
FE
0D
E5
ED
0F
19
13
00
0C
EA
F1
E6
07
FE
12
F9
0B
12
EC
0C
18
F9
E8
F8
13
E4
06
04
15
01
0F
03
07
E5
E1
18
EB
F1
09
0B
03
D0
F2
F9
F9
1F
EC
F9
EF
FF
02
0B
02
0D
03
10
01
E7
F2
DA
FF
F9
E7
F4
09
EE
13
04
EB
F9
00
03
F8
0D
15
E7
F4
08
09
F8
F7
F7
FA
0A
E4
09
10
0F
FF
FE
D8
00
E4
FB
E4
19
0C
02
F3
DD
FF
07
12
F7
E4
03
E6
F4
0A
FA
E6
20
FC
0E
E8
F1
01
F4
03
FB
0D
FF
15
17
FB
FB
06
09
0C
06
F6
F1
FE
FC
E0
F9
FB
DE
FB
F2
FB
04
02
FF
FB
F4
D5
F2
05
E5
12
F5
0F
09
E4
F0
00
F0
F6
00
E4
01
FF
F9
FF
FE
EF
06
DF
29
EC
09
19
E8
F9
F7
0B
FC
FD
F4
FD
F3
00
09
03
12
03
EA
F7
FF
EE
FD
05
FC
FB
09
05
E0
F7
11
17
09
EB
DD
F8
FC
F2
FA
F9
E2
F8
03
F8
FE
E1
DC
F8
03
10
F4
FE
02
06
06
F9
04
0E
F3
E9
FB
14
D0
FC
03
C1
FF
0E
E7
04
12
EA
03
EA
08
F3
0E
E9
01
EC
09
14
F3
02
0E
10
E3
0E
14
FF
FA
05
FE
FF
08
05
DD
02
F9
01
0B
01
12
03
D6
0A
1D
F6
05
0E
00
EC
DE
FC
05
05
16
0C
07
F7
FC
06
00
1B
E7
0B
0D
CD
07
00
F6
F9
03
F0
DF
F4
03
0A
E8
06
DB
EA
F0
02
F8
E6
EA
0B
07
F5
ED
E6
F2
F0
E9
E3
FD
FD
F4
0A
FD
19
E7
F3
E4
0B
E3
07
06
E0
E6
0B
07
ED
04
E6
0D
00
EC
0B
02
FC
09
02
18
FD
FF
FB
F3
F9
09
0B
04
EA
E3
0C
17
E4
19
FD
EE
E6
F3
F6
F1
F5
0C
FD
00
E0
01
09
0A
E4
E5
EF
0C
0F
17
0B
03
00
00
06
19
06
0D
05
12
E4
CC
E6
09
19
F2
E7
F2
03
EF
EE
F7
FE
01
FF
DC
BA
EA
0E
01
08
FE
E9
EF
03
FF
1B
00
F7
0B
DF
E7
19
FF
E9
1A
E9
DA
0A
E8
EC
0A
01
14
12
0B
F3
0F
FD
02
D5
E4
07
0B
07
08
12
F2
F6
FB
E8
08
ED
02
EE
DB
F7
00
E1
11
FD
0E
FD
D0
00
D9
03
F7
17
13
0A
E3
02
04
DF
E5
DB
00
27
08
F5
04
13
F8
07
F4
1B
FE
03
FB
11
E4
FB
EF
E6
FC
F1
0B
FD
D7
F6
04
EA
F2
09
EC
04
E2
F4
0B
EE
F5
FB
0A
0D
FD
FA
FC
02
F5
00
01
CF
0B
F9
FC
07
F4
F4
F4
DA
0C
0C
F8
F6
02
FE
ED
E2
FE
F8
F4
01
09
FC
01
05
E7
04
0A
FB
00
0F
0F
FB
16
14
0E
D7
FA
F1
FC
0F
FB
FC
CB
E0
F5
0C
05
09
EE
0D
08
F4
E2
F1
F2
0F
DE
FF
01
FC
06
EC
12
05
09
F7
05
09
07
E1
F8
DF
0F
FD
09
13
0C
FE
05
0A
FE
FC
FF
FE
D7
E8
02
FE
10
DD
E9
E9
0C
CC
1F
0B
FE
10
F3
0E
FA
06
00
F9
0F
DD
01
09
18
FA
FB
FC
0B
0F
06
FD
ED
1B
F9
F2
05
FF
03
0C
02
06
F6
FB
F9
FA
FC
0F
04
FD
F9
08
FD
F8
02
F5
F5
FF
F0
01
F6
09
F8
15
0E
F9
04
FA
06
12
F7
F3
06
FB
0B
05
F9
0C
E7
ED
14
F6
12
0A
D3
F3
FE
00
F9
F6
F3
EE
F8
F4
FF
ED
09
FC
11
F7
0A
05
FF
00
01
E5
F5
09
07
06
F9
01
F9
08
F8
10
F0
11
FA
0D
10
FA
01
0D
0F
FD
02
18
FB
F5
05
0C
10
12
D8
13
FB
05
FE
F4
09
E2
FA
05
F3
0F
0D
F7
FE
13
0C
FD
DF
21
10
F1
FE
F7
FC
07
08
EE
F2
FB
08
09
EF
0E
0F
11
06
05
1D
F0
06
0C
0B
04
04
FD
F5
05
14
FB
EC
04
F2
03
05
13
09
F7
07
0B
07
FC
E2
FC
F6
FD
E6
03
FD
00
EF
E2
DA
E0
F1
FC
FE
00
03
0F
06
F7
02
F8
F6
F3
F7
EB
FB
0F
FC
09
00
0E
02
06
FD
09
07
F7
FE
FA
0B
FC
F3
09
FF
0A
00
ED
08
00
03
FF
FC
02
01
F2
01
E8
F3
00
06
F6
FD
0A
FE
EF
1D
13
0A
F2
03
FA
0A
F7
FA
0C
08
06
12
11
01
03
F9
01
03
FA
07
01
F6
04
FF
F2
FD
FE
00
F7
05
FE
0E
F4
02
F4
F8
0C
FA
F1
FA
FE
00
03
EB
F6
06
EC
F8
FF
FA
0B
02
02
F3
DE
03
F3
FD
18
10
FB
FF
03
13
14
07
02
FF
03
08
FA
EA
F6
FB
F2
07
16
08
FF
10
F9
07
02
FD
F4
F9
0A
00
F2
1B
0A
FA
01
01
06
01
F2
E4
0A
F7
D7
13
FB
F6
06
ED
FE
E9
05
FE
FC
10
07
FF
FC
0D
DE
05
02
F5
1D
04
01
17
FE
EE
06
FB
04
08
F7
08
0B
FC
EE
F9
02
04
FB
09
FB
F8
FC
FB
F8
E7
06
F5
0F
FC
00
00
05
02
05
01
09
09
F0
FC
05
F7
0B
F3
F4
F7
0E
09
02
F7
FF
F4
FD
FF
01
F5
0D
EA
06
00
FE
05
FE
04
FF
02
FB
10
02
04
FA
FA
F7
04
FC
0C
FD
0A
01
01
08
F0
F5
FA
09
0A
F9
F9
13
01
19
02
05
04
F8
FC
0A
DC
12
F2
0F
05
0C
FA
12
00
19
FE
06
EC
F6
F5
F7
13
0B
F6
14
0B
0F
F8
0F
0F
F8
F9
0C
0A
FE
FF
F6
04
FF
FB
F4
FD
F9
F5
0F
06
F4
ED
0C
0B
FE
FA
17
0C
F9
F8
07
05
FC
06
08
11
E3
01
00
00
09
0A
F2
0D
FF
15
F9
05
FA
FB
13
F2
FA
F5
FA
02
02
16
01
FF
F2
E6
FD
E0
02
03
07
F7
0B
02
1A
11
FA
F4
05
11
1F
00
07
06
17
01
FE
03
10
F6
12
FE
15
05
12
02
FB
15
14
17
02
05
FE
18
F8
0E
15
DA
1C
29
07
FE
13
F7
26
1D
0B
05
F7
F5
09
FF
37
15
F1
FF
0F
03
0F
04
04
02
0A
0D
21
FE
10
F6
F4
04
06
E3
FE
03
1D
11
15
27
03
19
13
0A
21
00
24
0E
FC
12
1F
05
23
23
01
FF
FC
04
05
28
FA
F8
E4
0F
09
03
01
F9
E6
05
0C
18
02
17
07
04
0F
12
0C
0C
F6
FB
FC
E9
0A
03
09
EE
F0
05
FB
13
18
FD
0E
FE
1A
23
13
F1
10
E0
E8
0A
D9
FC
16
18
19
F7
01
09
0B
1C
0F
1A
0B
DE
16
10
F4
EE
1B
01
0F
F7
FC
11
0E
EC
19
EA
FE
F6
11
23
FD
01
FA
29
F3
20
02
28
F3
E7
23
EE
1E
FD
04
FB
17
0A
0F
16
FA
F0
01
E6
04
01
2C
07
F0
16
17
02
06
F6
08
0E
1D
1D
0A
03
08
21
FC
FC
03
00
08
0E
0A
02
28
25
E9
F3
1A
06
F2
00
09
FC
EE
05
F6
DC
0E
22
0D
13
1E
0A
EB
26
F8
01
EF
F3
04
F8
FA
02
03
FF
19
1C
EE
1E
1A
F3
FC
0F
31
DE
00
04
0E
02
1E
21
07
02
DF
18
1B
19
0A
21
06
FE
28
04
12
EA
0B
08
F0
F0
2A
10
06
FD
0C
0E
02
14
FF
EE
F3
01
F2
F9
0F
01
FF
E3
0E
05
00
EE
FA
15
20
15
EB
12
10
0B
F1
0A
15
11
16
05
05
FE
11
04
EE
1A
1C
0E
ED
FF
21
04
FC
F9
EF
06
FD
28
FF
1A
07
09
D3
09
06
F0
0C
0B
0B
17
05
14
09
E7
0B
E3
F5
DC
12
E2
12
F3
FB
ED
FD
E1
1E
F8
09
E6
E4
08
F1
FD
30
F8
F5
F4
0A
FA
0F
0F
03
FA
0B
1F
04
23
14
F7
0C
0E
F9
F5
FD
F2
0C
F2
F8
FF
F0
F7
28
0B
F2
0B
F8
07
06
17
1A
02
DB
11
04
00
0F
01
0C
0A
22
02
FF
23
EF
F0
FB
F9
14
11
10
02
06
0D
F4
0B
25
10
06
01
0B
10
EC
01
F4
11
09
24
F3
FB
03
10
09
20
12
1A
1D
13
24
16
1B
FC
F5
05
18
0A
03
FD
FB
F7
11
14
10
E7
EC
FC
EB
FA
FB
04
03
0A
07
38
0E
09
0C
18
0C
1A
FC
09
04
13
10
1A
DA
08
00
E5
02
0F
EE
F5
EC
FF
FF
FA
05
02
07
EE
14
01
FA
14
12
F8
FE
04
01
06
03
07
FE
01
F5
F9
04
FC
FE
12
0D
06
12
FA
08
F9
02
FB
F7
EF
FF
05
FB
FD
01
EC
FC
FB
FD
FE
18
10
05
02
F0
ED
02
FA
F8
0B
16
07
FD
05
03
02
E3
05
0B
02
FC
06
05
00
04
E3
0C
F1
FC
FF
02
0F
EE
E1
16
03
F2
E8
FC
F6
F9
FF
F2
08
FF
FC
FE
06
E5
F7
FE
EA
10
F3
07
FB
F9
E0
0B
F8
FB
D5
FB
FF
EE
F0
FF
06
07
0C
07
12
05
FC
13
F9
FC
08
0B
01
F8
F7
15
FB
F3
EB
06
02
F5
0F
F6
FF
0E
12
01
EC
FB
0E
FD
FE
ED
08
04
03
06
F6
F6
F0
07
F3
09
09
10
07
FD
04
FE
F0
FB
02
F1
D4
18
00
08
01
E5
02
12
FC
05
F6
FB
15
07
01
16
04
02
D5
FC
02
06
06
F6
FA
F4
F0
05
16
07
FC
F7
FA
FD
01
EE
0D
F1
0E
F0
0C
0C
0B
EA
FC
F3
07
0A
06
FF
F3
06
02
F9
02
F7
16
04
09
07
F9
F5
0A
07
0C
00
F3
ED
01
0F
D0
FD
00
F4
14
F6
04
FC
FF
0F
17
06
06
0B
E7
14
02
EB
09
F2
F4
DB
09
05
DF
00
14
00
F9
FD
12
EE
ED
05
06
F5
10
FC
F7
01
07
EF
F1
01
09
F0
08
11
F2
FD
03
0C
0C
10
0A
00
09
0D
FC
01
15
04
03
0E
FF
FB
FE
FB
F0
11
EA
EA
0D
EE
F7
13
F5
F7
EC
09
F9
10
1B
FA
04
F8
0A
D9
F2
FF
12
0A
05
E2
08
10
02
0E
FF
E8
FE
EA
07
F4
FD
00
09
F1
03
09
FF
F6
DA
FF
E6
04
E3
06
03
FC
F3
08
0D
09
FF
04
CD
FD
E2
F7
01
08
0B
FA
E7
FE
EF
F8
12
EB
F7
04
0E
FA
F8
FF
00
FF
0B
F1
14
10
FD
0C
04
12
F3
F4
02
07
08
EF
10
E5
06
16
03
FA
02
07
0A
04
D4
0C
07
FF
0A
0C
00
01
06
F6
08
EA
04
F3
04
06
DC
0F
02
0F
05
EA
00
0A
E8
F8
02
FD
01
09
FB
EE
01
0F
F6
12
FA
05
04
EF
FE
FC
E5
03
0D
FA
EF
13
E2
17
FF
08
F9
FF
FF
04
10
F7
F7
F4
12
F9
01
09
F9
FF
FB
0E
0A
02
F9
DF
F7
F5
11
FF
00
F6
07
F6
0A
01
0E
03
F1
07
F9
02
F0
F6
F5
FB
F9
F6
03
0B
E8
18
FA
E4
00
05
15
FB
F8
FC
F6
0E
14
02
F2
0D
12
02
FC
05
FC
0E
1E
02
0E
00
FC
EE
08
13
03
0C
FF
1C
FE
FD
FD
0D
08
21
0C
07
FA
13
F4
F8
F7
1E
FF
FA
15
15
F4
14
F1
06
F2
08
08
00
FF
0A
F8
04
20
05
04
F6
FF
EE
F6
E0
09
F9
0B
F1
FE
02
05
01
22
09
0C
01
FB
03
F7
0B
F0
F3
FA
09
01
0B
E8
0A
0C
03
ED
F2
12
FA
F2
F4
01
07
EB
F8
33
02
FF
0E
FB
08
03
F0
F4
1B
19
13
F7
FB
FC
02
0B
13
F9
0E
06
FF
0C
05
02
F1
F9
F7
F7
0A
F4
16
17
FD
F2
F2
F8
14
11
EF
E5
07
F0
08
06
05
F4
14
EE
01
06
02
12
15
07
FA
FF
0A
F8
14
04
06
FE
0E
05
0F
FC
0B
04
00
09
00
00
18
0D
FF
F8
FE
FF
FC
F0
E8
FA
EC
F8
1E
1B
E5
17
09
F1
0F
0E
0A
15
FF
FD
07
FF
F2
05
F9
0F
E9
FB
FF
01
17
04
F2
0A
13
13
F0
18
18
FF
FB
0E
02
01
FC
12
20
05
01
EB
EA
02
FB
F2
04
13
04
FB
F6
F4
D9
E7
0E
01
18
03
0E
2D
01
0D
F8
0C
05
F5
FE
FF
05
0B
11
06
FF
00
13
08
04
0B
ED
04
FD
16
27
F2
F8
03
02
00
00
03
10
05
1D
0A
FE
03
1A
F4
05
F6
17
03
FC
F5
ED
01
07
FD
02
16
FA
09
0B
F8
09
F7
16
03
14
FB
00
ED
FC
03
EB
E6
E5
0E
FD
0C
0C
08
12
05
04
0D
FE
06
07
1D
FC
15
F7
0B
F9
03
1E
FF
02
17
EF
16
07
03
02
08
00
0E
12
02
14
0D
FE
14
1F
0B
03
10
01
21
19
F0
19
F3
1E
0F
F7
09
E4
06
FC
0C
E5
12
FB
F9
FF
05
F5
F1
0A
05
F2
FD
FA
FB
01
EE
13
E0
FE
12
0A
FE
E3
0B
06
00
08
19
01
1E
FE
EC
01
00
21
00
02
0C
15
F8
0A
0A
F8
E6
F8
13
F8
07
F3
FD
00
EB
FB
07
E9
F3
16
08
04
F3
07
F8
F8
EF
0E
F0
16
FB
1B
F4
09
03
0B
15
F1
03
F3
F8
0C
15
F9
04
01
F6
06
32
0F
00
EF
1E
21
13
01
05
11
EE
04
0A
10
0B
F6
06
EA
03
0C
02
06
06
F4
E3
F6
12
00
01
FC
EC
E5
F9
F6
EB
EF
13
06
05
24
F9
15
0C
EE
19
F8
02
F1
12
04
15
02
08
EF
E6
F7
FB
12
F9
F6
F5
EB
13
F7
F3
F8
F0
08
07
FC
FF
F8
E3
E0
F6
F4
F9
09
F6
1D
F6
18
FF
05
06
0A
07
07
05
FA
F6
21
01
F8
0B
0D
0A
0A
01
17
F2
FB
08
10
07
29
FD
0E
FF
F1
EE
08
FA
FD
F7
05
1D
00
0F
E6
FD
01
E6
F7
07
F4
FE
13
00
05
FF
06
18
FC
F6
07
09
08
ED
2D
F3
0F
F8
05
F0
07
FB
FA
01
02
F7
F5
16
00
12
F9
FB
E9
12
07
28
0A
F3
07
FF
02
FF
F4
ED
FB
0F
09
06
00
FE
0D
0A
0A
0F
F7
06
F7
ED
EE
F8
17
E6
ED
F3
FF
FB
16
FB
09
FD
EE
07
01
0D
01
FC
07
01
08
08
04
FC
EC
DD
F4
08
F0
FA
F6
F8
01
F9
02
0C
F5
F9
F7
E0
05
F2
FE
F8
01
01
07
FE
11
F8
0E
14
FC
04
00
16
0A
18
0A
EA
FE
01
F7
EB
00
FD
0C
0B
FA
02
06
03
EB
F9
F9
03
17
06
04
06
F8
1E
CD
16
F0
F0
0F
07
FC
F5
26
0A
0A
FB
FE
12
11
F7
FA
03
01
0A
0C
EB
E3
F7
09
0D
EE
F5
F7
1F
06
F9
FF
EF
02
11
FE
02
07
09
03
0E
FC
03
FC
19
01
F4
F8
FD
00
FA
11
0C
FE
08
FB
0A
0E
00
00
FD
01
F7
0B
FF
1E
F5
FB
FF
03
FA
04
0B
F3
05
0A
E3
FC
01
06
02
0C
08
0A
13
1E
0D
15
01
00
07
0A
07
07
0D
0E
FF
07
07
01
01
DD
F0
FE
FF
10
08
14
00
EF
10
FD
1B
FB
09
04
FB
FF
05
02
09
05
EE
FD
03
FE
F2
EA
FC
F9
12
F9
00
1D
05
FB
0F
01
F4
03
0A
FE
08
F1
06
F7
01
0C
02
04
05
02
09
00
FF
F9
F6
10
FD
F1
09
04
F4
FC
06
03
04
F4
08
FD
F0
F7
05
17
04
FF
F9
EB
06
04
07
03
EB
16
03
F7
09
02
ED
F5
00
F4
12
08
11
12
FA
F0
0A
FE
03
06
11
FF
14
04
0B
03
03
0D
03
05
06
DC
F4
0F
FD
09
F6
0B
DA
18
10
0F
F2
03
13
0F
F9
1C
E4
09
FC
1D
EB
00
FA
08
FE
FF
16
FA
F9
FA
05
03
32
F5
E2
0E
05
14
08
1F
F4
12
E7
0A
F1
00
F3
06
0F
FC
06
DD
FE
E7
19
E9
FF
F8
F9
0B
03
03
00
13
F9
FC
F4
06
00
F0
FF
02
26
14
05
EA
0A
EC
FF
01
04
FC
0D
08
03
EA
D5
F8
0F
1E
FB
07
06
14
11
E9
F7
04
EF
EB
08
FD
02
24
03
13
10
0D
F9
F4
F1
23
09
F1
07
FD
EE
10
0F
0A
F8
FD
FA
20
FD
FE
0E
F3
02
11
F4
22
F0
07
03
1A
0A
22
FE
0C
02
FE
FB
FF
E6
FA
F0
FB
0E
FD
F1
00
F8
F7
ED
FB
FD
F9
00
07
EF
07
03
F7
11
0D
F6
FF
0B
08
14
E1
F4
F5
00
F4
01
FD
F6
F7
E8
01
EE
F6
0D
05
FA
05
EB
02
05
F2
23
EE
0D
F7
12
00
13
FF
FA
F7
1F
08
05
FF
F3
F5
FB
FF
04
FE
05
06
22
FC
05
0C
F2
F2
FF
F2
0E
1A
F5
E7
00
F1
F4
0A
07
FC
17
FE
03
13
FD
F9
FC
F5
00
0B
FC
07
FF
11
FE
FB
05
FC
08
E2
F8
02
F9
FC
EE
0C
06
EE
F2
02
FF
11
FC
17
0C
F2
FA
00
E8
E7
FE
0C
F2
EA
0E
E7
13
09
FF
07
EC
03
25
F7
F6
0C
F1
FF
F2
F7
F8
F7
F3
F4
FE
0E
0A
E4
06
13
EF
EE
1C
FE
04
0B
FF
E8
F4
03
0A
FA
1F
FA
FF
FC
F9
0D
FE
11
12
03
FB
FF
11
0C
FF
0F
01
F1
14
F1
FB
03
06
0B
26
F6
F9
E4
1F
FD
0B
F1
06
07
FE
FF
33
FC
05
12
FA
E9
0A
FC
DE
15
ED
01
07
F4
EC
FF
FF
F5
07
15
35
FE
00
1B
E5
FE
04
EC
F2
04
04
FF
0A
19
00
12
F8
01
E5
05
F6
22
10
1D
16
0C
0A
E6
FD
F7
F6
FF
FF
0F
FD
45
0B
FA
01
19
D4
FB
FB
E0
01
05
11
00
01
CD
E8
01
E9
19
16
F9
FC
E7
0F
04
F9
28
0A
FC
E9
09
EC
14
04
07
0D
0E
17
FD
0A
00
05
01
EF
FA
FE
08
F8
FA
FD
09
FB
E9
00
00
00
FE
09
0E
FE
05
F8
01
04
FF
02
F4
FC
00
0C
05
04
14
1C
0F
06
0E
FC
EF
FF
03
10
F9
EB
EF
03
04
03
07
FE
02
FA
FE
02
F7
0D
F9
07
04
0E
F4
01
09
F5
06
00
FF
F7
03
F8
04
11
E8
06
1A
FA
12
FD
FB
0A
F0
EE
26
1D
FF
F8
28
EF
F8
F2
10
06
F4
FE
F1
FE
EC
F8
03
E6
FF
09
14
11
08
F4
26
F8
F7
13
FF
E4
F4
07
FE
16
FE
FE
FF
07
04
27
07
FC
F0
04
06
06
07
0D
0F
EA
F9
05
FE
F2
FA
FB
1E
0D
18
FB
05
15
13
F8
02
0F
F7
01
01
08
01
07
0C
F1
FA
03
DC
F0
ED
06
FC
F5
EE
E8
15
02
07
08
E5
EE
E6
F9
EE
09
FB
08
13
DE
15
E6
11
FC
1A
0B
17
00
FE
F4
25
F9
FE
06
09
D2
04
12
05
F1
07
FF
FD
F8
10
E2
01
E5
00
11
13
06
ED
02
FD
14
F9
FE
E4
F6
19
EF
F1
FA
EE
F5
F9
0D
07
03
18
14
07
FA
0E
05
0C
01
2C
FB
FD
FE
0D
FF
F8
F8
0C
F8
08
FF
0A
15
F7
17
0E
07
05
05
FF
2E
F8
EC
FB
EB
EE
0A
FD
08
00
1F
F8
14
08
04
04
14
F1
0C
0D
EA
DB
EB
E9
09
06
06
FE
EC
FF
F5
20
F5
FF
09
03
09
F2
FD
F6
12
EE
DC
02
12
02
06
0D
04
E5
00
04
01
F8
F8
03
04
E4
05
09
FE
FD
E1
F4
06
06
F3
15
F6
12
FF
18
00
11
09
14
FC
F0
FF
0C
0C
E1
DF
0D
FE
09
F9
E3
1F
0A
01
14
0D
0F
F4
E4
03
0D
FC
10
00
FB
0B
FB
0F
DE
FF
16
E2
10
FB
0A
EA
11
1C
01
FB
F8
00
0D
04
F8
E4
0D
FF
FF
07
E6
07
EC
F3
E9
03
02
20
03
FC
F4
F4
FE
15
F9
00
1C
0A
16
01
F9
EB
0E
0F
F6
EB
FF
04
07
08
06
0A
FD
F7
EB
16
14
E5
1C
07
17
FB
12
07
12
07
03
F9
07
03
E6
03
FC
01
02
F5
04
EF
05
03
08
DD
0B
16
0B
F3
10
FC
11
0F
FA
FA
14
ED
1D
EB
06
03
07
10
FC
F4
FB
E9
F7
0C
01
00
E4
13
E2
2A
DF
0C
F6
FD
EF
04
0A
0A
01
FD
EE
23
F0
F8
ED
0B
05
06
09
F2
FA
01
FF
12
0E
17
FF
11
F2
12
FE
F1
F0
FC
07
0C
0B
04
0F
FB
11
F5
00
FF
09
F6
F3
01
E9
E0
FD
0A
F9
0D
E3
04
F8
E9
FA
F4
03
05
E9
EA
00
06
05
05
0F
FB
F3
01
0D
05
06
FB
F1
17
F7
EA
FD
00
2D
F5
FB
05
F9
E8
05
14
FD
FD
0D
09
F9
FD
F2
08
0B
FE
ED
F7
05
08
29
01
06
E4
EB
FC
F3
12
E3
0F
07
FA
06
F4
06
00
F7
00
0C
FF
09
04
0A
25
FD
0E
04
03
FD
36
F0
D9
F2
1B
0C
FB
1D
0A
11
E3
0C
FF
00
EA
0A
08
F5
F9
FB
00
E9
ED
F7
FB
04
06
F9
15
FE
EE
FE
F8
FB
F8
04
0C
EB
00
FA
0D
02
0E
F3
FA
FB
FA
FB
1A
EE
0C
EB
F2
CB
F0
F5
FE
0E
FA
04
01
F5
0A
10
13
FE
F1
EF
D3
FC
FF
07
02
08
FA
EF
EF
EC
F9
0D
FE
DC
FD
E5
0C
F6
09
E2
05
F2
FC
01
03
FA
11
0E
FB
11
FD
EC
F9
0D
11
04
F8
D5
FF
D3
FE
F7
FE
FD
01
FE
04
00
03
E3
F4
0B
EA
14
05
06
FB
FB
09
06
0F
E0
10
01
D7
05
01
FB
12
EF
0A
E0
06
09
06
FD
22
FE
F9
11
10
FD
FB
09
E5
15
11
13
FB
00
02
F9
14
FC
14
DC
FF
00
FC
06
F8
13
07
E6
17
12
0C
05
F0
D0
07
E8
0A
09
01
06
06
06
0F
F9
03
FB
11
15
FC
02
FD
F5
0C
FC
0B
E8
0E
03
0C
04
F8
0B
12
03
E9
F1
0C
0C
0E
F7
FD
05
F7
00
14
05
07
05
04
EE
00
08
F4
FD
F3
0D
0B
FD
06
F4
F2
FC
FD
F6
FF
05
0A
05
07
05
FF
F5
F5
FA
F1
FC
FB
08
13
F2
06
0A
FB
0B
02
F4
09
00
06
EF
F6
03
08
E5
FD
05
0D
0C
05
EE
07
FD
F5
02
D9
00
E8
00
F1
FD
F3
F1
F9
00
06
F9
08
03
0D
0B
DA
0E
08
FD
FD
FF
07
FE
0E
F0
0B
FA
F2
EB
E6
F3
07
00
ED
0F
F7
00
FA
0E
20
06
F2
08
C3
09
07
10
08
ED
0F
FC
F9
E0
00
E4
06
0A
FC
04
02
F8
F8
FD
FB
C7
FF
FE
E3
F0
F5
F6
05
20
F5
15
0A
0D
EC
CD
FB
03
E8
F5
F6
00
EF
F9
05
0E
EF
01
F2
FF
07
1A
F0
05
F3
1E
CF
FD
FF
09
0A
F4
D2
E6
EB
05
04
FC
DC
10
0A
10
F3
07
F1
0A
0E
0C
E9
F8
0E
D9
EA
EB
F5
09
F5
07
20
FB
FF
02
0A
EC
11
01
F5
E9
04
F1
F7
0D
FD
00
EC
FE
0B
0A
0C
F1
13
FE
E6
0A
E7
F7
EF
F8
05
FB
08
FA
0A
0A
ED
F9
FE
03
E2
08
06
17
03
09
F2
FC
F4
EE
DE
EE
F1
F4
05
FC
FC
FA
10
FE
04
F9
03
06
FF
EF
0D
18
09
07
0D
05
0F
04
18
E2
0A
0C
E9
09
FC
D9
F2
03
03
F0
13
02
0C
17
11
04
0F
F3
00
FA
E7
00
FF
0A
FB
04
DF
FD
06
FC
FA
E4
02
F0
FD
F3
08
02
FE
0A
F6
09
FB
05
07
F5
E2
F8
F4
0C
02
ED
FC
02
14
F1
FB
0B
FD
FF
DC
FF
FC
03
F3
FF
15
EA
02
FE
F9
F2
F8
08
0C
FB
FA
F4
FB
F2
23
0F
F0
EC
07
FD
F0
DC
EC
0D
05
FD
07
FB
E7
DC
F4
D1
0F
F9
EB
07
F1
EF
02
05
1B
F7
FB
FE
0B
00
FC
FA
07
02
11
F5
FB
15
00
F5
07
0A
F7
F2
EF
0C
10
F8
F5
FA
11
F6
FB
FE
EE
12
F2
05
00
01
FF
F7
03
14
F4
FB
15
01
EA
ED
0F
0A
05
00
FA
07
E9
ED
FE
FF
1D
FB
FC
03
F7
FC
04
03
0F
08
14
01
05
E3
ED
0A
DC
08
F9
15
0C
09
04
01
ED
01
F0
F4
F4
04
01
FE
ED
F4
EF
F0
0B
11
F9
02
11
F2
0D
E6
FE
0A
EA
06
12
0A
04
04
11
F4
F7
E8
0E
00
E6
EE
08
D3
F9
FA
F6
00
01
E2
E3
FF
08
FC
DF
05
F5
01
F2
EC
FF
09
EE
FD
F4
01
EB
F4
07
FA
F8
08
FB
DD
10
05
02
0E
00
F5
F2
01
01
10
0D
05
11
00
0A
F4
FC
E6
F1
FC
00
10
09
FF
11
FB
FE
0D
0B
06
F0
F6
11
ED
13
D5
FD
09
01
EA
FC
00
F7
06
E4
EC
04
FD
F8
F5
F7
E1
F0
0E
F2
FF
D0
05
06
0F
12
FC
07
F0
FB
F1
F8
01
09
13
10
EA
13
F6
11
07
05
0A
FE
0D
F9
FA
FC
00
03
14
FB
FA
F2
00
0D
0B
E9
0B
D3
FF
0B
09
21
FC
F2
EA
F4
02
F6
06
F8
03
DF
02
F8
00
FF
FD
17
EB
02
FD
F4
03
02
FF
EB
F1
FF
10
1A
07
FB
F9
FC
EB
00
F3
FE
06
F8
00
06
07
14
03
FB
08
EE
0E
EF
FA
EC
01
EF
02
FE
06
0E
EC
E3
08
F3
FD
FD
F4
E6
0C
FB
F6
FB
00
F6
FA
11
EF
05
F6
FF
F5
EC
E1
F1
0B
10
F0
F0
0B
02
10
0C
F3
EE
0D
0A
03
0D
0B
FF
ED
07
01
01
0E
FF
11
EA
D2
0E
F7
05
02
EE
06
E0
ED
06
F3
0A
E6
0F
12
DD
E2
F8
FE
F0
17
09
05
F7
E7
FF
F2
0F
E1
FB
F1
FE
03
18
18
0D
F4
F0
FB
FC
00
F7
11
00
D9
09
0B
F5
19
FF
F9
08
05
09
F1
0D
06
E2
FE
F8
0B
FE
07
03
FE
19
EA
07
EB
1A
F1
E9
ED
06
EE
F8
FA
08
F2
0E
00
F5
F8
08
09
F7
FA
FC
DF
D8
F8
F0
FD
18
EC
0E
FE
FD
FC
FC
FC
EF
07
00
0C
08
FC
00
06
11
F4
00
EC
F6
05
F5
FA
E3
F2
EC
F4
0C
01
FD
01
FA
0B
EF
F8
F8
FC
FD
01
09
10
0E
05
09
20
F5
03
01
0A
0C
EC
F5
03
F6
E6
19
01
0B
20
0F
10
02
F1
E7
FA
F3
02
05
F9
0A
FE
FB
1D
F0
00
05
E4
0E
0D
FC
02
01
FF
05
FD
FF
0D
FB
F9
FE
01
18
0B
FE
F4
05
F3
F7
F1
F1
F1
FB
FB
0C
0B
F4
11
F9
07
FE
0D
0A
F9
F7
FA
02
F3
F3
FF
FA
08
01
05
00
08
0A
FC
EE
F2
0C
F4
01
04
1A
F6
FA
02
FC
04
FC
03
FB
EC
FA
FD
F7
07
18
EB
08
04
F6
F8
FF
F7
F5
FE
10
F8
F5
EE
F7
F7
F4
0D
07
04
F7
FB
22
FB
FA
01
06
EF
ED
EF
F9
13
FC
03
0B
EA
F4
0C
05
12
09
FB
02
00
01
07
EF
04
0D
FD
F9
0D
04
0A
FC
F9
0A
EC
0A
F8
0B
07
08
02
F7
12
02
F2
05
FA
07
FB
04
1F
01
F4
FA
FF
F5
EF
03
09
09
F5
12
FA
0F
07
FB
F6
F9
FB
02
EA
F8
F6
FF
F2
F1
0B
04
F8
FA
F7
F5
04
F4
E8
0A
02
FA
EA
15
01
01
00
04
E8
FF
0A
03
FA
17
06
FD
FD
02
17
0A
F9
FC
04
FC
04
08
F6
F4
00
0E
07
04
0A
03
13
05
0E
1C
04
F6
E8
03
F8
FE
F6
FB
FB
02
FA
0E
F2
07
0C
0A
EE
EE
FA
F8
1A
F3
07
03
FB
E9
0A
F7
FB
0E
13
0A
F9
F5
07
F1
ED
02
F2
F5
F2
07
ED
FD
1B
F0
00
02
04
EB
0B
04
07
11
1D
0C
FD
FF
F1
02
04
F6
04
0F
00
FC
0A
00
F9
FB
1E
FE
F7
F1
F0
00
14
F8
0B
05
ED
F4
03
04
0C
11
FA
05
F6
FF
0C
06
1D
0F
F6
F4
FC
02
1D
13
F6
04
16
1D
01
07
F6
F7
F5
0F
FD
FB
05
F2
FB
F9
FE
07
F9
0C
0A
EC
04
0D
0F
F2
F3
01
F4
F7
0B
04
ED
F3
F5
F1
0B
ED
10
0C
07
FA
FE
F1
F5
F4
0F
0D
FC
E0
F5
0A
0C
08
13
04
FB
01
0D
FF
ED
07
01
06
14
03
03
F3
19
0C
10
0C
10
F3
0C
F3
0A
10
F4
0F
13
FC
18
F6
F0
02
FF
EE
13
1C
08
F0
22
05
FD
FC
F8
03
05
0B
F7
13
F8
EF
FE
02
EF
0E
03
10
19
EE
1B
0E
0B
1A
FF
F3
03
14
FF
0B
08
04
0E
00
F7
22
0C
0E
F8
01
12
FA
14
01
02
FF
04
08
F4
11
F5
FE
FC
10
17
FB
23
0A
FE
10
F7
FC
02
FD
F9
06
F5
11
FE
0C
09
FC
06
09
07
E4
EF
F2
FF
E8
F3
FF
07
03
FD
06
16
12
0A
0F
FF
00
04
17
DF
23
01
FF
15
FF
07
FD
03
0A
07
FB
07
02
F3
F9
E0
F8
F0
F3
FC
FF
DD
01
02
07
18
EF
FD
0E
F0
07
03
FF
F8
03
FA
F5
F9
09
06
06
F1
FF
0F
E9
EF
F3
FF
EC
04
07
F1
06
F1
E8
0E
F2
E7
04
FD
0A
FB
FB
F7
EC
F7
F9
FF
F2
EF
12
07
07
EB
FC
0D
F8
08
D1
F9
F1
FF
D6
F4
13
DF
F1
04
E8
04
FD
FB
06
0E
09
05
11
18
FB
07
FE
10
08
00
03
02
09
F1
05
FF
FF
F5
02
E4
0B
08
10
12
12
F2
F6
06
08
09
E9
FD
00
FE
FF
02
FB
F6
F1
F6
FC
EC
00
F9
08
FC
10
05
05
FA
F8
06
0E
13
03
08
F0
0F
0F
05
DE
F3
EA
06
EB
E1
FC
F6
07
07
FA
F2
FD
FD
0B
00
E8
F8
0F
0A
10
0B
FD
F8
13
06
F9
00
0A
13
FC
0C
01
0B
F3
04
FA
19
EA
13
0A
FF
08
0B
0B
03
16
E0
F5
10
F8
02
FC
12
EE
14
17
EA
0A
02
EF
06
FF
F8
E3
F2
EE
15
D9
12
0B
0A
06
FB
1D
F9
F6
F8
0A
DE
FD
FE
E4
EB
FA
10
0B
FE
FB
06
16
EF
E2
01
0B
12
05
13
F4
EF
F9
10
D7
08
E8
F9
E9
F5
09
FA
F9
0F
DF
F5
FD
DF
FB
0C
05
DA
05
F9
0F
0D
FF
0F
07
07
08
00
09
0B
08
16
E6
E8
02
DA
10
11
0C
15
F6
01
E1
ED
FC
0E
FB
11
D6
09
08
FB
F6
12
01
18
09
F1
0E
F8
07
01
04
00
F5
F7
06
06
07
00
16
0C
F1
0C
FE
FC
E5
07
F9
0A
EA
FC
02
11
EC
E9
F7
F7
0A
E1
F9
F1
FF
04
05
0D
04
F5
F6
03
0C
EC
F9
E8
09
08
F8
0E
00
02
F8
E2
FF
FB
F2
00
13
02
F9
FB
E3
F5
18
FE
F5
F3
FB
11
F5
FD
EB
08
F4
0A
08
F4
02
F9
09
01
FB
05
07
15
F8
21
00
F4
F2
EF
F7
13
3C
09
18
08
EE
F1
06
0C
F6
0A
0F
FC
F2
10
F8
08
E0
F6
0E
07
EE
02
ED
F6
0F
EF
11
09
E3
E7
FE
FE
04
F8
FF
EB
04
09
17
EC
F6
16
0E
09
0C
06
FD
F5
0A
04
01
0B
E0
F8
F5
08
0D
F5
03
FC
0E
FE
F3
02
ED
07
F0
0A
FB
EC
FF
FB
0C
F3
04
10
F8
F7
F6
02
04
FA
05
17
D6
FF
F8
F9
04
07
1A
16
0C
14
23
13
1D
F4
F5
F3
F6
0B
F0
0B
EE
0E
05
04
EF
16
1B
F9
0B
F5
FF
F0
FA
0F
D3
00
18
FD
F4
FB
01
06
29
16
E3
F7
B5
0D
04
11
0A
FF
FA
12
F3
27
EC
14
FA
08
F3
1D
FF
FC
E5
DB
0B
EE
DE
0B
0B
12
05
11
0C
10
0D
FC
FA
0C
E6
08
DB
09
25
FA
04
1A
21
E8
19
E0
FA
F7
03
0C
E8
F4
0B
06
EA
FF
D2
E2
01
DF
2B
F8
15
F1
F7
02
15
14
01
04
FF
29
D0
1D
0D
CC
E3
05
12
0A
FF
16
DE
0E
FE
01
26
DD
EF
00
F4
02
1A
E4
CA
14
FB
FC
FE
0E
12
00
F2
15
FB
25
DF
1B
26
EC
F5
FD
13
F8
0D
22
04
03
D8
1E
E9
02
F5
0C
2E
06
F4
E9
1F
E0
12
02
0D
F5
FD
34
E1
13
03
D3
FB
05
22
ED
EB
05
02
CF
FA
EA
01
10
FA
D7
0B
27
0C
03
ED
11
0A
0A
0C
02
1C
24
09
08
12
F7
F9
06
08
F9
26
F4
1A
00
DD
26
FC
ED
DC
F7
FC
D5
05
E1
EA
16
12
12
09
06
FF
FE
0A
0C
12
EB
0D
09
F7
C7
04
F6
0E
0F
0E
E7
01
FB
01
FC
1D
0C
E5
02
E3
FC
CA
24
24
02
FB
E8
0F
F6
1B
08
FA
F7
02
0C
FA
0B
F2
FF
F5
F0
BD
0B
10
1A
03
0F
0C
E8
0C
0B
F2
07
E2
05
F1
06
11
F4
F0
17
0D
0D
D9
D6
FB
06
0C
CF
01
19
1E
CD
03
FD
02
0A
17
01
12
17
FB
EA
14
18
0A
E8
EC
FC
FD
F8
0B
F2
1A
F0
0B
08
23
1D
0F
DB
04
14
FE
F4
05
F2
FA
04
01
13
BF
EC
EB
EC
E8
D8
F2
F9
FD
E3
FA
F0
02
14
D3
F9
F9
DE
FB
F1
0E
06
01
E8
EF
1B
D8
0A
24
0D
05
C8
22
03
06
FB
14
FC
02
F7
CC
FD
F4
F8
DD
ED
F9
02
CE
11
F8
EE
D5
13
06
FB
FD
2D
00
FA
DC
0C
F8
0B
FA
02
04
27
08
F2
21
FA
E3
01
0D
04
FB
06
06
2A
DB
F9
0F
21
05
00
00
0D
16
C8
0C
DF
F9
11
FE
F6
F1
E3
14
1B
0A
17
1E
F4
15
22
FE
02
09
F2
05
F7
0E
14
FB
DB
1E
21
20
1D
FB
F2
E8
FC
DA
D3
01
FF
16
CE
1B
14
14
13
10
19
08
1C
02
10
0B
E4
FD
E6
FD
DC
E2
FE
0B
CA
1A
12
10
07
00
EF
12
FC
FE
01
09
F0
FC
00
00
FE
0B
19
09
0C
0F
FB
0E
04
01
EA
06
F9
FF
08
FC
EC
FE
FE
FB
F5
09
12
28
F2
18
F7
F8
04
2B
03
21
FB
E4
F0
07
1A
FE
01
0E
E4
F8
0C
09
F8
06
F1
12
0D
0C
07
0A
07
02
0D
03
05
F9
FB
31
07
FA
EE
EC
F3
F0
0B
00
DB
0B
E8
1C
EC
11
FF
FC
EE
FC
FC
FB
FB
F7
0D
FB
0E
FC
FC
03
1A
FB
F3
18
00
FF
01
24
1E
FA
0A
F8
00
08
07
09
08
07
18
0A
F8
10
06
03
16
0F
0B
FB
F8
12
FB
2D
08
1D
EF
F5
15
19
02
16
0B
0E
14
FD
F5
F4
F9
0A
0D
06
07
FE
11
F2
EE
2B
FA
ED
0E
FB
ED
F1
FE
F7
F1
F4
FF
2C
02
21
05
0C
FB
FA
09
07
02
EC
0D
F8
FC
E8
02
18
EA
1D
FE
FB
05
10
0B
00
FB
10
07
0E
10
1F
08
0C
F3
06
2D
F9
F2
FC
15
1A
07
12
10
FD
02
05
E9
F1
1E
F6
FD
0C
F7
F1
0D
0A
04
F0
19
02
07
08
25
F9
11
1A
31
F9
07
2C
F9
FC
F3
F1
F5
FB
FF
F6
05
10
02
04
EC
0F
07
00
07
F6
EA
F7
1C
06
F4
FE
03
FE
F6
21
FF
FF
FA
12
ED
EA
03
04
14
F9
F1
F8
21
F1
0B
F7
03
06
F8
39
FE
F4
04
01
F5
F9
EA
08
0B
F6
FA
F6
FE
17
03
1C
0A
06
0E
FF
06
06
22
03
0E
F6
F8
F7
F2
F5
26
04
17
EF
1E
EF
F4
05
FB
03
1C
F9
03
FD
2B
FC
09
04
0F
09
F5
01
12
FF
11
05
03
F0
FC
FA
E2
FF
1C
17
04
FF
F0
08
F7
00
01
F3
0E
19
0E
1E
0C
21
1C
31
F3
0F
FC
13
FE
FC
FF
0B
11
09
21
06
0E
F3
F6
14
07
18
06
0F
00
F6
F8
EC
0F
F5
03
E8
03
04
08
0B
00
FC
08
19
FE
16
17
0C
1A
FF
EF
08
0E
07
FD
F1
11
EA
F1
0A
11
09
0D
14
EE
11
00
12
ED
06
13
01
06
41
11
03
FA
03
03
0B
E6
0F
FA
FA
F0
EE
14
FE
01
EB
3B
F6
1F
F9
07
E5
0E
18
FC
0D
FA
01
FA
EC
05
F6
04
06
F5
09
1C
05
F1
02
08
FC
11
F6
12
FF
F7
18
0E
0E
0E
FD
07
F2
03
0D
25
F4
00
ED
08
FD
0B
FF
F8
00
06
00
0F
08
1F
FF
0C
2E
02
06
2E
F2
F7
02
F3
F5
F6
07
0C
0B
ED
F6
EF
EB
D6
F9
ED
FF
FD
EF
D2
F8
09
0A
11
FA
F7
08
FA
00
06
0B
FB
F0
08
F9
F3
11
07
01
04
FB
13
E4
FD
0B
FC
0B
0A
ED
E4
F3
00
F3
FE
F7
FD
F3
F2
0A
10
FF
DC
0F
F4
02
06
04
0A
09
0A
F7
05
0C
F4
0D
0A
E5
FF
06
F0
FC
00
05
F9
0C
FE
00
EC
12
EF
FB
01
0B
E5
FD
15
EC
0C
0B
F5
F6
01
0F
09
02
FC
FA
F8
F8
05
D8
F8
F3
00
FC
FA
05
00
DC
03
0D
FA
06
04
F5
F4
E7
01
0D
06
F7
06
F1
04
04
0C
07
0D
F9
FF
03
F7
FD
FF
F8
06
FE
03
00
00
F5
03
E0
E3
F6
DE
0D
E4
FB
EF
E8
F3
0F
FF
F7
02
E1
E3
09
F4
FD
DE
F9
0A
FE
0F
F8
F9
E1
0C
F7
F3
F0
FB
E3
EC
05
F2
03
FF
EE
FD
F3
13
05
03
08
F4
15
FC
FE
04
0E
00
09
F9
03
FD
F9
FA
02
F5
08
10
07
02
EF
03
F4
05
F8
F8
F1
09
FA
F3
FC
07
E5
F3
EB
F9
09
06
FC
F6
FD
0A
02
01
0E
FB
03
05
ED
FD
0D
1A
F5
07
FE
03
F2
F7
0A
F9
FF
13
DD
E3
EA
02
09
E2
08
01
E1
0C
F6
0A
00
FF
FD
E1
E7
0B
0D
FA
00
10
E1
03
01
01
F2
00
F7
E6
F9
0F
F0
F8
FD
EE
E2
F7
00
00
DA
02
04
E9
F9
02
EF
05
FE
09
D5
0B
12
C6
00
01
FB
FF
FC
0D
FB
05
FF
0C
FE
F1
FC
0D
03
D0
E8
DD
13
F6
0D
09
01
FA
03
01
00
FF
F8
08
FD
09
E5
F9
10
EB
F2
01
00
01
ED
00
FB
FF
F8
0F
EF
05
01
04
F5
F2
FC
FB
F9
F6
F9
0F
FC
00
FC
F6
FB
DF
03
E7
06
00
F0
FD
08
EF
EF
FC
F1
EF
02
07
E0
F5
FD
EF
E7
F0
09
01
F3
FB
DA
0A
03
F7
F9
01
00
FA
0C
FB
F0
EB
11
0D
06
14
04
FB
0A
EA
04
F2
F8
F1
F0
0D
0E
04
EC
E0
F4
F8
E4
FD
E6
FC
FF
05
FA
FC
0B
00
0F
04
07
04
00
F9
01
01
0B
0B
F4
FF
FE
05
FC
F2
EB
00
F8
F6
0D
00
ED
FF
F3
EE
EC
0D
FA
09
0E
FB
10
ED
FC
EF
00
FF
FF
DA
03
17
10
FF
F8
F6
0B
07
F4
05
06
04
FF
EA
14
FF
FE
0D
F0
0B
00
07
EB
FF
08
01
02
E5
F9
08
11
FD
03
08
07
FB
F0
0F
F6
0D
0D
F2
F9
01
EF
EF
F7
F6
F6
FB
04
06
F9
F1
F5
12
09
14
05
09
FC
F9
04
FB
08
FA
05
08
DE
E3
08
EE
FA
FF
02
0E
FB
F1
FD
E6
0A
FE
FB
09
04
04
00
0D
05
ED
EC
EF
04
02
FC
FE
07
F9
FE
01
05
07
FB
09
FD
F6
F3
F8
F5
05
17
F2
FC
03
08
07
0A
F9
FE
0C
EC
FE
05
F0
DF
09
F3
F8
F2
07
16
04
0A
FE
EE
F9
EA
F2
02
05
0C
F6
DC
06
F5
FE
06
FE
F5
FC
ED
01
04
00
05
0D
EE
F0
02
13
ED
05
15
F9
F6
FB
0C
EB
F1
F6
15
13
07
0A
E9
0D
01
F1
FB
FC
0A
F0
04
F9
0B
10
EE
04
09
F7
01
13
F6
F7
00
0F
F7
0F
02
13
FE
EA
0A
FD
FF
0C
F4
E0
04
07
FB
00
F9
01
0D
FF
13
00
EF
FD
E8
01
0D
F9
03
FE
03
02
FE
EF
06
05
05
03
11
FD
07
F7
0C
FD
F4
E4
03
D8
F7
0D
F5
FC
F2
D6
FB
0F
0C
F8
FF
FE
FE
FB
E9
08
0A
06
00
E6
00
F6
00
02
F4
0B
F4
00
05
F9
09
EC
FA
F0
FE
0E
F4
01
F9
EE
0A
FC
07
00
1C
F1
FA
06
FE
FD
F5
0C
FC
05
05
F5
FF
0A
ED
F1
FF
01
04
0F
EC
F1
EA
F3
E6
0A
FF
E5
FC
F0
FC
F0
F4
F9
FF
FA
F1
0A
F7
09
13
04
F7
10
06
F8
0A
0C
10
05
F6
F1
12
11
FD
05
FD
05
09
EA
F5
01
F0
EB
F5
01
03
04
09
EF
D6
09
11
F1
F6
F8
FA
FC
F9
F4
FE
F0
06
F9
07
06
E8
08
FD
F1
09
04
0B
FB
07
00
0F
00
0E
0B
FB
04
FB
06
FA
00
06
03
F6
04
F8
0C
08
0B
09
0E
FF
E8
FF
F9
0E
00
08
12
06
F3
0D
14
FE
EE
FD
0C
E7
EE
05
F6
F4
FB
01
F4
F5
FB
E6
00
0B
FF
06
04
0F
08
F1
FD
F9
EA
04
00
F5
F8
F5
03
F1
FC
EF
FC
EE
F9
0D
F1
FA
F9
02
F3
11
FC
FB
00
F4
F2
F0
00
02
F2
00
0C
01
FF
0E
0D
FF
02
0C
03
0A
EF
00
05
F4
FA
00
12
FC
04
05
02
F6
FE
ED
F0
F4
FC
F9
F2
FE
F4
EA
FA
F4
F7
F5
EF
FE
FA
F7
EF
11
07
FD
02
08
FE
FF
F0
F9
FD
E7
F8
F9
F8
EB
FE
EA
F9
0A
FE
EC
FB
02
06
F9
FF
F1
F5
0E
04
0A
FD
07
0C
F5
F9
04
FF
F9
07
FC
EE
12
01
03
0D
07
15
05
04
00
05
09
10
1D
07
06
FA
04
19
00
03
09
00
F1
FE
ED
02
05
F5
F2
F8
FF
EE
FE
F1
FA
F2
FF
0B
F1
1C
DA
09
13
FB
F2
FE
F9
04
F4
02
09
0F
11
18
FE
10
0C
07
F2
EF
06
08
00
09
09
EB
FD
F5
F3
FE
05
0A
03
FC
01
FF
FE
10
0D
ED
FB
FF
0F
F7
0C
F8
0B
02
FC
E6
E7
08
F2
EA
0A
0F
D5
F9
4A
F1
FE
F8
F5
12
FA
F0
F3
18
F9
08
FD
12
03
FC
FD
08
FC
FC
08
FA
10
06
08
12
EF
FF
0D
EC
F8
0C
FD
0C
0C
F3
EC
F2
E8
F6
FE
0D
FA
FA
11
2F
E8
EB
F8
F7
FD
F9
FE
F5
03
F0
06
04
FB
F3
F0
0B
00
12
06
2A
09
0D
05
13
F7
10
01
F5
01
F0
05
12
F8
0F
0A
FE
14
F5
08
FB
14
F8
15
0A
FF
18
04
F5
1B
03
F3
F6
18
03
F4
03
18
15
EB
04
FD
FB
FE
18
FC
F6
15
00
FD
F4
16
04
00
07
EF
00
FD
0A
F8
0E
05
F4
FC
0C
F4
0B
FD
EF
FF
F7
EF
1A
FD
13
16
05
11
F4
05
F9
FE
FC
F3
EA
06
01
00
E8
F1
18
07
F1
F3
15
01
03
F7
03
FF
16
EE
13
F2
EB
FD
17
F3
02
01
F1
06
0A
02
E9
FB
08
EA
03
02
0A
0A
13
F3
F7
01
F6
FC
09
E7
0F
04
09
09
01
03
30
27
0E
DF
E3
0F
ED
0B
FE
F7
03
0D
FB
E8
EB
0E
00
03
26
FD
03
FE
F1
13
17
01
06
1C
F6
FF
03
0E
F8
04
00
F9
FC
05
FE
01
F6
54
10
F4
E6
08
0A
FA
03
F6
FE
EC
00
FD
00
FC
F5
FB
EE
12
E6
F5
09
F7
FB
0C
F7
0F
EF
0C
FB
04
FB
04
EF
0F
01
0B
08
05
05
01
EB
0E
F9
F0
05
F8
FE
FB
00
EF
04
04
08
FC
E8
17
F9
F7
06
FB
03
E1
FF
0D
F8
FF
F9
16
08
EE
02
05
03
08
19
27
14
03
FE
F9
ED
2D
05
09
04
EB
FC
0C
10
F2
03
F8
0A
ED
0C
E5
0D
09
F9
03
08
F7
08
0A
EF
0E
F4
37
07
EE
ED
F5
19
F7
08
FC
0D
05
14
0C
EF
F2
FF
FE
09
F6
0C
0A
02
03
02
FA
F9
E8
E9
F7
13
13
F5
0F
FB
FE
F2
1C
F9
02
FF
E5
0A
FF
E2
05
F7
01
F1
00
EF
17
F3
0D
F0
F7
00
0E
F8
F6
0C
01
0E
0F
E7
F8
F4
F6
02
EF
03
F0
01
EE
EB
07
EF
0A
15
F6
06
F7
04
F6
00
F9
02
0E
02
04
0F
D1
F9
00
F3
0A
F7
F4
F4
F5
0A
00
F8
08
03
08
09
0A
18
F2
0D
0F
04
FC
0F
01
FF
FB
EE
01
F2
06
F8
06
FF
F9
F4
ED
F2
F5
05
F2
01
0D
FB
FB
0B
08
0B
0A
FE
F7
0F
F9
FF
08
E1
E6
10
E7
E0
FE
F9
11
F7
03
14
ED
FE
D9
06
00
07
EA
F2
F4
03
EF
FE
F8
FF
F6
07
EF
0E
EF
03
11
03
F6
01
04
FA
F0
12
07
0B
E9
FD
05
08
E5
ED
06
F4
0D
16
EF
FB
F4
F6
F6
01
01
FC
EE
04
E9
E8
00
05
FB
F9
D1
0E
E0
07
09
00
06
05
FC
04
F3
DD
0F
07
15
08
F1
EE
ED
E5
EF
F8
06
02
12
06
1B
D6
D8
E1
05
08
06
EB
F5
FE
F3
04
0B
F7
04
00
FC
04
09
EC
0E
E2
18
05
07
D5
F7
D2
0F
17
02
F7
02
EC
F8
0E
0E
03
FA
03
FD
02
FD
FB
FD
FB
02
E4
0B
FC
04
EC
FB
06
E6
06
0E
07
07
0A
F7
ED
0D
0A
FC
F6
0C
02
03
03
10
FD
11
07
0A
EE
FA
FB
F3
0C
E2
FE
0B
FD
0B
FD
EF
F8
D7
F1
10
FE
FB
FD
F2
EE
F3
FF
17
05
10
FC
F5
FC
F5
FA
0B
02
04
FB
0E
FE
08
FE
F5
13
05
FC
F5
02
11
F0
E5
01
F1
05
0B
06
07
01
F1
FA
F4
0C
FB
05
F5
F5
00
11
0A
DF
D5
02
1D
00
00
F7
F4
14
F0
0A
F6
F8
F4
E9
13
F6
FE
0B
06
E4
E3
EA
0A
07
F1
F7
FA
FD
0D
F9
01
F8
FC
01
FE
FD
05
11
E7
F8
F3
0E
FD
FC
04
14
EF
FC
EE
FE
0A
F0
05
12
09
F7
12
19
0C
0A
FC
05
F1
FB
FB
06
DD
FE
03
E6
F8
00
F3
10
0A
EA
08
FA
14
05
09
0B
FC
01
EF
FE
FA
EE
E6
08
18
F3
EB
00
F0
01
07
FD
FA
04
ED
D5
07
FD
E2
F8
F2
0B
EC
FB
FC
01
F8
F8
FA
01
09
EC
01
F5
00
02
05
F2
FD
06
E6
01
0B
07
FA
02
DF
EE
0A
F7
FE
F3
F2
E6
01
05
01
EC
F8
06
01
F8
FB
F1
05
F3
F8
F6
09
FE
06
F6
0A
07
FC
DD
02
F4
D9
08
FB
FF
EE
04
FD
FD
09
F4
F2
F7
FC
FB
06
1A
F1
FA
03
EC
12
F8
0D
06
EC
F5
E1
09
01
FB
F5
0A
00
02
FA
FA
0E
ED
FC
F5
09
05
FC
04
E3
11
F5
04
FC
29
08
10
06
EE
FB
27
00
F6
FE
00
E6
F2
0B
E7
E9
07
0F
00
08
07
F5
08
03
F6
FA
03
FA
02
F8
F9
23
0F
F9
0E
FB
0B
F5
07
08
E7
01
FD
1A
FB
DD
28
0F
FE
F7
FB
01
0B
08
1E
F8
FF
E4
07
09
F5
14
02
F5
0F
03
DB
0C
EF
03
12
10
FD
0C
0C
15
E3
E8
0B
D5
E6
13
EA
FB
06
1D
02
FE
E7
09
F7
18
F4
0E
00
F3
E3
03
E2
FA
01
FC
F5
EA
FD
EE
23
0A
04
05
DF
08
FC
0C
06
F9
F8
E1
F5
0A
FC
EB
FF
05
F1
05
18
07
FF
EC
0E
F9
02
0D
05
FB
01
F2
00
F6
F7
F8
12
FE
18
FC
0A
13
1B
1A
20
FE
EC
00
FC
04
FE
0B
04
F4
0F
04
08
09
01
02
08
00
EB
F9
CB
10
F3
E4
10
01
E0
07
FE
0D
C9
F5
11
FC
FD
FA
05
05
0D
0D
17
09
FE
00
FE
FD
01
05
0C
05
10
E1
01
F9
C2
05
E8
01
EB
10
02
E0
10
0C
F2
01
03
F1
09
0B
0F
FE
05
F3
FD
0B
0E
F6
E5
10
0E
03
0C
10
F9
E1
02
0F
FD
F3
0B
EA
11
E9
0D
07
1D
04
0B
F2
11
02
D6
0A
E5
FC
FE
F5
01
EE
01
06
FA
FE
FA
05
0D
06
F4
05
FF
14
07
FD
0A
01
15
EA
00
F9
F3
F7
0E
F3
FC
EA
0A
01
F9
03
F4
15
E5
19
E6
01
F6
08
F2
00
09
23
07
EE
E9
17
E3
F3
E7
09
0B
11
F1
FC
ED
05
04
FF
0B
07
12
02
FC
1C
0B
F4
F8
0A
F6
04
01
FE
13
E4
FE
F8
FD
F4
0F
F5
FA
10
EF
F3
FB
FD
06
04
E1
04
EE
FA
0C
03
FC
08
F9
D7
05
07
04
04
0B
07
05
08
FC
0E
FE
03
E8
10
E6
F6
EA
0D
20
F3
E4
0D
0B
FE
04
18
0A
E7
11
1D
F5
01
04
0F
ED
F3
02
0F
06
00
1C
17
0A
FF
F0
04
EC
1F
E3
06
02
F1
09
E9
09
F7
FC
F8
0B
F7
0D
F1
08
24
EC
10
E5
E8
0F
33
00
FC
08
26
0D
08
20
0F
0A
FC
00
F9
04
DC
F7
21
E7
07
01
FE
E6
F5
FD
07
FE
09
05
13
12
05
17
F0
04
01
EB
F4
01
0A
F5
11
F5
02
FB
F2
FE
FA
DB
17
06
08
F6
00
D2
F3
F5
0E
0D
08
FF
04
0B
04
FC
FF
12
FC
0E
F3
FD
29
21
FD
22
04
FE
00
FE
FB
09
21
0E
0D
FD
0E
26
FC
10
F8
F2
FD
08
E6
F0
F3
F2
EC
04
18
31
FF
F7
03
08
0E
08
FE
06
FF
E8
03
03
F4
F4
F7
0B
FD
EC
FD
01
F9
F0
F2
18
02
00
02
EE
FD
01
EE
18
0D
FB
FA
1E
08
FF
02
F6
F5
E6
EE
E9
10
0C
02
02
F5
25
F2
E5
F4
FD
F2
E2
01
FE
0B
F9
4D
EC
FE
08
EA
EE
08
F9
EF
EF
3C
01
06
10
20
FE
05
04
FE
01
F4
FC
16
0B
F2
F1
F1
E8
F2
ED
F2
42
08
08
FB
F4
E8
10
1A
FF
11
F7
04
01
EB
F9
ED
EE
FD
08
F5
01
E9
25
EE
09
02
FC
11
F7
09
03
F7
0E
F3
0D
EB
27
F0
F0
06
1E
06
2A
04
FB
FC
F6
FF
05
08
0D
09
FE
FC
13
0D
FF
18
FB
09
04
06
F6
0A
FC
F2
F3
F7
0C
15
E2
F7
F8
F9
0A
11
0E
FF
13
F1
FA
15
0C
2E
FC
0F
FE
FA
08
08
F2
11
31
01
04
F0
02
EC
EF
06
FE
F8
F1
22
F5
ED
24
F5
F5
20
EC
EF
FC
2F
10
1F
04
F4
0B
FF
05
09
EB
FC
1F
0A
E2
FB
FE
ED
FC
10
EA
EA
FE
15
2D
E0
0E
01
0A
EF
08
F5
F2
1B
30
01
FC
04
2F
EE
F5
F8
EA
00
04
FE
04
30
07
00
1D
06
F5
F4
0D
02
21
08
18
06
E8
F9
FD
FA
FC
0D
FC
F7
FE
FB
FB
FC
15
03
1A
FE
F6
12
E8
09
0F
FD
0C
0F
11
F6
F2
09
30
19
0F
00
0E
0C
EB
F5
12
04
F2
04
07
06
02
06
EE
04
04
F7
05
0F
0A
33
04
F9
06
E9
2C
02
FB
FA
0B
E7
E6
FD
F0
FB
EA
F1
02
FD
FD
05
EF
06
F4
04
F0
FD
F2
F6
0F
00
FA
05
16
06
05
F6
05
11
FF
03
FE
1D
FA
F5
ED
FA
18
F9
EE
0C
18
FE
11
0E
03
0C
FC
01
F3
F1
FF
0B
EA
FD
ED
FF
0D
F4
24
09
FF
F8
1B
FB
FE
04
FC
FE
FA
F6
3F
10
F9
F8
1F
04
05
00
07
FF
06
F9
F3
05
F5
F6
0A
08
F8
01
01
04
F0
FB
21
F7
01
0C
0B
11
F1
13
0A
08
09
0B
17
F9
0C
0E
0A
19
0D
09
00
0E
04
05
0B
EC
0C
1E
FA
F6
F9
04
18
FD
21
F1
10
27
03
08
02
07
F5
04
FD
F2
04
F2
EE
FE
02
00
14
F6
F6
DE
02
FE
15
07
F9
C7
E4
F7
01
01
F1
E5
F9
F8
0C
01
FD
F6
F2
01
DA
0E
F1
07
F5
F8
F4
FC
08
FB
16
10
F2
F7
0E
FD
EF
D7
FE
06
F6
F6
E4
00
F4
02
FE
05
0A
F4
12
FF
F2
FF
02
F6
06
F8
FC
0B
FB
F9
03
00
08
0A
05
F5
E7
F4
F2
ED
FA
14
EE
03
EA
06
FD
2A
01
04
02
F6
FC
09
FE
E6
0E
E8
18
04
18
01
EC
05
0B
E6
0E
17
FB
FF
F5
F8
E4
00
09
E4
F9
01
19
00
FF
F1
FD
FA
E3
FF
24
E0
13
15
FC
EB
08
1A
F3
1B
ED
0D
F7
F4
E0
16
06
12
04
FC
F8
F5
FD
F0
F7
1B
F2
DD
0A
02
FF
03
DE
0E
07
F7
09
E8
0E
F0
F5
06
F2
F4
0F
F2
FF
17
FE
08
F2
03
00
03
D8
05
12
ED
01
0E
F3
0A
03
09
05
D9
E5
F6
F6
00
F7
0A
09
07
01
13
04
07
F8
1A
EB
08
F9
FF
06
F6
FA
E7
E6
08
0D
F9
D9
05
F4
F2
FF
0F
EC
F2
17
DC
EB
D6
0A
FC
10
FE
F4
F1
09
14
FA
FF
F3
EB
00
F2
F9
0C
F4
08
FB
F8
FF
F9
FE
0A
F8
FD
FF
15
0D
ED
F2
F1
E4
0A
0D
F1
00
F2
03
FD
F7
06
F7
02
FD
F2
E9
F7
08
F2
0A
E4
00
07
15
07
DA
09
F3
06
FA
FD
FD
F7
09
F1
DE
04
09
F7
FF
05
0D
0B
01
EE
02
FF
08
02
0E
00
08
FE
07
F6
F6
F4
0F
F0
F5
FB
FA
F8
F8
10
00
05
EE
FA
07
F2
0B
F7
FC
F6
02
FE
F6
08
EE
FD
FA
13
FD
F0
FD
0D
EA
F6
D3
F9
F4
EF
F2
18
11
F6
12
01
E9
FD
13
FF
06
05
0A
F6
DC
03
F5
0D
EB
27
10
01
D2
04
F4
FB
FB
F5
14
EE
E9
05
16
1D
EC
08
FE
C6
F0
1D
DB
FD
21
0C
08
F1
FA
08
07
F1
EE
05
F7
11
FE
F7
F9
FC
00
F8
0C
E3
F5
FC
06
ED
E2
01
01
E4
02
0A
F9
F3
F2
01
01
09
10
EE
FD
06
FF
F1
09
09
F9
08
DB
FE
F5
2D
FA
F5
F4
17
FC
EA
F9
EC
1B
06
F8
F5
0C
14
FA
E7
C8
FF
DB
E4
FE
E1
04
11
07
FF
FF
F9
06
FC
D9
F9
0B
E8
F7
F8
04
07
02
FD
F3
F7
E9
FD
FC
E2
E0
F1
E6
EB
E9
F8
F1
03
F8
CF
FE
FE
CD
04
FE
EB
03
EF
02
1F
EC
10
ED
F9
FC
08
EB
04
1B
02
0E
12
FB
F6
0D
FD
E8
E0
F7
03
28
02
EE
06
FA
0C
11
07
F6
FF
F6
02
EF
F0
FD
05
01
01
02
E1
F6
0B
FD
FB
FC
E9
06
EA
FA
EA
F8
01
0A
FF
06
16
03
E8
13
06
F3
0A
F4
FD
F7
F8
0B
11
EA
00
FD
11
09
0D
F7
F4
F1
F1
0A
02
F8
10
06
FA
F9
0A
09
0E
0B
03
14
E2
10
11
F3
E8
04
E3
F4
D6
11
FF
FD
0D
10
F2
03
EF
02
11
FB
06
F4
F1
F9
FA
07
17
07
09
12
05
06
E4
D2
06
0A
F7
F9
0A
01
FC
0B
05
07
F4
F6
05
F8
F3
F1
F9
01
0C
08
FA
04
07
F4
0F
FF
07
F4
FD
04
08
02
FB
F2
09
11
E4
11
E7
16
F3
14
0B
08
FE
FA
EF
E9
06
0F
0A
00
EF
E3
0D
FA
02
0C
F3
FF
01
FB
0D
EB
F2
F6
FF
07
EC
FA
EB
11
F6
25
09
F5
09
04
0C
01
0C
FC
18
F2
12
05
FA
EB
FC
DC
0B
24
F3
01
07
EB
E6
0B
12
01
08
F8
02
05
FD
0A
04
EC
FC
EF
08
00
02
F1
E9
10
EB
EF
ED
09
09
FC
0D
F1
FB
F0
EC
00
11
0E
0F
FA
13
0A
07
F4
08
EE
FA
19
F9
FB
E4
F9
01
02
04
F3
EC
03
F3
EF
16
09
F7
02
E9
05
F8
11
0D
03
11
F8
EE
09
F1
FF
06
FC
0B
07
10
FC
0C
07
02
12
02
EC
0D
FC
10
FE
08
06
0A
0A
00
EF
03
06
FB
F3
00
0A
F8
0A
F1
02
09
18
FA
08
EB
0D
07
FF
07
F7
EF
11
FA
07
08
F6
FF
F4
18
05
F2
09
0C
FE
EC
EA
03
FB
04
02
FD
12
10
FE
08
FB
0B
07
02
FF
09
05
EA
F9
FB
04
08
03
F3
05
F3
ED
01
06
02
F5
13
0C
FE
FD
08
0E
FD
E8
08
EC
ED
F8
01
0B
EC
0E
05
01
F2
0C
EF
0F
04
06
FB
EE
06
14
0B
EA
0C
FC
FB
08
09
E9
FD
00
02
EB
F5
FA
F1
07
0F
DF
0D
FA
05
E7
11
F6
F4
ED
EE
03
FA
07
0F
FE
00
FB
07
FD
FC
FC
08
FC
08
06
F8
F3
FE
04
EE
05
00
1F
F9
02
00
E5
14
FE
EF
0A
F2
F0
02
F9
00
E5
07
FD
02
EC
06
02
13
F3
F2
F5
0E
04
05
06
FF
0A
09
E7
FF
F4
E1
08
FC
02
00
F2
F9
1E
00
F5
03
F2
07
07
06
15
F5
FA
FE
01
17
F7
03
0A
E8
01
F9
01
F4
F5
FC
FB
00
F7
F6
FA
05
E1
FE
EF
F6
FE
FA
0D
E5
13
11
09
FC
1B
02
12
00
F5
0A
1A
F0
02
00
0C
E9
F2
11
F3
E8
07
03
02
02
09
F9
F7
F7
F3
01
00
F9
F8
FC
0F
1C
03
FF
0C
FD
06
EF
12
03
F5
FF
08
16
03
E8
19
1A
04
EC
11
07
10
FF
2E
03
FC
EB
0C
12
FE
09
FC
FF
06
FF
F3
12
FA
0B
17
14
FC
00
0A
19
E5
FE
06
D4
D2
1C
F9
0B
EF
16
01
FC
E7
01
02
14
05
05
FB
F2
F5
FC
FE
F5
FF
06
FE
FC
0A
0B
11
04
0F
01
E1
09
08
04
09
07
EA
E4
F8
00
0A
06
FE
F3
F0
0B
18
F6
09
EC
10
01
0A
08
F5
FA
F6
FB
FF
EF
F1
FB
14
00
0D
00
19
06
11
02
0F
0B
EB
F9
FF
05
04
0D
11
F2
0E
07
FD
09
08
FA
0C
F9
F0
0D
F9
00
F0
EE
08
F9
E0
09
05
14
CB
F8
15
F0
01
01
06
0D
10
11
0C
06
05
FE
01
EF
F9
02
08
01
01
F2
F8
F3
DA
FF
EB
06
FD
14
0A
EB
13
02
03
08
06
FD
0D
0E
03
FD
F7
F6
F5
0D
0A
EE
00
FF
14
FF
13
F9
F5
DF
0C
00
01
E6
05
05
07
F4
01
07
12
02
0B
F5
09
03
EC
FC
ED
03
00
F5
F6
F5
FB
F0
00
F9
FF
12
EB
FC
F9
FA
07
FC
FA
0B
19
FF
19
09
F4
F3
F3
0D
0D
03
0E
EE
0B
00
F7
F8
0B
03
EB
27
FC
00
02
F8
E9
F3
0B
06
05
FC
E4
0A
F2
F1
E1
04
05
09
EC
F0
FA
08
0C
0A
0A
FF
09
02
F0
1D
0E
E4
F2
0A
F4
01
08
FC
00
EC
06
EE
FF
F2
07
F8
FE
01
FC
EC
F7
F9
0B
06
E4
09
F0
F2
0E
01
09
01
FB
F5
FB
18
0E
FC
05
00
07
0C
F2
FE
0E
0A
EE
04
F3
F4
EF
0D
23
F7
F2
0A
05
05
0E
08
08
DF
0D
F9
FA
0C
02
10
ED
ED
00
FB
01
FB
12
0A
05
03
EA
0C
EE
1A
00
FF
00
FC
FE
EB
03
F9
0A
03
07
FD
10
F7
04
1A
ED
FB
EA
E8
03
1C
F0
02
F7
20
13
FB
11
0B
08
F3
08
F3
12
E9
FA
14
E1
0A
FE
01
F9
ED
FC
01
00
14
FE
FE
0B
03
05
F8
00
F6
F6
F4
F3
FD
FC
18
FA
0F
F7
F8
FE
09
F2
11
F2
10
F7
EC
DF
EC
EF
05
FB
23
F2
FA
07
E9
ED
03
0D
EF
14
1A
01
02
23
F8
17
27
14
F4
FC
08
F8
0C
04
F5
FB
F9
17
ED
09
02
EC
0E
FC
04
E6
F1
F0
FB
E2
E4
1C
F1
F0
1A
E9
0E
15
F5
09
EA
EC
F9
E8
F5
15
E5
0E
FB
F3
FB
F0
EE
F1
D3
F7
04
F5
0A
F1
E4
FB
F8
FE
18
F5
FB
FD
FB
E9
00
09
E9
C6
FF
EC
10
FC
04
E2
EF
05
E9
DC
06
FB
FC
EE
0B
03
F2
F8
25
02
04
08
05
03
14
F0
F9
1E
1A
06
ED
ED
FA
FE
07
12
FF
06
03
FF
18
09
02
EB
0C
F0
FA
E6
F7
1C
0D
E4
E6
E5
E5
15
0B
FF
F5
11
F8
05
0B
EA
E6
FD
FC
0F
F2
14
F5
1C
0D
F4
FE
FE
06
F3
00
04
10
08
02
0E
07
08
F7
ED
03
F9
F0
0A
FF
F5
CB
F1
F2
DC
D1
F1
0F
F8
FF
05
1D
F3
19
F3
05
03
F6
F6
13
06
EE
04
E9
E0
F9
F3
DF
F3
F5
0A
01
10
01
FA
E6
0A
32
FA
12
17
F9
F6
02
03
F3
EB
20
21
FC
0D
EB
F9
F4
F6
EA
05
F1
00
F6
02
F3
E2
F8
F6
0F
F7
05
10
25
0A
19
0B
FD
E3
F5
F6
12
EB
0F
16
0E
F8
EC
E6
FD
04
17
E2
F5
F7
1B
24
EA
FC
0E
08
E8
17
FB
E1
1C
12
FF
F4
03
1E
EE
ED
F9
EF
F1
F4
00
F1
0D
08
FC
EB
13
EA
F0
13
F9
1E
F1
18
06
FC
06
FD
F1
02
05
FE
F1
EA
05
E4
03
F8
0A
0C
FE
FE
0A
F3
14
FD
12
F7
19
EA
01
00
05
25
17
F1
08
D5
15
0F
0E
07
05
F9
C6
13
FD
1A
08
0D
0D
1F
02
FE
15
F4
14
17
E2
10
FB
1D
09
FB
F9
F1
0C
E2
12
F6
18
01
F8
00
ED
F8
F5
0E
02
F0
01
EA
05
07
EF
0D
F1
FB
11
1F
FB
EC
04
FB
CA
FF
19
F5
05
F0
E8
F6
F3
19
04
F8
09
10
F4
01
FD
01
E8
FF
01
E9
E7
06
05
F9
F1
FA
17
EF
E5
08
0B
00
05
07
03
04
F9
14
E2
EB
F6
13
0E
03
08
04
00
EB
F0
F2
F5
01
0C
F7
03
01
F6
13
18
10
FF
F0
13
14
DA
04
08
0D
18
00
0C
06
01
FA
F0
E8
0C
15
08
06
09
03
F0
02
09
0D
09
04
F1
EC
F9
F9
FA
ED
10
F5
13
23
FE
23
D1
00
13
FA
FE
F6
08
0C
06
04
0A
EF
F8
03
07
F8
01
F6
07
0E
05
FF
0A
F7
04
E3
13
EC
1B
08
01
20
10
E3
E8
F4
F0
12
12
F7
0B
01
0B
0A
04
0B
04
F8
10
EE
FE
08
02
F6
FD
0C
0C
01
F9
08
03
F6
FD
F6
03
EB
03
FD
F9
FF
04
01
04
F5
F0
F5
EA
12
FA
18
0A
1A
00
06
F5
E6
F9
E8
06
11
E3
14
03
03
03
F2
08
0B
04
F2
F5
F5
18
0E
0C
08
01
F5
06
0C
EC
00
FD
FF
04
18
00
FE
0C
F8
10
F8
EE
03
F7
00
F5
F7
08
ED
0D
01
F6
07
04
F3
08
09
FA
0F
14
0F
FA
07
1F
FE
FC
FB
F6
FA
FF
02
05
F1
02
06
F3
02
FB
ED
0A
FE
00
FC
F3
08
0A
F6
F6
FE
FC
0D
F0
FB
02
F6
F5
05
05
F0
10
FE
F2
EF
F3
FD
F7
08
02
0D
0B
06
EC
F6
F8
F6
02
F1
F1
03
08
FC
EC
08
10
F3
F8
04
07
07
08
01
F0
FE
FB
FF
F9
13
0B
FA
08
F9
F7
10
0B
E5
1A
0A
0A
05
0F
07
F3
EC
04
F9
E8
FC
FB
F3
18
E8
F6
F8
F5
07
0F
F4
F7
EC
13
01
F7
06
F3
08
03
FB
F7
00
FE
03
04
1E
38
EE
F2
F1
F7
02
FC
05
F0
08
08
04
16
09
EA
05
FA
FE
FB
02
EC
FB
F8
14
F8
FB
FC
FB
03
01
0E
23
FF
EC
E4
09
0D
F2
F9
F6
EA
E4
F8
F7
F7
EF
FF
11
FE
FE
ED
DE
F6
01
F9
0D
02
F3
ED
F1
FE
E8
01
0C
FD
06
FC
0D
0B
09
FA
2A
02
F2
F8
F9
FC
F8
DC
FD
06
E8
01
F7
12
3A
11
01
EC
0D
F6
F9
00
EC
0C
FB
F6
E4
08
1D
07
FD
FB
16
E3
F8
F5
F3
00
EF
06
07
05
E7
EF
F1
05
00
FD
05
00
FF
EE
FA
F2
F9
FF
01
F8
FE
FC
04
0C
FB
04
EC
0C
17
05
05
FC
FF
0C
FB
F3
10
0A
0C
0B
F5
E4
00
00
E7
FC
EB
E5
02
01
13
01
FD
FF
FF
F8
0E
09
F8
06
07
00
EC
FA
0E
FA
03
0F
0D
00
F3
0F
07
EC
EE
F7
E3
01
F1
FE
05
1C
0E
0E
F0
0E
0E
0A
ED
09
FD
E1
04
1F
F8
EC
06
ED
F5
F4
08
EC
07
02
F7
14
FC
14
FB
F3
FC
07
FF
05
04
F9
0E
E6
0A
FF
FF
15
FB
00
F5
FC
FA
F9
FB
F9
F8
11
FA
E4
03
F6
0C
0A
11
F8
0A
F5
0D
09
03
EE
FE
FC
FD
EB
00
FD
FA
F1
FC
F3
E9
01
F9
1F
F8
00
FF
ED
07
1D
F7
06
F6
FE
F2
F9
F1
06
07
FF
10
F3
12
E9
FF
FA
FC
10
08
F1
07
EF
15
F8
FA
F8
F8
DB
0E
F6
F5
0B
01
FF
FE
F8
0C
E5
04
EE
FF
FE
07
FA
EF
07
F9
18
FE
F9
01
08
0E
FD
08
0B
FA
F3
FD
FE
FF
EC
18
16
00
02
F6
FE
06
F9
0F
F9
F4
E9
F5
12
05
FD
FD
FA
03
0C
05
F8
0D
0B
08
F0
06
0E
FB
0C
F4
F1
FF
07
F0
F9
19
FB
F0
07
F5
05
FD
F4
F5
17
E7
05
0E
E9
EC
03
F1
02
04
0D
FD
F3
07
F9
06
00
F9
04
14
0F
02
FF
00
FD
E4
DC
FD
0F
04
05
0F
11
F2
F8
FA
07
01
DE
08
F4
0B
10
F7
F9
FE
F1
ED
08
E4
F9
02
F8
07
0C
08
0D
0A
10
1C
02
F6
0D
0C
FB
07
F6
0B
0D
0C
F2
F4
F7
0C
06
03
0B
02
FC
E8
00
13
FE
0D
FE
02
02
08
0B
E8
FD
F8
FA
14
FB
FB
ED
FF
F2
FD
04
02
E6
03
05
FD
FD
F2
FB
FA
F7
F5
0B
F0
F9
DF
03
E4
FF
02
FC
08
F8
09
00
05
06
0F
04
FC
FA
FA
02
FC
FC
F7
F7
F9
EA
F8
EE
16
0E
F9
07
FD
00
00
DE
00
E6
F5
11
03
07
14
07
02
01
04
00
01
0A
F5
EF
09
F6
0A
EA
09
FC
06
F5
06
F7
18
FD
19
F3
12
0E
FA
FE
F8
EB
F5
F5
01
E7
FE
0A
EC
FC
07
07
F7
05
0A
0E
FA
03
0B
0F
F6
0A
06
04
F1
09
19
12
FC
FA
E5
04
04
F2
F9
F6
F7
02
03
ED
06
0A
05
06
02
11
04
05
F4
F8
E9
1A
F7
F8
0F
F8
08
FF
06
E5
F7
DB
04
01
04
EE
04
04
FA
F0
01
14
FE
F5
F4
05
E7
00
F7
06
FE
16
08
E7
08
F0
FE
04
01
00
F1
04
F3
05
0D
F8
ED
FB
F4
F0
FE
06
12
07
06
FC
FB
EC
F6
13
FD
06
12
0E
04
F3
0B
04
0C
FD
EA
F1
04
14
FF
F9
F7
F0
08
FE
0E
F5
FE
0C
06
FE
01
01
12
00
0E
07
07
08
02
0C
0A
06
06
11
04
F1
FE
1D
EB
F6
F3
FE
F3
F8
05
FF
12
03
FC
FE
F3
FB
FB
0E
02
ED
11
FE
F3
05
06
FE
09
F7
FF
0F
FF
F8
07
FA
FB
05
1D
FD
0F
0A
EE
13
FA
FB
07
04
0D
FE
0A
09
D8
0E
04
FB
EB
F1
EE
10
F8
06
05
14
05
FA
F9
0F
13
F4
10
00
03
DA
E9
F6
F9
EF
08
03
0D
00
F2
12
09
FA
F1
02
03
EF
00
14
01
E9
12
04
10
0B
03
01
F2
06
DD
FB
EB
0D
0A
FC
19
0D
0E
04
0C
10
0A
F3
0A
00
FF
1B
04
FC
02
FC
17
02
FB
F6
F5
FF
03
F6
0C
03
06
1F
05
04
F9
10
1F
10
02
F9
02
F0
09
FD
0F
FB
01
F5
FD
F9
EE
0F
0C
11
F5
03
02
F9
16
F5
08
FF
00
04
FF
1E
FB
ED
F8
F1
F9
F2
EC
EF
01
F2
EF
F5
0D
FE
0B
FE
1A
07
0C
E1
08
01
03
0C
FB
FD
FD
FF
FA
0A
E5
F3
0C
FF
0A
FA
ED
13
FA
ED
F5
0B
F9
16
15
08
E9
08
FA
08
F7
FA
FB
FD
F6
05
F0
07
05
07
F7
02
15
F5
09
0B
ED
1C
0B
05
F1
F5
00
06
FF
14
06
05
F8
F2
07
EF
FE
05
11
F4
E5
EC
08
0F
01
EF
0C
08
0C
FD
09
16
F9
03
01
EC
03
08
F8
E0
1E
FA
0D
FE
0F
FD
0F
0B
FF
F5
F5
F8
16
FF
13
F8
F6
02
01
04
0C
00
FA
00
FC
06
12
FC
F7
E1
F4
F9
06
EB
07
FE
05
0C
02
03
E9
D6
01
17
09
F5
FB
FD
1C
F8
02
02
F8
ED
E6
FF
05
FE
16
03
08
FF
01
04
F3
08
01
00
EF
0D
F9
FC
F6
F3
06
FB
F7
F8
07
EA
FD
DE
F3
01
FA
10
EE
07
F9
F3
13
2B
0A
08
20
08
07
03
06
08
F7
21
E4
F5
0E
F7
03
03
07
FD
12
04
07
09
F4
FA
00
F1
FD
E9
EE
FD
01
01
FE
EB
FB
04
0A
02
F9
00
12
14
F7
18
00
FD
0B
0A
F9
F7
F6
FE
FE
0E
FD
FB
06
04
F6
06
05
04
11
09
FC
FF
13
04
FF
10
02
06
0E
EA
0D
FD
01
00
02
00
0E
FA
08
09
08
08
F5
09
03
F4
03
F5
F2
08
F7
0D
09
02
0A
F6
04
0E
FD
05
07
FC
07
12
FD
0A
FC
08
F6
FE
FB
0A
04
E8
04
1B
0A
13
FB
02
F9
FC
07
FD
14
F6
FB
E5
17
07
03
F9
0C
FD
EF
EB
EF
10
00
14
04
E4
EE
00
03
F0
01
23
E9
0E
06
FD
36
F8
06
00
11
FB
FA
04
EE
F2
EF
F8
06
F5
ED
F7
05
14
E6
F2
15
0B
F7
FB
EA
F4
FA
03
F1
00
F3
FD
F4
09
02
F7
09
EF
F1
0D
0B
FA
FB
F5
17
FE
F8
F9
09
13
04
02
EC
E5
F7
F5
0F
F6
EF
F7
04
EE
DC
0C
F8
DE
FA
00
F8
0A
EF
12
12
07
11
FB
1A
F2
FC
18
FF
0B
FC
F9
02
05
EA
15
EF
F0
05
EF
07
0A
FB
08
00
1B
FF
0E
F3
FD
04
F1
11
09
04
F8
EA
FA
02
F3
0A
FF
FB
E3
F3
F9
0D
EB
06
0D
01
02
C8
EB
0C
0A
02
13
17
F4
F4
03
D9
10
13
0F
FC
FA
ED
F2
FE
03
FA
FC
1C
08
F5
0B
FF
FB
01
EE
FD
12
15
08
EF
EE
F8
FB
EB
08
F7
08
F9
F9
FD
03
0E
03
13
E5
1D
0B
03
0F
FF
1D
E4
FB
FD
FB
CF
ED
F2
1F
F6
00
EB
0A
0E
1B
D9
F4
F8
1C
FB
0B
06
03
10
EB
EE
08
05
FC
FB
F9
EF
D7
F9
01
01
09
1D
FE
F7
0E
00
FE
0E
FA
03
FD
F4
ED
0A
FC
EB
FB
05
07
F2
11
EE
DD
09
FE
FE
FD
EF
19
EC
F0
14
01
03
EE
E4
10
02
05
E9
05
13
1C
E7
03
F7
F9
02
EF
0A
F6
FA
FD
F3
FC
F2
0A
0B
E5
09
02
07
11
17
00
05
12
08
0D
0E
FD
0B
17
F6
08
E4
06
E9
FC
0B
F3
19
0C
0F
F7
F3
F4
0E
0F
0C
0E
EE
13
FB
09
FA
12
F9
01
06
11
08
0B
27
ED
F3
EC
FA
FB
02
F2
DD
01
01
02
FD
FC
F1
08
FD
09
E6
02
0F
08
F1
F7
10
FE
F4
14
0D
03
00
01
DD
FF
10
0D
12
20
F5
11
18
0B
05
0B
17
04
F7
0C
01
F5
0A
F6
1B
E8
FC
00
1A
FC
0A
F3
07
06
08
F3
FC
F1
00
02
DB
F5
0C
12
16
06
01
E8
0E
F4
20
02
0E
09
F1
1F
08
04
01
FE
E3
EB
FD
0B
12
1A
04
02
E8
13
F9
05
14
1A
06
0C
F1
13
19
F3
FF
01
16
DE
F5
01
17
08
F3
06
FA
0F
EB
16
04
EB
F9
D3
FB
E8
F9
EC
06
15
FB
FE
0E
0C
01
01
FC
0B
FB
08
F8
E6
F9
06
09
F4
01
0E
22
F8
10
FB
F9
F5
0B
0B
E6
0A
14
FA
0F
06
02
FE
FB
FE
EA
00
15
18
27
09
F4
F0
DA
08
E9
24
00
05
0C
F1
FC
0C
0B
11
10
05
24
F6
09
F5
12
17
DD
11
F0
FD
04
06
F5
F8
12
F5
17
18
13
EF
EE
09
15
0F
04
16
F9
FD
0D
FB
FA
FC
FC
EE
DE
02
0D
D9
09
E6
0A
F1
EC
ED
0B
F4
02
15
1F
09
F9
F8
F0
15
03
FF
18
E6
37
22
FE
FC
15
03
13
ED
0E
FB
F8
0E
FF
07
06
03
E6
FB
EA
FA
0D
12
FA
F3
0F
FB
12
15
06
1B
08
D7
1C
F0
05
42
FA
02
11
0F
22
22
FA
03
EE
EB
14
0D
37
19
07
08
19
FB
16
05
03
08
FD
0A
0E
13
0D
F4
F3
0B
0B
EA
02
FE
2B
17
2C
2D
F2
0C
FE
0E
2B
09
20
0D
F6
F6
21
19
36
1F
0A
F3
E8
F3
0D
18
04
F8
00
0E
07
DE
FF
E0
E9
F6
EB
0E
18
F8
11
F9
0B
41
17
0D
F9
F1
05
F0
01
0C
F6
0B
E2
07
0E
04
0F
D5
00
FD
20
1F
F8
F9
0C
F4
FB
E9
EA
00
17
1C
14
09
18
FB
07
03
00
0E
09
ED
2F
13
FD
0C
1F
08
0B
0E
0C
0B
1B
DF
2A
02
FD
0F
DC
2A
F6
05
FB
2F
03
23
20
21
F8
F0
35
EB
29
0D
FE
FC
0E
FF
11
FB
16
16
F8
0A
0D
17
29
17
EA
2E
1B
0D
02
00
24
08
ED
1C
1A
13
02
42
04
FB
02
F6
0C
FA
00
02
14
1F
F4
10
FC
0B
E3
05
05
FF
EE
1E
FA
DA
07
05
1D
3E
2A
13
F8
10
05
F6
FA
01
16
E2
F5
E5
23
08
33
0C
EE
07
0D
DC
FA
12
16
F5
F9
1B
02
F3
2C
28
0E
1F
F9
22
11
15
E8
13
08
04
FA
19
0A
F2
1F
13
FD
EF
2F
22
C6
0B
E2
12
0D
10
EF
EF
F5
04
F3
FD
06
05
01
E5
FC
FD
F6
FB
F9
0D
F1
07
ED
1E
FB
0C
F7
2B
1C
1A
01
12
05
FF
2E
11
F1
0C
F6
07
06
01
21
10
00
17
D3
01
01
2F
08
13
FC
07
F7
FE
13
E6
11
11
02
15
0F
22
17
E4
11
F8
06
E9
EA
ED
20
F2
F6
FC
FB
D6
F3
0A
02
F8
EA
0B
F6
08
1C
08
F0
E4
02
EC
FB
00
00
EC
FB
1C
18
05
11
FD
02
1A
19
FB
E2
02
EE
02
03
15
09
F4
3B
FD
06
FB
EE
01
13
01
1A
FF
E9
F0
FF
0B
E7
09
E3
FA
20
FF
E7
2A
E7
F3
0B
F4
08
18
EE
F6
01
01
E9
13
36
1F
07
FB
18
EC
F4
F9
08
F4
13
20
02
FF
F0
EC
F6
2C
F2
1F
05
0E
23
20
15
F5
00
00
1B
FF
19
02
FE
DD
08
0C
1E
05
02
05
FA
01
FC
12
FF
1B
F0
27
15
0C
03
EC
FB
15
0F
F0
0F
09
F2
09
FD
14
F3
F3
F8
0D
E1
02
F8
19
DC
FF
10
C8
E9
08
F2
EE
00
F8
F9
10
0C
F8
01
04
03
06
E4
FF
04
12
FA
DA
FF
F2
0C
F9
0D
F5
08
FF
F9
EC
0C
F7
F4
F5
02
16
09
E6
F5
22
F1
0C
12
FE
FF
E4
03
08
02
04
13
01
FF
E6
07
EA
F8
09
F8
FC
F9
19
F8
07
EE
09
FF
00
F9
FA
EF
18
18
03
FB
08
12
EB
06
EF
03
E2
15
03
F3
F5
06
01
E0
01
F6
F4
E1
FC
01
CD
01
08
02
E8
12
C4
E7
FF
D9
0C
1C
0E
03
F3
EA
0C
0F
0E
08
F1
1C
08
18
1A
EE
01
E3
02
F2
11
F9
FB
11
12
FC
12
EB
FE
08
0F
F5
ED
F8
F8
04
FC
FC
D6
1B
0B
E6
F5
F7
F6
F4
06
03
03
05
F7
E0
02
EC
F9
15
09
E6
FF
12
00
F9
1E
F2
00
08
F4
EA
09
F2
00
00
0D
F1
F2
06
E9
0B
1F
F1
0D
F3
F6
FE
E2
02
0A
EC
04
09
E8
FA
F7
F2
E9
02
06
ED
01
0F
FC
01
F0
03
0B
0D
FF
03
F3
F9
06
07
F3
DC
01
13
FC
06
EF
F5
E3
F7
D6
EE
02
F3
1C
F3
FF
EB
04
F8
12
F4
E6
FC
0A
18
13
FD
15
FF
F2
E8
02
F9
0D
FF
0B
F1
FC
FF
E4
FF
0B
05
F8
F0
14
08
E5
09
08
03
F3
03
FF
F4
0B
F3
04
F6
FF
FA
00
F9
F7
F1
FC
FF
C7
11
10
DC
11
EE
0B
DC
FB
08
0B
14
F4
06
FD
F1
F9
F4
EE
FF
0E
EB
EA
C6
09
FE
03
EF
25
08
01
F6
05
F7
23
F4
0B
06
12
17
07
12
13
F6
0F
F2
FE
01
18
FB
0D
EF
0E
F2
FF
09
0D
0C
FF
09
FC
18
FD
FA
FB
F6
09
18
F8
1B
E3
09
03
04
F3
E6
06
ED
00
CA
0B
09
F4
0A
E2
E6
0A
FE
FC
07
05
07
07
FB
EA
12
D6
EA
04
11
F7
DE
09
0E
FD
0C
0A
08
06
ED
CD
C6
09
09
00
F2
ED
0F
DD
14
02
F0
D9
F9
FC
02
F8
04
13
EC
E9
F3
1E
EA
DD
0B
F8
0C
E7
F9
03
EB
0C
11
F4
FE
FE
06
00
01
F5
06
0E
06
F2
FF
E2
10
17
E3
03
FB
00
25
2C
10
F5
E2
EE
0F
E2
FE
11
E3
F6
0A
10
02
01
F6
F0
ED
F5
0E
F4
F8
FC
FB
F9
07
FC
06
FA
02
DF
DF
FF
F7
16
DD
FB
01
05
00
ED
02
01
F6
E7
F4
04
E4
FC
0C
1A
F3
FC
EB
EB
EC
FF
FF
0B
F7
FA
ED
F5
0D
F8
00
F7
06
0E
03
F9
F9
05
FA
F4
E1
06
1D
05
17
F9
15
E2
0C
18
F5
18
11
0C
0B
F7
10
F9
FE
0E
0B
E1
FC
08
DD
E9
04
06
09
FE
05
F8
FF
CE
F9
00
02
02
F8
02
FD
00
09
EF
09
FE
1D
01
0C
01
F4
EF
DA
F5
13
F9
28
05
FF
12
01
F9
17
FF
19
EE
FA
CB
F4
F2
06
0E
05
06
08
06
E2
00
08
07
E5
0B
1C
F9
00
F2
FF
F2
07
E6
E0
10
F9
03
EF
04
F0
00
DB
F2
03
11
E9
07
0F
ED
EB
03
DC
F6
18
13
05
D7
03
F4
07
F6
FA
05
ED
F8
00
EA
01
06
E2
C9
07
05
01
F2
FC
0B
E1
FF
0A
F7
00
FA
07
09
F2
07
06
02
00
0A
FF
0B
FC
00
0C
FB
14
FF
0E
0C
FC
0A
11
00
D7
0A
07
07
EE
F6
0E
0B
FD
EE
E9
0E
09
FF
00
F3
F0
E7
D4
0A
E7
F7
05
07
FB
09
07
06
D3
09
0E
06
06
05
FB
FA
FB
03
09
0C
06
F1
09
12
EB
06
07
03
01
D3
00
F7
E9
DE
E0
0A
FB
02
FF
FC
05
04
0D
FD
FD
EF
0E
04
0C
EE
09
F4
0B
FF
0F
F3
E9
FF
06
02
17
0A
0C
F9
F6
04
0D
EA
08
ED
F4
0F
01
0B
28
FE
03
FA
07
FF
E9
0D
E6
ED
F1
04
25
F4
04
06
FD
D5
03
F6
18
EF
FE
0A
FA
1E
03
F8
0D
EC
FD
E7
10
12
0E
FA
0E
00
0F
EA
D5
FE
0B
09
F2
F6
EA
10
DF
08
04
07
FD
03
07
0D
F9
F8
EF
05
EA
E9
E8
FD
FE
10
03
F5
EF
0C
00
07
FA
FA
0E
0B
EA
10
E9
FE
FC
02
06
FA
0B
FD
0A
EC
EF
FC
F8
07
0A
FD
07
F7
E5
FE
FC
04
FB
E2
F8
FE
FB
FE
02
01
FD
09
FC
D2
F9
F2
08
0C
09
0C
F1
FB
04
04
FA
FD
FE
08
F6
D0
03
F9
FD
E6
D8
FB
05
CC
02
01
00
02
15
06
02
02
0F
FF
0F
03
12
FE
06
08
0D
F2
04
02
02
0A
FA
04
D9
15
0F
F9
FD
E2
08
ED
F2
04
0D
03
10
FC
03
0A
F5
0D
D8
EB
FE
0F
F8
F2
DA
16
0F
01
11
0E
0D
0A
F9
12
F9
FE
14
14
FE
FF
03
F5
E2
FF
04
14
F5
0C
F9
F9
04
DF
10
FA
FB
F3
07
FA
08
0F
03
0B
E4
F4
09
E1
09
FC
F2
FF
F9
FC
E1
FB
E4
E0
EC
F2
E8
EC
10
0C
EA
06
FD
0F
05
01
F6
F8
ED
13
EC
04
0D
DF
FA
0A
F7
0E
08
0C
F9
FC
FC
09
D9
02
E7
06
0E
FD
E2
05
0D
0C
E8
03
08
FA
E3
0C
06
E7
F8
02
DF
01
EE
0A
F1
02
12
FC
F6
0B
EA
EE
EA
F5
0E
F5
10
0A
1B
E4
0C
F1
FE
ED
09
F5
04
D8
F6
EC
FF
05
F6
03
02
06
FA
FE
0F
1A
0B
04
F5
FC
ED
F8
0B
E7
03
05
FF
FB
F2
0E
13
D7
0F
08
FA
FF
F6
0C
0E
F4
DF
D2
E8
11
01
F5
EC
F3
F7
06
EF
FB
0C
EB
13
0D
0A
EA
02
08
EC
01
E8
F0
FD
F8
18
06
F7
DC
02
0D
F5
07
E7
FA
F9
0F
ED
EB
F6
F6
0E
F0
C4
F0
FD
FC
F2
F6
06
EA
F6
00
DD
07
F0
04
D8
11
00
E0
16
FF
DA
03
0B
0F
0C
1B
00
1D
0F
F5
F9
F5
FC
F0
14
F8
FE
0C
00
02
E7
EC
05
15
E7
FA
04
FA
FD
05
E7
F6
08
FE
D6
0B
05
FA
D9
F5
04
FD
D8
FC
0C
F8
EA
00
11
D9
F2
F4
08
0D
FE
01
0E
13
01
FF
F6
E6
FC
06
0E
0A
ED
11
F0
02
FA
D2
ED
E9
0C
FC
EF
03
1C
08
00
D6
E6
EB
06
FE
0E
FD
0D
D0
06
F4
13
FA
DB
0A
FC
FE
FD
00
F2
EF
F7
00
F3
F8
FA
EA
E2
09
04
02
F2
02
FE
0C
00
FA
EF
E8
04
CB
0F
FC
04
08
D9
01
E5
F6
04
FE
0A
FE
09
07
05
0B
06
00
08
F3
FD
E0
EF
E7
05
F5
F9
FB
01
D9
03
F5
F8
08
FE
D5
01
F1
FB
FD
FF
FB
F3
CB
E7
DC
07
F4
DB
D6
DC
ED
FD
F4
F1
F0
10
E7
0A
E2
EC
F2
FB
0A
EE
EE
05
06
0C
FE
0A
03
0E
ED
EA
FF
E8
18
06
FD
F8
F3
0B
EA
0A
E9
F4
FF
ED
0A
0F
D6
F3
FF
0C
00
09
06
0B
CE
FE
00
07
0A
09
09
E3
EE
01
F4
EE
02
02
F3
11
16
0A
F1
17
FF
01
DB
FD
13
04
E7
0C
F8
E9
07
00
EF
F1
F9
F5
12
FC
FF
FC
0E
DD
17
0C
1C
E5
DB
00
F1
E9
04
E3
F0
06
FA
0B
0C
E1
EC
EB
01
07
F3
E2
FA
DA
F5
0C
FD
FD
0A
FB
0B
12
08
08
FE
DB
EE
1B
E1
12
11
F1
EA
F7
1E
01
0B
18
EF
0A
FB
00
F6
0E
E2
CC
14
E8
03
DC
E8
FA
F5
04
01
F4
E3
FE
FE
15
0C
F6
03
F7
FF
FE
F7
05
00
F9
09
F6
F6
FC
F9
0D
FE
09
02
0B
00
04
F7
F6
F6
FB
F6
02
FB
FB
F2
FD
11
0A
0D
00
09
0B
04
02
FB
FA
F0
07
FF
FC
FA
10
FD
FF
F9
F7
EE
03
05
F9
06
02
0A
05
F6
FE
08
F2
F2
03
F9
FF
FC
F8
E7
03
FE
FE
FC
FA
04
EC
0E
04
F6
FF
02
04
06
01
06
0E
FC
0D
FD
06
F8
04
0F
E5
FB
01
F8
FB
FF
0A
07
FF
00
F5
F7
FB
FC
F3
F7
FA
09
FC
F2
07
01
F9
ED
F9
EE
13
01
E3
E8
ED
F3
F6
0B
F6
F8
FC
0D
FE
FF
F6
ED
02
F5
F8
FA
01
F8
FC
F1
02
FA
F3
F4
EB
01
F6
09
07
EC
F3
F6
F5
F7
02
0C
05
F0
F7
03
FC
F5
0C
06
FD
F0
08
F8
F2
01
0B
00
F8
F8
F1
0A
0A
08
F8
FE
F0
09
F3
01
FB
00
EF
05
07
FC
14
F5
04
FF
E6
05
F7
03
0C
0B
0D
F2
F1
01
07
FF
0C
FC
FA
F6
00
F4
00
F8
F2
F6
F8
EF
F9
F1
00
FF
FF
09
0A
03
FB
07
F7
F9
F5
04
09
F8
0A
E3
FD
F7
FC
0C
05
FD
08
FA
DB
05
F8
01
F7
EF
F7
04
F6
05
0C
FE
07
FF
F3
0D
F4
06
F9
FB
02
FE
06
F3
EE
0B
FA
F5
07
02
09
03
03
09
00
08
02
07
FC
FE
F3
EE
04
FA
F5
FF
0B
F9
F7
F8
EC
00
F9
F8
07
02
FE
EA
FE
FE
F3
0E
ED
FB
01
EC
E1
03
F4
F9
02
07
08
F4
02
F0
05
EE
02
ED
0A
EA
01
08
F3
02
00
FA
06
12
FA
FC
01
EC
F4
05
F9
F7
04
FF
F5
00
FB
F5
09
F0
06
06
01
FD
E5
04
F6
FA
0A
FB
F8
F7
EF
FC
F5
F9
FC
05
00
02
F0
F1
FD
08
0D
06
06
05
F4
F2
06
FB
07
F8
05
0F
E6
07
F5
0A
FB
E9
F3
0B
06
ED
05
F7
F5
F9
FF
E6
EF
F6
FD
F3
F9
F4
FF
EF
08
0A
E6
08
F7
F9
09
F8
F6
05
0F
F8
EC
01
FB
F8
F2
00
FE
F5
EF
EF
F6
EF
FE
FA
F8
FF
FC
F3
F6
01
FD
05
0B
FF
FB
F8
F3
EA
F7
FC
FC
F0
03
01
08
F6
09
F6
FA
09
11
FF
F8
F6
FB
FE
01
FC
F7
0A
06
EB
FA
E8
FE
00
F7
05
F9
03
F2
FB
00
00
F0
F5
08
FF
02
FD
FB
EC
F4
0A
FB
FF
FD
FD
FD
19
ED
E5
FC
F6
F0
FE
03
03
03
0F
09
FB
EB
EC
0B
F5
10
10
0D
C3
EA
00
FB
03
0A
EB
F8
FC
F2
00
EC
01
14
0E
EB
11
F7
EB
E0
F4
FD
05
01
F1
1A
F6
EA
FD
F5
0B
F3
E0
F0
FE
0B
F9
EC
01
05
10
0C
02
09
EB
01
14
F3
E6
01
09
03
FB
F9
12
F4
F3
01
0B
13
08
07
F0
EB
D9
F9
F3
05
19
F0
F4
FE
FB
07
18
10
FB
01
03
04
02
FE
E6
0F
E3
FB
E8
08
09
F5
01
15
EB
03
FD
FE
0E
09
F9
F7
F9
00
E4
0A
02
03
10
0F
FE
08
F7
DB
00
12
E7
12
0D
F4
F0
FA
07
00
F4
D0
0C
FA
FA
FC
0F
E6
07
04
F3
07
03
FD
F8
EC
05
E8
06
FD
FC
10
F5
E8
08
16
E7
0E
F4
0D
00
05
04
F6
0A
00
FC
06
10
E7
04
F9
FE
CE
06
F4
11
0C
07
04
1B
0B
02
02
FE
08
D8
FE
FE
E8
03
F8
FE
FC
09
08
0E
FB
0C
09
0D
02
07
FD
06
FE
FA
FF
EF
C2
FC
13
ED
E3
F8
EC
02
0A
15
E3
F3
07
EA
F4
CB
04
FE
14
0A
FA
01
0D
02
02
E4
03
F2
FC
07
F3
14
F2
F8
EF
F2
F4
F8
07
0C
01
FA
02
14
FE
07
FC
FB
F1
FE
05
EE
06
DE
04
FE
FF
18
FC
EC
FB
F9
DC
06
00
E7
04
E0
08
06
0D
0F
F8
1E
F6
F6
F0
FC
0A
04
07
03
F9
04
F4
0A
08
F9
12
0A
01
0B
F8
FA
FD
E8
09
09
12
0B
FF
0C
FE
F2
06
E2
02
F2
0A
E0
F9
13
FC
0A
C8
E5
10
EC
0F
F5
F2
EF
0A
F9
FE
07
F2
EE
FC
0D
FE
D8
0D
13
EB
FF
D3
FE
05
FE
F0
FE
00
F5
08
0E
FA
FA
02
0B
0A
FB
14
FC
FE
F5
F2
03
01
16
11
FC
CA
FA
F5
03
F7
FC
12
00
FD
07
09
12
ED
F8
01
CF
F6
07
FD
F2
19
0B
F5
F2
08
0E
FD
02
F9
03
FA
04
07
F5
F5
06
FE
00
0D
F9
EC
DD
0D
F5
E9
E7
F7
F7
13
0E
FF
F5
F9
03
00
14
08
EE
F6
04
0E
FE
FF
06
EE
F7
CC
00
02
11
10
F2
E3
09
00
F7
F9
04
0E
F3
F5
F0
0A
0B
04
F0
ED
0D
F2
E8
F7
E4
FA
22
F9
F8
F6
E7
FB
02
EB
04
FF
00
FA
E9
02
03
F7
01
FD
02
03
0F
F8
EF
F9
EC
FD
F0
E7
E8
EA
02
03
F6
E3
F6
EE
04
04
01
05
F5
0C
12
F7
02
1F
01
FE
F7
FE
0B
FD
00
0B
F8
FB
F3
FE
F0
FA
E2
0C
05
FB
0A
05
12
FF
02
F9
0F
F5
0F
FD
13
EB
E7
06
E6
14
05
FE
0A
FB
FE
0B
F9
0C
FC
05
0A
05
D2
16
F4
04
F7
01
F5
04
FC
FD
F9
07
07
EB
FB
D8
03
0D
03
D8
03
FA
02
FB
02
08
0A
FC
11
00
04
06
F8
20
E7
DB
F9
07
05
F7
06
0C
DE
0B
01
EE
DF
FE
E2
F1
03
06
E2
04
04
0A
10
03
03
05
00
FE
09
F9
CB
00
0E
0E
01
07
FC
F9
04
F1
F2
D9
F3
07
FF
09
09
FF
F2
FA
0A
F5
18
07
F3
04
D8
EB
02
09
FE
F4
12
FA
08
FC
0D
F8
FD
FA
EE
09
07
05
0B
FA
FC
FB
E0
00
07
04
FA
EF
EA
EB
03
DE
FB
E8
F8
15
F6
09
E8
03
0C
F3
00
F2
04
02
FF
F6
F0
E9
0C
E3
09
FD
05
0B
F1
0A
08
FE
FD
07
0C
08
04
07
11
03
0F
D9
00
07
FB
ED
F4
18
F8
09
FD
EF
01
08
F2
07
08
00
04
02
04
1D
EE
F9
F5
D9
0B
FF
01
FD
0B
0D
E0
00
F6
F7
C9
03
FD
0A
F6
0A
00
EB
0C
0D
FC
03
09
FD
0A
09
F9
F1
E6
FE
02
FF
0D
F4
D1
08
F9
07
02
1E
F4
E6
D8
0B
09
FF
FC
0A
BF
18
03
08
FF
F7
F5
F7
0A
FD
F4
01
FB
0F
01
15
FC
15
FC
FA
0D
F1
07
FD
04
FE
F5
FA
03
14
FB
F1
07
F1
FA
00
08
03
05
FA
FA
16
05
00
08
08
02
17
FC
00
08
06
00
07
EA
04
F1
01
01
FB
01
09
FC
0C
FF
00
02
05
D8
EC
EB
08
1C
EF
FD
F5
F5
13
07
05
F8
FC
02
0D
05
02
F4
FD
0A
06
09
FC
F7
EF
EE
FA
01
0F
FC
01
07
FC
F9
F9
FC
FB
07
F6
FD
E0
FB
FC
01
F8
DF
FF
FF
FF
F9
07
01
FF
00
0B
FC
03
EE
FF
06
02
03
F4
F6
03
05
F0
12
FC
04
ED
23
00
07
DE
FE
02
FF
06
00
E9
F1
15
CF
1C
15
FD
08
FF
FA
17
F8
E0
0A
F9
F4
ED
FF
01
00
08
0C
04
04
08
FE
0B
EE
FB
F0
F1
0A
01
0D
07
D9
0A
0C
E7
13
FB
0A
FF
07
0C
EE
E5
0D
07
19
F4
F7
F3
02
FD
FB
FB
F1
F9
08
0D
F5
07
ED
EF
09
F9
09
F8
FC
F6
F2
0C
F9
F1
11
04
03
F9
0A
07
F2
11
F8
EF
0D
EE
07
FC
BA
05
FD
09
F2
08
19
07
04
08
09
09
06
08
03
0D
FD
19
09
12
E4
0C
11
12
02
17
F9
09
09
14
04
F5
03
05
EC
03
1A
FD
EA
02
05
FF
13
03
ED
03
E8
03
01
08
03
FE
06
0F
FC
14
07
07
0D
02
FA
0E
08
09
ED
FF
0B
F8
DF
06
0E
FD
0D
18
13
0B
00
1B
FD
03
EC
FE
0A
0E
0D
FC
FB
13
1C
FE
0F
F7
F9
05
0E
03
F2
FB
0A
11
F5
0B
C0
E2
0B
C8
17
03
1A
0D
01
E8
17
FC
06
F7
0B
12
E7
F0
02
F3
FF
EE
FE
01
EC
09
EE
11
F8
FE
1D
D5
08
06
FE
F1
07
E2
D8
05
05
10
FD
10
06
F5
FB
01
0C
09
EB
0F
0D
00
02
0A
FC
04
FE
03
0D
FC
E8
1A
F9
0A
F8
18
10
10
05
FE
07
EA
14
03
04
EA
F9
13
D9
12
04
DE
FF
03
12
0E
01
04
07
EB
F7
0B
0B
02
11
CB
00
0E
04
F5
FB
1C
08
14
03
0A
0A
10
10
11
0C
00
00
02
FE
F7
0B
15
0A
F1
F3
0B
09
DC
F8
FB
F9
DA
19
F2
D5
0E
0A
07
08
0F
FF
10
09
03
16
02
10
0C
FE
ED
02
FB
0C
06
10
EF
09
0B
E2
FA
11
F8
E3
FE
F9
11
DE
15
1D
07
06
01
0D
08
19
01
FA
05
01
03
00
19
ED
FF
0F
01
DB
12
0C
E9
07
12
FC
09
0D
01
F2
FF
03
19
F6
FF
F1
FA
F2
F5
07
02
EA
E2
02
F7
18
EA
0E
05
2A
E8
0C
06
0D
FF
12
11
0D
13
03
F7
25
04
04
EA
F7
FD
02
FD
0C
E3
11
FE
0D
04
26
FC
06
E6
08
FD
F2
FE
FF
07
02
06
02
0C
D7
0E
F0
00
D9
D7
F2
FF
ED
F6
F9
0B
EE
04
01
DA
F3
DD
09
F6
FF
09
09
06
EF
FF
EA
14
15
00
00
D4
1F
14
F2
06
13
01
17
05
E1
D6
FC
17
F8
FC
01
07
DE
1C
04
FF
E2
11
06
02
FA
0E
10
DE
DB
03
04
0E
06
0C
01
17
FE
F8
1D
DF
F3
F6
04
06
0B
04
F6
05
FC
FB
10
21
0B
0C
07
01
21
D9
05
EF
EB
0F
2C
04
F4
E4
0D
0F
00
FE
17
10
07
0F
0E
04
0C
F5
0D
04
FC
06
FB
F9
F0
0D
0D
08
01
FD
F9
FF
F3
E9
07
F2
16
D5
0D
08
03
01
11
0F
09
0C
F5
06
FE
E5
03
FA
00
E9
F2
F7
01
D7
FF
06
00
F7
00
04
06
06
FF
03
F7
06
05
05
01
00
04
FE
FF
F5
09
FA
FE
04
F9
F6
FB
F9
F7
04
03
F9
FC
F6
08
03
06
09
F5
F8
0A
02
06
F7
FF
07
FD
06
F8
FC
09
FE
F6
