2F
F0
FE
00
FD
FE
0A
FF
F9
1B
EF
04
F5
04
06
15
09
F8
EF
04
0E
03
F7
FC
FA
FD
F5
10
02
07
E5
06
F3
FE
FE
E9
FB
F5
0D
01
F9
11
ED
F5
01
F5
F8
0E
04
0C
F7
11
FC
FC
FF
E4
FE
05
FC
FA
13
05
EE
06
FD
FB
0D
02
11
FA
02
E8
04
11
13
F6
EF
FB
17
FE
0F
0D
FF
FF
EE
D6
03
F9
09
05
21
FA
FD
E7
0B
0A
F7
FD
07
05
0F
13
EB
0E
05
0C
01
02
05
0F
01
F5
05
F9
0E
05
EA
FF
E4
1A
06
FB
EC
01
01
FE
09
FD
F7
F9
01
FB
03
FD
11
FA
02
0C
05
05
F8
00
03
FD
F2
FF
09
0B
FB
0B
FB
16
00
0A
FE
F7
11
03
06
F3
FC
01
04
07
ED
05
C3
19
02
E1
F0
FF
03
0B
0B
FF
0A
04
00
F8
E8
08
12
03
1C
F3
E6
F2
05
EF
01
D8
00
EF
FB
FE
06
00
0D
03
04
15
FC
FC
FF
F8
E3
15
FC
05
FE
F3
F4
07
08
FC
03
FD
13
1B
08
0A
FA
02
F7
0C
0E
F9
04
0C
FC
F3
F0
FC
FF
FB
F9
07
F6
EB
E4
EF
08
01
1D
00
0D
ED
0C
10
00
FA
02
06
20
01
FB
FF
F6
07
FB
06
00
04
F4
01
01
F3
0C
05
FF
02
FC
FB
FF
09
F9
16
06
E0
01
FF
04
FC
03
0C
01
22
03
00
E9
FE
00
14
05
04
09
FB
01
0F
AD
08
F7
F2
F5
02
F6
15
F6
F6
08
FB
06
F6
36
FE
02
09
08
F7
FA
FD
F6
FF
EB
FF
17
FF
16
FC
F8
0C
EE
F9
03
05
05
17
16
01
0E
FF
EA
26
FA
FC
05
F9
E8
0A
07
0C
FC
F9
0B
06
08
F7
F5
06
EF
F9
0E
0D
09
FB
04
FB
E9
1B
0D
04
EC
00
FE
03
F5
09
22
17
0B
0A
FD
04
F4
24
02
17
05
F7
07
FF
0F
F2
09
F8
29
15
18
F5
FD
00
FF
FD
04
0F
EC
05
FA
00
00
1C
ED
F2
EC
EB
DD
01
29
EF
05
FF
FD
FF
ED
FF
02
E7
09
19
0A
E6
FA
FD
02
24
FE
FF
07
FF
FF
FF
FE
02
F4
FF
09
06
06
01
FC
FC
FE
F9
F2
19
EF
FF
1F
E8
E9
01
05
01
02
D8
03
F5
06
05
FC
E5
08
14
08
FD
06
FC
11
12
F0
F9
FF
F1
00
29
F0
FC
FD
00
FE
FF
08
FD
01
0A
00
17
0C
01
00
0E
10
10
15
02
FB
FF
F1
FD
04
FB
08
00
0C
E6
04
FF
FB
FA
F9
FB
06
0E
06
F9
00
02
08
03
F3
F6
0C
E9
F9
7F
F5
01
F7
FF
00
DE
F8
E5
F1
05
14
FF
00
EA
EA
01
F6
03
FC
08
42
0D
0F
05
FA
F9
06
ED
09
02
02
05
E8
FE
D5
FC
07
01
FC
01
07
0D
FC
03
3E
0A
F1
F4
EF
09
09
ED
01
FC
03
F9
04
F0
DB
FC
F5
F9
15
DE
11
04
F9
06
14
FC
F8
F6
0A
04
0B
F4
0B
05
FA
FC
14
F4
FA
F7
FC
02
02
01
19
E6
EA
FC
11
01
04
FF
0D
FA
E4
F2
F4
F8
08
04
04
E3
FE
EA
FF
08
FB
02
F2
01
F7
05
38
E2
E1
F7
04
F9
F4
F8
07
02
03
FE
FC
00
C9
EF
F9
07
F8
16
F0
FD
DE
F1
FC
08
04
04
12
06
FA
1B
E4
F4
14
18
10
FA
FE
F4
01
03
F7
E8
03
FD
03
01
53
05
03
01
04
08
05
F4
FB
0E
03
ED
0F
06
F1
17
14
FE
FD
FB
01
25
FC
0A
F6
F1
FB
20
09
F3
F6
00
EA
05
0F
06
F6
0F
06
14
FF
F1
0B
06
FD
00
F2
18
F8
0C
07
F6
0F
F0
F7
F6
FD
0F
FD
ED
F5
FD
04
E9
05
05
FD
0F
F8
13
FA
F1
0E
FE
06
02
05
F1
F9
05
EA
F8
09
F0
F4
07
FD
FE
F5
0B
F3
F8
04
0F
14
F2
03
F7
06
FC
0E
0E
FF
08
F0
05
02
FC
0E
1C
10
FE
FE
08
07
14
EB
F5
F5
F8
06
E9
03
0E
07
0C
07
1A
F0
03
05
EE
07
09
FC
E0
F7
00
FB
09
00
FF
E6
FC
EF
FB
F4
FC
EC
03
04
0E
EB
06
F9
FC
FE
F8
ED
12
03
15
FC
FE
07
F5
00
05
07
ED
03
EF
09
F9
13
F7
F0
EF
0D
0A
FE
05
F7
FF
F8
FF
25
F8
07
FF
04
FA
FC
00
F8
FC
17
00
00
FB
FC
03
E6
0B
02
0B
FF
F5
04
03
07
03
E3
0B
14
FE
EF
08
04
F8
F8
E0
F4
09
FD
03
F8
0C
0D
EE
00
F8
13
F0
FA
07
02
2D
18
05
1E
03
0E
02
03
F4
ED
08
19
F3
15
FF
EC
13
12
12
03
13
FE
09
07
FC
05
FC
EC
01
FC
06
FD
E5
03
FE
03
E8
12
07
09
F5
F4
01
F9
FA
00
08
F5
FF
F3
F2
FB
F5
16
F0
F0
F8
EA
04
EB
F2
0B
15
F6
06
0F
08
03
F8
10
F8
13
16
ED
E6
E8
0A
F4
13
F3
F9
06
F9
19
F1
0C
07
FF
02
07
F5
F6
02
04
FD
F8
FF
0F
12
05
04
0E
0D
05
04
F3
EE
FB
F4
1A
09
EA
05
05
00
36
F6
FF
EC
FE
0D
0C
FB
13
F2
FC
01
F4
01
FE
F9
28
03
0C
0C
10
FE
1F
F0
0B
FB
20
03
FD
04
FC
09
0B
F6
FE
09
02
FF
04
FE
0C
07
F1
01
F2
01
04
F7
05
04
F6
1F
01
F1
FC
F6
FE
03
0B
F6
F5
E5
FA
FF
F7
F3
FC
FD
01
0E
F8
01
FD
08
EF
FD
01
05
F4
F3
02
08
E7
1D
08
F2
F8
0F
F3
FC
01
FB
F0
F9
EF
F0
F3
01
07
04
FD
F4
00
E7
03
04
F7
F6
FF
0D
DE
14
EA
EF
EA
01
FE
0B
01
0B
05
00
25
05
06
08
07
ED
F1
0B
F3
08
11
FD
E3
08
F9
FF
FC
00
00
FF
F9
06
F7
0A
FA
0F
F4
0D
FA
F0
F9
04
0E
FE
FE
05
00
05
14
F7
01
05
04
07
02
05
FA
03
14
E9
EF
06
E7
0D
04
01
FD
02
FB
1B
F9
F9
09
FB
1D
12
E6
F7
04
FC
F4
01
FB
F7
13
05
FF
14
05
08
10
0B
05
07
FF
FF
F1
F4
1C
00
02
08
FB
FB
FD
F9
FB
FE
F5
FB
06
02
04
03
FB
01
FF
00
03
FE
01
D9
FB
2E
F8
0C
0C
0F
ED
00
02
EC
F1
EA
FD
FE
06
FC
FD
FF
FA
15
04
02
FE
FD
F6
F4
FE
FB
FD
01
FB
FB
10
F6
02
02
00
FF
09
F3
22
02
0F
E7
06
F2
03
FC
FD
FA
18
06
EC
FD
FB
F9
16
04
08
0E
FE
FA
F4
0C
01
FC
03
F8
0D
03
0A
00
00
03
10
FA
12
FE
1D
03
16
0F
11
FE
07
F0
06
FF
2F
07
F3
EE
0D
0C
F3
00
FD
03
0B
FB
F5
FB
05
F9
F6
F9
FA
F0
FF
EE
F4
0D
FA
FD
08
0A
FA
03
DF
FE
FD
0C
FC
FA
1D
01
F2
19
FC
0D
08
FB
FE
0B
EC
F8
03
F8
01
CA
EF
EB
EE
03
25
04
E6
FC
20
02
15
04
12
F8
20
FE
0A
0F
F9
10
FE
03
FF
03
03
F9
E6
FD
F0
F7
0F
2A
00
07
02
FE
F3
DC
0E
FC
07
FE
20
08
00
05
2D
F9
08
13
FD
EC
01
FA
FF
FF
00
FC
04
FE
00
F1
11
F6
D6
04
11
E2
FD
FB
F6
08
FD
00
10
03
FD
ED
FE
D7
F9
FB
F8
11
F9
FF
F7
E6
08
E6
F3
F5
F3
FE
0C
FF
05
07
00
F3
08
03
E6
FE
1C
11
F9
02
FE
09

