06
02
E7
FF
04
FF
FD
D8
F6
01
DD
F1
E8
E3
03
CC
FB
00
05
FD
FE
02
26
F1
00
EE
03
E7
03
00
FB
01
EF
FA
05
FB
00
FE
F5
00
0A
07
04
F2
05
04
04
08
F5
00
0B
03
03
FD
D6
20
06
EE
CF
01
B3
C1
00
10
FF
FC
C7
00
01
FE
F5
DC
00
06
01
F5
04
05
01
04
F3
FC
DC
FF
00
02
00
00
F0
01
FC
15
FB
06
00
FF

