FD
FF
01
E1
CA
04
03
FD
E4
05
11
F5
F9
FC
FB
01
01
FF
FC
04
00
FB
04
E5
06
FE
02
F6
E8
04
05
FD
FF
02
05
07
00
F3
FB
F9
E0
01
ED
14
10
08
04
04
01
FD
00
04
0B
05
FE
CE
0B
05
F7
E9
FE
FE
FF
01
FF
FF
FA
01
07
F6
FE
06
F4
02
9C
E7
EE
FC
E9
FE
FF
FF
FE
CB
FD
F5
F9
05
EB
02
EB
0D
02
ED
F5
FD

