07
10
FB
01
19
B8
13
D3
FF
FA
FA
E6
BC
F7
00
EB
01
00
04
04
EC
26
03
04
02
F7
FA
CF
FC
00
02
FC
EA
EA
0C
00
EB
90
F0
FD
FF
FB
FA
F8
02
FB
01
FF
03
FF
D6
04
EB
E9
EF
0A
02
E5
D8
FC
18
05
05
0F
FD
FF
00
01
08
BF
F8
EA
01
FE
06
EE
D1
FD
FF
13
F6
D5
FB
FB
FC
FD
04
F3
05
FA
08
0E
FF
00
FA
CC

