F2
EE
B5
FA
D7
9B
01
0F
FE
FD
01
05
E7
FA
F8
0D
E9
03
14
00
F7
84
FB
03
DF
01
EE
FF
0A
03
03
0E
05
12
F5
FD
E9
DB
01
C1
EF
F9
D9
02
09
E3
03
E8
0E
B4
E5
03
15
FD
FB
FE
EB
05
DE
FF
D5
E3
03
F7
FD
00
0B
FB
14
04
00
09
08
01
06
FC
00
0A
03
E7
F1
00
F2
03
EE
0D
FF
E2
06
01
0D
F9
F2
09
F2
BE

