00
ED
03
F9
04
FE
EC
FA
FC
02
FC
03
FE
FE
03
01
F1
BA
F2
FD
FD
FD
FC
F4
2E
FF
39
F8
D8
FB
06
FD
00
00
F2
00
00
07
02
06
00
FD
00
00
00
00
F8
00
FE
04
01
0A
17
FF
FD
0A
04
F4
05
03
01
FF
F7
F9
00
1C
F2
0E
1F
FD
F9
00
EB
06
E6
0D
09
DE
F4
FC
F5
F3
0E
00
F8
03
13
FD
01
F3
32
E2
FA
F9
F6
FA

