0D
62
5F
6C
0D
7B
0A
0E
6F
71
74
7E
7A
4A
05
05
65
02
07
02
49
70
18
0D
7D
73
7E
04
04
7B
7C
7D
7A
0F
03
74
67
0B
7F
02
04
7E
02
7C
03
04
15
12
7C
7D
4A
0A
0C
69
6C
00
67
22
76
02
7E
1B
77
73
0D
78
7C
7F
0F
75
7D
53
08
55
7F
05
7D
42
0F
03
71
02
7F
7F
77
0E
62
78
06
77
00
7B
02
75
58
60

