7F
76
79
03
73
7F
0B
00
77
11
08
7D
7C
7D
77
74
7F
7A
7B
02
01
5E
03
68
7A
00
05
7B
01
62
04
05
6E
76
7F
00
05
7A
52
0C
1A
67
7C
07
7A
03
07
07
67
03
78
03
01
36
7F
01
6E
6F
00
6E
02
67
09
7C
13
13
02
02
76
0D
7C
0A
6E
7C
7C
14
7D
04
7A
03
03
6E
7F
71
04
5F
72
78
6F
0B
6C
59
03
05
60
61

