02
FB
FA
01
00
0A
09
FD
FE
F7
00
03
F9
0E
04
06
09
07
08
1A
06
0B
07
03
0C
01
00
07
FC
11
F9
E5
00
12
00
00
FF
FE
00
00
00
FB
00
00
00
00
00
00
09
02
FB
01
0F
F3
24
0F
FF
FE
00
E7
DC
DF
DB
EF
08
F5
2A
DF
00
06
0F
D8
04
FA
EB
DE
FC
70
D8
FF
03
0B
31
E1
FC
FB
02
CA
FD
02
09
07
06
E8
D3
F3

