E8
FE
F2
0D
F0
FF
F2
10
FE
FD
0C
02
01
FF
ED
F5
0E
F7
0F
09
F9
FE
EF
FE
ED
F3
F3
F8
F0
F6
02
FD
00
10
0D
0A
E0
03
FD
0C
FF
FC
02
07
03
F5
01
FE
03
F6
FA
F7
F6
0E
E8
04
04
FB
0D
07
FB
F0
F9
00
04
FA
03
F9
F2
FE
FE
04
FD
00
FE
F9
FD
FF
09
05
01
FA
FB
FD
04
FE
F9
FC
01
05
00
05
02
04
05
00
F1
F8
F9
F8
1B
F9
09
07
FC
FA
F3
F7
EE
00
06
FF
00
F5
00
FB
FD
F3
0B
01
FC
FB
0A
F8
F9
EC
FB
FA
03
03
FF
03
03
02
FF
02
02
FC
FE
FE
FD
FF
FF
03
00
FD
FD
00
01
04
FC
FB
FC
FD
FE
FD
00
FD
03
FC
00
02
00
FC
FD
FF
02
FC
01
FB
04
FB
01
00
FC
01
00
00
FC
FB
00
02
04
02
FF
FB
00
02
FD
02
03
FB
F2
00
0D
0C
FE
F2
FE
0A
FC
F5
00
FB
F1
FF
03
F3
13
FC
FF
FF
F5
0D
FC
F4
EC
FA
FE
F4
00
F8
02
05
09
01
1B
F3
07
F7
11
F4
F6
FD
EF
F5
E9
EF
0E
05
0E
0B
FA
FF
E8
F1
11
FC
27
05
04
04
15
EB
F9
FC
DC
00
C1
C3
F4
FF
F6
0C
DF
F0
11
E5
0D
05
04
F9
FE
02
D8
DF
DA
FC
CC
08
F2
D9
E2
F7
CA
E7
E6
E9
00
03
01
00
03
FE
03
03
FD
FE
03
00
02
FB
02
FC
FC
FF
FB
02
03
00
FF
01
01
FD
00
FE
FC
FC
00
FF
F1
08
01
08
E3
01
F5
FA
F3
00
07
05
02
02
F7
E7
07
F6
F3
F1
F7
F1
EC
08
19
FB
FE
09
F7
E6
F1
FE
FA
F4
13
01
21
FE
24
00
F0
01
FF
FD
F8
FE
F4
08
FB
05
06
FB
0A
03
1C
FC
06
FF
08
F9
15
EE
F6
02
EC
03
F2
10
0A
F6
E9
0E
FF
F0
09
06
F7
06
01
FD
13
FA
03
F9
02
17
F7
F9
F1
F9
E1
F7
F9
10
FB
00
F8
F4
03
FD
E9
F5
01
F8
FE
F9
F5
04
FE
FF
F9
00
05
FF
FE
00
FD
FF
F1
F3
FF
03
F3
01
F7
04
02
FC
FC
F6
13
07
1B
05
1F
FB
ED
00
FC
FE
F8
04
EC
F1
F5
FA
05
ED
EA
DD
1A
F9
06
FF
0B
F7
13
D9
F5
02
0A
F2
1E
FB
14
EA
16
DF
FA
FC
F0
F3
EC
FA
0E
04
10
11
00
09
EE
E9
13
F6
E4
0A
E6
09
22
F2
0B
0F
FA
00
FF
02
FE
FE
01
02
FB
FE
00
FC
00
03
00
FF
01
00
FE
00
FF
FD
FD
03
FC
FC
04
04
FD
FB
FE
FF
FB
FB
03
02
03
FC
FF
00
FF
03
02
03
01
FE
01
FB
FC
04
00
FC
FF
00
01
00
FF
FB
FE
01
00
02
03
FE
00
F4
F6
F1
F0
F6
00
F2
FF
FC
FE
03
FA
FB
01
05
F7
08
FC
03
FD
F6
04
F5
03
FF
FC
02
FB
FD
01
00
04
F9
04
F7
F5
EE
F8
ED
00
EA
F7
00
E6
E6
16
09
18
14
F3
01
F4
0F
F3
E1
0D
FD
F0
F3
F3
FF
01
FF
EE
05
FE
0F
F9
FE
E6
1A
08
FD
09
06
09
08
F0
FC
16
FA
05
FF
FF
1C
00
05
FB
00
02
FB
E3
FF
FF
06
03
11
03
0C
E4
FB
FE
07
F7
F9
09
07
02
F9
D5
ED
F0
F5
EB
E6
FB
FF
F0
05
05
02
13
FF
F6
E5
E4
FC
FD
03
FD
FD
F2
00
F8
04
FC
03
05
F4
02
00
FC
F0
F4
F8
FD
F2
FE
F2
EF
03
FB
F7
FF
F4
EA
FC
FB
F1
FF
F9
02
FF
F6
F8
06
01
03
FD
FC
FD
01
F8
FC
03
FD
F7
F9
FE
02
FF
05
F7
FA
FF
FF
FE
05
05
02
FD
E7
FB
02
CB
19
00
03
FD
01
14
D8
EA
03
05
08
00
FF
F5
0A
05
FB
05
0C
FB
E5
F1
D2
02
11
EA
FD
FC
FF
FA
FF
E9
D0
07
0A
F2
06
0B
FD
01
07
FF
EE
0B
E9
01
0C
12
FA
EE
F9
F6
E7
11
FD
09
07
FE
0B
09
F9
FF
F8
03
00
FE
FE
02
F6
FB
FA
FC
FF
F9
F8
F2
FD
F9
F5
F8
F8
0A
F5
FF
FF
F8
FA
FF
F2
02
F6
FB
F2
FD
05
04
F7
EB
04
0A
FA
F9
06
FF
F4
04
0C
F5
14
F5
FC
F8
F1
0C
FC
F0
FB
FB
05
F5
01
FD
F9
F4
00
01
FE
03
02
00
FF
03
03
FD
02
02
01
01
FC
FF
04
FB
01
01
FE
04
FC
FB
FF
FE
FD
FC
FB
02
FB
FB
00
FD
F5
F8
FC
FE
F3
F6
00
F6
FD
F9
FC
F8
06
01
F6
F8
FC
00
FC
F7
FA
02
04
00
FD
FD
FA
FB
FB
FE
FB
F9
03
07
1B
07
FF
FE
DA
01
06
03
F8
03
F4
FB
FD
00
F5
EE
09
FA
16
F9
0D
DF
14
F4
0F
E0
FB
FC
EE
07
E4
01
EE
05
E5
13
FE
FE
08
FE
09
10
EE
F7
FF
FB
09
04
07
0C
F1
0D
E9
F7
E7
F7
E3
08
FC
04
06
01
13
F9
FB
EF
0E
14
EE
DA
02
00
EA
E0
14
09
29
10
DF
12
EE
E8
0E
E5
01
08
0C
F1
11
11
08
1A
FB
FA
04
02
FA
F8
05
02
02
FF
F8
FD
F7
FA
03
FD
0E
04
FE
06
FA
FD
FF
F2
03
06
05
F9
0B
FE
00
FF
F9
F8
FD
02
F0
FC
FC
FB
01
03
01
FE
FF
07
EF
FE
05
FE
02
05
F7
EE
FA
FA
FF
00
FE
FC
FB
FB
08
01
02
FE
06
FC
02
FB
04
FE
00
FF
00
FF
FA
FC
05
FE
07
01
FF
00
FD
FD
00
F9
FA
FD
01
FF
03
FC
02
FD
F4
01
FB
FF
F0
FA
F6
FD
FC
F8
06
FD
FD
FD
F3
F8
F5
FB
F0
F4
F4
F5
F1
FC
02
F4
FF
00
F5
F7
F3
F3
03
03
FF
00
FB
03
00
FD
FB
FD
FB
03
FC
03
FE
FC
FE
02
01
00
03
01
01
FE
00
FC
FB
FC
FF
FF
04
01
03
FE
FE
FB
FF
01
FD
FD
02
FD
FB
FB
FB
03
02
01
00
FE
FC
FF
01
FE
FE
FC
02
FE
FC
03
FF
00
FE
FF
FC
05
E8
FE
F6
F3
02
02
E4
F4
FA
F3
F6
F0
FF
EE
E7
F4
F7
F0
FE
F6
FF
01
FD
FA
0B
F6
06
FB
F2
FF
FB
10
F1
F2
EB
06
0C
0F
EB
FA
F0
F4
0A
FC
F4
F3
D6
F6
EB
DC
F4
EA
F6
0D
10
FD
00
FF
FE
00
EE
03
FC
D1
14
04
C8
DE
FB
E0
01
DD
07
FA
F1
FE
1C
FB
14
FC
E9
03
F6
05
F4
EF
EF
F9
1A
08
FD
F6
02
03
FC
F5
FA
F4
00
02
03
F5
FE
04
FB
FB
01
03
F3
FD
FB
FB
FF
00
FB
EB
FC
FD
02
FD
FC
07
F7
EE
02
FA
0D
09
EE
EC
02
04
F5
07
03
FD
FA
02
08
FB
F4
F1
BD
F9
F9
F1
02
FE
01
04
FF
11
F7
FC
00
09
FB
EB
02
FE
00
04
03
FE
02
FF
FD
FE
FE
02
FC
01
FB
FC
04
02
FF
FF
03
FC
03
01
02
04
03
00
00
03
FC
FE
F9
00
04
FD
F6
FD
FF
02
00
FD
FD
03
FA
F8
F0
FD
FE
05
00
F7
FF
FE
00
FD
FB
FD
FF
FA
FC
F7
FC
02
03
FC
04
05
02
FB
00
03
F9
FC
02
02
F4
FF
0A
03
08
05
FE
FB
FF
FE
FB
FA
FE
03
FB
02
04
FB
FD
FC
F5
FB
24
0E
02
D4
03
10
FF
ED
F1
ED
FB
F2
10
02
1B
FD
F3
F3
FF
18
FF
ED
FD
04
FB
02
FF
07
04
0A
FE
FD
FF
FC
FE
04
FF
FC
FE
04
03
02
FD
01
04
FD
FB
00
00
FC
03
04
04
02
FD
01
FD
FC
FC
FB
02
02
FA
01
FC
FD
FB
FC
FC
FE
00
02
FD
F8
09
FA
01
FD
F8
F3
F8
FC
00
FA
FD
07
04
02
04
FD
F6
03
F9
F7
FF
03
F6
07
F9
02
EE
FD
01
F5
FA
00
05
FD
F1
E5
D7
EB
EB
E5
FC
0B
F1
09
09
FA
F8
04
E9
F2
FB
E6
F8
0F
F4
F8
F5
FD
F8
FF
EA
FA
0B
01
08
F1
FE
E3
E4
F5
ED
F0
DF
DE
F4
07
F8
EF
FC
F4
F7
EA
EA
E8
02
03
03
FF
FC
FB
FF
00
FF
FB
03
04
FD
FC
01
00
05
01
00
02
03
04
04
03
FE
FC
04
00
00
03
02
01
DD
01
02
0E
E4
F1
EF
22
FF
EF
0D
FD
08
09
04
EE
12
F1
01
0B
0A
0D
ED
05
E9
F7
E0
FE
E5
11
0B
11
00
FC
00
FA
FE
FD
01
05
00
00
FC
FB
01
FE
FC
03
F8
FC
00
FF
FE
FB
FC
FF
FF
06
F9
FE
FD
01
01
00
F6
01
01
F8
E4
F0
01
F0
E2
F5
FD
06
F3
F8
1B
FA
07
FD
FD
F3
FC
EF
EE
FA
F3
03
EE
FC
FE
E1
EF
FF
0F
FE
D4
E6
B2
10
F7
F7
01
F6
FC
04
05
00
F2
09
E2
F9
E3
F7
03
00
11
04
FF
08
06
0C
05
10
FF
F7
CD
FB
0D
FB
12
F7
1A
12
F5
F7
06
FC
F9
FD
33
E7
D3
08
FB
E5
E0
F1
13
01
E2
F6
BA
FE
19
FF
FD
FC
FE
FE
FD
FB
FA
F6
03
04
FC
FB
FE
00
F6
02
F9
FC
F7
FC
FD
F8
FE
01
05
F7
00
F6
03
FA
04
FC
F9
FF
02
00
00
03
FC
03
03
02
02
00
01
FE
FF
04
03
02
FB
00
00
FC
01
FC
FB
FF
02
00
03
FF
00
03
02
03
02
FB
04
00
FE
FC
FC
01
FC
FB
FC
03
FF
03
00
00
FD
FF
03
FF
FD
03
02
FF
FB
FC
FE
FE
03
FD
FF
03
05
0F
03
ED
12
11
FB
0C
06
FE
FE
F0
0B
F1
CF
FA
00
EE
F4
E7
0B
FC
0A
0C
F3
EB
02
F8
F7
E7
E3
E6
12
FE
1A
F7
14
0A
16
F5
FA
FD
F1
F9
F8
FA
0B
FC
0C
09
FD
04
EC
E0
0D
FC
09
05
CD
09
20
FC
08
05
F2
00
13
F9
18
04
1F
FD
F1
00
FC
F4
FD
00
03
F2
E9
0C
08
EF
E6
EB
1B
FF
FC
EB
11
F6
1F
AD
F6
00
02
F4
EE
E8
05
FD
EC
FB
09
0D
F8
F6
00
06
F8
F4
E7
F4
06
F5
F3
06
FA
FF
FA
FA
F8
F3
EC
FB
F7
F1
FD
FA
02
00
FF
F2
03
FF
FE
FA
F5
FD
F8
F7
00
FD
0A
01
FA
FA
F4
F8
0B
F1
00
FD
FC
01
01
F0
F7
F7
0A
15
DE
F9
13
15
07
0E
FA
FB
FB
F8
0C
ED
F2
EA
C9
05
EF
E0
0A
FF
09
12
FD
FB
0B
F7
FD
FD
E5
D7
06
FA
13
04
F1
EE
0E
16
FA
FA
FA
FF
EB
E0
10
14
2B
11
F0
10
F6
11
0E
E3
01
06
0F
F5
09
13
0D
18
03
FC
03
FE
02
00
FB
FE
04
FE
FE
03
FB
FF
00
04
00
00
02
03
00
01
FF
03
00
FC
FC
02
01
FD
01
03
FA
F9
0F
FC
24
06
1C
F4
E9
0C
FE
FA
F6
06
DB
FD
F5
0D
0A
CC
F3
EF
1B
FB
01
F3
0F
01
1F
D9
FA
08
F7
05
FD
01
F3
06
F2
F5
F1
F8
00
02
02
02
0B
D9
DA
E1
F6
E8
E9
FF
F2
0A
F1
F0
EB
01
FE
EB
EB
EF
FB
02
F6
FB
00
FB
F9
17
FD
04
02
E0
FF
05
D5
E9
F9
DA
05
F3
05
03
04
05
F4
E5
EF
E8
0A
FA
F1
F6
00
02
00
FB
00
FE
FE
FE
FF
FD
00
FD
02
04
FF
02
00
FB
FD
FC
FE
FB
03
FC
00
FD
FC
FD
FD
01
FB
FE
02
02
F2
ED
0C
FB
F5
06
FB
05
FE
F8
01
FF
E7
F9
DA
F8
F8
F5
FB
F6
02
03
FF
F9
F5
F8
F4
03
F5
F0
FD
FE
FE
00
00
FE
FF
FB
FD
FF
03
FB
03
00
01
01
FB
03
FB
03
FD
FE
FB
03
04
01
FB
FF
FC
01
FC
FE
F4
02
0E
07
DE
01
11
03
E8
04
FF
07
00
FA
DA
F7
07
F3
FC
FC
FE
0F
F3
05
ED
0B
0C
FE
FC
EF
03
04
04
04
F8
E7
FC
E9
12
F9
FF
F8
E6
FD
EE
FE
16
01
15
02
05
0D
F6
05
F8
FF
0C
00
04
F7
0C
E6
FC
FE
FF
FA
FB
FB
F6
02
03
FD
FC
FA
FF
04
FF
01
03
FE
04
FF
02
01
FF
FE
FF
FE
02
FD
FD
FA
FA
04
03
FA
FE
FE
04
FC
03
FB
04
FA
F7
F7
FB
00
F2
F9
0F
FD
09
FE
FA
00
F9
FC
FF
F7
03
FC
00
00
07
FB
F8
F4
FC
02
06
00
01
F5
07
03
FD
FF
01
01
F7
FA
F9
FE
FE
FD
02
FE
F7
FC
05
FF
FB
01
05
FE
0A
FB
F9
FC
FD
FD
FC
FD
00
FC
FB
F2
FE
05
FC
F6
FA
00
F4
FC
F9
F0
FE
F4
00
00
FC
01
00
F6
F3
FA
FD
F2
F6
F3
00
FA
06
07
F1
F5
05
01
F8
04
02
01
F1
FE
02
FE
0D
04
00
00
F4
02
FD
FB
FC
00
01
00
05
FB
00
FD
FB
03
01
04
FC
FE
03
03
FF
FB
FE
FF
FB
FD
FB
FF
FC
FD
FD
02
01
01
FB
FD
FC
FF
03
FB
00
FC
FD
FF
FE
F5
F6
F8
F0
F1
04
01
01
F9
F7
00
FC
F5
FC
07
F8
FC
FB
01
FA
FA
11
EF
FC
02
03
03
0D
F7
FE
F8
F1
02
F8
FE
07
F9
1C
06
EB
F4
01
F9
FC
F1
BB
FC
FC
02
F7
FF
F5
03
17
02
01
F9
1D
C7
16
C5
FE
FA
FF
02
FC
00
FB
FC
00
FE
FD
FF
FC
03
FC
01
04
04
FC
FF
FF
FB
03
03
01
FD
FB
FF
FD
04
00
01
FD
FC
03
01
FF
00
FF
01
FB
FC
FE
05
00
FD
03
FC
FB
04
00
03
FC
FB
01
01
FC
FF
FE
00
00
FD
05
FD
FD
FE
04
D8
D2
F5
06
FC
F5
F7
FC
05
FD
10
EF
0D
DE
F2
FF
0C
0C
07
FC
06
F9
00
FF
04
F7
E2
D6
F8
FC
00
00
01
E9
EC
FB
08
EA
02
F3
02
FF
06
06
09
C9
E1
E3
F2
09
FA
F8
F4
EC
09
13
06
F6
E7
DF
DF
F6
02
00
FB
05
FD
F8
FD
FF
04
F9
F9
04
FD
FD
F7
0B
FD
09
FF
FF
FA
F8
01
02
00
FC
01
FC
01
FB
FC
FC
02
FA
03
04
03
FD
FC
FC
FE
FD
01
FE
01
FB
01
FD
FC
01
00
FB
01
00
00
FD
03
FE
FB
00
FF
FC
01
FD
02
EE
EC
D7
05
EB
F8
F5
F6
09
07
07
06
07
0D
EB
D8
FC
E5
03
F0
FE
F4
DD
05
00
FA
01
FF
C0
0B
FE
DB
FC
E9
03
F0
F2
F4
03
FA
01
FF
F3
01
F5
F6
F4
09
EF
06
05
FC
FB
F8
08
ED
F9
06
FB
03
FB
F5
FA
FE
FA
FD
01
00
FD
FB
09
FE
F8
F9
FC
FC
FF
F7
FB
FD
FD
FB
01
FF
FF
FD
04
00
03
FE
01
FF
06
F2
00
FE
04
DF
03
FD
D4
FF
FE
F7
10
09
FC
FF
07
FD
E9
12
ED
04
10
11
03
EB
E8
F5
E6
0C
FD
0D
06
EF
0E
08
03
01
01
01
F9
FF
FD
FB
FE
03
FB
FE
00
00
FD
FF
FF
FE
FD
FE
05
FE
FB
FD
FD
04
F9
01
FB
04
03
04
F9
FD
02
00
F4
FD
0A
FF
FD
FB
00
05
FA
F7
F1
FC
03
FD
FD
FE
02
FD
FF
01
FB
F6
09
FF
02
FF
FF
F9
FD
F9
F9
F6
FD
01
05
FE
03
FB
F7
FB
FC
F9
FE
FF
01
01
F9
FF
F9
F1
FD
FC
04
04
FB
FD
01
F9
F9
F8
05
09
EB
F8
07
05
F9
15
F9
F4
EC
04
03
F4
F6
EC
D7
EF
FA
E4
EC
F6
F9
05
FF
EB
08
F5
FD
FF
F2
EA
0D
04
FE
FC
F7
05
02
F4
FC
FD
FC
06
FB
00
09
FC
F8
FF
FE
03
ED
FA
00
0A
0C
08
E0
0A
00
EF
F2
F9
E8
F7
07
EF
FF
FA
0A
D4
06
09
02
E6
FC
02
0D
08
02
06
01
0B
F8
F3
05
FD
EC
0B
DD
0D
13
FB
FD
08
F1
03
F5
F9
E3
DF
00
02
04
F1
F8
FC
FF
E8
09
F2
E3
EA
F1
01
09
FE
FB
FB
13
F0
02
FD
FC
CD
F5
FD
1E
F2
EE
C8
1A
01
EA
16
F8
13
EF
EF
0B
0C
F8
F3
F8
FA
0E
E9
D1
F0
FE
06
18
EA
D8
EC
F7
ED
F6
FB
01
01
FB
00
04
FD
00
FC
FF
FB
FC
FC
FF
FE
03
FE
01
03
FD
FB
FF
FD
00
FF
04
01
01
FF
04
FB
01
FE
EF
01
12
10
F5
F5
F8
03
EA
F0
01
08
F1
FD
EA
EF
06
F0
F3
F3
F1
EA
EF
02
04
04
0B
04
F5
E3
F3
FF
02
F5
1A
00
F5
F4
10
0E
FA
F9
FC
05
E8
F1
0E
12
2E
0F
F2
0F
FC
19
05
E0
FF
05
0F
F8
01
0D
12
1F
E8
07
E6
F5
F7
FB
ED
03
02
FF
02
FA
11
06
08
01
FB
00
FD
02
09
03
F6
0E
DB
02
F7
00
E4
15
FF
05
FF
FA
00
F2
F6
FE
FB
F6
F8
04
FE
F9
FD
FF
08
F8
FC
FF
00
03
FD
FA
F4
FB
FA
F7
01
FC
FF
01
02
03
F8
F5
F7
FD
E6
F8
F6
FF
00
FA
FE
00
FE
FF
EE
F8
FC
FB
05
FE
FA
08
F5
FC
FE
FB
F4
05
EC
F6
F7
F9
FF
04
01
F2
FE
06
00
08
F8
F9
FF
00
02
ED
FC
04
F8
F9
ED
FD
FB
00
FF
F8
F5
06
FD
FD
FD
0A
03
F7
00
FD
17
FB
FE
06
06
E7
00
FE
F7
F9
FB
01
06
02
F8
07
02
03
F2
FE
03
FE
00
03
D9
0C
0B
E9
FD
FF
FF
F4
F8
F9
E7
F7
FA
EE
F9
F2
F9
01
EE
F7
FE
F8
08
FB
FE
01
F4
09
F8
F6
F2
05
FC
F6
FC
E9
01
00
01
F4
FE
F8
EA
03
00
FB
01
FD
FE
FD
FF
FC
ED
FA
F2
FB
05
01
FF
FE
FD
FB
FE
FE
FA
FE
01
F7
FE
FD
F2
F6
F5
FD
02
FC
F4
00
FF
02
03
FD
FD
FC
F5
FD
05
03
FC
FE
09
09
FE
FD
F9
FE
FF
FD
F7
07
01
03
0E
FE
E9
F8
05
02
08
E7
E6
FD
FF
FF
E2
EF
16
F3
05
04
FB
06
F8
01
FF
F5
2A
0F
12
F9
11
FF
FC
0C
F3
EE
F1
F7
F0
07
F8
06
0B
03
E8
05
07
FD
E7
DF
F9
F7
0D
00
FB
EA
F3
FE
FD
F7
09
00
DE
F0
FF
F7
F9
FB
FF
FE
F3
FB
05
F9
01
05
FE
08
F6
03
F5
01
F9
F8
FE
F9
FD
02
FA
F8
FE
04
FC
01
F9
FF
F7
F8
0B
05
E5
DE
D8
0E
F9
FD
FE
FD
FA
FF
08
FF
F0
0E
D4
F6
FC
FF
04
F0
06
00
11
0A
FD
06
02
0A
00
FA
01
03
FD
FE
FC
03
FC
04
04
02
03
02
02
01
FD
04
FD
FE
02
03
FE
02
FC
00
00
FC
03
00
03
FF
FE
01
FD
F7
FB
FE
00
F4
FF
04
FD
FC
F9
FD
F7
FB
0D
02
0E
FA
F6
FF
FE
09
FE
F1
00
02
00
F9
FF
00
01
FA
01
FF
02
F9
02
F9
05
F8
FC
01
FA
FD
F8
03
08
FB
06
F7
00
02
F6
02
04
FE
FF
FE
FD
FD
06
FB
01
FE
ED
E7
03
FF
FD
FE
F7
E2
FA
05
FB
FD
03
08
E6
07
F6
01
05
FE
05
E7
FC
01
FD
02
FA
04
F2
DE
04
F2
FC
F7
02
F3
2E
06
19
F3
F2
07
FA
F5
FD
00
DC
FC
F4
09
FB
FF
FD
F2
1C
FE
0B
FA
14
FD
18
F3
F8
03
FB
F8
FE
00
FB
F7
EF
F7
FC
F8
FC
F4
F8
F7
07
FE
F2
FC
05
E8
FC
FC
EB
FB
FF
F5
F6
FD
F2
06
FA
EA
02
06
F9
F7
0F
0B
C0
02
D6
0A
F0
DE
03
06
E4
E7
F5
ED
F4
E2
F0
EF
F4
02
15
E7
E6
F6
EF
12
F1
E5
EF
FA
F3
08
F1
FB
E5
0F
04
FA
08
0E
08
0C
CC
09
0C
F7
FD
F9
0C
05
F2
0B
03
FC
DD
02
DF
F4
F5
FB
04
FE
05
FE
F7
FA
03
03
FD
02
FB
FB
FD
FB
F9
03
03
04
00
01
F7
00
FC
FC
FB
05
FC
00
FA
FA
FA
FE
02
EB
F6
FA
F3
EF
01
FA
01
F9
F6
FD
FB
F8
F6
06
F8
03
FC
07
03
F9
05
F5
F8
03
FE
04
FC
00
06
03
09
02
F2
FF
01
0C
FA
E4
FD
F7
EF
01
F5
EC
0C
09
FF
0B
F4
FC
EF
F3
02
02
1B
0F
F4
FA
04
F8
FB
01
FF
FB
F8
ED
06
FC
E6
F5
01
FA
0B
FA
FF
FA
00
D5
E3
E3
FF
F3
E3
F5
E1
FF
0C
F4
F6
FB
D1
08
F9
FC
EB
FA
F9
EC
1E
00
1A
04
FF
02
EA
F3
F9
F5
E5
F3
01
FF
F2
EC
02
F4
1B
04
0A
DE
28
F8
19
C6
FB
FC
03
F5
1B
FB
02
F4
0A
10
F4
F8
01
02
EC
EC
12
0B
27
13
F6
13
F6
02
04
E3
0B
0D
00
F5
02
10
12
1A
00
02
01
FC
FD
FD
FF
01
01
02
04
FF
00
03
FD
FD
04
FA
FE
02
04
FC
FF
FD
FF
00
05
FA
FE
02
01
FA
F2
0B
FF
FE
ED
FC
FD
0B
F3
EB
07
06
0A
00
EE
F2
FA
FC
F5
F7
F5
10
F2
0A
FE
F9
00
FF
E7
FA
E6
E8
03
FB
04
FB
05
FF
FE
FE
02
FD
01
00
FA
F9
FD
FF
03
FD
FA
FC
02
03
FA
FB
FF
FF
FB
FE
FD
FB
01
FC
02
FF
01
FE
FF
FD
F7
F6
FB
02
F8
FE
00
03
F6
FE
EF
FE
05
FD
00
F6
FD
FF
FE
FF
FD
FF
E7
FB
F7
F9
02
02
FF
02
FD
03
00
02
F8
00
01
FF
FF
FA
01
03
FD
01
02
01
FD
FF
01
01
02
FB
FB
FE
00
F9
00
FF
0F
01
1B
F2
FF
FF
00
E2
01
FC
FB
F4
EA
00
0D
00
04
01
02
00
E6
FA
04
F5
2A
07
DC
07
16
EF
F1
FC
EC
FC
1D
03
09
FF
17
09
06
EE
F8
DE
F5
EF
F4
03
F2
D8
ED
EB
D7
D6
19
01
E1
17
06
0E
1D
F4
F5
F8
FF
ED
FB
F7
EA
0A
07
F3
0D
FE
F1
FE
09
F9
F8
02
EE
F7
0B
08
FF
FB
E5
01
0A
00
F9
08
ED
EA
05
F9
E7
07
FB
01
F1
03
EB
FB
F6
FE
07
04
FE
09
EF
EF
00
F1
F7
03
F3
0B
E8
09
F9
FB
0C
FF
F0
E0
E7
F4
06
05
EC
FB
FB
EF
F7
0D
16
0A
08
01
F7
FF
ED
F8
E0
02
FD
F6
EA
1C
FF
FE
36
EF
DC
EC
EF
EB
F1
F1
FD
FE
03
FF
00
EC
FD
00
FD
F8
FA
04
F2
01
FA
F9
12
02
F8
FE
F4
FA
00
FE
FD
05
FF
FD
03
FC
03
00
FB
FC
FB
FF
F8
02
F2
02
FD
FB
02
01
02
FF
F2
F8
00
FD
02
FA
FA
F7
F7
FE
FC
FA
00
FB
F6
EE
EF
F2
0C
FF
EF
E3
F0
07
EB
F3
FF
F7
FD
F6
02
F4
0E
FE
F9
06
FC
02
F8
EB
F6
FC
1B
07
ED
01
F0
05
F9
01
FC
01
FB
01
04
FB
FC
00
FB
00
FF
FB
FB
FE
FE
02
FB
FB
FE
F8
01
01
FE
01
01
04
03
F9
05
FC
FF
FC
F4
DD
F8
F9
ED
E3
DA
06
02
00
01
FB
08
06
FB
E3
05
EA
03
05
FD
F1
E1
08
F6
F3
FD
06
D7
F1
FF
F9
FE
00
F7
FA
FB
FF
FB
F5
FF
FE
01
FC
01
FE
01
F5
F0
F7
02
F4
F7
F0
F2
FD
FE
FA
F6
FD
F1
FE
F7
F4
EC
F8
0A
00
29
FF
15
07
05
FF
FE
FC
F8
07
27
06
ED
09
09
FF
07
FA
20
02
01
F3
11
FF
0F
F6
F9
03
03
01
01
FD
03
01
FD
02
FF
01
01
FF
FD
FF
00
FE
02
01
FF
01
FE
FF
03
FB
02
FC
FF
03
05
FB
FE
FE
E6
0E
00
07
D2
F6
FA
1E
EF
01
10
00
06
FF
EB
D3
01
E5
0C
FB
FE
F8
F1
0D
01
EB
EB
F5
EB
F1
F8
0A
E4
07
F8
04
EE
F9
E6
08
F4
F6
0B
02
02
05
E8
F6
FC
F5
FF
05
00
06
F4
0A
F2
F3
F9
FD
EB
F3
00
0A
FF
F7
FB
F7
EE
00
FE
F8
01
F9
FE
FD
00
F5
FE
FB
F7
FE
FA
FE
FE
F9
FB
F7
FB
FE
02
01
FB
03
02
FE
FB
FC
03
03
FF
FD
FE
03
FE
00
FF
04
03
FA
FE
FB
FC
02
01
01
03
FB
01
FC
02
02
F9
FB
FC
03
FF
FE
00
FC
FD
FC
00
FB
01
04
FE
FE
FB
FD
FE
FE
FE
01
04
03
00
FF
00
05
02
FC
FE
FC
02
FD
FC
FD
03
01
00
FF
00
FF
FE
FE
FE
00
FB
FA
F8
01
FE
FA
03
02
06
FE
FE
01
00
FF
00
FF
FA
01
02
00
FC
FC
04
FC
FA
07
01
03
03
02
F7
0B
F9
F9
FF
F5
04
F8
EF
FB
EF
FE
FB
ED
FE
FD
F6
02
02
F1
F9
F5
F0
04
E9
F7
F3
08
02
0A
E6
08
EB
05
FB
F0
06
04
FE
FC
F9
E1
FB
D7
F6
F5
EB
0A
EF
03
11
F5
FC
05
F4
DC
EB
FF
0C
ED
0C
FF
BD
C4
07
E6
F7
EF
01
01
BA
E5
14
08
0E
11
EE
FA
D5
E5
E8
B8
26
06
E8
F7
07
F1
F8
F6
FB
FB
FB
FE
05
00
FD
FB
F7
FD
F7
FF
FC
FD
08
FF
05
01
FC
FE
F8
07
FA
F9
01
03
FB
F8
FE
FC
F5
FC
FB
FE
03
00
FF
02
01
01
02
01
FC
FF
FE
FE
01
02
02
FE
FB
FF
05
FF
00
00
FF
03
00
FF
FC
02
03
FF
00
FA
FE
00
F7
F8
05
F9
FC
FE
F6
FE
F7
FB
04
FD
FE
FD
FD
FB
FB
03
FD
FA
FF
FF
06
FE
FE
FC
FD
FE
07
05
F2
03
FD
F6
03
00
FD
EE
01
06
FF
D4
F3
FA
C3
06
DE
F2
EF
E8
07
FA
0E
F5
08
F2
FB
06
FE
FA
05
FF
F4
FB
06
03
F5
02
FE
FB
F7
F8
01
00
FF
FD
F0
FB
FB
FD
FE
FA
02
03
02
F6
F7
F4
F3
FD
FB
FB
FD
02
04
FE
00
FF
FC
FB
00
FE
03
02
FB
03
FF
FE
FF
00
FC
01
FE
03
FD
FD
FE
FD
FD
FE
FF
04
01
FC
F3
FC
12
FB
FA
08
10
01
03
F8
F4
FD
F9
FB
E9
F6
E3
F9
FB
D9
F9
DB
03
FD
F0
FF
02
0F
0B
D1
E5
EF
00
FB
FA
F5
E8
FE
FF
FD
05
FA
F8
01
02
F2
F9
0A
FA
F6
FA
01
FE
FC
FB
F7
F7
02
03
FE
FF
F8
02
FD
02
04
01
03
FC
01
00
FC
FF
02
01
04
04
01
02
03
00
00
FD
04
04
FD
FB
02
FB
FB
FF
00
03
03
03
03
EC
EB
FF
FB
13
F8
13
F9
05
09
0B
00
FA
05
FD
02
F9
FD
FE
05
05
F4
0B
F8
F5
02
C6
04
0C
F2
FE
00
FC
FC
01
FC
00
01
04
FE
01
FC
FF
FB
00
FD
02
00
02
FB
03
00
FF
04
00
FC
FC
03
FD
FC
01
04
FB
FD
FE
FF
01
FD
F3
FD
FE
FE
F9
F8
04
FB
FA
F9
F1
03
FB
00
01
02
FB
FB
03
F8
00
FC
07
F9
06
FD
03
FE
02
FC
07
05
03
ED
1C
05
E4
E7
F6
05
D5
E6
0F
F6
14
09
EC
0A
DA
FA
0F
F0
09
02
07
E1
18
FD
09
08
F5
07
02
EF
02
00
FC
E3
05
03
FA
F3
FB
01
DB
F8
EF
F1
03
11
E6
E7
05
03
F4
03
F1
05
0F
EE
05
F9
06
F7
16
FD
03
F2
0C
14
F2
EF
02
FF
EA
DE
11
0C
2B
11
E5
13
F8
07
15
DE
03
0B
0E
FB
08
0D
13
21
FB
FD
0D
09
04
03
07
FA
0F
09
02
0B
05
FF
0F
DB
D7
04
08
FF
F1
01
05
05
13
E4
0E
E3
04
DE
EC
D8
F8
F6
0B
FC
29
05
13
03
FA
04
FD
F8
F9
05
D8
03
F0
04
FC
FA
02
F8
1D
FD
04
FE
10
FD
11
F5
F6
FF
ED
FD
0E
03
23
FE
1F
00
F8
00
FC
F7
F8
FE
F1
FC
EF
07
02
03
08
FE
1A
FD
03
FF
10
FE
13
F6
FB
04
E3
0C
13
12
EE
F7
F1
1F
FD
F6
05
F8
00
FD
D5
F1
0E
ED
00
05
0E
06
FF
06
F9
FF
C4
05
FB
EC
01
09
F7
F4
00
FC
EF
F8
FF
FC
03
FC
00
FD
F9
03
0D
00
07
FB
FA
FF
03
06
F8
F2
01
FD
FD
00
FE
03
02
FB
FB
01
02
01
03
00
FD
FD
01
FF
FC
03
03
01
FC
FC
FE
FE
FB
00
03
00
FD
FD
01
FF
FD
02
01
FE
FC
FE
06
FB
FB
F0
FE
FA
FA
F2
02
FC
F8
F8
FF
FF
07
01
00
02
FA
FB
FE
F7
01
FC
FF
03
F9
05
FD
FF
FC
FF
F3
06
07
0C
EC
06
E9
FE
F8
F9
FD
0B
09
05
E8
F5
D3
F0
FD
FA
FD
FF
EE
04
E6
EF
FC
F9
E4
FB
EF
F4
0F
FB
F9
EF
FE
14
F7
FA
E1
0C
F1
02
0F
F7
FB
EC
F5
EE
F5
F4
F5
E6
F0
06
11
12
0F
F5
FF
01
EF
D7
E3
09
EF
01
EE
0C
F2
0D
F4
FE
06
02
07
02
F3
E2
F6
E1
FD
FB
E6
D0
E9
0D
D6
EA
FC
FA
E2
E1
EB
FE
FC
F5
0F
04
22
00
1E
FD
EC
FD
06
FC
FB
02
F7
00
FD
08
00
F3
0A
FD
1D
FC
0A
F9
14
FD
14
EE
06
08
F5
0C
0B
10
01
FC
F9
28
00
F7
05
F3
08
FD
08
F3
17
F7
02
F9
0A
0B
F4
09
FD
01
D0
FC
EC
0A
FA
07
FB
FF
FD
FB
03
03
04
FE
00
02
FC
02
FC
F9
FD
FC
01
02
FD
00
FB
01
01
01
FB
FE
04
02
04
FB
00
FD
01
FF
03
01
00
01
05
FA
F7
02
00
FA
00
FB
F8
F8
FD
FC
FD
FB
F9
FA
00
FF
FF
FE
FD
F8
05
FA
FA
FB
02
05
07
01
E2
00
EE
FF
F6
F2
FD
05
FA
F6
FE
EB
FA
FE
F5
F8
EB
F7
F4
08
0C
0C
04
01
FA
D8
E6
F3
04
FF
FB
FD
09
03
F3
FD
FD
F9
03
F9
FE
01
FD
FC
F9
FA
F4
EE
FA
F2
F6
01
00
EA
ED
F7
F9
FD
FB
EB
F9
FC
F9
FB
F9
FB
03
FC
FE
FE
03
00
02
04
F7
03
FE
FA
FC
FC
01
FF
F4
FF
FD
FD
05
FC
F3
01
FA
F8
E1
07
EF
FD
F3
08
EE
07
FB
FA
09
FB
0E
08
EC
F5
FC
E5
FF
EF
F4
F0
DC
0B
EA
E5
F3
F3
D2
F7
EF
F3
FC
03
F0
D9
02
06
01
FB
09
03
E9
F9
FD
03
EA
ED
F1
E5
09
18
EB
F5
04
07
05
0D
E7
01
05
0C
0D
E8
01
E1
CD
D2
04
00
F7
F4
03
16
03
BA
05
06
FC
01
00
EC
F7
E8
0B
F3
F0
02
FC
D5
DD
06
E6
09
06
01
F4
F8
FC
04
0F
F6
FA
F4
04
02
0C
01
FA
05
F4
FB
CF
FF
00
08
06
FA
09
01
1D
F9
15
F4
FE
FC
FA
F7
02
FE
F9
E0
0A
0F
00
F5
02
0F
F5
F5
09
FC
FD
FC
FA
FE
F0
FF
F2
E1
FD
06
FB
05
DD
04
0B
FE
FF
FA
01
F7
00
F7
F1
FA
2B
DA
DF
04
09
0C
EE
08
15
D7
02
F6
16
05
DA
E7
03
F5
00
FD
1F
F8
04
09
F6
E6
FA
0B
EE
0C
16
10
ED
10
F6
07
FC
F3
0B
17
03
CE
F6
D8
01
E1
F4
F6
F0
12
0A
ED
E7
F6
E4
F7
C8
B4
0C
EC
15
F7
10
D1
13
CD
F8
F7
F9
FB
E4
03
02
02
1A
11
FB
F8
F0
F5
14
F2
E6
03
EB
02
1A
EC
09
11
F2
F6
F8
FA
F6
E9
FD
01
02
F8
01
00
F7
01
09
F5
0C
FD
02
FD
FC
01
F5
F3
FA
01
FF
F2
F2
F2
04
FE
FE
F5
05
F8
FB
F1
07
F9
04
F9
F7
FD
F6
00
00
01
FC
F8
FC
F5
00
02
0C
FA
F5
02
00
01
FD
F7
00
FE
E5
FB
E6
0E
F3
F0
E5
1E
07
FD
0D
08
01
04
E2
F9
15
04
04
FC
03
0A
E8
02
FD
F4
F6
ED
DA
00
FB
05
F7
02
01
08
FD
F3
00
09
04
F2
04
09
05
00
F4
E9
F3
FD
EA
F2
02
F7
FF
02
FC
DC
FF
EA
FA
07
0B
0A
FC
FC
01
F9
FA
FD
04
FF
00
03
FD
FD
FB
FE
F9
02
FB
FD
04
00
FC
FE
02
00
FE
01
F9
00
FE
FA
FD
01
F5
00
FB
00
F0
FF
F8
07
FB
FC
01
00
03
01
02
F5
FE
FC
FF
F9
FE
FC
F9
04
F7
FD
F4
FD
E9
06
FF
FD
F6
00
FF
F0
03
FB
01
F9
FF
01
F8
02
FA
FB
09
F4
00
F9
04
F5
F2
FB
FE
FA
02
FF
FB
FF
05
F6
F9
FC
F5
06
F8
06
E3
FA
03
01
07
FB
FD
08
FE
FC
EF
F7
F4
F3
FB
FD
02
2A
EB
03
EB
F6
09
FB
FC
FE
FD
FD
F8
FE
FE
FD
FD
FA
FD
FF
FE
00
FD
FA
FE
FB
04
FC
02
00
FB
00
FF
FD
00
FD
FD
00
01
00
F8
FC
FE
00
01
03
FE
03
01
02
FE
FB
03
FD
01
FB
FD
FC
00
FF
00
02
02
03
00
04
FD
FB
FC
FE
FF
00
FC
FB
02
FD
EA
FA
0F
04
2F
0A
19
FE
EE
00
04
FC
F9
03
F4
03
F5
05
FB
FB
08
FA
1B
FD
01
00
0C
F6
0F
F1
F9
02
02
FF
FC
FE
03
03
FD
FC
01
03
03
04
03
01
01
FB
FD
02
00
01
FC
FF
00
FC
FE
04
04
01
01
03
FC
00
F8
FB
00
00
00
02
FC
05
01
FE
FC
01
00
00
FB
FD
FF
00
FE
FD
03
02
FA
FF
F9
06
FE
00
FE
00
FD
01
EA
FA
FA
F8
03
ED
FC
05
03
F8
04
02
F5
FC
07
F4
0B
F7
FE
07
FE
0A
FD
F5
F5
F9
FF
F2
FD
00
05
07
03
FE
F1
F7
FE
03
F1
FA
FB
FE
F7
F7
FD
FC
FB
F4
EF
FC
F9
F3
EF
F8
F2
06
04
FC
01
FA
EB
F4
EC
F1
FE
FC
FB
F4
EE
FE
FF
F6
00
FD
F3
F8
01
FB
03
F9
F8
F9
FD
FF
01
F7
FA
FE
FC
FD
FB
FF
00
00
01
00
FE
FF
00
FE
FC
FE
FF
01
01
01
FF
01
02
01
02
FF
04
02
02
01
00
03
FD
01
FD
04
FE
02
FE
FB
02
02
F2
ED
ED
F4
0D
00
F5
FB
04
0F
F7
EF
05
0E
0A
E1
F6
F1
09
F1
EC
09
FB
06
F8
FB
E2
F1
F2
EF
E3
EC
F7
FE
F4
00
00
00
0D
F6
FF
FD
00
03
FD
FF
E6
FF
FD
F8
FF
FA
06
FE
07
FB
F8
0C
08
03
05
00
03
02
01
02
0E
0C
E9
F5
F2
F8
F9
F9
04
04
FE
FA
EE
F2
09
F5
EC
F2
EF
FA
EA
08
F4
FB
F8
08
EF
E2
EC
F8
02
02
01
01
FA
F0
F9
FA
EE
FD
FB
04
F1
FF
0C
F6
0A
FE
FD
00
F4
04
FB
F5
08
00
FC
F5
06
F6
F5
F9
FA
FC
04
F9
02
FC
08
01
00
FD
FF
03
FD
F9
FD
05
00
FC
FA
03
F7
00
05
02
00
02
00
FF
06
FC
FD
FA
03
FD
FE
FE
FC
02
FF
FD
FF
02
FC
00
FB
02
FE
FC
FE
FF
FD
03
FB
FD
01
FC
FC
04
01
FD
01
FE
FB
FB
02
F9
11
09
BE
FE
17
FC
0B
03
04
0E
FD
F0
00
15
FA
FC
04
12
0C
FE
1B
F2
D9
0B
10
02
19
03
14
04
FE
03
FC
FF
FF
05
04
00
05
01
02
04
04
FC
FB
03
FA
FC
00
03
01
02
02
FB
01
FF
FC
FE
FF
FD
01
01
F9
F3
F8
FA
F2
FE
FA
F8
05
FC
F8
00
FE
02
F0
FE
FA
F6
03
03
06
02
FC
F6
FF
00
00
04
FF
02
01
FF
EF
08
17
17
03
07
0C
04
01
EE
FE
EC
FB
F7
16
12
30
EA
D4
F5
12
2E
10
FE
04
F9
27
01
02
08
DD
F1
08
05
E0
DB
F0
FE
09
E7
FA
EB
05
00
00
D9
FE
FF
C0
0C
E0
EC
D5
E0
F9
FF
EB
F9
0F
F4
07
04
F6
F4
03
00
FE
FE
FB
FC
03
00
FD
FE
FC
FE
FC
FD
FF
04
02
FC
FB
FC
FA
FE
00
FF
FA
01
FC
FC
04
01
FC
FE
FB
FE
FF
01
FD
FC
FE
F9
01
FB
FF
FF
F7
FA
0A
00
04
04
FB
FB
00
02
02
FA
00
02
FC
03
04
FB
01
00
FC
FC
04
01
FC
01
FC
FF
01
FE
00
00
01
04
FC
00
04
FD
FD
FB
FE
FF
01
03
FF
FD
FC
FD
FC
00
03
01
FB
FD
04
02
FC
F0
FD
F9
F0
F7
F4
04
EE
F8
00
00
08
00
ED
F9
F0
F5
04
FB
01
03
FF
FA
01
F7
FB
FE
01
FE
02
02
F9
00
00
FD
01
FC
01
FE
01
01
FD
03
F6
F8
FF
02
01
FC
FC
03
FD
FF
FB
02
00
FE
FC
F8
FE
01
FF
08
00
0F
EF
FF
FD
FC
00
F8
08
0C
F4
F5
F5
EB
FD
E9
F5
D2
F0
0B
00
F7
FC
F9
DA
00
F0
DE
00
F9
02
FF
FB
FB
FF
03
FC
FC
FF
02
F8
F8
07
06
04
00
FB
00
FD
04
FB
FA
02
FF
00
01
05
02
04
F8
00
FD
00
FC
FD
FD
FE
02
FF
01
FF
03
F3
01
0A
01
07
FB
FF
FE
FF
04
07
F5
FE
F8
FC
01
FA
FE
02
FF
FE
FB
FF
02
03
FC
FD
FF
FB
01
FF
FF
FE
03
FC
00
01
FD
03
02
02
00
FF
FE
01
FB
FE
FD
03
00
FB
FD
FA
F2
07
F2
E2
05
02
EB
0E
F5
FF
04
06
0A
D9
FD
EE
F8
06
03
0D
D7
01
04
01
0C
F7
11
F7
E5
06
F5
F4
FA
FB
FC
F4
FE
ED
00
F8
FE
FD
FA
FF
05
F7
ED
F9
F8
FB
F8
F4
FC
ED
03
FC
FC
F3
FC
DC
EE
F7
EF
F3
F7
EC
E9
F4
04
F4
EC
F6
06
F6
E8
01
01
FA
ED
F4
F8
F2
F9
FE
FC
EB
02
02
FB
F5
01
EE
F2
FD
F3
01
FB
FE
F9
F6
FD
F5
FA
FE
01
FE
03
00
FA
03
00
FE
FD
01
03
FC
03
F9
00
03
02
F9
FF
FB
F8
FA
FC
04
09
05
0C
DC
F8
15
EF
04
F8
03
09
03
F8
09
FE
00
F2
F3
F5
00
15
F5
01
FA
FE
14
01
07
FE
00
FF
FB
F6
E9
F4
05
01
09
EE
03
0A
F4
FF
F8
F8
F5
0A
F1
F4
F7
FD
F9
EE
11
F9
F9
02
FA
0A
0E
E2
04
F5
ED
02
FB
09
F3
FE
F5
04
FD
FB
01
00
FA
01
F5
F0
FB
F8
F8
F3
FA
02
F7
FC
F9
F6
FF
FC
F2
FF
FB
00
DE
F7
11
00
04
DB
0C
FB
F9
F5
0F
F8
E6
03
4A
F9
DA
01
FB
DD
FC
FF
0F
01
EA
E5
B5
0F
11
FE
F3
F6
FB
FE
0A
FE
1A
FE
1E
F7
F5
04
02
00
FC
00
07
F4
D1
FB
FD
F2
E8
DD
1D
FC
07
FE
0A
F6
13
EB
FD
FE
F8
FE
02
01
FE
FD
FF
FB
FF
FB
F7
FD
01
FC
F9
FB
FC
FD
FF
FD
01
F6
FE
FF
FB
03
FD
FD
00
FD
FB
F8
00
03
FF
00
EE
FB
F7
FF
00
FC
03
FF
FB
FF
FF
FC
EE
F8
FA
FB
FB
03
FB
FA
02
F9
F9
F6
F8
FC
F6
F2
FA
01
FF
04
00
03
00
04
00
FC
03
01
FC
FE
03
FC
FD
02
01
03
FF
01
FB
FC
FC
FE
FC
02
FF
FD
FB
03
F6
00
FB
04
EC
FB
FE
01
F7
FD
03
01
F8
01
03
F6
07
04
05
01
FA
EA
F3
F4
F3
03
FF
EB
F4
F5
01
FB
FA
F5
01
04
FB
F1
07
FD
FC
F6
00
01
ED
F9
06
03
0F
FE
F8
FC
F9
F9
03
F0
00
FF
02
FE
08
FF
F9
FB
FC
03
FE
00
FD
02
03
FD
FC
03
02
FE
03
03
FC
FE
04
03
FD
FD
01
FE
00
FB
FD
FE
FB
FE
03
04
FC
FE
E1
FC
0C
DB
08
00
18
ED
01
FD
F4
F7
02
FC
F1
CE
01
F6
EC
F9
EA
D9
13
02
EC
F6
15
06
16
01
FA
02
01
F7
08
02
03
F4
00
03
FA
FC
02
02
FB
F8
02
03
03
F7
FE
F8
FA
05
0A
F8
01
FB
06
FF
09
FB
02
FD
05
02
FD
F7
F8
01
FF
FF
FC
FB
FC
00
05
FE
F9
FA
F8
F8
00
FE
FB
FF
F9
00
03
FF
01
FC
FC
FA
FD
F6
F7
07
14
00
FF
F1
14
0E
F8
EB
E6
F8
F3
DB
E1
F9
0B
0B
FD
FB
F9
00
0C
06
F0
03
0F
05
04
E9
FE
FE
02
F8
FE
02
02
FC
08
FB
FF
FA
FC
FD
F8
FE
03
F7
F4
FF
F7
FB
FB
01
08
FF
02
FC
05
FA
02
FA
FD
FA
F6
EA
05
F5
D8
FF
01
EC
11
FA
FF
09
0B
0F
D1
06
ED
FA
0C
09
FC
F7
ED
FF
00
06
F3
15
DA
E0
07
FA
F9
FE
EF
E3
FF
02
F5
F6
08
04
F4
ED
FD
FC
01
05
04
FA
FE
EF
EE
05
F9
FF
13
F7
E3
FF
FB
E9
FA
EE
FE
DF
06
F2
E5
01
F7
EC
19
FF
05
06
01
0C
DF
11
F3
08
17
0D
0E
F6
FA
FD
04
01
FB
19
F2
EB
0C
FC
F9
05
07
03
FA
01
E5
04
FF
FF
FB
F4
06
0A
E9
F5
F9
F5
0A
ED
FF
ED
F4
08
F4
FD
D5
FB
ED
F1
E7
AF
06
00
02
FE
FA
F2
FB
FC
F7
EE
01
02
EE
FA
00
00
03
01
ED
FA
F0
FB
04
EF
07
00
F7
01
FC
FB
F8
00
04
01
15
F9
0A
F7
16
F8
F7
F7
F4
F6
E7
F4
17
06
11
0B
00
FC
E7
EA
0D
F8
28
05
F8
01
1A
F2
FF
03
FF
FF
00
FF
FD
FC
F9
FF
02
FE
FF
FD
FB
FF
0A
FE
0B
F9
F9
FB
FA
FD
FD
FB
02
F9
FB
FF
F9
FF
00
F9
FA
0A
E9
FC
ED
09
F0
FE
07
F7
FA
03
0D
05
EB
F4
CD
F6
0C
EF
0E
FB
F7
12
03
03
EC
0A
F7
F4
EB
E0
FD
05
FD
FC
FE
00
FE
FF
FB
FB
FC
F7
FC
02
FD
F7
F7
00
F9
FB
FD
FF
F8
04
F9
FF
F9
01
F6
FD
FB
F7
FE
F8
FF
FF
FB
F4
FA
F1
F1
F1
FF
FF
E5
F0
0D
FC
05
08
F3
F9
F7
01
FD
E7
0A
FF
F0
F5
F8
FE
FE
FD
0A
06
EA
EF
0B
02
FB
02
F5
02
F1
FE
04
02
E3
EC
C3
FE
E5
E9
06
E9
0C
09
11
03
08
FF
FD
02
FC
EA
ED
F1
04
FA
23
FB
0F
F4
01
07
00
FA
09
0B
1A
FD
F9
08
02
00
01
F6
19
04
FA
FD
0F
0E
10
F2
F9
FE
00
FC
02
FF
F7
F3
FD
F5
FC
F8
F8
FA
00
FC
FE
00
00
FC
FF
00
FA
FF
FD
FE
FB
FF
03
FD
FA
F2
00
FA
FE
00
F8
F7
00
00
01
F5
FD
01
F7
F9
03
02
F9
FC
FC
02
FD
FF
F4
FF
F9
FF
01
00
FE
FD
FD
F3
F9
F7
F5
F8
05
FD
FB
FE
01
07
FA
FE
04
02
FB
02
03
FC
10
FD
FB
FD
F6
0C
FF
F5
FC
FC
07
FF
FE
FC
04
FF
FD
FC
00
02
FB
FE
FE
02
04
FB
FE
FB
FB
01
02
05
05
F9
02
00
FF
FE
05
02
F6
04
FC
FC
04
FC
00
FA
F8
F7
06
03
FF
F3
03
03
F8
FA
FF
FB
F5
FE
0A
FC
0B
FD
FE
FA
F9
03
03
F4
FB
FD
FC
FB
FD
FE
01
FC
FF
FC
F7
F8
16
06
0A
FD
D4
02
01
F1
FC
07
02
FE
02
FE
DE
05
FC
FF
10
FF
17
E9
1C
FC
01
E6
FC
FE
F7
06
FF
FD
FD
FC
02
08
FB
03
05
FE
01
FF
F2
F6
00
FF
FC
00
F9
FF
01
00
FB
FB
07
FA
02
FB
01
FD
FF
00
00
00
03
FA
03
FA
01
00
03
FB
01
FB
FE
FE
FC
FE
FF
FE
FB
00
03
FF
FB
FD
01
F9
01
F9
FA
FB
02
FB
FC
01
FF
01
FA
03
00
03
FA
FB
FE
02
FD
FC
FA
05
FB
02
FF
F9
F9
03
00
03
F7
FD
FD
01
FA
FF
00
00
FE
04
FE
FB
FD
03
FC
FE
FC
04
FF
00
02
03
FF
05
00
FE
FF
FD
03
02
03
02
FF
FC
03
00
FD
FF
EC
FC
EC
09
F4
00
CA
18
00
FF
0B
0A
07
07
FA
F1
0B
F1
0B
03
06
23
EC
06
D9
E8
F9
F0
E2
00
FF
04
FB
01
03
01
FA
03
FE
03
01
00
FA
02
FB
01
00
FE
01
03
FF
01
FB
03
FD
02
00
FC
03
FE
00
01
02
03
F9
FE
02
FB
06
01
F7
F9
F3
FD
F6
F7
F5
FE
01
F6
03
FB
01
FB
F9
F5
FF
FF
04
FF
FA
F8
FD
FA
F7
FA
FC
0D
F3
F5
E7
03
07
F3
00
F0
05
F7
04
F4
01
F1
FA
FE
03
EC
F0
F7
F4
05
01
03
EF
03
08
E6
F3
F7
E6
E8
E9
FE
16
FD
FE
11
01
06
0A
E0
F8
04
FD
FD
FB
F1
FF
FB
05
FB
06
F8
EF
00
E9
F0
01
FE
F4
00
00
FD
F4
F4
EF
FA
F8
FE
00
F5
FB
FD
00
F4
02
02
F6
F9
FD
FB
02
F4
F8
FE
02
05
F9
04
FE
FF
FA
00
E8
04
EA
FB
F4
F4
E4
0E
F4
FF
08
0C
02
06
FF
CE
F5
D7
FD
00
FC
CC
E7
06
DA
D4
E4
FE
D6
DE
FC
E6
02
FB
00
DD
F4
E1
07
B4
EA
EB
08
FE
FA
F3
0D
FD
EF
FD
EC
E9
FB
F5
0D
FB
EC
FC
03
E0
04
E2
E6
FB
01
FF
08
FA
01
F5
05
FA
FA
F9
00
02
F9
FF
05
FF
FB
F6
FC
FF
FC
F8
00
FD
FC
00
02
00
04
FE
02
03
F2
F3
FB
FC
18
FF
0B
F5
F8
07
05
00
02
08
E9
FA
F6
00
07
04
06
F0
0F
FE
FF
F8
09
F9
08
F4
F9
FD
FF
FD
0D
F2
16
03
FC
FA
F8
01
02
F0
EE
04
FF
FA
F5
14
0F
E7
E3
FB
0C
F8
0A
F2
EC
11
16
FF
F4
FC
E6
DE
01
FE
1B
05
FA
F8
FA
03
F0
DE
F9
0A
01
FD
FC
F7
04
F7
00
F5
FC
F9
F2
05
00
01
E0
F1
F5
F7
06
EC
E7
E1
04
16
01
E7
09
16
EA
02
07
05
DF
0E
EE
07
0C
11
0D
FF
06
00
13
05
05
05
EF
13
08
08
FD
F5
02
00
FB
FE
02
02
01
FE
F9
FD
01
02
FF
03
F8
01
FF
FF
FD
F4
FF
01
02
FA
FE
03
FD
FC
FC
F8
F9
02
FC
F8
06
05
FA
FA
F5
00
FA
F6
06
FB
00
F1
EB
F4
E7
F2
EE
FE
FF
FC
F9
EE
00
F2
EA
02
F9
EF
FC
FE
12
F6
FE
F7
F0
13
03
E7
01
F8
F7
E9
16
00
1C
F6
E6
FA
FB
16
FD
F4
FD
0A
E1
01
D4
10
02
08
FD
F9
FD
04
F7
FA
01
F9
FB
FD
00
FD
FA
FF
04
F7
0A
FE
04
05
FF
FC
F4
F3
05
FC
FB
F9
FC
F9
FA
FA
F3
06
F4
0F
FF
05
EE
0B
FC
02
FE
F6
09
0C
FE
D1
F8
DA
00
DE
F6
FA
F2
0C
02
F5
E3
FB
E9
F3
CD
BF
EC
04
0B
0A
FB
04
0E
0F
02
F6
FD
F4
FC
F9
FC
FC
18
01
F4
F8
05
13
11
FF
F1
F8
21
04
09
0B
F5
03
05
F8
03
F6
01
F5
06
F7
F5
F8
F4
F4
E6
F6
0C
FB
06
FB
F8
FC
F0
F3
03
EE
13
FF
FA
F8
10
F5
F5
FC
03
F6
FB
FB
03
05
F5
EA
FC
04
F6
02
03
F9
E3
FF
F2
F9
F9
FC
FB
F8
01
FB
FA
F7
07
05
F2
02
FC
F1
FD
04
FD
FF
FE
04
F5
03
00
FF
FD
FF
03
FF
F7
FA
F6
F3
FB
FA
03
FB
F9
01
01
01
01
F9
F6
01
FE
FC
F9
FA
05
FE
F0
02
00
FB
FA
02
01
00
03
F9
F5
FC
01
F1
FF
02
FA
03
F6
02
FE
FF
FA
00
FC
EB
F6
F6
09
F6
F2
02
13
FA
0A
F2
0E
08
0A
FE
F1
06
F4
01
CF
07
0A
08
08
F4
09
FB
27
F4
24
EC
03
E3
F6
F5
FA
E5
0B
F8
D2
F7
FC
E8
07
FA
FF
12
02
0F
C5
01
F2
F5
08
07
F8
E3
EF
FC
F7
02
F5
11
E5
CE
FF
F9
F8
0A
02
03
E1
FF
F2
F7
FD
F4
FD
0B
04
FD
FA
EE
CB
E2
01
F7
F5
06
EB
0C
FD
F6
00
04
EE
EE
E8
EC
DA
08
E9
D9
FF
D5
14
F6
E8
DE
E3
F0
F0
F0
C5
FC
EF
FE
FC
FC
FE
E5
0B
04
C3
04
14
0B
17
0B
FE
FD
FC
01
FA
F7
FE
F7
F9
F8
F9
F8
05
FC
FD
F7
FE
F7
E9
00
FB
F7
F6
FD
FC
FB
FA
F7
FA
F4
FE
FD
F5
F6
02
08
0A
00
FD
F6
EF
14
0A
E8
F4
F6
06
9E
E6
F5
A7
0A
CB
DB
EE
DF
EB
00
F6
F9
01
FD
0A
0C
E7
09
FB
03
FE
FD
FC
03
00
FB
01
04
FF
00
03
FD
FE
00
01
FC
00
04
FF
00
00
04
02
02
02
FC
FD
FE
FE
FF
FC
03
FC
FF
FB
FD
F9
F9
FA
02
F7
01
F9
FA
FD
FD
FA
FC
F9
F9
FB
02
04
FD
04
FF
03
F9
00
F4
F4
FE
FD
0E
F4
07
EB
02
F7
F9
FB
F5
F9
02
06
01
F9
E9
D6
EB
FD
E9
F3
0D
ED
08
FA
00
EF
06
F1
E3
E3
E7
FC
00
FA
01
FB
FC
00
FD
03
FA
01
FE
01
00
FF
FA
03
F8
FC
FE
FE
FB
FE
03
FA
FA
FE
00
F8
FE
FB
00
00
F3
E2
FC
E3
FF
0A
ED
F9
FA
07
07
01
00
E5
03
FE
FA
03
09
F3
E2
F2
01
00
01
02
02
01
DA
0D
FE
F3
F7
EE
FF
ED
EE
DF
0A
F4
00
08
07
FC
03
EF
FC
05
F4
05
F5
F9
00
FC
FC
FB
F8
F3
F7
F0
E9
E9
E3
FE
FF
01
FD
03
FD
FB
FC
00
FF
FC
02
FF
FC
FC
04
01
FF
FB
FC
FD
FC
01
02
FD
05
03
03
04
FE
FC
FF
00
FD
04
FE
FB
03
00
00
FD
FF
FC
01
FE
FF
04
FF
01
05
FF
01
FE
01
FC
FC
00
FF
FB
FA
FE
FD
01
01
FF
00
04
04
01
FF
FD
FD
FC
FC
FB
00
FA
FD
FF
FD
02
FD
04
03
FE
FE
FC
FB
FE
02
F9
FA
F9
FD
04
04
02
14
07
0B
DA
FC
04
0E
FA
F2
09
0E
02
FA
EB
EC
0C
F7
EF
EF
F5
04
E8
06
FD
FA
0F
03
F2
E5
F2
FB
FD
FC
FC
04
FE
01
04
06
00
FC
03
FD
FB
FA
06
02
02
FF
F9
02
00
FC
FB
FC
02
00
01
FE
F7
03
FB
FE
F8
FC
FB
04
FA
FC
FC
00
FE
FA
FB
00
F8
FA
02
01
0B
FC
FD
00
05
FD
FD
F5
FD
FC
FD
FF
01
05
05
FF
FE
00
00
FE
FA
FA
FA
01
FA
00
00
05
F9
F8
0C
00
FC
03
00
FC
F9
01
FE
F9
03
FD
FE
FC
FA
FE
FF
02
FB
FA
07
04
F5
FD
FF
03
F7
FD
FC
04
EC
F4
0A
00
08
01
FE
FC
FC
04
FA
EC
06
02
F0
FE
FE
F6
00
04
06
F7
00
F5
0F
E4
FF
E7
F7
DE
F3
FC
D5
EE
07
05
12
13
EC
00
EF
F1
0C
D8
29
0E
02
F9
13
F0
F8
01
EB
FC
0A
01
2D
FE
14
FD
F9
06
03
F2
F6
09
EB
05
F3
0A
05
04
04
FC
16
FF
FB
07
07
FF
09
F2
02
FF
FA
00
05
03
F5
F8
05
00
FE
F8
FB
FD
F8
FB
00
01
06
00
FB
05
00
FC
04
F8
FC
03
FD
02
04
F4
FF
FF
FC
F2
00
F8
08
FE
02
F7
FF
FB
FA
FE
F8
FF
FA
00
F8
FF
FD
04
F7
F5
03
F8
FD
FF
FC
00
04
F2
00
02
FB
F7
FF
00
0E
FA
08
0F
05
0C
05
FA
F7
09
18
F3
D9
0B
04
03
07
F7
12
FD
0F
F7
13
FE
04
16
F6
E1
E9
02
FF
08
F8
00
EB
0D
00
F9
FF
F1
FC
FF
F8
F2
08
00
F5
F5
F2
05
F4
04
FA
F6
F9
FA
DF
FF
EB
EE
02
03
FC
FF
FD
FD
04
03
03
03
04
01
FE
00
00
02
FE
FC
FD
FD
04
03
FB
FD
03
FB
01
FD
02
00
00
FD
F4
FC
00
04
F9
FD
00
FF
FB
FC
01
01
FD
FE
FF
00
01
F9
01
05
03
08
FE
FF
FB
FF
FD
FB
FF
09
FE
FF
FF
02
02
02
F3
FA
06
FF
FA
FF
04
02
FC
FB
FF
F5
01
FD
00
04
FC
00
FF
FA
FC
FE
07
F7
06
FB
04
FE
05
FE
01
F8
EC
00
FE
EE
FF
F4
FC
FF
FC
EF
F5
01
EF
F8
F7
FB
FA
EE
F7
FF
F8
08
FF
00
F7
00
F9
F6
DD
F7
04
02
17
F2
14
F9
05
FA
04
08
F7
00
F5
06
DC
FD
01
FE
04
FD
08
F9
F0
00
F1
FB
08
F2
FB
04
05
F6
06
FC
05
F4
10
E4
F0
06
F3
F1
F5
FD
15
FD
04
0D
FE
F6
EB
EB
04
F8
FA
00
F1
0C
12
F2
FB
03
FA
FD
01
FE
E5
F6
09
F8
FF
F8
FD
09
FE
F4
F7
FE
FB
FD
FB
FF
00
FA
09
F3
FB
03
0C
FF
10
F5
05
FA
FC
F9
FE
FA
03
FC
FF
F5
FE
FE
F9
F7
FD
FD
F1
FA
FD
F9
F6
F8
00
FD
06
FC
00
FD
FE
FA
07
F8
FE
01
FF
03
FC
05
FE
FE
07
F8
FD
04
03
04
FC
FC
FA
F8
05
01
FE
FE
FD
06
FD
03
01
FE
03
FC
FF
FC
02
FC
FB
09
F3
10
17
07
EC
0F
FC
08
05
F0
04
15
0D
D0
EF
DA
FE
DE
F3
F7
EF
0F
0A
ED
E3
F9
EA
F8
C5
B4
FC
E4
04
03
E8
F2
EB
05
0A
FC
0C
F1
04
0C
05
F3
EE
01
01
E5
FA
E5
F2
01
FF
F5
F4
07
CC
00
F0
E7
04
F7
05
02
01
EF
04
11
EE
F7
02
01
E9
E9
07
09
19
10
EF
10
02
E1
0B
E4
0B
08
FC
02
FD
0C
0D
16
FE
F6
FB
FA
06
03
F7
F9
FC
FC
F9
FA
04
02
FE
F6
00
FF
01
FB
FE
F1
FE
03
02
FA
F4
F9
F2
F9
FA
FB
FB
02
FE
01
02
F7
06
00
FF
FF
FE
02
FE
F9
FA
FD
FB
FC
FF
FB
FD
FB
07
02
F6
FD
FF
02
02
FD
02
01
FF
08
FD
0B
E7
05
E6
F7
FD
FB
02
06
03
08
E8
E7
BF
DF
FF
ED
FD
F6
E0
0C
0B
F7
FF
07
EC
E7
E5
EC
FB
FA
05
FC
0D
FD
01
F8
FD
00
F6
F8
F8
FE
05
FC
01
FD
FB
01
F6
FA
00
F7
01
FE
FB
F7
FF
F5
F8
FB
01
FC
02
FE
F5
FC
FC
03
FD
FD
00
04
FD
06
02
FB
06
01
FB
00
FD
FD
FA
F8
01
01
02
F9
02
02
01
F7
00
FE
FB
FC
00
00
00
01
03
FB
FB
04
01
FD
01
FC
FE
03
FC
00
FB
00
03
01
01
FF
FE
01
05
FB
FF
02
02
FF
FF
FB
FE
FE
02
F9
FA
FD
FB
FA
FA
FB
FE
FE
F9
F6
F9
F8
FD
0A
07
00
FF
02
00
F7
01
F8
F8
02
FA
05
F9
F2
E7
F0
FA
07
FE
04
03
09
F1
FA
05
F1
F8
F5
FF
FB
E2
F4
F5
FE
E2
ED
DA
08
F9
DC
F0
F1
FE
FD
FF
01
FC
03
04
00
FC
FC
FC
FF
FE
00
01
FE
01
FB
FC
FE
FB
01
01
FE
FC
01
FE
FB
02
01
FC
00
FC
10
0A
0A
DE
02
F9
08
F9
F5
02
10
09
F7
D2
F0
F7
EE
F4
F9
F8
01
EC
08
F8
FB
03
FF
F4
DF
F2
00
FA
F6
10
06
1D
01
19
FE
F6
02
FE
FF
F6
FD
ED
FD
FB
04
FC
FA
0B
F8
1F
FD
04
FF
15
FA
0F
EB
FF
0C
FD
FB
00
FF
F5
FC
FE
FD
FF
FD
01
FF
00
FE
00
F7
FB
F9
02
F7
F7
00
FD
FE
04
FC
FD
FD
FA
F6
F8
FC
16
FB
03
07
0D
06
FA
D1
10
01
03
0F
F4
03
E3
06
D8
F6
F8
D5
05
FD
FE
FA
25
EE
F1
FD
FA
DF
CF
F1
F0
01
F1
E9
0F
05
10
0E
FE
F6
F6
FF
0A
FF
B0
FE
FA
FD
FC
FB
F8
05
0D
0A
F3
C8
0C
EA
00
E9
F7
FE
FF
00
F3
FB
04
FE
F7
F9
F8
00
02
EE
03
01
DD
F7
F2
F7
FE
F4
FC
FA
FD
01
FF
EB
EE
F4
FB
F7
F5
F0
FC
FD
06
06
EF
FB
FB
02
01
FF
00
02
FE
01
FD
FE
06
FD
FD
FC
F9
00
F4
FE
FD
01
FE
FF
01
F6
02
FB
F7
0B
F4
FC
FC
09
F7
14
FC
E3
F9
F7
09
F5
F1
06
E0
FC
EE
EE
06
01
EF
09
FC
F4
FF
FB
E4
11
FB
02
E9
06
F5
08
EB
0B
E1
FC
03
FF
06
05
0F
0B
E5
FA
F3
F8
02
04
0E
02
EF
0C
E3
F5
E3
FC
E5
FA
F8
05
08
02
F7
F0
F8
FF
FA
F2
FF
FB
F8
F5
07
F3
FB
FD
F3
F9
FC
F9
FB
FB
FD
00
FE
00
F9
02
FC
FD
FC
F5
FD
02
FC
FC
FC
01
02
FD
02
02
FD
FD
00
FB
01
04
FC
03
FF
FD
FD
FE
FE
FC
01
03
FE
04
01
02
FB
04
03
F2
F2
E9
E2
09
F0
F3
01
03
00
01
09
FD
DB
09
EF
FB
06
0D
00
D6
E5
04
F7
0B
EB
03
EF
E4
11
02
00
00
04
FF
03
FB
FF
FD
FE
02
01
FB
FE
00
FE
00
FE
02
FF
00
FD
01
02
00
FB
FF
FE
02
FB
FF
FE
03
ED
EA
E8
F3
FB
F4
F4
0D
0A
00
07
00
06
07
FD
ED
0A
F5
04
FE
EA
EC
FA
FB
F0
F3
F3
01
E1
F5
F0
F2
FE
FE
FD
01
F8
FB
FE
FF
FB
01
FC
02
FC
00
FD
FD
01
FC
00
FD
F9
FB
FC
F8
FB
01
FF
FA
05
FE
FF
FB
FF
F9
0A
FA
F2
FC
07
FB
FE
02
FE
02
F6
04
FF
FF
0B
01
03
02
FB
03
FB
F4
FA
FD
08
FF
0A
F7
03
03
FD
0D
E7
FD
E7
0A
F3
FD
08
F6
FA
FF
11
02
F4
F3
C1
EF
FD
E1
09
FF
F1
0C
FC
FA
E9
06
FD
F4
F1
E9
FC
FB
F9
FF
F7
FD
FA
FA
FD
00
FB
01
01
03
FB
F7
F4
FA
FD
02
FF
FB
FB
01
F6
FC
FB
00
FE
FF
FF
FE
EF
F3
02
F5
F9
EA
00
FE
FF
F7
F7
FA
EF
02
FB
00
FE
F1
FD
F1
05
13
09
D6
F1
F3
F4
02
01
ED
F3
F2
06
18
FE
0E
06
F6
02
1D
E5
DF
FF
FF
FD
D8
01
F3
F4
F8
DF
F3
F3
C6
10
FD
0E
00
0B
F1
0C
18
F5
FF
D6
04
04
FC
F1
FC
F5
07
FD
F8
09
02
01
FC
EF
DD
04
ED
F2
F2
F2
FA
EC
03
FD
ED
0A
F8
EC
F1
E6
01
FB
FC
FE
F8
FA
F0
04
EC
EF
F4
FC
04
E6
F1
12
FA
05
02
F5
00
F4
04
FA
F5
0C
FE
00
F8
FD
F1
FA
03
03
F3
FB
F5
E9
03
FF
FB
05
F8
F9
00
FC
F8
FC
02
F5
FF
00
03
FA
FD
02
FD
FD
00
01
02
FB
00
03
01
00
0C
DF
F6
DE
09
F6
F9
0A
F1
FF
02
13
07
F4
F3
CD
F8
07
E9
0D
EC
F3
15
F9
01
EB
0C
F5
EF
F3
E0
FC
08
01
0C
E6
05
F2
10
EF
FC
00
03
06
00
E4
DD
FC
E3
F8
F4
E3
0C
E4
07
FC
EB
FD
FB
EE
F5
E6
FF
03
02
14
E8
B9
FB
12
F6
03
F7
01
0F
F9
ED
09
1F
F6
17
01
26
07
17
16
F4
FB
0F
11
07
10
05
22
25
EE
EA
F6
02
F9
06
EB
E2
0E
0E
01
01
FF
0A
D2
FC
FB
F9
11
03
FE
E0
EB
03
DE
00
18
FC
E3
FC
FF
CF
F8
FC
05
0B
01
EB
01
04
F0
F8
F9
00
F4
FB
12
F9
17
FC
F1
05
F9
00
FC
EB
01
FA
FB
F5
FB
FA
FF
FF
EF
F9
11
04
20
07
1E
01
F2
00
00
FD
FF
05
E6
FA
E8
01
02
EA
EE
EC
1F
FB
FD
F5
0E
F6
18
D9
FD
02
FE
03
FD
FC
FC
FB
02
01
01
FC
FD
04
02
01
02
FF
02
01
02
FF
FE
03
03
00
FB
FE
FD
FD
FF
01
01
00
FD
FC
03
FE
02
00
FE
01
04
FB
05
FD
02
00
FF
FD
02
04
FC
FD
03
00
02
03
01
01
FC
FD
02
02
01
FE
07
E9
EF
E3
0A
11
0D
EE
0B
0C
F5
FC
0A
F9
D3
14
F2
11
10
0F
1C
F8
0A
FD
00
0A
12
04
06
11
10
0C
FD
FF
03
FD
01
FB
00
02
03
FB
00
FB
FF
03
00
FD
03
04
FF
FB
03
FF
02
04
FF
04
03
FD
03
FF
02
FD
F9
F8
0B
02
12
05
15
02
F0
06
FE
FD
F4
03
E4
EF
F4
03
0A
11
E7
FD
12
FD
0C
FE
1A
FB
0F
E0
05
EC
EC
07
08
F9
EB
FB
1F
00
02
E8
F7
EC
05
E9
E2
F4
FF
01
21
FA
FD
06
15
02
00
F7
01
08
18
D3
01
01
FF
00
02
FE
04
F5
02
FE
FA
F9
02
03
F4
F4
07
FE
03
FD
F9
FA
FE
FE
01
FA
01
02
05
01
07
FD
00
00
01
10
F7
07
F5
F4
FD
09
F5
ED
FF
00
FB
DC
EB
F6
B8
F9
DF
F6
E8
D9
12
03
02
F7
0D
F3
09
0C
F5
0B
F6
EA
FD
ED
28
F8
0D
DE
F6
07
EF
FD
ED
0B
02
FC
FD
03
09
FE
FF
F5
03
F8
0F
E9
0B
02
FF
ED
FB
00
E2
F8
F5
FE
1F
07
0D
FD
03
FB
F6
F9
FB
FC
C6
FC
FD
03
AD
FE
FF
EE
1D
02
04
A8
28
E9
09
CF
01
FF
FE
03
FB
FC
FD
FB
03
03
01
FE
FF
FF
00
FF
00
03
FC
01
FE
FD
FC
FB
FD
FB
04
05
01
00
FC
FD
FB
FB
01
E8
D6
F9
E8
F8
FE
D9
08
F7
E2
01
FC
E6
10
08
FE
F7
FE
04
07
1F
EE
EC
08
E0
13
03
F6
13
02
00
EF
08
09
0B
E5
FA
EB
F6
F5
F9
FF
0F
06
03
EC
DF
EB
E2
FA
F8
ED
F5
E7
09
F0
FB
FC
02
EF
D5
E5
F2
EC
F7
10
01
12
05
13
02
F0
01
03
FB
FC
08
11
F4
CF
FD
FB
F2
EB
F4
16
FF
04
E0
0F
F5
0C
EA
FD
E6
F5
FF
14
18
F4
F9
ED
15
03
08
07
FD
FA
02
11
FC
1E
E9
05
F9
08
1F
F0
F0
E7
F8
F2
FB
D6
04
FC
FB
00
00
E7
F3
FF
08
EA
07
F6
00
EF
E8
0C
08
E3
F5
FA
F0
F4
E8
F3
FD
FB
08
0D
F1
E0
F1
FB
F9
EB
ED
EE
02
FD
0D
EE
02
DA
21
02
FF
0B
FE
0E
0C
FD
FA
09
01
06
04
01
0F
DB
0F
FB
F9
EB
F6
D0
0F
08
0E
FA
DA
F4
FA
FF
FB
0A
01
11
FE
00
04
01
FD
F8
10
E6
09
02
09
0D
F4
12
F4
FE
FC
12
0D
07
F9
0E
0B
00
F7
03
00
F9
F5
FD
F9
FF
FC
FB
FA
FB
FF
06
00
FF
FA
FE
FF
FB
02
09
F5
FD
FB
00
FE
04
F9
FB
01
FC
FC
03
00
01
00
01
FC
01
01
FB
00
FC
01
FD
FD
04
00
03
02
FC
FB
03
01
FC
FC
FF
FE
02
02
00
FC
F1
DA
FA
12
04
D6
F3
CA
F9
FD
FE
11
CC
04
F2
F5
06
E6
05
04
FD
FC
E5
F1
F9
BC
00
F0
DE
FA
EA
F1
01
FE
04
FD
03
FC
FB
03
FB
00
FB
02
01
FD
FE
00
04
04
03
01
01
05
00
04
FD
FE
01
03
FD
01
02
00
08
F9
18
FC
D0
FC
01
03
05
FD
FE
05
05
F4
02
1D
00
05
FB
16
02
08
FD
F6
F1
0D
0D
04
F6
FD
18
0D
01
F8
FE
F1
0B
F4
00
FB
FE
FC
00
F4
F0
FB
F4
04
FB
04
FC
FB
F9
F5
0A
F7
FE
FB
FE
F8
FD
FA
FF
FF
F8
F7
04
03
FE
FE
0E
FC
F5
FC
FE
FE
FA
03
00
FC
02
02
FD
02
FE
FE
00
F7
F9
F8
F7
F7
01
00
F6
F5
D9
F5
13
07
EC
E7
07
FC
0E
F3
F6
04
F4
07
FD
02
06
EF
05
FC
05
1E
00
D8
F9
00
F9
07
FD
F5
F9
FF
F8
08
F1
0B
F9
0A
F4
17
F7
03
FC
F0
02
13
F2
D0
FB
DA
FE
E7
F3
E0
EF
0C
0B
F0
ED
FD
EE
F0
D2
BE
FF
13
0D
09
D8
FC
07
0F
FD
F3
01
06
FF
FC
FE
F6
04
EC
F9
F2
F2
14
EC
04
FB
FE
16
FC
F6
E4
F1
F9
FB
0E
02
06
E0
00
F3
06
F2
09
01
01
06
F6
EE
E6
FA
E2
FC
E3
F4
19
F2
08
F7
FF
FD
FE
FB
E2
DF
FD
FC
F8
02
01
FA
F4
04
01
03
FA
FB
FF
FF
FF
03
FF
00
02
FC
00
FB
FD
00
F8
00
FE
03
FE
07
F6
01
FA
FD
F9
09
01
03
F7
04
FC
00
02
FA
03
00
F8
F2
FF
09
FF
FF
FE
FD
FE
00
F9
FA
04
05
00
00
FB
03
FA
FD
01
BD
BB
F6
F7
FB
EB
BE
FE
0E
C3
07
04
08
FB
00
FA
BF
EF
01
F6
FC
03
FF
06
D1
05
F9
F4
E9
EE
06
F4
12
FF
F6
EB
12
0C
F5
F9
FE
0B
EB
EA
0E
0B
28
0C
F3
0C
FB
0D
12
E7
03
08
10
FA
09
0E
0E
16
F5
0E
0E
06
E5
FB
E5
FC
F1
02
12
01
FA
06
EF
E4
F1
EF
F8
F5
F5
E6
E9
0B
09
F5
F2
FE
F9
E4
E6
F3
03
FE
FD
02
02
FE
02
03
FC
FD
FC
FF
FD
03
FC
FD
03
02
FC
FC
03
FD
FE
FD
FE
03
FC
FE
FF
02
FE
00
FE
05
BD
A3
03
0A
E6
16
EF
FF
FE
DF
09
07
BB
EF
00
F7
09
EF
01
D6
FF
0D
FF
F8
D3
F3
FD
F4
EF
DB
01
05
E8
F0
04
01
DE
15
03
01
FD
F2
02
C3
E8
F4
C2
19
CE
E0
E6
DF
EE
04
FE
F2
03
ED
F2
0B
EA
10
0C
E5
F6
E8
FB
FF
05
F6
09
0D
F9
02
FB
03
06
0D
E0
0B
0C
0D
0C
F7
FC
F0
F6
08
FF
0E
FD
02
0C
04
04
02
02
06
E9
FC
F5
F4
FD
F8
FF
07
FF
F7
E7
FA
E8
FC
FD
FC
F6
13
DE
03
EB
F2
EE
06
E9
F3
FC
02
CF
F7
10
01
0C
E2
16
F7
FE
F9
04
FB
F2
01
37
F4
CC
FB
07
FF
F1
F9
11
FD
D5
F7
C3
F9
13
FF
F8
FF
12
F6
FE
E8
04
0D
F2
FC
F2
0A
ED
03
06
FE
E7
F8
F5
E6
E0
D2
FF
E6
F3
01
0B
02
FE
05
F4
16
EF
CC
F9
FA
0E
FD
FD
EF
01
FE
03
F3
FE
06
FB
EF
03
FA
13
F2
F6
F8
F8
FE
07
F8
F1
FD
FE
02
03
02
FA
F8
EC
E6
09
FB
FA
E8
02
F9
FA
FF
08
11
E7
03
F4
F2
03
02
0A
12
FA
FE
F9
CF
EA
E2
05
E8
FC
FB
04
FA
FB
FB
00
02
02
FC
03
03
01
FE
00
FB
FB
03
04
00
FF
FF
FC
FB
FB
02
FC
FE
FB
02
FC
FC
01
FC
01
FD
FA
FB
00
FC
FE
FD
FF
FE
01
FC
FD
01
FE
FE
08
FF
FC
FE
00
FE
FC
01
FB
F9
FE
FE
FE
01
FD
02
01
FA
F2
00
14
01
02
0B
11
03
F4
FD
DB
EA
11
F0
EB
01
FF
F3
FA
DB
05
E5
05
0B
F8
0E
0D
0E
03
08
F9
F4
FA
FF
F7
F6
ED
F9
FC
05
FA
FB
FE
01
03
F2
F2
F1
DA
01
F1
E9
FB
F3
FA
FD
FF
F2
FE
FB
FA
FA
F6
FE
00
FF
FD
03
FD
02
FE
05
FE
FD
FB
FD
FD
FF
F6
FD
00
03
00
FC
04
FC
01
00
FB
F9
01
FA
FB
03
00
FD
F8
0E
05
07
ED
FA
FD
FD
02
F5
FF
05
02
F9
E6
EE
03
F8
F2
F8
F7
F7
F9
04
FA
FF
04
05
FD
D9
EB
FA
04
FA
FF
F8
ED
FB
06
FA
00
FA
03
02
01
FD
FA
FE
F7
F9
02
FE
FD
F9
03
00
01
05
07
FC
00
01
03
FD
F9
09
FB
FC
FC
FC
09
F5
FE
F4
03
0A
FC
FF
E2
D4
0F
CB
01
F5
CC
ED
FE
06
21
E4
FC
0B
0F
DC
03
F4
03
DC
03
F2
F2
06
01
E7
10
04
07
04
03
0A
DE
11
DC
02
17
0D
0F
EA
EE
F9
1E
04
07
10
F9
FB
0A
04
02
FD
0B
F3
C9
01
0A
EB
02
FC
02
0C
FF
F8
F7
02
EE
EB
03
08
FE
E9
FE
F6
E6
03
0E
01
10
F5
0B
02
FA
06
D6
E8
F4
02
F6
00
FF
F6
FF
FD
02
03
EA
EC
DD
E8
F9
EC
F1
EB
F8
07
F7
E7
F5
FB
ED
EC
F1
EA
02
F8
FB
1A
F1
FA
ED
EE
E3
02
FC
06
E6
FE
1C
EE
25
0B
03
07
04
F9
F9
E9
18
08
07
ED
FF
0B
06
09
FF
FC
FE
F6
FE
FD
02
04
FB
00
FB
FA
FD
FE
FF
F9
FD
FF
FF
FA
F5
F9
FE
02
FE
FA
FA
FC
06
FE
F8
FC
FE
FE
01
FC
F5
FE
FE
FF
00
05
00
04
FE
00
FC
FC
FB
FD
04
FC
FB
02
F4
FD
FC
FD
00
F8
F5
FC
FD
F7
EB
EF
E6
F4
F6
F2
09
F4
02
05
01
EE
ED
01
EB
0D
08
FE
07
E2
FB
10
14
B3
EF
FE
FA
06
08
EC
E2
F0
09
0E
EF
16
BF
F8
03
18
E5
ED
02
03
FA
CF
F9
F5
D9
04
DA
EF
F2
9A
00
00
0F
FF
0D
F6
0C
1C
F9
F6
0B
02
EC
E6
00
09
EF
DA
02
F6
FF
F0
00
E5
EA
FC
CF
F5
CD
D0
E2
0D
EF
00
EB
EC
0C
F3
FF
04
E6
EA
F8
F2
F3
F9
E9
FE
FD
F8
03
04
02
00
FD
06
EB
F8
F0
F2
02
FF
FF
FC
F5
00
FB
00
00
FB
F1
F5
FC
F6
FE
04
00
FC
EB
FB
01
F6
F3
FC
F7
F6
FD
F4
EC
F1
DD
F6
EF
F1
FE
F6
F4
F9
F6
01
FE
FD
02
EB
EC
F0
06
FF
F6
F7
08
03
F3
FD
F8
FE
FE
F8
FC
F9
F8
F9
E4
F6
F3
EF
FD
F1
FD
01
09
F4
F5
FD
F7
02
FB
F4
09
05
CE
DE
03
FB
00
E4
07
FB
F8
FB
01
F7
0E
FB
E8
ED
F3
EB
FA
15
FD
06
EC
DD
F6
F0
FF
0A
E7
EE
00
F7
05
FC
F8
FC
01
FD
FE
FB
FC
FD
F8
FD
05
FF
0A
FB
FB
02
02
01
F9
F2
FB
05
00
00
FE
FD
F7
F6
CA
E8
FF
FD
F2
F5
EE
FD
0D
03
F8
ED
F7
FD
03
FA
00
C3
07
F1
0A
1D
09
EA
CC
EE
FC
01
FA
F9
FE
EC
00
F7
06
04
FC
FB
FC
F8
02
FA
FB
02
F4
FB
00
02
06
02
FD
03
F9
03
FA
F8
F7
FF
FD
FE
00
F7
03
FD
03
FC
FF
FE
FB
FF
03
FE
FD
03
FC
02
04
FC
03
FB
FC
FF
FC
00
FC
01
04
FD
00
FD
FC
FE
04
00
FE
FB
F1
FA
11
0A
1C
FF
24
01
EF
06
FB
FB
F7
03
F3
F4
FA
06
00
F0
F1
E1
1E
00
FF
FB
05
F9
10
DD
EC
FD
F7
E9
00
05
E9
0C
FC
01
07
0C
02
03
05
06
DF
EA
F4
EA
06
F7
F1
E7
02
FF
03
00
14
FE
E9
FB
F4
C8
02
F7
01
F8
DE
FF
03
FB
FC
FE
FC
02
FB
F7
02
0B
E4
FD
06
05
01
FB
FA
F5
FA
06
03
01
FA
F7
07
F7
FF
EC
01
F3
F7
F5
FA
EE
FF
01
EC
FF
ED
FB
F3
01
05
04
FB
FB
F6
01
02
E8
00
04
F2
01
F3
F8
FE
FA
01
FC
FA
F1
17
F7
FC
F3
E5
FB
E9
E5
F1
04
ED
FC
FF
02
ED
FD
00
F4
10
01
04
C5
E9
EC
16
00
03
FA
FF
FB
FD
FD
FE
04
FD
FC
05
FE
FE
FC
FD
FB
FD
FD
FD
00
FB
00
02
FD
FE
FE
FC
04
FE
00
FB
FB
FB
FF
00
F8
02
F9
0C
06
05
FC
F3
00
F4
FE
02
F5
FC
00
01
F8
FE
F6
F9
F5
06
FE
00
FC
0D
FA
00
F3
F5
F8
FE
01
FC
FD
FB
02
FF
04
FE
FC
03
01
FD
FF
01
02
FB
FD
01
FE
FD
FE
FE
FF
FF
FB
FD
02
FC
FB
FF
02
00
EB
02
00
02
10
FE
0F
03
07
F2
07
0A
FB
CF
DF
FC
DF
F1
E9
FC
CF
FF
06
23
EB
1E
FD
E3
F4
F4
F9
FD
00
02
F9
00
FD
FF
FB
02
FA
03
FB
FF
FA
02
05
0D
04
FF
FE
FC
04
01
F9
F9
03
FE
FF
01
FC
FC
02
F8
F6
06
FF
F7
F6
09
FB
FA
FE
FA
02
F5
FF
FF
FD
03
FE
04
06
FB
FE
04
F8
FA
FC
FF
F9
01
F3
FD
05
F2
05
E6
E3
F6
F4
0A
0D
02
06
09
FC
03
04
58
D2
F3
DC
08
F1
F9
F2
08
09
0D
FC
BD
04
0D
F5
D3
C6
E6
03
F2
0A
F8
F0
F2
12
F7
04
07
04
03
05
0B
F6
08
F7
E9
EF
00
07
E5
01
F8
F7
F6
FD
E2
0B
FD
F8
00
05
EF
F1
12
04
02
08
EC
F0
F7
FA
04
04
C8
FA
EA
FC
F4
F7
F0
F1
0B
06
01
E9
03
CF
FB
F6
F1
F7
FB
FF
06
0D
E4
01
F8
FF
FF
FA
02
09
00
FE
F0
F3
FD
F2
F8
F7
F5
FD
EA
08
F7
FF
0C
08
F1
E9
F2
F5
FF
01
00
FB
FA
FA
05
F8
02
FE
FC
FC
FE
00
FC
FE
00
FC
FF
FC
FD
02
00
FE
F8
FB
00
02
01
F3
FB
FB
02
05
FE
FE
FF
FD
01
02
01
01
04
FE
FF
04
03
02
FC
03
02
02
FF
FC
FE
FC
00
03
00
02
FD
03
03
FB
FD
03
02
01
FC
00
FF
04
00
05
FC
FE
FD
03
00
FD
01
04
03
01
FC
02
03
04
FC
FF
FF
03
02
00
00
FB
ED
FB
0F
00
21
05
23
F9
EF
FE
03
F9
FB
05
F2
01
DE
01
00
E8
FE
F4
1B
F9
FE
F9
0B
FA
17
D4
01
02
03
02
F9
01
02
FB
FF
FC
F8
01
FA
02
FE
00
05
FC
FE
FD
FB
FA
FB
03
05
F8
06
F9
FA
F8
03
FE
F9
F9
E8
FF
F7
0D
ED
F9
E6
25
04
FF
0C
FE
02
FE
F9
FA
0C
01
05
FF
06
26
F0
0A
F2
F3
F2
FA
BA
0C
05
0D
FA
13
0E
0A
EA
F9
0D
FD
F9
F9
FD
01
FF
FA
F6
F8
04
F2
00
F3
F8
10
FB
06
EE
02
10
FA
07
F1
F9
F9
F2
FA
FD
FC
EF
01
F3
04
FF
FC
01
FD
FD
FD
FB
EE
FF
F2
FA
F4
FB
F7
F5
04
FC
F7
00
FB
F9
F1
F5
FC
FE
FA
F6
F8
E3
FC
FD
FC
F6
F6
08
05
FF
FA
03
EF
D9
F0
FB
FE
F8
FF
FA
FB
11
F3
F9
F9
07
F7
F9
FC
FD
01
FC
FC
03
FF
FC
FD
FF
FE
FB
01
FF
FD
FF
FD
FD
02
03
FE
FF
FC
02
00
01
00
03
00
FE
FB
FC
02
F9
0A
F4
01
DB
0C
EB
FB
07
FE
04
02
0E
0F
EC
F1
B2
E6
11
EB
06
F8
E5
0E
0E
F8
E0
0B
EC
E3
E5
DE
11
F9
F0
F7
08
EF
FC
F6
11
07
0B
F5
F3
08
03
FE
FA
00
03
07
09
FE
00
05
2A
F8
B6
FD
FA
F6
FF
03
00
FA
FD
00
00
00
FD
01
FF
FB
01
FE
FD
FD
FB
02
00
FB
FF
01
FC
03
FC
00
FB
FB
FC
01
FF
FC
FC
05
00
FE
FB
FD
FC
FD
02
03
FD
FB
00
FE
FB
00
02
02
03
FB
00
FE
FF
FF
03
FC
02
01
00
00
00
FE
FC
00
FF
FC
F6
FC
04
06
F4
04
F8
02
FA
F2
FF
FB
00
F8
F0
F0
DC
E7
F2
FA
FC
02
01
EC
02
F1
E4
09
FD
F1
FA
F9
04
FF
0C
FC
FD
00
FA
FA
00
00
00
F9
00
02
FF
F9
F9
FB
FC
F5
04
FA
FF
F9
FF
01
FB
FB
FB
F6
FE
03
FC
FC
FC
FE
03
02
04
FB
00
FC
00
FE
03
FD
FF
FE
02
FC
FE
FC
FC
FF
03
FC
01
00
FF
FB
FC
00
F8
F7
FF
07
F8
F7
FF
01
F9
03
FF
00
F3
FF
03
00
04
01
00
00
F8
FC
F9
F5
FF
FA
00
F9
FB
F8
FF
00
FE
02
FB
FF
FF
FD
FB
03
FA
FB
FE
FE
F7
02
01
FA
FC
FB
FA
FC
FC
FB
FA
FD
05
00
FD
FD
FE
FE
FA
F8
05
1B
F0
1A
DA
F4
05
28
E0
E1
00
01
FF
CB
0D
F2
EC
F7
D8
F4
E4
A7
F6
F9
16
FF
06
F0
0F
15
F5
EF
03
FD
FB
FB
FF
FC
03
02
FD
FE
FB
01
03
02
01
FF
02
FC
01
FF
FC
FE
FC
FD
FF
FE
FE
FD
FD
04
03
FF
02
FC
04
03
FC
FE
00
FE
FE
FE
FC
FD
FC
01
FE
04
02
FB
FE
02
03
00
FB
02
FF
02
02
02
FE
01
FE
FF
00
01
07
FC
F9
FD
03
FC
F3
F8
FC
00
F8
FA
FF
FD
00
FD
F7
02
FF
F5
00
FE
04
05
04
FC
05
F4
FD
FB
FE
04
FF
02
FD
01
02
FB
FF
FF
FE
00
FC
FB
FE
FE
FD
FD
02
02
FE
04
FF
FC
00
01
FC
FE
FF
04
02
01
05
02
D6
DD
17
05
EA
ED
FD
03
02
DF
0C
03
F8
08
07
F4
DD
DF
0A
FA
03
06
14
AC
E0
0E
F2
09
ED
05
FF
F7
06
FC
FD
EE
FF
04
FE
FD
00
F9
F9
05
05
07
0D
F5
FC
F9
F8
10
FA
F1
00
05
02
02
01
02
F4
FA
F7
02
FE
02
F1
FB
02
04
FA
FC
FF
00
FF
F9
F8
F8
FA
FC
F6
FF
FD
F8
F7
F8
FA
FA
F6
F4
FE
00
FD
FE
FD
FD
FE
02
00
00
FF
04
FE
FE
03
04
FB
02
02
FB
03
FD
FD
FB
FC
FF
04
FE
03
FD
04
01
02
FD
01
00
F5
F4
E4
F9
FA
F7
F8
F7
0D
E7
F7
F4
03
EF
E7
0A
E2
FC
FE
09
0E
05
F9
F7
F6
00
FD
0C
FB
01
07
0C
01
0B
09
0D
08
FD
EA
19
0C
03
07
07
01
02
E2
F7
ED
F2
05
04
EE
DF
FE
03
1C
F8
0E
E3
FB
F5
FE
04
FE
F9
FC
F9
00
EE
FE
F4
F4
00
FB
FD
F0
FD
0B
02
08
01
FA
F8
F8
FE
FC
F7
05
02
FB
FC
FC
F7
F7
FA
F3
F3
16
FD
17
FC
23
00
EE
04
F7
FC
FA
02
F7
F3
ED
F5
08
F4
EC
EE
1F
F9
F0
06
08
09
26
DD
05
FF
FE
00
FC
01
FE
FF
00
FF
FB
02
00
02
FD
FC
02
FD
03
00
F9
FE
FE
FD
01
FC
FC
03
02
FC
FF
FF
FC
FC
01
F7
1D
09
F5
ED
08
07
F8
E5
F4
01
F3
C8
0E
10
1B
06
D6
06
FC
FD
0C
DE
09
09
0D
FF
01
0D
09
0D
00
F8
03
FB
FB
F4
00
05
F9
F7
FC
FD
F0
F1
0A
FA
16
FC
F8
07
F3
FD
FE
F4
01
05
FD
FB
0A
06
04
0B
05
12
04
EB
0D
FC
F6
11
01
F7
F8
E5
03
EC
F3
FB
CC
03
C4
D1
FF
0A
0C
09
E6
EE
F5
ED
FF
0E
E4
F7
00
FD
01
FD
FC
FF
03
00
FC
FE
01
FF
02
01
04
01
01
00
FF
03
00
04
02
FC
01
FE
FF
FF
FB
FF
FE
04
0B
FE
FA
02
10
0D
0C
10
DE
03
FA
0E
07
F9
FA
F5
02
15
EF
F8
D6
EA
0F
0A
20
B9
22
E4
01
EE
E6
E0
EA
E4
FB
ED
07
FB
E5
EA
03
08
00
E3
02
09
0B
F2
F7
F9
03
04
F3
EE
F0
06
FC
E4
F0
F8
D9
E6
ED
ED
01
FD
FC
04
FB
03
FB
04
FD
FB
FD
04
FF
FB
00
04
FB
03
FD
FB
FF
FE
03
00
01
01
02
01
05
FC
04
03
FC
FD
FD
00
FE
FD
FF
07
FB
FC
FE
FB
FE
F9
FB
FB
FC
02
FC
FC
03
FF
FD
FE
FF
FD
FC
00
F9
02
FF
FA
F5
01
FF
09
E8
FE
F6
FC
00
FD
FF
0A
FA
FA
D4
F9
EF
E4
F6
FF
F7
05
EF
02
FD
F2
F6
F9
FD
EB
F2
FA
F2
FE
F4
FE
E1
F8
E3
08
FA
F4
01
04
00
01
E7
FA
FB
F5
FE
FD
F8
06
F3
FF
FC
F2
FE
F4
EF
E6
FA
F8
F7
FE
03
FF
F0
F9
08
01
02
FE
FF
FE
FA
F6
F8
01
05
01
01
FE
FF
FD
02
FC
F6
01
05
03
03
F9
00
FA
EA
11
FD
FC
F6
F4
FE
05
E9
F7
F5
F9
F9
F6
EA
E5
F6
FE
EE
D7
15
01
FD
01
0D
07
03
06
00
F6
C2
FB
F1
EF
FB
01
20
FD
FA
01
FC
01
EB
DE
F2
10
FB
FB
F9
FE
04
FE
02
FC
02
F2
FC
FB
01
FF
D2
EF
FC
01
F9
F5
FA
00
F5
F5
FC
F9
06
00
FC
FE
FB
FB
F6
07
FA
F9
F8
FC
03
03
00
FA
F8
02
00
02
FD
FD
03
01
00
00
FE
FD
01
F9
03
FB
FE
FE
FA
00
FA
FF
FC
01
FD
FA
F8
FB
FC
FE
FA
FD
02
02
02
FE
FF
FE
00
FF
FD
01
FE
03
04
FE
FE
FE
01
01
FB
03
FE
03
01
00
04
04
FB
FB
04
FC
FF
FD
02
FF
FE
FE
03
01
FD
FE
FA
F5
0D
00
FA
E5
07
EE
FD
FA
F2
FD
E9
F2
0A
08
10
06
F9
FE
F2
03
FC
E8
F5
06
01
00
01
FB
FD
FA
FE
FB
FF
FC
02
03
FE
01
FE
03
00
FE
FE
FC
FC
FC
FF
FB
FF
FC
FE
00
02
02
FB
04
FD
FE
03
03
FF
02
00
04
E1
FD
01
FB
F2
09
E9
F4
FB
FD
00
02
F2
EB
DC
EE
EE
EA
F8
E5
FC
07
10
04
F3
FE
01
FB
E7
E6

