09
0C
29
48
B9
31
03
16
2A
EC
10
1B
2A
E3
11
EC
14
E9
EE
D2
BF
13
C2
E2
B8
03
15
40
08
E3
48
CE
0A
1F
16
48
4F
17
3C
BA
C4
D2
C3
E1
B8
07
E6
3F
AE
E4
73
2A
36
31
E3
C2
F4
ED
2B
2E
13
2D
25
4E
FE
D5
2D
DA
3E
AD
F7
E7
FD
49
E7
09
2E
C6
11
0B
A9
20
51
33
E9
F2
28
00
67
29
F0
18
13
E2
A3
EA
E2
1B
FF
19
C2
C1
DD
CC
FC
E5
D0
EE
28
5B
02
27
01
13
D5
3A
E8
1A
A8
FB
2A
E0
D1
2D
27
C0
F4
C3
F4
F4
DD
30
00
1F
F8
07
4C
CA
EE
F0
CC
DF
29
07
E5
F5
42
FC
14
F1
17
57
1F
F6
15
F5
D0
C6
27
0F
22
2B
59
2F
01
08
BF
CD
0C
33
E7
F5
FF
0F
CC
FF
19
34
1B
EC
22
2B
5D
45
11
0E
C3
50
BB
C4
F7
5B
47
49
05
38
1F
03
B0
01
B2
E4
14
B5
DF
01
20
0A
DC
BA
3F
1A
22
E3
21
26
0A
E0
E5
1A
BC
FC
1E
02
F9
0A
37
D8
B1
35
20
1A
1B
0A
0A
06
44
0A
3D
1F
DD
C0
18
D9
49
4C
31
31
D6
29
AC
55
26
55
C8
B5
47
10
27
B1
EE
3C
51
E7
2C
C6
39
0D
BB
05
11
03
E2
FF
DF
C1
E6
4A
18
02
1C
F1
10
ED
33
D6
2B
C7
FA
4A
3B
4A
D7
EB
1E
03
06
25
40
EB
EF
BE
FC
2C
44
13
26
1B
25
32
45
3B
15
32
D9
D3
B6
1E
BF
06
10
F5
C7
22
ED
19
10
3C
C2
39
FF
30
13
F8
F6
AE
07
CF
D1
36
D8
32
1D
FB
15
FB
46
BC
33
EB
18
FF
39
53
27
FD
F1
AD
DE
F7
14
F3
1F
9E
B9
B7
C5
1E
6B
34
07
E4
32
EB
07
18
1D
BB
27
B1
CA
E4
CB
CB
2C
C8
ED
22
20
0B
1B
05
29
D4
4B
F6
FA
FF
C2
E6
D4
02
2B
1C
DF
22
27
39
1D
C8
EE
C4
30
FF
1A
10
0A
F5
1F
02
32
E4
41
37
17
E3
5E
35
54
34
EB
02
44
33
FF
31
02
0F
53
4F
0F
FC
EB
A7
C4
D8
E5
F9
E4
EF
F8
AD
51
D0
00
C6
F7
4F
3E
13
CD
FD
10
F8
C2
EB
38
DB
0D
52
02
F6
BA
33
30
26
CD
E6
30
29
3F
DE
4F
1F
4C
4B
2B
2C
23
DE
15
FF
BC
4E
D1
F9
2B
F7
DB
15
00
59
52
ED
CB
FB
02
11
21
3E
FA
1F

