7F
01
7E
7D
04
02
7D
6E
09
6E
02
02
7E
7F
7D
02
1A
7E
19
7B
08
08
05
07
06
7C
7D
7B
01
00
19
15
00
00
00
00
7A
00
01
7B
7E
00
00
00
00
00
00
00
7E
7A
01
02
01
62
07
7C
7C
66
78
01
6F
7B
1E
7A
7D
12
7C
0C
7B
3C
77
77
05
05
7C
67
5F
57
65
77
04
7A
7F
1A
08
38
05
09
02
73
79
5C
19
4C
77
7C

