F8
FD
09
F8
05
FB
FE
D0
FD
D3
05
06
F0
0E
FB
D7
FF
00
02
E1
03
FA
F4
11
01
E8
00
FE
06
BD
05
04
01
FB
E3
FD
05
03
FD
00
03
E8
FE
F8
0B
D9
01
0A
06
FD
FC
FB
04
03
FE
FD
FC
1C
FB
03
BD
21
00
B5
01
00
04
0C
02
01
FC
E0
03
FD
01
FF
FD
02
FD
FF
EC
FC
01
E5
FE
FE
F9
E8
FC
03
FE
01
0B
FF
01
0A

