7D
78
06
00
02
72
05
05
7F
03
01
00
06
7C
02
7A
01
02
03
02
00
7F
00
7B
79
4F
01
02
00
09
78
01
02
79
00
7E
00
75
7E
02
02
03
02
04
7F
7D
7F
03
7E
7D
7D
7E
7D
03
7E
7B
7E
03
7F
7F
01
02
7C
01
7E
0B
03
00
7F
79
0A
04
7E
05
00
02
09
09
03
01
02
7D
7F
7F
01
02
7A
00
00
7F
02
00
7E
03
6F
02
7E
7E
7D
02
7F
0F
0A
7E
7E
77
7E
7F
75
05
00
76
00
02
03
7F
7D
7F
04
7B
7D
01
7D
02
02
00
04
7C
01
77
7D
00
01
04
04
04
03
76
7F
00
79
02
03
76
7C
02
7F
7E
02
00
00
7F
00
7B
02
03
00
00
06
7D
02
75
06
7F
7D
76
77
75
7F
77
02
7F
7B
78
02
63
02
01
05
00
7E
7C
09
7E
08
0F
00
0C
7F
01
07
00
00
06
7F
01
7F
66
12
03
01
01
7F
05
15
7C
00
00
03
01
79
7F
01
05
01
7C
07
74
00
77
02
7D
50
00
01
05
06
01
01
7D
73
01
02
0A
7F
02
0A
7E
00
07
05
7F
00
05
02
02
02
01
02
7B
02
01
02
7D
7D
7D
00
79
7E
02
02
09
75
03
01
7B
7D
7B
04
7C
02
73
01
01
7E
04
01
7E
09
00
7F
03
01
7C
02
01
09
7F
01
7D
7E
7F
01
7C
04
02
7F
78
01
01
05
02
7D
7E
05
7F
03
00
7D
01
7E
00
05
7E
7F
01
03
7F
7E
00
00
7B
05
01
7E
76
6D
7C
02
7B
01
7E
05
7D
7D
6B
05
7F
04
03
00
03
02
7B
08
06
7D
02
02
7A
07
05
02
01
00
7E
7D
7F
02
01
02
7F
00
01
03
7D
03
79
03
7E
03
02
04
01
7C
7F
7F
79
00
01
7E
7E
7E
7F
00
02
02
7E
03
78
03
01
00
7D
02
04
7C
7D
7D
01
7E
00
7F
7C
7D
00
76
7C
01
05
01
01
7E
00
7F
01
7E
07
02
7F
7E
04
02
7F
01
70
01
7C
01
00
01
01
02
01
00
05
02
00
02
7A
06
03
01
04
7F
7C
7D
7D
02
7C
7D
00
01
7C
7B
01
03
03
7F
7D
00
7E
02
00
7F
01
7F
01
01
7E
00
7B
7C
01
01
7D
7D
7E
7E
01
7E
7A
7A
03
01
74
01
00
7E
03
01
00
0E
7B
00
00
01
00
7F
01
05
04
7C
7B
05
68
00
7F
01
01
7D
02
7F
04
04
7F
01
6B
09
02
7E
09
7E
04
05
7D
00
06
7E
7C
0B
02
02
03
05
7F
7E
65
7E
05
00
7D
68
7F
00
7C
7F
01
03
00
7E
7D
01
7D
01
7C
01
7E
7D
7F
05
01
7C
02
7E
7D
7D
01
7B
7F
02
7B
7E
7C
7C
7E
00
7D
7F
00
7F
01
7F
00
02
7D
7E
79
05
01
02
7F
02
7E
00
7E
7D
7E
7B
7E
7D
01
02
00
7E
01
00
7E
01
7F
02
7D
00
7D
00
02
01
7D
7F
02
02
02
00
01
00
02
7F
01
7D
7F
7D
00
7D
7D
7E
00
02
7E
02
7F
7E
7E
01
7F
7D
01
02
7F
7D
00
7E
00
02
03
01
02
02
7E
01
7F
7F
00
01
7F
7F
01
7D
00
00
7F
7D
00
7F
01
02
7F
02
00
01
7F
7D
7E
7E
7F
7F
7E
01
00
7E
01
00
7F
7C
00
78
00
7D
7E
00
7C
02
7B
02
00
01
03
00
00
7E
05
00
7F
02
7B
7F
01
7D
07
7F
76
7B
01
7E
01
7C
03
05
01
6B
0B
7D
01
00
01
05
00
00
79
7E
00
7E
7E
09
7C
7F
05
02
79
05
0B
7E
03
00
02
7B
7F
7C
7E
02
7C
0F
03
02
7C
01
00
6C
7E
00
7B
01
7F
7D
7C
7D
02
7E
7D
00
7D
01
7F
7F
7D
7D
00
7F
00
7E
7F
7E
7D
03
7C
00
7E
7F
7E
7C
7E
7F
7F
7E
02
7F
02
7F
01
7E
00
00
02
00
01
7E
01
7D
01
00
00
00
7E
7C
7E
02
7C
02
02
7F
02
7E
7F
00
08
04
01
00
7B
07
03
7F
57
01
01
69
06
03
6C
01
03
7D
01
7C
04
06
02
17
1E
7F
05
01
03
01
02
03
00
02
03
7D
79
78
7F
01
03
02
02
7D
00
01
77
00
7E
7D
00
02
7D
7F
7A
7E
65
01
00
03
7B
77
7E
00
00
7F
7F
03
09
0C
7E
7F
79
00
01
14
01
00
6C
00
04
7E
02
7E
01
03
7E
11
7F
00
75
03
7B
7E
03
02
0D
06
02
01
74
05
00
00
07
7E
7F
0C
7D
02
07
7D
7D
02
7F
01
01
7D
00
03
77
00
7D
00
03
73
00
7E
7D
7F
7E
01
01
7E
02
7F
02
7D
7E
01
02
7F
03
00
01
7B
01
7D
00
7D
7D
02
7E
00
01
7F
01
00
7E
01
01
03
01
02
79
7A
02
7E
64
02
7F
7F
7F
7E
71
02
7D
0A
00
7B
7F
01
00
7F
03
7E
0A
02
01
7B
02
7F
05
03
7E
7F
7F
05
00
00
66
00
04
6A
01
7F
7B
7D
7F
02
01
7D
01
71
06
01
01
03
00
01
7B
77
7F
03
09
01
01
00
69
02
02
7E
06
00
05
0E
7C
7E
01
7D
7F
7B
03
04
03
01
78
79
7F
00
79
7E
00
75
02
7E
06
01
00
7E
0A
79
03
7F
71
02
01
0A
7D
01
01
7E
7E
03
7F
7F
7C
02
7E
04
7E
00
0B
7E
02
09
00
00
7D
00
00
00
7F
03
01
03
7F
02
7F
0A
04
00
7E
7A
04
7B
00
7B
03
02
7F
0A
7F
01
6D
7E
00
75
7E
02
07
00
7D
7E
74
7E
02
7F
0A
00
04
03
00
7E
03
00
7E
7E
03
00
7E
7A
7F
76
7A
7F
00
7D
7F
00
00
00
02
00
00
02
03
05
7E
02
7D
00
7E
05
7E
00
7A
7B
00
7D
7F
7F
7C
00
7B
7E
7F
7E
7C
00
01
02
03
7D
7D
7F
7F
02
7E
77
06
7F
6B
7D
01
7C
07
7D
6A
02
03
04
02
00
03
07
0C
6F
11
7E
08
7D
06
77
00
00
02
07
00
7F
75
03
02
7E
5D
7E
00
6C
08
00
6F
03
02
04
06
7C
03
03
05
77
0D
02
0A
00
09
04
7F
01
7E
7E
02
01
76
7F
01
7F
76
02
01
08
7F
04
72
01
02
05
04
00
00
0E
7C
03
00
00
05
01
04
7D
02
00
7F
7E
7E
7E
7D
7E
7F
02
7F
7F
7E
7D
00
7D
02
7E
7E
7E
7E
00
02
01
7C
7E
00
7E
7E
03
7E
01
7E
7D
7B
7F
7F
02
04
7E
03
00
6A
00
02
7B
7C
7E
71
7E
01
04
03
00
00
0B
16
19
79
01
76
01
03
6F
01
01
02
01
7E
04
7C
08
02
7D
6D
7E
7E
7C
00
03
78
7D
01
00
01
7F
03
75
01
7C
7C
7E
00
7F
7E
7C
01
7F
7D
7F
02
7F
01
7B
00
01
7A
02
7D
7C
7F
03
03
02
7D
00
00
01
00
7A
7D
00
00
01
02
7F
7F
7C
7D
7F
76
02
7F
7F
01
7B
00
03
7D
02
7D
7B
02
00
7D
7E
7F
7D
7F
7D
7F
79
02
05
04
7F
7D
00
7F
7C
01
03
7E
01
7D
02
7E
7B
7D
00
78
7F
7D
7D
01
7E
01
00
7E
02
00
7E
7E
7F
04
7D
02
01
02
7F
7E
7C
01
00
75
7F
02
00
00
69
03
7F
7B
02
7F
7D
7E
7E
7C
7F
7E
03
7D
7C
03
7C
00
01
04
01
07
7F
01
7E
00
7E
00
7D
7D
7E
00
01
02
7D
7F
03
7E
7E
01
02
02
02
00
7F
03
7E
7F
7D
01
7E
7D
02
7E
7F
01
7E
02
02
06
7C
00
7E
0F
7D
03
02
79
7F
7F
01
7F
00
79
7B
01
78
7D
7C
7D
7A
03
04
72
00
7A
00
7A
7E
7E
01
7D
01
7E
01
7F
7E
01
02
01
7E
7D
7D
7F
7F
01
7D
01
02
01
7C
02
7F
00
01
7F
7F
00
00
01
01
7D
01
08
00
7E
00
60
14
00
01
7C
7E
02
04
7B
01
10
06
03
01
00
01
02
66
02
07
7E
01
01
00
7F
05
01
7F
7E
08
7D
7E
79
07
06
7F
6E
01
00
7B
04
03
70
7D
01
7D
7F
7F
01
04
02
15
0B
01
7B
7E
7A
04
00
7E
06
7E
7F
00
07
01
7E
00
00
02
02
05
74
7B
7C
04
06
04
00
7E
00
7B
05
0D
7B
7F
00
7E
7E
79
7F
02
09
7C
02
01
7D
0A
02
01
77
01
02
00
7D
7D
68
7F
02
01
7E
01
00
01
00
73
75
00
01
02
00
00
02
01
6E
00
02
7D
02
74
7F
02
01
00
01
77
00
01
7E
01
7F
04
01
02
7F
76
7B
0A
7E
7E
03
7E
03
06
02
01
7C
7E
00
02
02
7F
7E
7D
7C
7F
7E
03
7D
02
7C
01
7E
02
01
7D
7E
7E
01
7F
7E
7E
7E
00
7D
00
7D
7E
76
7A
04
00
0D
0B
04
00
77
03
01
7C
7E
7E
74
7D
7F
7E
00
7F
7E
00
03
7B
00
7E
10
01
03
04
7F
7D
79
7F
01
02
7E
7E
7D
00
7E
7E
00
7F
01
7D
01
7D
01
7D
7F
7F
7E
76
7E
03
7A
7D
01
7F
00
7D
02
01
02
7D
00
7D
67
13
00
02
04
7F
06
14
73
7F
08
7B
02
77
02
01
7F
7B
78
7D
7A
03
79
03
03
00
7E
01
7F
01
01
7E
7B
79
00
7F
00
01
00
7A
7D
02
02
7D
00
79
02
04
02
00
7D
02
7B
03
7F
02
01
7E
03
02
7E
7E
02
00
7F
7D
7F
01
03
00
01
7D
01
7E
03
01
7E
02
7F
02
7D
00
02
7E
7E
7E
02
7E
7D
02
01
02
7A
04
7F
7E
00
7F
01
01
76
7E
01
6B
00
04
79
7B
04
7A
7D
7B
01
04
00
15
05
01
03
7E
7F
73
01
7F
79
7D
7E
02
7F
09
7D
7F
05
00
7E
0B
7E
7F
7E
01
7F
7E
00
01
02
00
04
02
7D
01
00
7F
7D
7B
00
7D
0C
02
02
7E
6D
14
00
7F
06
00
7C
0B
02
01
06
01
02
7F
7F
7E
7D
7F
7A
7B
75
01
01
7E
02
6D
7D
01
7F
7E
7E
01
7D
7F
7F
7E
00
01
02
00
00
01
7F
02
00
01
7E
00
7F
00
7E
01
7E
02
7F
01
7F
02
7E
7E
00
7E
7F
7F
00
00
7F
02
7C
02
7E
03
02
7F
7E
7F
00
7D
01
7E
7F
01
7C
7D
7D
00
7B
00
02
03
7E
02
12
7D
03
7F
02
15
01
00
77
00
05
09
7F
00
03
04
02
00
03
00
7F
10
7F
03
7D
00
00
7F
04
03
7E
02
7F
02
00
7D
01
7F
7D
01
7D
02
7C
7F
00
02
03
00
7D
7D
7F
7D
01
7C
01
01
7D
03
7D
02
01
7E
01
03
0A
06
7F
02
7D
0A
7F
00
5E
01
03
7E
06
02
69
06
01
08
00
7C
04
05
00
0E
18
7F
07
03
01
7E
7E
7E
6F
7F
7F
00
76
0A
7F
02
79
01
07
0D
7C
00
7C
06
01
00
00
02
02
6A
7D
78
78
00
09
7E
05
77
7E
03
7A
7F
01
7D
0C
7F
7F
02
07
01
7E
7B
7D
7D
09
01
02
7F
7F
7F
02
71
77
02
7C
00
04
00
7E
01
7F
7F
08
03
01
7E
7C
09
08
00
64
02
00
07
03
7F
6B
00
00
05
02
7E
02
04
7E
7A
51
7E
7B
7D
06
02
7F
7E
7D
7F
7F
00
79
00
00
7F
73
7F
02
03
00
02
6F
00
05
7D
02
7E
01
09
76
0A
7B
00
79
01
7B
01
05
01
02
03
00
02
7A
0B
7E
00
74
00
7F
19
7D
00
69
78
00
7D
7D
03
02
09
7F
20
7E
02
79
7E
77
7C
00
7E
6D
7E
7F
7F
75
0C
76
7F
76
02
06
00
7F
7F
6E
02
7E
7D
7D
03
01
68
74
7C
7E
7E
0D
02
01
6C
01
7F
76
00
01
01
00
79
7C
7F
7F
02
7E
7D
05
7F
7C
7D
01
03
7B
00
01
7A
08
03
01
02
00
7E
7E
00
7E
7E
7E
00
7F
01
02
00
00
7E
7E
02
7C
01
7F
7E
03
05
02
01
7D
7E
7D
7F
01
02
00
01
00
7E
01
01
7F
7E
13
7D
03
7D
7B
7E
7F
7F
02
7F
02
04
05
7E
00
7C
7D
7D
7E
05
7F
12
04
09
00
02
7B
00
08
02
7E
7D
02
00
7E
01
7F
7F
00
7E
79
00
01
08
00
01
7B
7D
00
01
7E
00
01
7E
7B
7A
7A
01
02
7F
01
7B
7F
7E
06
00
7F
03
19
79
78
02
10
7E
77
7C
7F
00
09
7F
00
7A
7D
7C
01
75
06
7E
7F
01
03
02
7C
18
7C
7F
7F
00
7E
02
70
01
05
7E
6D
7E
00
7B
06
03
69
00
00
08
7F
01
7F
0F
77
7B
7D
7E
06
7E
04
7F
00
01
00
7F
7E
00
7D
7F
01
7D
7F
7F
01
7C
7E
02
01
7D
02
00
7F
7F
7E
7A
00
00
7E
7F
01
00
7F
7C
7F
01
7E
00
7E
7E
7C
7C
7E
7F
76
00
7E
12
7F
00
7A
7D
7F
00
02
00
7F
7B
01
03
00
7E
7D
7E
7B
7D
7D
7E
00
02
02
00
00
00
02
7F
7F
7F
00
7F
01
7F
01
7D
02
7E
01
7E
01
7F
00
00
01
00
00
00
00
01
7F
01
76
7E
7F
01
01
78
02
00
6F
7F
01
7B
03
00
74
05
00
7F
05
7C
04
09
0A
78
19
02
0D
02
04
79
01
01
7A
7F
7E
01
6D
73
02
7E
59
7E
7F
7B
02
7F
6A
00
7C
06
7D
7B
03
01
7F
7F
04
7D
02
7E
01
09
02
00
06
00
00
01
05
66
03
7E
04
00
77
0D
0A
7C
05
7A
04
05
7C
77
00
08
7A
7C
02
01
02
7D
05
7F
7E
03
7D
7D
02
7F
7D
0E
7D
7E
73
00
7E
06
7C
02
00
02
01
7D
02
7F
03
7F
04
11
7E
03
7C
7E
7D
76
00
7E
0A
00
01
7D
74
01
7F
01
08
01
7E
7D
01
03
00
02
7A
08
7D
00
7F
7B
7E
7F
75
01
01
01
00
02
00
7E
01
00
7F
00
7C
0E
02
7E
01
00
79
74
05
7D
7E
06
02
7E
7E
7B
02
7A
7F
02
00
02
7D
02
7E
7A
02
7F
03
01
7E
02
03
6F
06
7E
78
7F
7C
14
7D
01
01
03
7D
7C
7E
00
00
7B
77
7A
00
01
7F
7D
7B
70
7D
03
1B
05
02
7E
7E
63
03
04
6E
00
74
10
02
7B
7B
00
02
02
7F
7B
00
12
7F
0D
7F
03
00
7E
06
7A
7F
7E
05
01
00
7F
7D
0F
02
02
68
01
7D
7E
7F
00
78
7D
00
7F
04
00
02
7F
03
68
78
02
7C
7F
7C
00
7F
02
04
00
7E
7F
75
1E
7B
01
04
01
09
05
0C
03
7E
7A
02
78
00
09
7E
69
7E
7F
79
7F
7E
7E
01
55
7F
00
07
01
01
00
7F
0B
02
01
7F
7F
7D
01
06
02
00
07
01
00
00
7E
00
77
7E
7D
02
7E
7E
7F
7F
7C
7E
02
0D
00
7D
02
7B
05
02
01
03
01
7A
09
01
01
06
01
00
7B
7C
7E
00
7C
7B
03
00
00
01
7E
02
70
03
00
04
7C
7D
7E
02
7D
7B
01
69
00
7A
76
05
00
7D
7D
01
02
04
06
03
7D
7F
00
79
7F
7C
7F
7E
00
02
7F
05
04
7D
00
75
0D
02
02
09
01
02
09
01
7F
0A
00
7C
7F
7F
7F
03
76
7A
7D
78
03
7E
7D
01
75
7E
00
00
7E
7F
02
7D
7E
7F
7F
7F
7D
7E
00
00
01
7D
02
02
00
7E
01
00
7D
7E
03
7B
02
02
01
01
7E
02
01
7C
7F
7F
7F
7D
7C
02
01
7E
02
01
01
00
7E
7F
02
7D
00
03
7D
7D
79
01
7E
7E
7E
7D
7D
7E
00
01
7E
7F
03
7F
7F
74
06
04
7E
64
00
02
68
05
7D
76
02
02
7D
03
7D
04
06
09
1A
19
7D
02
7F
09
09
7D
7F
14
7E
7F
7F
7D
7A
02
01
02
01
7E
00
08
7F
01
7F
02
7E
02
03
7F
06
7E
01
01
00
01
7D
05
04
00
01
00
02
02
01
7A
0A
7D
02
79
01
00
13
7C
00
7A
00
01
08
7B
04
02
01
00
19
7E
01
74
02
7C
7B
7F
7F
7B
7D
7E
01
7F
02
01
7E
7D
7F
7D
01
7E
7F
02
02
7D
7F
02
00
7E
7D
7D
05
7F
03
01
00
7E
00
7E
7F
7D
02
7F
00
7E
7E
01
7F
00
7F
7F
01
7E
01
7F
7D
7E
02
7C
7E
00
00
02
7F
7D
7E
7E
02
7E
7D
00
03
7C
00
7E
00
7F
01
01
01
7E
7E
7D
00
7E
7F
7D
01
02
02
7E
7F
7E
7F
7D
7E
02
02
01
7E
7D
00
7F
00
05
01
7F
7F
7A
04
7F
7E
02
00
7F
0C
00
03
0B
7D
02
7A
04
00
03
7E
7C
7B
7D
01
7E
02
04
79
01
00
00
02
7F
7E
73
0C
04
7E
09
02
00
0E
7D
7F
01
00
7E
04
7D
05
00
04
7B
6D
4F
7F
7E
7E
00
75
01
7D
13
01
7F
00
68
10
06
7E
7E
00
03
78
01
05
07
01
7E
78
7C
7D
02
7E
00
7D
7E
03
78
7E
01
62
02
01
7F
01
01
7E
7C
00
01
01
7E
7F
01
7F
00
7E
7F
00
02
7E
01
02
7D
7F
7E
02
7C
02
02
01
7D
01
01
01
00
04
00
02
72
7F
7C
00
71
02
02
68
01
7E
73
05
00
04
7E
7E
00
04
04
7B
00
7E
01
00
7D
03
05
7E
7D
7B
7F
7F
10
77
02
7E
06
03
7F
7E
7D
02
05
02
00
7D
7E
7B
7C
7B
7F
00
7A
7F
7D
7F
01
09
02
02
02
7E
03
02
7E
79
7F
7F
79
7F
7E
7D
7E
00
7B
7E
00
00
01
02
7F
7E
7E
02
6A
7E
01
01
01
7A
7E
02
76
07
7F
7F
75
0C
7C
01
74
02
03
0B
04
01
5B
74
7E
01
7F
02
7D
00
7C
0E
7D
01
77
7F
7C
08
01
02
1A
02
00
02
09
6C
08
7E
7D
7F
72
12
79
7B
00
7F
01
77
00
79
7F
0B
01
78
7C
00
79
00
03
55
7F
7E
03
03
7F
7F
19
71
7E
7E
04
03
7F
7C
00
7D
01
7B
01
7E
01
7E
7A
00
04
03
63
01
7B
01
06
1C
7F
01
69
7E
02
7F
79
03
00
7D
76
03
00
0C
7C
02
76
02
78
09
78
03
7B
6F
79
06
76
03
7C
7F
7D
00
00
7F
7D
7D
02
01
04
75
02
7D
7E
01
00
72
7A
7D
7E
7A
7E
7A
00
7C
7B
03
03
05
6D
7E
70
03
7D
04
01
01
7E
00
00
00
01
00
7F
01
02
03
7D
00
7F
02
7F
00
01
7D
01
00
7E
7E
00
7F
00
7E
7D
01
7E
00
7E
02
00
02
02
00
00
7C
7C
01
7E
02
7F
7D
7E
00
00
7E
7F
7E
02
7E
01
00
7D
7F
7D
7E
00
7F
01
7E
01
03
78
01
02
00
02
01
01
03
7F
01
03
7C
7F
02
7D
7C
01
7C
01
02
02
03
00
11
00
7D
02
7F
7F
7C
02
7F
75
7C
02
01
77
09
00
7F
01
02
7D
0E
73
02
05
00
03
02
01
04
7E
01
7B
6A
5D
02
05
7E
04
78
7F
7E
7C
7F
7E
7E
02
7E
7E
7F
7D
01
00
7D
02
02
7E
7F
00
7E
7E
7D
7E
7B
02
00
7D
7F
01
7E
7E
7D
7F
00
7B
06
01
7F
6D
00
7D
02
77
02
00
66
7B
7F
70
01
7D
7B
02
7C
02
04
00
11
13
00
00
00
7E
05
04
00
7E
7F
7F
00
01
7E
01
7F
00
7F
7E
7E
7E
02
00
01
01
01
7F
7F
7E
01
7C
00
7D
7D
01
02
00
7C
7D
02
00
02
7F
7D
01
7D
7D
00
00
7D
00
02
7F
7D
02
7F
7D
7E
01
01
7D
01
00
00
00
02
7D
7F
00
7D
01
7F
02
01
01
02
7D
79
05
7F
75
01
7F
6F
7D
03
02
77
7D
74
7F
7C
7F
03
01
06
6E
00
74
7E
02
12
7F
7E
01
7D
7D
7F
7F
00
01
00
00
02
7F
7F
7E
7F
01
00
7F
01
01
01
03
7E
7D
7D
7F
00
7E
00
7D
02
7F
7F
00
7F
7F
02
7D
05
02
00
73
00
03
01
03
00
76
00
01
7F
01
7F
02
0A
76
09
7D
7E
7B
02
03
74
02
02
7D
7F
00
02
01
03
01
7D
7D
7E
7C
01
7F
01
79
7F
7D
01
04
01
7D
03
7C
00
02
7E
03
03
7F
0C
00
7D
7D
7E
7E
7F
7D
01
7D
7E
7E
7E
7F
02
01
7D
00
7F
7E
7F
00
00
02
7E
02
01
7D
01
01
01
01
00
7E
01
7D
03
01
7F
7F
7F
7D
00
7F
02
7C
7E
7E
7E
01
03
02
7F
00
00
02
7F
01
01
7D
7E
01
02
01
01
7F
02
7F
00
7E
7E
01
00
00
00
7C
00
00
01
7E
00
7D
7F
01
02
7E
7D
7F
7B
7E
7D
7F
7F
7F
00
7F
01
00
03
04
00
7F
7F
7B
7E
06
02
6E
00
7B
09
03
02
76
00
01
7D
00
7F
00
7C
7C
7A
7B
00
00
7F
7D
7D
00
01
7D
00
00
7E
7E
7C
7F
02
7C
01
7E
7F
03
02
7F
08
00
02
01
00
7E
7A
7D
03
7D
7E
01
00
7B
7D
01
02
71
7C
7F
00
71
06
05
7E
7C
7E
7F
0C
73
01
7B
03
00
00
7D
05
7E
78
77
7A
6C
7E
7F
03
09
73
01
7F
02
00
7F
00
0C
06
03
7F
02
7E
7D
01
7B
02
02
7F
04
7D
03
02
01
7D
73
06
7A
02
07
7E
7D
0F
7E
02
7C
7F
00
01
7F
0B
03
7D
7D
01
00
09
00
7F
04
00
01
79
7C
7F
00
01
7E
0F
78
7F
7D
02
7F
72
7E
02
03
03
02
7D
61
04
01
03
0D
01
03
03
7E
04
09
01
7D
05
00
05
03
02
01
7C
6F
02
7D
02
02
6B
02
7D
00
03
7F
7F
75
03
01
7E
5D
7D
03
73
78
03
7A
0A
7F
07
03
7E
7F
03
03
74
05
00
7E
02
04
02
01
7F
7C
7D
7E
7F
7E
09
02
7F
7E
02
7D
00
08
7D
7F
08
02
7F
01
7D
01
79
05
03
07
7F
7B
7F
02
7B
7E
7E
7C
02
7F
00
00
0F
00
03
7A
03
02
0C
00
01
7E
7E
03
7A
00
00
7E
7F
79
12
01
01
75
01
7E
74
02
01
7D
06
02
00
73
04
01
7D
6B
7F
02
67
7A
7F
77
00
7E
7E
00
79
7F
05
05
11
17
7E
0B
01
04
0A
03
7F
01
7F
00
7E
04
7C
7D
00
79
01
02
7D
06
7F
7A
04
7E
7E
03
7D
00
7D
7F
03
7B
7E
06
7F
7D
77
7D
7E
01
7C
7F
00
7C
7F
04
00
79
00
02
02
7F
7F
7F
00
00
7D
7F
7C
7C
7E
7F
7E
7F
7D
7D
7E
00
7B
00
01
7D
06
7F
01
01
01
03
7F
71
02
7F
70
02
00
71
06
7E
7B
03
7F
00
05
01
19
0D
7F
01
01
02
74
7F
7E
0A
01
02
7F
7C
7C
02
02
08
7E
03
7F
7C
7F
79
7E
7C
7D
01
7F
7E
7F
00
7A
6A
00
01
03
7D
76
7F
02
7F
00
7E
03
07
03
00
03
09
7E
7E
7D
04
02
0A
7F
04
7A
7F
7F
7E
70
7B
7B
05
7D
7F
03
7B
00
7D
7F
0E
08
7F
01
02
15
06
02
5E
03
03
00
03
7E
67
00
02
06
7E
7B
05
02
7D
0D
7E
7F
7B
01
01
7D
00
7E
03
07
02
7E
78
7F
7F
7E
73
03
7E
06
7D
7F
63
7D
7E
02
02
7E
7D
06
75
17
77
7E
02
00
78
04
00
7F
7E
7D
00
01
7F
02
02
01
03
01
7D
7F
01
00
7E
7D
7E
01
01
01
01
7D
7F
7E
7F
02
02
01
01
00
01
00
05
00
7E
01
7A
05
02
7F
03
01
02
7F
02
00
07
7E
7E
7C
7C
01
7E
75
78
7A
03
7F
00
02
00
79
7F
00
7F
02
7F
7F
00
07
7F
7E
7E
7F
7D
7E
7C
7F
02
03
7D
7C
7C
7E
7D
00
7D
7D
01
7F
00
03
02
7C
7E
01
7E
7D
7F
02
02
7D
02
02
7C
7E
77
7E
02
7E
7C
7B
7F
03
7D
00
01
01
7E
7E
7C
02
01
02
00
7C
01
7E
7E
7F
7F
00
7E
7E
7E
7E
7E
7F
7C
01
7D
02
7F
7D
7C
7D
00
00
00
7D
7D
7E
7D
7E
7E
7E
02
00
7F
00
07
00
7E
7F
78
07
03
7F
0A
01
00
7C
03
00
0B
00
00
7E
01
7C
7F
75
05
0A
08
7E
79
02
02
71
00
01
7F
7D
02
7F
01
7E
7F
7E
7E
02
02
7E
02
7F
7E
01
01
00
7E
02
02
01
7C
7D
7D
7E
7F
00
01
01
7E
02
7E
02
03
7E
7D
00
02
01
7F
00
01
05
05
01
02
7D
7F
7F
7E
00
02
7F
7E
03
7D
7D
7F
7E
04
7C
01
01
7B
00
00
00
7B
63
02
7F
70
02
7D
77
7A
02
73
7F
01
0D
01
7B
7F
7E
02
7E
08
7F
07
7F
06
7F
00
00
09
7E
7D
03
7E
0D
7D
01
70
7E
00
07
7F
7F
01
01
02
7E
7F
7E
01
03
06
0F
7D
7F
78
02
7A
7A
02
7E
0F
04
7F
01
01
0D
01
7F
5D
02
7E
0A
01
7E
6D
7F
7F
00
01
7D
03
02
06
0C
7C
7E
7C
03
01
7D
02
02
05
01
7E
00
7A
09
00
02
5A
02
01
75
7B
7E
70
00
02
02
04
7E
7F
04
00
13
7E
7E
79
7F
03
7E
00
7F
7E
7E
00
01
7F
7D
00
02
64
7D
7F
00
01
01
70
04
02
06
03
7C
03
7F
7B
05
7E
00
05
7E
7F
00
02
00
7F
7F
7D
00
01
02
7E
02
7E
7F
7E
02
7F
01
00
01
7E
01
7F
7F
02
7E
7F
00
00
00
7D
7F
00
7D
01
7F
0A
00
7E
7E
07
7B
7D
02
7A
7F
00
01
09
01
7B
7E
01
7C
02
02
03
7D
7E
7E
7C
7E
01
03
7E
01
01
00
01
7E
7E
02
7F
02
7D
01
7D
01
03
01
01
01
77
00
02
7E
01
01
03
01
7B
7F
7A
00
7A
7F
7B
01
02
00
01
05
01
7E
71
7C
04
02
04
01
7E
6F
7D
00
08
01
01
06
7C
7F
03
02
01
7C
06
02
0D
01
7E
76
03
7E
79
7F
7E
01
7C
08
7D
7F
76
01
02
00
7F
03
75
02
7F
06
7D
03
7D
68
7F
03
6D
7F
7F
00
01
74
7E
02
02
01
7F
02
74
7A
7B
7E
13
00
04
6C
02
00
02
7E
01
00
03
01
7E
01
68
7C
74
7D
79
7F
03
7A
02
01
7A
7B
01
00
7E
0A
00
01
77
01
7B
7D
0B
7F
7C
03
03
7E
02
79
7F
00
73
13
05
7D
7D
01
7D
69
00
02
00
02
01
01
77
05
7A
7E
73
7F
7B
7D
7F
7A
7C
00
00
04
01
01
00
05
00
0D
02
7E
00
7E
7D
00
00
00
08
7F
00
7D
7D
02
00
01
06
7D
7F
00
0A
03
7F
06
01
07
7F
7E
01
7D
7B
02
7B
00
7D
7F
01
7A
00
01
7B
01
7E
7D
75
7E
7F
7E
77
00
01
18
02
01
6F
05
7E
05
03
00
02
03
77
07
02
00
7E
7F
01
06
01
01
7E
07
7F
00
7A
6F
7C
01
77
00
7F
11
01
02
5E
00
7F
01
01
7F
7E
08
5C
6A
68
02
02
02
76
7F
7F
00
6E
7E
7F
7E
08
07
00
00
02
7F
7F
05
75
7F
00
02
01
11
00
06
04
73
75
0F
6D
7E
04
01
7E
79
00
7E
78
00
00
7F
7F
74
02
7F
02
00
7E
7B
00
01
7F
7F
01
7A
7A
7D
01
7C
02
08
04
01
00
7E
00
7D
7F
7E
73
01
7D
01
78
07
01
7E
76
7D
06
61
01
03
6B
07
03
7F
01
04
00
7C
77
7A
07
03
7D
03
02
73
7F
7F
75
7D
7F
02
7F
7B
02
02
7F
7F
7F
7D
02
01
7C
7A
7F
7E
7E
7B
01
7A
7D
05
06
02
00
7D
7E
79
7E
01
00
01
02
00
02
0F
01
7F
6F
7E
03
72
00
01
00
01
02
01
01
03
03
72
01
7D
7F
00
7A
02
7E
79
7E
01
7B
01
03
7E
00
7E
7E
00
7F
01
7D
01
02
7D
00
02
01
00
01
01
01
7D
7D
7E
7C
01
7D
7E
7F
7F
7E
7D
7B
02
00
7F
74
7D
00
7E
64
00
00
7E
7C
7F
72
04
7D
05
00
7E
7F
01
7C
08
7E
7F
7E
01
04
76
7F
01
01
7D
7F
01
7F
7E
00
02
7E
7E
00
02
7D
01
01
02
02
7F
7E
00
02
7D
7E
04
7B
7F
7E
7F
7D
7F
02
02
00
01
00
7E
04
73
00
03
7F
02
7C
03
05
01
7F
02
7F
04
01
7B
01
7D
7D
01
02
03
7F
03
7B
79
7E
00
78
7C
7E
00
02
77
02
02
7D
00
7F
78
01
7C
7C
77
00
7F
7A
79
05
78
07
04
06
02
04
7E
00
00
00
7D
71
02
00
00
7B
69
7D
7D
66
02
02
73
7E
02
7B
03
7C
08
02
7D
01
00
04
79
08
02
7E
7F
06
06
03
7E
7E
7D
02
01
01
02
7D
7D
7F
7F
00
02
7F
02
7F
02
7D
7E
02
01
7E
7E
7E
02
00
7D
7D
02
01
01
01
7E
7E
02
02
01
00
7E
7F
01
7D
01
7F
00
00
7E
00
02
7E
7D
7D
03
7D
7D
7F
7C
7D
01
01
7F
7F
7F
02
7F
76
7D
01
00
00
08
7F
00
73
7F
00
00
75
7F
01
7E
02
00
00
01
7F
75
76
09
72
7F
7B
03
7F
7E
7F
01
04
00
00
7F
75
7C
7E
7F
6F
01
7E
79
76
00
7F
07
7F
04
03
7F
7D
7D
75
0E
7E
01
77
03
06
01
02
01
7F
7B
01
01
0D
77
7F
7E
7D
01
03
71
7D
7D
01
7A
02
7A
7F
7C
7B
05
02
03
6C
02
76
7E
04
03
00
7D
78
7E
01
7F
11
04
00
7F
75
02
7F
03
7F
7F
70
01
00
7E
01
00
7D
09
06
7F
02
02
06
7E
7F
0A
7E
02
05
05
01
03
77
0D
00
7F
75
02
03
7C
00
00
5A
77
7C
03
7D
7F
7E
05
7C
0B
76
7F
7D
7E
77
7E
02
7F
74
7A
7D
00
0D
7A
03
00
73
03
7F
07
07
04
7B
7F
01
7A
02
7E
7F
04
7C
02
7C
7F
7F
7F
7F
68
02
02
0D
7D
01
7F
7D
07
02
00
61
7F
7E
05
02
04
79
02
01
7A
07
7E
03
09
03
0A
7D
7F
79
02
03
7A
7D
7D
7A
7D
02
7F
7D
00
7D
02
7E
02
01
13
7C
7D
7F
01
03
7E
7E
7D
7F
02
00
0B
01
03
68
01
7B
70
00
01
11
04
7F
7E
75
0B
08
7F
5F
02
03
71
08
7F
70
07
02
06
01
7B
7E
07
07
78
0E
00
7F
00
7F
08
7E
01
07
7E
7F
00
1C
76
7C
7E
07
7F
7C
7C
00
7F
08
00
7D
00
02
01
7F
7E
09
04
73
03
03
7E
7F
15
7E
7F
02
00
00
7F
7E
7F
7F
01
02
01
7D
7F
7F
00
7E
7D
00
7F
7F
00
7E
00
00
7D
01
00
00
00
00
7D
00
02
7C
04
01
02
6F
7B
00
7F
5A
00
03
6C
7D
00
71
05
00
05
02
7B
7F
06
05
0F
16
7D
0B
7F
0A
03
7F
00
7F
7D
7D
01
03
10
00
7D
05
7E
01
02
75
00
08
06
03
06
04
01
02
71
7A
7A
7A
7F
7E
7E
02
7D
01
7F
74
03
7F
01
75
7B
03
03
70
7D
00
01
7E
7E
79
00
7E
0A
7D
7F
03
7E
05
01
7F
00
14
02
02
05
01
02
03
01
7E
02
7B
0E
00
02
5D
01
02
74
7A
03
72
7E
7E
09
02
7F
02
7E
7F
76
7E
01
7B
01
7C
05
01
01
01
00
7D
01
02
00
00
7E
7D
7E
00
7F
7E
00
7D
00
01
7E
02
00
01
7D
01
7F
00
01
7D
00
03
7E
7F
01
7E
02
03
00
00
01
7F
7E
7D
00
01
01
02
02
7C
00
7E
01
02
01
7E
7B
7F
7F
02
00
00
02
00
7D
01
7D
03
7E
01
7F
05
7C
7D
02
7F
7E
7E
78
01
01
0B
7F
02
07
01
7E
7F
02
7F
6B
70
7F
7C
7F
77
7C
01
7F
02
7E
00
03
7C
03
7E
02
09
02
01
06
7F
7F
7B
7F
00
00
7F
00
03
04
01
71
4E
7D
7F
02
7B
7C
7D
02
78
04
7F
03
73
79
7D
7E
7A
02
7F
7A
7E
00
6B
05
7E
7D
03
7F
7F
7D
00
75
04
7E
7C
01
03
09
01
03
7D
7D
00
02
7D
7E
00
02
7F
7F
7E
02
00
7D
01
7E
01
7F
7E
7E
00
02
7F
00
7E
7E
03
01
02
01
7F
7F
74
7D
7E
7F
00
78
04
7E
7E
7D
7C
7C
7F
01
7A
7B
02
7E
7E
79
00
7A
06
03
07
7E
02
01
7F
7E
7D
00
0E
04
7E
03
7E
06
04
02
67
7F
00
7C
07
02
6C
07
7F
03
00
7E
00
06
7F
0C
00
7E
77
01
00
7F
7F
7F
79
7F
01
02
7D
07
02
7F
73
7E
01
75
7D
03
7D
78
7E
79
7C
7B
7A
06
02
09
6E
00
72
7E
03
12
01
00
05
00
02
02
04
71
03
7E
7E
7F
7A
08
03
02
7E
7F
01
04
01
78
02
0D
66
79
68
00
02
00
7D
7B
02
7F
75
7F
03
02
0C
0B
7E
02
7B
02
7F
0E
01
02
76
7B
04
79
01
7C
7F
05
09
15
00
00
70
02
79
0A
01
7F
07
01
03
01
76
06
01
7F
6C
03
02
6E
7D
03
70
7D
7C
07
7D
7E
7B
03
7B
10
6C
7F
7C
00
7B
02
03
01
00
02
7E
7E
7E
02
7F
7E
00
7F
7E
00
02
02
7D
02
7E
7F
7E
00
7E
7D
7E
00
7C
7E
7E
7F
7F
7E
00
00
75
01
7F
03
02
70
7E
7D
77
7E
00
7B
00
7F
0A
78
7D
7F
7A
7C
03
78
05
05
06
02
09
7F
7F
7D
03
01
02
00
01
7E
7E
77
7E
7E
02
02
7F
7C
06
7D
02
7D
7F
7A
01
7E
00
00
7F
00
7D
02
7E
03
02
02
7E
7E
0D
04
00
02
77
04
7C
02
74
7F
7B
00
02
02
7C
00
03
02
01
01
7F
7D
09
7E
02
03
00
03
7F
7A
7E
03
78
00
00
01
7D
76
02
03
79
02
00
0C
7C
7E
04
01
7F
04
03
03
7E
77
70
11
70
00
7D
7F
01
6A
7E
7F
7E
05
7F
7F
7F
7D
03
00
6E
03
7D
77
01
7F
6E
01
01
78
7F
7E
00
05
06
17
0A
00
08
7E
7C
7E
00
00
04
03
03
00
7D
7C
02
00
05
01
7F
7A
7F
7E
7E
02
7D
7B
7E
00
7D
7B
7D
7A
7C
7E
7F
7D
03
7B
7F
7E
0B
7F
03
01
7C
78
00
03
7F
02
7C
7E
06
7B
01
00
01
09
7E
7C
03
09
7B
06
7E
00
05
00
04
06
7F
02
08
03
7D
01
72
08
00
00
06
02
7B
7C
04
02
0A
01
7F
00
7E
01
00
78
7D
02
7C
02
00
7F
7F
7B
00
03
7E
01
7F
01
01
7C
7E
01
00
02
7D
7F
04
7C
7B
7D
7F
01
01
7F
01
02
03
7D
7B
7E
7E
02
7E
7F
7D
7F
7F
01
04
7F
68
7C
03
01
06
00
04
09
00
00
05
04
7F
7F
7F
7F
00
7B
78
02
78
7E
03
02
04
7A
7F
7F
00
02
7F
7E
02
01
7D
01
7C
00
7C
7E
00
01
7C
02
00
01
02
01
00
01
7D
7F
00
7D
00
7F
7C
02
7E
00
01
7D
7E
7F
7E
02
7D
7F
01
7E
7E
02
00
03
7E
7F
01
01
00
7E
01
7F
7D
02
7F
7F
7E
7F
7F
00
7F
7D
7C
7D
03
7E
7D
7E
7D
7F
00
7E
01
7F
7E
00
7F
01
02
03
7F
00
02
7F
7C
7F
7E
00
7E
00
7D
02
02
01
03
7E
03
01
64
03
05
7F
0D
01
04
0C
7B
01
07
7E
7E
02
01
02
7F
02
7D
70
56
7F
02
7E
02
74
7E
03
78
7B
00
7F
06
00
05
7E
7E
01
7E
10
7C
02
03
7E
00
7E
02
03
01
7B
7A
08
6D
7E
01
03
7C
75
00
7E
7E
7F
00
01
03
7F
7F
01
7B
7D
7C
00
7E
03
7F
7E
7F
01
01
7C
02
7F
7E
00
7D
00
01
02
00
01
7F
00
74
7D
7F
03
01
76
01
7D
7F
7E
7B
00
03
02
02
7C
00
7C
7B
7F
03
7C
07
05
06
00
02
01
00
7C
03
00
02
00
03
00
04
79
7F
00
6E
7E
7D
00
7D
01
7B
7B
7D
7F
7F
7E
7F
7E
03
02
75
7D
7B
02
04
7C
7F
02
7D
03
00
7E
01
7B
02
00
7A
01
01
79
7D
7F
78
7D
7F
7F
03
7C
01
7F
01
00
7F
01
7D
00
7D
05
7F
7F
02
7F
00
7E
79
73
7D
7F
04
01
7E
05
7B
01
04
7B
7E
7B
7F
02
7F
7D
78
00
78
7E
7E
01
05
7A
00
7C
7E
7C
00
7D
01
7B
02
01
78
01
00
7E
7E
04
71
7F
02
02
04
7F
00
02
05
07
02
7E
07
7E
7F
0A
7F
7C
7C
08
7F
02
75
03
00
00
78
01
00
61
05
7F
60
02
7E
7D
04
7A
02
05
07
1A
1F
02
08
7D
06
07
02
01
7B
03
7F
01
7E
07
7F
02
6F
01
01
78
7E
7F
7A
7B
7F
78
7E
7D
01
02
00
17
05
01
7F
7F
7B
7A
01
03
76
79
02
02
7A
07
03
03
06
02
7E
0D
78
7F
06
7F
04
7F
7D
04
7F
02
78
71
5F
7E
03
7E
00
7C
01
00
6F
01
01
02
05
07
79
02
7D
02
00
70
7A
04
01
0A
00
7B
06
7F
7F
78
08
7F
7C
02
0B
7F
02
0C
00
03
7D
00
01
7E
01
7F
00
7F
7B
03
7E
02
7C
01
7C
7E
7F
02
7F
7C
00
7E
7B
04
7E
7F
7F
03
7B
7D
00
03
01
7E
7F
03
77
7F
03
02
73
01
7E
08
7E
04
6F
08
01
03
02
7E
01
08
7D
75
00
00
7F
02
7F
7E
03
7E
02
01
7E
7E
72
05
7F
03
07
03
02
0E
7E
7F
7D
7E
01
7F
00
07
02
06
02
13
7B
02
71
00
7F
74
7F
00
13
07
7F
7F
7D
16
02
00
5A
00
07
00
05
00
66
04
01
7C
03
7E
00
07
02
7E
0F
03
0A
02
04
7C
7F
00
79
02
02
01
03
00
02
03
70
02
00
6D
02
00
77
03
03
7D
7E
7F
00
04
04
19
07
00
00
7E
7C
00
7F
7F
7E
02
00
00
71
0C
03
7F
04
7E
07
14
76
02
08
7E
04
7C
7E
03
01
7D
7C
09
70
03
7E
01
7F
6C
7D
01
78
7F
7F
00
00
03
79
01
7D
7E
7D
7F
03
01
7F
0A
7E
01
7F
00
7E
7B
7D
7C
7B
02
7A
03
7A
7D
7D
03
04
02
03
7F
66
03
03
7E
08
03
05
0A
7C
01
04
02
00
04
7E
05
03
78
7B
7B
76
02
07
00
06
74
01
02
02
7F
7F
01
02
7D
7F
01
02
7F
7D
7F
01
7F
02
03
7E
7D
7C
00
7F
00
01
7C
7C
7F
7C
01
7C
7B
02
7F
7F
7D
03
7D
79
7F
7D
00
0E
7E
02
00
76
7E
07
7A
02
01
00
02
7E
01
78
71
53
7D
7C
7E
00
0A
01
02
06
01
03
7F
7E
01
00
7E
7E
01
7E
7F
01
02
00
7F
7F
05
02
02
7D
02
00
02
7C
02
04
01
02
01
00
01
7E
00
7E
7F
03
04
7E
7E
7A
7E
03
73
7B
01
78
06
00
01
7F
7E
7E
0B
7E
04
04
00
7F
7E
7A
7C
00
02
06
7E
00
03
08
0C
04
00
09
7F
7B
0B
09
03
0B
03
04
00
7E
01
7F
6A
02
09
02
02
7A
7F
7C
02
00
02
61
7C
00
00
02
03
7F
7E
7A
7E
7F
15
01
04
74
02
02
05
00
02
7E
74
7E
06
7C
7E
1B
03
7E
02
00
01
78
7B
01
03
00
06
04
00
78
7D
7F
06
0C
7E
7C
03
04
76
00
05
7E
01
79
0F
01
03
7E
7F
7F
6A
00

