FE
00
FF
FA
FA
0E
FE
FD
FE
F5
FF
F4
01
FE
00
FD
00
FE
00
FC
01
FE
03
FE
01
FD
02
FC
FC
04
FF
01
FB
FF
02
02
00
00
00
00
01
FF
01
FE
01
02
FE
FE
FD
00
FE
01
03
FE
FE
01
00
01
01
FE
FF
FD
00
01
FE
00
FF
FE
02
00
01
03
01
FC
FD
FF
FD
FF
03
01
02
00
FC
FC
00
FF
FD
FF
FF
FC
FD
FF
FC
FE
FE
FD
FC
01
10
FF
01
FB
FF
F9
F9
01
02
F0
01
00
01
FE
E4
00
F3
F7
FF
00
FD
F8
F0
02
00
F5
FF
F6
02
FD
F9
FE
FB
02
FA
04
00
01
F9
FE
00
F6
FC
03
04
00
EB
FE
EE
FA
01
FE
F6
02
FD
FF
FE
03
FD
FB
02
FF
01
01
FB
00
FA
FF
FE
00
01
01
03
02
03
02
01
00
FE
FD
FC
02
02
00
00
00
02
02
01
FE
00
FD
FF
FF
00
FF
FC
04
FD
04
01
FD
FE
F7
FE
ED
01
00
FE
02
F3
FE
FD
FE
03
FE
FA
02
FC
00
01
FB
FF
06
FF
03
FC
FF
F8
07
EE
12
00
FF
FC
01
00
FC
F5
01
FD
00
04
FE
D0
F4
01
FC
F2
FC
FC
FF
FE
00
FA
0A
FF
FE
02
02
01
FD
FE
02
03
02
FB
FC
FF
00
00
FD
03
FD
FB
FE
FD
FE
02
01
00
FF
00
FF
02
FE
FD
00
FD
01
DD
02
04
F2
03
FB
01
FB
FF
08
FE
05
FE
02
03
00
00
FF
F6
F7
FF
02
FC
04
05
FE
F9
FF
FF
07
FF
FF
03
FE
FC
FA
FB
FE
02
FF
FC
01
FD
01
00
FF
FE
01
03
01
01
FE
FE
00
FD
01
EF
01
00
00
05
06
02
00
FB
00
FB
FC
F9
F9
FF
FD
F9
FD
03
FC
02
FD
FC
01
B2
00
FE
FC
00
00
F9
03
02
01
F9
F3
FC
02
01
FC
FE
00
EF
F5
05
08
02
FD
FC
F8
02
07
05
00
00
02
09
02
00
F9
02
02
F2
FE
05
05
FE
03
01
02
00
FE
F2
FD
03
00
06
FC
02
01
F9
FB
00
FD
04
FF
FF
FD
FF
03
F9
F6
FD
FF
FA
01
FE
04
01
FF
00
00
01
00
DA
04
00
08
E5
07
FE
FF
01
FD
00
FF
FD
01
03
04
01
FF
C5
FC
01
FD
FB
FF
02
FF
FD
FC
FD
04
01
01
FB
00
FE
FF
F2
FA
FE
FE
00
FE
FF
01
FD
02
01
FE
01
FF
00
FF
FF
02
06
01
04
00
03
02
FD
FA
01
F9
00
FF
02
02
FB
EF
00
00
FB
EC
03
ED
F3
02
04
02
F9
00
00
00
FF
02
FD
05
00
02
FD
F7
06
E7
FF
01
FC
02
00
01
FF
FC
03
00
FF
FD
FE
00
00
01
02
FE
01
FD
FF
FF
01
03
00
01
01
FD
02
FF
00
FF
00
01
FE
FD
F7
F7
05
F0
FF
FE
01
FE
01
03
FF
02
FA
01
04
00
00
FC
03
FF
F7
FD
00
FE
03
FE
00
06
03
FE
01
FE
01
02
FB
04
FF
FE
FD
FE
FF
FA
FE
03
00
04
00
01
FB
00
01
FE
FA
FC
00
02
00
00
03
00
01
01
FC
01
01
FB
F9
03
00
FF
01
01
FE
F7
FF
FF
FE
03
FA
FF
03
FA
01
01
03
03
03
04
FE
02
04
0C
01
FF
00
FF
F6
FE
F2
00
03
FD
00
ED
FE
12
FD
03
02
00
00
02
AB
05
01
FE
FF
FB
03
02
F8
02
05
08
FC
FD
FD
FE
01
00
FE
FD
02
FF
01
F8
00
EB
01
00
FE
03
EB
00
00
FA
FE
FF
EB
F4
FE
03
F8
F4
FD
0B
01
FC
F9
00
FB
F9
F8
02
FF
F8
01
01
00
00
00
00
FE
FF
F9
FE
E3
FA
01
FE
F0
FA
01
00
FD
FF
FF
08
02
FF
F2
01
FF
00
FA
04
FF
FD
FB
FA
FD
F8
FA
01
01
02
C7
01
FE
0B
00
00
FA
01
04
FE
03
F5
FF
FD
02
00
FB
FA
FC
FE
FE
00
FD
FB
FE
00
00
FE
00
02
00
00
FC
FD
01
FB
03
02
FF
01
01
FC
00
FF
FD
FD
00
FB
00
FD
04
0C
F9
FE
FD
FF
FD
FE
02
FB
01
00
00
00
EA
FF
EE
F7
FF
02
FC
FF
03
02
00
00
00
FD
03
FD
F4
00
02
FE
00
FA
03
01
FE
FC
00
F7
FC
FE
03
FE
F6
FF
F1
FB
00
FD
FD
FB
F9
00
01
01
01
FD
02
FD
F7
02
09
FE
FB
03
FE
FE
FD
FA
FD
F1
08
03
00
01
F5
FE
02
03
FE
FF
00
07
00
05
00
FD
FD
F9
00
02
FF
02
01
03
FF
FF
FE
01
FE
FD
FF
01
FF
03
FC
FE
FE
FD
01
00
03
01
00
FF
FF
FE
FF
FE
FD
FE
00
00
FB
FF
01
FD
FF
FE
02
FE
FA
03
FF
FF
FA
02
FE
01
FD
00
FF
FB
01
FD
FA
FE
00
FD
04
FD
FF
02
FE
FD
06
04
FE
FE
11
FA
02
02
01
FD
03
F5
01
01
FF
FE
F8
03
FE
F8
FD
01
F6
FB
03
FE
FD
FA
FD
05
FD
02
FE
FE
FE
FF
03
02
FE
FE
03
FC
02
FD
01
00
02
01
FE
01
00
00
03
FE
00
FE
00
FD
01
00
FE
FD
FF
FB
FE
FF
FD
FD
F8
05
01
FC
FF
FC
00
01
06
FF
FE
FC
04
02
FD
F5
00
FE
EC
F8
F8
FA
F8
00
01
06
FF
FC
FD
FC
F9
02
00
03
00
FE
FA
00
03
01
01
00
F9
FF
FF
00
FC
FC
02
02
FE
FC
00
02
FE
FB
02
FF
FE
03
F0
02
05
03
00
01
FF
FB
00
FC
02
EB
04
02
FF
FF
D2
02
FD
F4
FF
FE
F9
F3
F3
05
FE
FE
FF
00
00
04
FB
04
F8
FA
F8
FF
FE
FC
01
FC
03
00
00
FF
01
FE
04
00
B3
FD
01
01
FF
FE
01
FD
00
00
00
FC
FE
FE
FC
FD
03
FE
01
FD
01
FD
00
FA
01
FC
00
03
FF
01
FE
02
FB
FC
02
00
02
FD
FB
FF
03
01
FF
FE
FF
01
00
FF
FA
0A
03
16
03
FE
F6
04
02
0A
03
FF
FE
FD
02
00
06
FB
03
02
EA
FE
FE
FD
00
02
00
05
01
FF
01
00
01
00
02
FF
FF
FD
FD
02
FD
03
FE
FF
02
02
FD
01
01
FC
01
01
FF
01
00
02
03
FD
FE
FD
FE
01
F6
FE
02
0B
FE
01
00
02
F9
FD
00
FE
FD
FF
01
00
F2
01
EC
F9
02
00
FB
02
0E
00
FF
FF
FC
FB
FF
FD
F7
00
01
02
FD
FF
04
FC
02
F8
03
FB
01
01
00
FE
FD
00
F7
03
FD
02
00
FF
FE
01
FA
02
FF
00
FE
01
FD
FD
01
01
01
00
00
FF
FD
01
00
FD
00
01
FD
FE
FE
02
01
FD
00
00
00
00
FF
FF
FE
02
FF
01
FF
FE
ED
00
F5
FE
05
FB
FD
02
00
F8
FF
FB
01
00
FF
00
FF
00
08
EB
02
00
07
FC
0C
FD
F0
01
FF
0C
FE
02
FF
00
04
08
FD
E5
FF
FC
F9
08
FD
08
05
00
FF
FF
FC
FE
0E
F8
03
FD
00
F9
04
04
F9
FB
03
00
FF
03
FF
FF
01
F9
01
FF
FE
F4
03
FC
FD
FB
01
01
04
01
FD
FE
F5
EB
FF
FC
E5
F7
02
00
01
02
01
FA
00
02
FE
00
00
02
FD
FB
00
00
FD
FC
FD
02
00
02
00
FF
CC
01
F8
FC
02
02
02
00
09
05
FC
F5
FE
01
01
03
FB
FF
F6
F3
02
FD
FF
FD
00
F5
00
FE
F7
02
FE
00
FF
FC
CB
00
FF
FC
FD
F9
02
FE
F7
FB
FF
FE
FD
00
07
FD
FC
01
01
00
FD
02
01
FF
FF
F2
FE
00
01
02
F6
FF
F9
FC
03
FB
FF
02
F6
00
00
FE
FC
01
FE
01
01
FD
01
FE
FF
FF
02
00
FE
FF
FF
FC
FE
FE
FF
01
FD
02
00
FE
FF
FD
FE
FE
00
00
01
01
00
FD
01
00
01
FE
FC
08
EB
07
FE
FF
FF
FA
01
01
FE
FF
02
FE
05
00
DF
EF
FF
FD
F5
FD
02
FD
FF
FE
03
F4
FD
FA
F4
01
01
F6
00
01
02
FD
00
00
02
01
FF
01
02
02
F8
04
FF
FB
FD
02
FE
FC
04
01
00
00
FF
07
01
00
FE
FD
02
00
FF
00
FF
00
00
FC
FE
FE
FD
02
01
FE
FD
03
FE
01
02
FE
01
02
01
01
FC
FD
FE
FC
FD
FD
FA
FC
FF
FD
FB
00
FF
F8
04
00
00
FA
01
FF
04
FF
FA
00
03
F3
00
FB
EB
F8
05
00
FE
03
01
FD
FF
FE
FC
FE
FE
FF
01
00
FD
01
FF
01
FD
FE
01
01
00
FE
00
FE
03
01
FD
02
FF
00
FD
02
FF
00
00
01
02
FE
01
FE
08
04
FD
0A
00
02
FA
F8
FE
EF
FB
01
01
FF
F2
01
F1
F7
FE
FC
FD
FD
F7
FB
FE
FF
FE
FB
00
FA
FF
00
FE
01
00
08
02
00
00
08
FD
FD
FF
00
FF
02
FF
03
00
FF
00
02
F5
FE
03
FF
FE
04
01
E3
01
00
00
FF
FF
06
03
F7
FD
FD
FA
04
01
06
02
00
00
00
FE
FF
0F
FD
FE
00
FD
F8
05
FE
06
00
01
FA
FF
04
03
FE
F6
FE
FE
FD
FD
FE
FA
FC
00
FC
04
02
FE
01
FC
FF
F7
FB
FD
FF
FB
01
FF
02
04
00
00
FE
02
01
05
00
F9
FB
E9
0B
01
01
02
05
FE
02
00
FF
FF
02
FF
FF
D8
01
FD
02
01
FB
F8
FD
FF
FF
02
04
02
01
02
FF
FE
01
08
07
00
05
FE
FA
02
FF
FC
FE
02
FD
FF
FE
FD
F4
02
FD
E9
00
06
01
01
02
FC
05
02
03
FB
03
FC
F6
07
FE
02
FE
00
02
FE
FD
FD
00
FB
FF
FD
03
FD
F8
FD
01
F7
FE
03
FA
FD
05
00
05
03
FD
02
01
00
01
FF
00
FF
FE
FE
FC
FE
00
FE
03
00
00
FF
00
FF
00
03
00
FD
01
FC
FA
FE
01
FD
FD
00
FC
FE
FF
FF
FF
FD
00
FE
FD
00
01
FE
FF
01
FF
FD
02
01
02
01
FE
00
FD
FE
FE
FD
02
01
FF
FD
FC
02
FD
F4
01
FF
02
F5
FF
FE
FF
FF
FC
FE
FC
01
FE
01
01
E2
01
EA
00
FF
01
FD
FD
FB
FF
FF
FE
00
E4
02
04
FA
00
02
05
03
13
03
FF
FA
FF
01
01
FB
01
01
00
F9
FE
03
FA
01
FE
FB
FC
F3
02
FE
F2
01
F6
00
FF
00
02
FC
FB
FF
FD
01
00
03
04
02
10
06
FE
FE
FD
F3
FF
00
FB
FE
00
F7
03
F3
00
F9
FF
02
07
FF
FE
F1
04
06
08
F4
01
01
03
FD
09
00
01
F9
FF
01
FE
FD
00
FC
FF
FD
FF
FF
00
02
02
07
00
00
0A
02
02
FF
FE
04
FC
F6
FF
00
FC
04
03
01
00
F5
FE
FF
03
00
FE
F4
02
01
01
F5
FB
F4
F8
F8
F7
01
04
00
FD
EE
02
FD
FC
FB
0A
02
FB
F9
FB
00
FB
FC
FE
00
00
B0
03
FA
06
01
FD
04
F5
06
00
00
F0
FE
F9
00
00
F9
02
F8
F1
09
00
01
FC
02
01
FF
07
01
FF
FF
02
03
01
AD
FD
FF
01
FF
FD
F9
FB
01
00
00
FE
02
FD
03
02
F9
03
03
FC
02
02
FF
06
FD
FF
FF
FF
02
FF
FE
04
FB
FB
FE
FF
FC
FF
FF
02
FD
FE
FE
00
01
01
02
FE
FC
FE
FE
02
FE
FE
FE
FB
02
FE
FD
02
FD
01
FD
00
FF
FF
00
02
F9
FC
FD
00
FB
00
FD
FC
02
F9
F9
04
FD
04
F3
11
03
FE
FE
FE
FF
F9
FB
FF
01
FE
FD
01
F7
F9
FD
FE
FD
FE
F8
04
FD
F9
05
FB
01
04
04
FF
FC
05
FE
F5
FE
F9
FD
FD
00
FD
04
02
00
FE
FE
01
0A
FC
01
02
F8
F5
F5
FE
FA
01
FD
FE
02
FE
03
00
FF
09
FB
F8
FF
FE
FF
06
FF
05
00
02
FD
FE
04
FE
BB
FB
00
FB
FC
00
F3
01
F9
00
FA
FD
02
FF
FA
FE
00
FF
02
FC
FE
03
FF
FD
FE
FB
FE
FF
02
00
FA
FE
03
FA
03
FF
F9
04
FF
FF
02
03
FE
FA
02
FF
00
FE
01
02
00
FD
01
FE
FC
FF
00
FF
01
02
FF
02
FE
00
00
FD
02
FD
FE
FD
FF
00
03
FE
FD
01
01
FD
01
FE
FB
FC
FF
F8
FE
00
02
00
02
05
FF
01
02
03
03
FE
06
04
02
FF
04
01
05
00
F8
03
00
FF
FE
FD
FD
01
FD
FE
02
FF
02
FD
FD
01
FE
FC
02
FD
02
FE
00
FF
FF
02
FD
01
FD
FE
01
03
03
01
02
00
01
FE
FF
05
00
F5
FF
02
00
FF
FE
FF
FE
04
04
FF
01
03
00
FF
EC
FD
00
02
FA
F8
F7
FE
FC
00
04
FF
02
03
08
FF
F9
07
FF
FC
FF
FD
FB
01
FE
02
FF
00
00
01
03
01
00
02
FD
00
FD
01
09
02
FD
01
04
FB
FF
02
FA
FF
00
FE
00
00
FD
FE
FE
FE
FE
FE
FD
FE
01
02
F7
FE
F8
FE
FF
03
F9
FE
01
FF
01
01
02
FF
FE
01
FD
03
FD
02
FE
FB
FF
02
FB
FC
FE
FE
FF
FE
FF
FF
F9
00
F7
FE
FF
03
FA
FC
02
02
FF
00
FD
F5
FF
00
FB
02
FF
01
01
FC
FE
FC
02
FB
FE
FC
00
FF
01
02
F6
FF
02
06
02
03
FE
02
08
01
FE
F9
01
06
FD
03
FE
04
FE
FD
FA
FC
FF
02
F9
FE
00
FA
03
02
00
FD
BA
02
01
05
01
00
00
03
01
01
00
F7
03
FF
FD
FF
FC
FD
05
FE
00
FC
01
FD
02
00
03
F6
FD
FD
01
FD
FB
FE
FE
FB
00
03
F2
FD
FC
FC
F5
F5
F7
05
01
FC
06
FF
FB
FC
E7
FA
00
02
F8
FC
01
F9
03
01
FE
02
F9
01
02
FB
01
FE
F7
F6
F5
01
FD
F8
00
FA
02
03
FD
FD
FD
00
01
FF
02
FD
00
FE
FF
02
FD
00
FD
FE
FF
FF
02
FD
02
FF
00
FF
FF
FF
FC
FD
02
FF
02
FE
FD
FF
FD
00
00
FF
FF
03
00
01
FE
03
FD
FE
02
01
01
FF
00
00
02
FE
FC
FE
FF
FF
FC
FC
FE
FC
02
FE
00
02
01
FD
04
FE
02
FF
00
FE
FF
00
FF
FF
FD
00
FB
FE
FC
02
FE
02
FE
02
00
02
FF
02
02
01
03
FF
FA
00
FE
FD
FF
FB
FF
03
FF
FE
FF
FA
FC
FD
01
02
FE
FE
FF
FE
FD
00
FD
01
02
01
00
00
02
FD
02
FC
FE
FE
FC
0B
F9
FF
01
F9
FF
03
03
F1
00
01
00
FE
F9
00
F9
E4
FE
FF
F1
F7
03
00
F2
F7
FF
01
FE
03
FE
00
03
03
FF
03
FD
FC
FA
FB
00
FC
FF
FD
00
02
F6
00
FE
FE
00
01
FB
FB
FE
FF
FE
FC
01
FE
03
03
08
02
EE
FA
FA
ED
02
FF
FC
09
FD
07
04
00
FB
FE
F9
00
04
04
03
00
F1
FA
0D
02
01
06
02
00
02
04
FC
FD
01
00
FA
03
FE
FC
FA
FE
00
02
01
FE
FD
01
F2
FC
F8
00
00
FE
00
FB
F8
00
FC
F7
FF
FD
03
02
01
00
FB
00
F6
FE
01
00
01
00
FD
FB
FF
FE
02
FF
E4
03
FA
F6
01
00
FD
FB
F9
05
FD
01
03
F9
FE
FF
01
FF
FC
04
F9
00
FF
F9
01
01
02
01
FF
FE
02
FD
04
02
B5
00
02
00
FE
FF
04
FC
04
00
FA
F8
FD
FC
EC
FF
FC
FB
FD
01
FF
FF
FF
FD
02
FF
00
00
02
00
F8
FF
01
FE
02
02
09
01
06
04
00
FF
03
F9
FE
00
F6
FE
0B
04
FE
01
00
FB
04
FF
01
05
FE
01
FE
01
03
03
0C
01
FE
01
F8
00
01
FE
FE
00
FE
09
02
F7
FB
00
00
03
0B
F6
03
00
01
FA
00
01
FC
FF
02
FF
03
FF
F8
FA
00
FD
FD
FE
FF
00
FE
FA
FE
FF
FF
FF
00
FD
01
FE
FE
04
FF
FF
FE
FD
FD
FE
FF
FE
00
00
FE
FF
FF
FD
FF
02
FF
01
00
00
01
02
03
02
FE
FC
FE
FE
F8
FA
F9
09
02
03
FF
FA
03
F9
FE
FE
01
FE
FD
01
FF
FD
FF
FE
02
F8
03
FE
F9
01
06
F8
FE
04
01
03
FF
FB
FC
FD
01
02
FF
FD
03
FC
00
02
03
FD
F7
02
F8
FE
FF
01
FF
FE
02
01
FF
00
01
01
03
FE
ED
01
00
FE
03
FD
FF
01
FE
01
FD
00
FD
FE
04
04
FB
FF
F7
FE
03
02
FC
FF
FE
FE
00
02
FE
FE
FE
FD
FB
01
FE
FE
05
FC
03
FE
00
FB
FD
00
00
FF
FF
04
FF
02
01
00
FE
02
06
01
02
00
02
02
FC
03
02
FE
FF
FF
FF
03
01
FE
00
00
00
01
03
FC
02
01
FF
FF
FE
03
02
FE
FE
FF
FE
FF
FF
FD
02
00
00
FE
FD
FF
01
FF
FD
FE
FE
01
FF
FF
01
FE
02
FC
FE
FF
02
FE
FF
FF
FE
00
00
02
00
FD
FE
01
01
FD
FD
02
02
FF
03
FC
00
FD
FD
04
01
FE
00
FE
00
FD
FE
FF
00
FE
FF
FF
FE
FC
01
02
FD
FE
FB
02
00
00
00
FC
FF
01
08
F9
F2
FC
F8
04
03
FC
04
FA
01
01
00
02
00
FD
04
02
FD
04
03
FA
04
00
F7
F6
F5
04
FC
09
FE
EC
03
FD
FB
00
FC
FB
FE
FD
05
FF
FF
FE
03
FD
01
FF
04
02
C0
FF
FD
00
01
FF
04
00
FE
FF
FD
DD
02
FE
FE
FC
00
01
FE
FF
FF
02
01
FE
03
FE
00
00
FF
FF
01
01
01
FC
FF
FE
02
01
FE
00
01
02
FE
FE
02
FF
FC
00
00
F8
00
FD
00
02
F9
F7
FF
03
04
01
FD
FF
06
FD
FE
00
02
00
F9
01
F4
02
FE
02
FF
03
FD
00
FA
01
FC
FD
FD
01
02
FF
00
02
00
FF
FE
01
FF
01
00
FD
FE
03
01
02
01
01
FD
01
FE
FE
FE
FF
00
FD
0F
FC
FC
06
02
0A
01
03
FE
FC
FD
00
FE
02
02
02
FE
02
06
0B
02
FD
01
02
F3
00
FF
00
02
E3
02
00
FF
FF
06
09
FF
F5
FE
FE
F9
04
01
07
03
00
FE
00
03
00
08
F3
FD
FE
F6
FE
FA
FD
FE
FF
00
FF
FF
FC
FF
01
F7
00
01
00
00
FF
00
F8
FE
FB
00
02
02
01
F8
02
FE
FC
FF
00
02
01
F9
00
01
01
02
00
00
FF
F0
FF
FB
02
05
0C
01
00
FF
FE
FF
02
FF
02
FC
FF
FF
FF
03
FC
FF
03
E4
00
F5
FD
FC
FF
02
F1
00
01
00
FF
FD
FE
00
03
02
FF
FC
FF
FF
02
01
FF
02
01
FE
01
FD
F7
FE
02
FD
04
FE
01
03
FF
FE
01
FF
00
02
01
FB
FD
F9
FF
03
01
FF
FC
FF
FD
00
02
00
03
FE
FD
EF
FE
00
FD
00
00
FC
00
FC
01
FE
01
FD
00
FB
FF
00
F1
FC
EB
FF
FE
FF
FD
FE
02
FE
03
FF
02
FE
00
14
F9
FE
03
FC
F5
01
01
00
FE
FF
01
00
FE
02
00
04
02
F7
FC
00
FE
F9
FD
FD
02
02
FE
02
FF
F8
01
FB
FA
02
02
F8
01
FB
02
00
FE
01
FF
00
FD
FF
00
FE
02
02
FE
00
01
FD
FD
03
FE
FE
FD
FF
03
FF
01
FA
FE
FF
FF
FD
01
FE
00
FE
02
FE
01
02
01
00
FE
02
FE
FE
FE
01
FC
00
FC
01
02
FF
FD
FE
FF
FD
FF
FE
FD
FE
FE
FB
FE
FB
FE
03
00
FE
03
FF
02
F8
FD
FE
FE
FF
FE
FE
FD
FD
FD
00
00
FD
FF
FD
FF
FB
00
FE
00
00
01
FA
FD
00
02
01
FE
FC
FC
FF
FC
ED
FC
FD
FA
F1
FD
00
FF
02
FA
01
F2
F5
01
03
FE
01
03
E9
F7
FE
00
F2
FC
F6
F9
04
01
02
FD
02
03
FE
00
01
02
02
FD
FF
FE
FF
F0
FE
FB
FF
FE
FD
00
F4
00
02
F6
01
FD
F0
F8
FB
FE
FE
FC
FD
F9
FF
00
00
00
FE
04
F4
FE
01
FF
FB
00
FF
FE
01
01
00
FE
04
FD
01
06
01
01
FA
FD
F4
FF
FD
FA
02
05
FE
FB
00
FA
03
03
00
01
01
FC
02
00
FD
05
FD
FD
03
02
05
FE
08
01
02
F9
FE
FE
02
F8
02
01
00
FF
FF
F1
F8
02
F6
FF
00
F4
01
FF
02
F8
03
F2
01
03
03
03
06
FD
02
FE
FE
FC
FD
01
F6
03
FE
01
03
FC
FD
03
0E
FB
F7
00
05
EE
FD
01
FB
03
03
04
FE
FE
00
00
FE
02
FD
F9
FF
01
F9
00
03
01
FD
FD
FE
F4
02
FF
FD
03
00
FE
FE
02
FD
F9
01
F2
FF
09
01
FE
01
FE
B1
00
FC
F3
FF
00
F3
01
07
06
FE
F6
FB
FB
03
02
0C
FF
00
FA
10
F9
02
FF
FF
EC
FD
03
01
03
03
01
FD
FE
FB
F9
04
FE
FB
01
FD
FD
02
04
FE
F9
01
FD
00
FF
FD
EE
04
FF
02
F8
FD
FF
02
02
05
00
FF
FF
FC
00
06
04
01
FC
F9
FA
FD
01
01
01
00
04
00
FF
FC
01
00
FB
FE
FD
FE
00
FF
FE
03
FC
FE
00
FE
FF
FA
00
02
FA
00
01
00
FD
FE
01
FD
FF
FD
01
00
00
01
FD
01
00
FC
00
FF
FE
FD
FD
FD
02
FE
FD
01
FD
FE
FF
02
FF
03
01
01
FF
00
FF
FD
FC
02
01
FE
FF
FC
FE
FC
0B
D8
0D
FF
FD
FF
FD
01
FF
FC
FF
02
FF
01
FF
DE
FB
FE
FF
F3
FB
02
01
03
00
FD
06
00
FE
F4
FE
02
02
00
FB
02
02
00
FD
00
FD
FD
FF
FE
00
FD
FF
00
FC
FD
FE
FA
01
FD
FE
FE
01
FF
00
FE
FD
07
FF
01
0D
F3
F1
01
FF
FD
08
01
08
01
03
FD
FE
FD
FD
04
F9
03
FF
F6
FC
06
00
FD
FF
02
F2
FF
FC
01
FE
FC
02
02
FD
FE
FF
FD
02
FF
00
FF
FF
00
02
FD
FD
00
FC
01
02
FD
02
FD
FE
00
FF
FD
FE
FD
00
FE
01
00
FE
01
FE
00
00
03
FD
FD
00
FF
02
FE
FD
FE
FE
FF
01
FD
02
FE
FF
FE
FD
FD
FE
FD
00
FD
00
FB
00
FF
02
01
01
02
FD
FE
04
FF
F8
FB
02
02
02
FA
02
FA
FF
01
01
FC
FE
04
00
00
FE
FD
F7
FF
03
FE
FF
FF
FF
FA
FD
03
FA
01
FC
01
FE
FC
02
01
FD
FF
FF
F3
F4
02
FB
F7
FD
05
FE
00
02
FD
F8
00
FF
F6
FB
01
FF
FD
F5
02
00
00
0A
FF
F1
03
02
00
FD
0A
03
03
FB
03
FD
FD
FE
FD
FD
00
FD
00
F2
00
FB
02
FF
01
02
FF
02
FE
00
FC
F9
FF
00
02
01
03
FF
FE
00
FB
F5
00
01
F5
FF
FE
FE
00
02
FE
FE
01
FF
FF
FE
FD
F8
FB
02
01
FE
FC
FD
FF
F9
FF
02
02
00
FB
01
01
01
01
05
FB
00
FA
FF
FF
01
FD
FC
FE
FC
FE
01
FF
FE
05
FF
03
03
03
FD
02
FA
01
00
FE
02
FF
01
02
F5
FF
FF
F5
FF
01
FE
FE
01
00
FC
FD
FE
07
00
F5
05
F8
05
02
00
FD
F3
FD
F7
03
FD
02
FE
05
02
F8
00
FF
02
02
01
F3
04
FC
FA
00
04
00
04
FB
FD
01
FE
FD
03
FD
FE
00
00
00
00
FD
02
00
FE
FE
02
FB
00
02
00
00
FE
FF
01
02
01
FE
FF
FD
01
FC
FF
FA
FD
E1
FA
FE
FE
FF
F6
01
02
FE
02
01
FE
FC
FE
ED
F7
02
FE
F7
01
03
FE
FA
FD
FC
09
01
02
03
FD
FB
05
F6
04
00
FF
04
FA
00
02
FE
FE
00
FF
02
FE
BB
FB
01
00
FE
FB
04
FC
FF
03
04
F6
02
FC
01
01
FF
FC
FE
FE
00
FF
FF
01
00
FF
01
01
FD
01
00
03
FF
FC
FE
02
FE
FF
FD
FD
01
02
FF
00
00
02
F8
02
03
FA
EB
FA
FF
FE
FE
08
02
09
FD
01
FD
00
F1
00
F4
FE
03
01
01
02
01
01
FD
FA
FD
0B
FC
FE
FD
02
FF
03
F4
01
02
00
FF
FD
00
FE
FD
03
01
FF
06
01
A5
FD
FE
FD
FC
FD
F7
00
FC
01
00
FF
02
FF
FA
01
FE
FE
FF
FD
02
FC
01
FF
FF
FC
FE
02
FF
FF
FE
00
01
FF
00
FB
FF
00
FC
02
FF
FE
01
FE
02
FE
ED
03
FD
03
07
0A
FE
F9
FC
04
FF
FB
07
FD
FD
FD
00
FE
FC
03
00
FC
F8
FB
FA
FF
FB
02
FF
08
00
01
01
00
FB
F6
00
F8
00
FB
04
02
FF
02
01
FE
02
00
F6
00
FE
F7
01
03
07
FB
F8
03
FC
FC
FD
07
FE
01
00
01
FE
03
01
FD
FD
FF
FD
FC
FF
FB
02
01
03
00
FE
00
F5
FB
01
FE
FF
FE
FE
FF
FF
FD
04
FC
00
03
FB
00
FE
FD
01
02
00
FB
FE
01
02
FD
FE
01
00
00
FE
FE
05
F6
FE
FF
F1
F8
0D
00
FC
00
FC
F4
00
FD
02
01
00
FE
FE
FE
FF
00
02
FF
FE
FF
01
FF
01
02
FD
FD
01
01
02
FF
FE
FF
FE
FE
02
FE
FE
01
FF
FE
00
03
FE
FE
0A
FC
02
FE
FC
02
01
E9
FE
FF
01
FE
02
02
FF
FF
02
01
FC
FE
FA
00
01
FE
FD
F6
FD
00
02
FF
F8
F0
08
00
FE
FE
FF
02
00
FF
02
00
01
FE
01
FE
BA
00
FD
01
FE
FE
FD
FE
FD
02
01
FE
01
FF
E8
FE
FF
F7
09
FC
01
FF
FF
FF
03
03
01
FE
FD
FC
F6
03
FD
F4
01
FF
EA
FD
FC
FD
FB
FF
00
0C
03
00
CD
FF
00
FC
FB
FF
FF
01
FC
F1
02
FD
FE
FF
01
FE
00
00
05
08
FD
FF
00
FD
FF
01
01
00
00
FD
01
01
FB
FE
FF
FA
F9
FD
FD
FE
F4
01
03
FA
00
01
01
FE
BB
FD
FD
FC
02
FD
FC
00
02
00
FB
F5
FC
04
00
FE
08
00
08
03
FE
00
FD
FE
FC
01
01
00
05
02
FD
02
01
FE
06
FE
FF
01
FF
F2
F6
00
FB
FF
FE
F3
FF
04
FC
05
FA
FF
FD
00
02
00
00
01
02
FE
FF
FE
FE
01
FF
03
FE
04
FD
01
01
FE
FF
03
FE
FC
02
FB
02
03
FE
00
F9
02
01
02
01
FF
FE
FD
FE
00
FC
01
FE
01
02
01
00
FF
FE
03
03
FD
00
05
01
FF
03
01
FE
02
FD
04
01
FD
FA
04
FE
00
FF
00
FD
00
FF
01
03
00
F1
02
08
F7
02
01
F1
FD
FF
01
03
FC
03
05
02
00
FC
FF
FF
FF
01
02
00
01
FE
FD
02
01
02
03
02
01
00
FD
FD
01
FD
00
FE
00
FD
FF
FF
01
FE
01
00
02
E9
04
00
01
F0
00
03
00
FE
FE
FE
F7
02
03
FD
FE
04
FD
FF
F9
FE
02
FC
FF
01
FF
FD
FB
FF
FD
02
02
02
FF
F5
08
F1
FA
00
FB
01
00
01
FC
F3
FF
03
FE
05
02
BE
F3
02
FD
F8
FB
03
01
02
FD
FA
F9
02
FB
F3
FF
FC
04
F7
03
FE
FC
00
01
03
FC
01
03
00
FE
03
02
F7
03
FE
FF
FF
FA
FE
FD
FD
FD
01
01
FE
03
06
FC
FA
FF
FF
04
02
FE
FF
FF
00
06
FC
02
FE
01
FD
00
FA
F9
03
01
FA
FD
00
00
FA
02
00
FF
00
00
00
FF
03
FE
00
FE
01
FD
00
02
02
FC
03
01
FF
01
FC
FF
FE
FB
FD
FF
FE
FF
00
00
03
00
FE
03
01
01
F5
FD
04
FD
08
EC
01
01
FB
E6
FE
D4
FE
FE
FE
FE
06
02
02
01
FF
02
0F
03
02
FE
FF
FE
02
E2
03
01
F0
FE
00
0C
04
02
00
04
FB
F5
02
01
FB
FD
03
03
FD
00
FE
F6
00
FF
F5
02
09
04
01
FC
FE
07
01
FD
FC
FF
FD
10
F6
FE
03
00
FE
FD
FF
01
FB
02
FD
03
FC
00
02
03
00
05
F6
00
04
FF
03
FF
08
00
00
02
01
FF
FC
FC
F4
FB
FF
F5
FF
FF
02
01
08
FE
04
03
F8
FE
EF
F1
FE
FE
E3
F8
FF
FE
FA
01
02
FB
02
FF
FE
FF
02
FD
FE
FD
01
00
01
FB
FD
00
00
FE
FD
00
FD
FF
00
FB
00
FF
FC
02
01
02
FF
00
FD
FB
01
FF
02
FE
F3
FD
07
0A
01
FB
01
06
03
09
FB
FF
F8
FD
01
FD
FB
FE
01
FC
FD
00
FB
F9
FC
02
FC
08
00
F9
03
FE
FE
00
FB
01
01
FA
FE
FE
FE
01
01
FD
FF
FE
FD
01
02
FC
02
FE
FA
F8
00
01
FD
FE
FD
FD
FE
FE
04
FA
03
F9
03
00
FE
FA
FE
E0
01
F8
00
01
00
00
FD
00
05
EF
00
01
E9
F5
04
FC
FD
03
01
F6
FE
FD
EF
05
03
F7
03
02
02
01
01
00
FF
08
FE
03
03
FE
FB
04
F1
FC
02
01
FE
FE
01
03
01
03
01
F9
FD
02
FD
03
F7
01
FD
04
00
FE
FD
FE
FE
F2
FF
00
01
FF
03
00
BE
01
01
00
FF
FC
F9
FF
FC
01
FF
F0
00
02
FF
01
FF
FB
02
FC
00
FC
FF
00
01
F1
03
00
FE
01
07
01
FE
F5
02
02
FE
02
FC
00
FE
01
02
07
FD
02
0C
00
FE
F9
F9
FF
02
01
FB
03
FD
03
00
02
01
FD
FD
00
01
04
00
FF
0A
F7
06
FE
FE
02
02
FC
02
01
F2
01
03
E5
03
04
FF
F7
01
00
00
00
04
FE
01
FF
FC
00
02
F4
01
FA
FC
FC
04
FB
F9
FB
FB
03
01
00
FC
FF
F3
07
FA
03
FE
02
FF
03
01
02
03
FD
01
FE
FD
00
C4
02
00
FE
FD
FD
05
01
FC
00
03
07
FF
02
FA
00
04
FC
FB
01
00
00
02
01
FE
00
FC
FE
FF
01
F7
FE
FE
FF
01
02
FC
02
FE
FD
FE
F7
FE
05
FF
FE
FF
FE
FE
FE
FF
FF
FE
FF
02
FF
03
FE
01
02
00
02
FF
00
FD
FC
FD
FE
F9
02
01
01
01
FE
00
FF
FF
00
F2
FD
01
F3
FA
FA
FF
05
03
0C
02
09
03
FD
FD
02
F8
00
F4
F8
00
05
F4
02
EE
05
FE
FE
00
05
00
01
06
03
FE
FD
FD
F7
FF
01
F6
FD
FD
07
05
00
FF
01
FA
01
02
F4
03
01
EF
FE
F5
FE
FB
FB
06
F9
FF
02
FF
01
FD
FE
FD
FD
FD
FD
00
FD
FD
FE
FF
00
02
02
00
01
FD
FF
01
FF
FF
FE
FD
FF
FE
FE
FF
00
FF
FE
14
01
F6
04
06
00
FE
02
FE
F3
FF
F9
FF
FF
FE
FD
05
FD
00
02
02
FF
FE
FD
FF
01
FE
03
04
F3
03
04
05
01
F0
01
FD
05
FD
00
FC
F9
00
04
05
00
01
FE
03
FD
00
04
01
FE
FC
FC
F5
03
01
FF
08
08
00
01
01
FF
FD
FE
02
FD
02
FE
01
01
02
FE
FC
01
FE
01
FF
FF
FF
03
02
FF
FF
FE
FE
FD
FD
FE
FB
FD
FF
FE
06
01
FB
FE
01
FC
02
00
FE
05
FE
03
FD
02
02
02
FF
FC
01
02
FF
FE
06
FE
DF
01
F9
FB
01
DA
02
FF
F3
00
FE
FF
F7
07
FE
FD
FF
FD
FE
FF
02
FE
01
FE
05
03
C2
FD
01
FC
02
FE
FC
01
FF
FF
FE
FF
FD
F8
E7
FD
FE
FE
0C
04
FF
FD
01
F6
00
FC
FF
FE
FD
01
F9
FF
01
00
01
01
FC
03
FC
FE
FF
01
F7
03
01
FC
04
FD
09
FE
FA
F4
03
FE
FD
0B
00
04
FD
03
02
FE
F7
FF
F2
F6
02
FE
FD
FE
03
00
00
00
FE
07
FD
01
FF
FC
F8
02
06
FB
FF
02
00
F8
FD
EA
FE
03
FF
02
FA
02
F9
FB
00
00
F9
FE
FD
01
00
00
FF
FB
FE
FE
FE
00
FB
FF
02
01
02
FE
03
FF
00
F2
FE
01
FF
FE
05
02
F3
02
FE
03
01
01
09
02
FE
01
01
F9
00
01
F8
02
04
01
FC
F9
FF
01
01
ED
FF
00
00
FF
01
01
01
03
03
FE
FF
02
FC
01
E4
FE
FD
FE
FE
ED
FE
00
0E
FF
F9
FF
FB
EE
02
FB
02
FE
FD
EC
FF
02
FE
03
FD
01
00
09
FF
FB
07
FF
00
FD
FE
00
FB
E5
FF
FC
F9
02
FF
01
F8
04
FF
01
FF
FA
00
F9
FD
02
04
FE
EF
03
0A
03
FF
02
E8
FE
F6
04
01
FD
FC
08
00
05
FF
00
FE
01
FD
02
FF
FC
FE
FE
FF
FD
FD
02
00
00
FF
FF
FF
00
00
FF
FE
FE
02
01
01
01
00
FD
03
FD
FF
00
FD
FF
00
01
01
FC
01
FF
FD
FD
FD
00
03
03
FF
02
01
FE
FE
FF
FE
00
00
FF
00
FD
FD
FE
FF
02
01
01
FE
FB
00
FE
00
FD
01
FD
FD
00
03
FF
02
00
FD
FF
FD
FD
01
02
FD
01
FF
01
00
00
FF
FB
01
FE
07
02
FF
02
05
FC
FE
00
FC
FD
00
FE
03
00
FD
FF
01
02
FE
F5
01
01
F4
FF
F7
01
FB
FF
04
FE
FF
03
FC
00
00
FE
FC
00
01
02
03
FF
FF
FF
00
00
03
01
FB
04
FB
FF
01
02
FB
04
FB
00
FF
01
00
01
FE
02
06
FE
00
04
FB
F7
01
FE
FB
01
00
02
03
FF
FE
FD
FB
00
06
FE
02
03
FF
F8
00
03
F8
01
01
F6
00
03
00
FE
02
FF
FE
01
FE
FE
01
FF
FD
FD
FD
03
00
FD
01
FE
00
02
FF
01
01
01
FE
FD
FE
00
FD
FC
02
FE
02
FD
FD
03
00
04
03
00
FC
FC
02
FA
FE
00
FE
FD
00
FD
FF
01
00
01
FF
01
FE
04
FF
FF
00
FF
FF
00
FC
FF
00
01
FF
FF
FD
FE
00
F6
01
02
FE
FF
03
FF
FD
01
FE
FF
00
01
02
02
FD
FD
FC
00
02
FC
02
02
0B
FE
FB
0C
06
FF
02
FF
FF
E7
01
F1
FF
02
03
02
04
FE
05
05
01
FF
FE
00
F8
FF
03
03
01
FF
02
01
02
03
03
FB
FE
FE
00
FD
03
02
FE
02
FE
FE
00
01
FD
FD
FA
FF
03
02
FE
FD
F1
FF
FC
01
02
FB
FE
02
EF
02
FB
0A
E6
FF
FF
00
FD
FD
02
03
FF
01
02
00
04
01
9D
01
02
FF
FD
07
04
FC
FD
01
01
F8
02
FE
08
03
F8
F3
05
FC
FE
FB
02
04
02
06
02
02
FE
01
FE
FD
C8
F9
FF
02
FF
00
FF
01
00
03
03
F9
00
FE
07
00
F9
01
FD
F6
01
01
01
EB
02
FC
FC
02
FD
01
FD
03
01
02
03
FF
06
F7
FF
FC
FE
02
02
F8
01
FB
F1
01
FD
FE
FE
FA
FD
FC
F9
FE
01
FF
01
FF
FC
03
C8
FE
FF
F7
00
03
F4
00
00
FD
FA
F6
FB
FF
00
00
FD
01
03
FC
0C
05
FF
FD
FE
FC
00
FE
FC
01
FD
FD
03
01
03
FE
01
FB
F2
FE
01
FF
FE
FE
FC
04
FD
FF
05
01
FD
04
FE
FF
FE
FC
FD
03
02
05
FE
00
02
03
04
03
00
FD
FF
00
DC
00
FA
04
F8
FD
01
F9
03
02
FE
02
FC
FE
02
02
00
01
00
FB
01
01
00
FF
02
01
FE
01
01
00
FE
FE
00
FF
FE
03
00
FF
FF
FE
02
FB
F7
02
01
F6
FD
00
FE
FF
FE
FE
01
05
03
02
FE
FF
FB
04
FB
FF
01
FB
02
FB
05
02
03
FE
FF
FE
02
FE
00
01
0B
FA
E8
FF
FE
FD
FD
03
FD
FD
04
00
FF
00
E7
01
FA
09
FF
02
F6
00
FF
03
01
F4
00
05
00
00
0E
FE
F8
09
01
FF
FF
03
01
FA
03
F9
01
03
FE
FF
03
01
01
07
03
00
FF
00
04
00
FC
00
01
F1
00
02
F9
FE
05
FE
09
FD
02
FA
FF
03
00
FF
03
02
FF
01
00
00
06
02
FD
02
FF
F9
03
FF
F9
FF
01
04
FF
03
01
FC
F7
00
FC
00
04
FF
00
02
FF
01
00
01
04
02
03
02
01
FE
01
F9
FE
FE
0C
FA
F5
FC
FF
03
02
F3
05
01
02
01
06
08
03
FD
03
FD
FE
03
FE
03
FF
00
FC
FF
FF
F0
FD
FF
00
FE
F6
FE
05
01
FD
E9
FC
FD
FD
FD
FA
0A
F1
F7
03
FE
FB
F8
02
09
00
FE
02
02
00
01
FC
FD
00
FD
04
FE
01
FD
FE
FE
01
FB
02
FB
FF
00
FE
00
FF
FD
FE
00
FF
FE
01
00
00
FF
FF
FF
FF
02
FD
FE
FE
00
FF
FF
00
02
FD
03
FC
FB
02
FC
F2
FE
0E
FE
FF
F3
01
01
FB
F8
00
04
FE
FD
00
FE
C5
01
FE
01
03
01
FB
FE
03
01
FF
FA
03
FA
FF
02
FE
00
01
02
FF
FA
00
FD
F8
02
01
01
04
02
02
01
FA
FF
FF
FE
01
FF
F6
FC
FE
01
FE
01
FF
FD
FE
02
FF
00
02
01
02
00
02
03
02
FE
03
FE
01
FD
FE
02
FC
FC
02
FF
02
02
FD
02
00
01
FF
FD
00
00
FE
01
DA
FF
01
FF
01
06
03
00
FC
FD
02
F6
00
03
FF
00
C0
02
FE
08
02
03
F8
07
F9
01
FF
F6
02
FC
FE
02
F5
00
06
FD
05
FE
02
FE
02
FD
FE
F9
FD
FF
FF
01
FB
01
FC
FD
FE
FE
FE
02
FA
00
FA
F2
FA
07
FF
00
FC
00
02
FD
FC
02
FD
00
FD
FE
FF
05
FD
FE
02
00
F3
01
F5
FC
FE
01
FD
FF
F6
FC
FF
FF
FC
E6
FE
FD
01
00
04
00
04
FC
00
02
00
0D
FD
05
FC
01
01
00
00
00
FC
FF
02
FF
FB
FF
04
01
FB
FC
FE
09
FE
00
E8
03
FD
00
05
07
00
FB
00
FA
FF
F9
02
02
FF
04
FF
02
02
FD
02
03
FC
FE
FD
03
FE
FE
FE
02
FF
00
07
FF
F8
02
00
00
00
FC
FF
FF
00
FF
FD
00
01
FF
E8
FE
00
F4
FD
01
ED
FF
FF
00
00
FA
02
03
01
00
03
FE
F7
04
01
02
03
01
02
FC
FF
06
00
01
00
FF
FA
00
08
EF
01
FE
EA
FC
FD
01
02
04
FE
EB
01
05
FB
03
FF
01
F1
05
03
01
01
FC
03
FE
04
FE
FF
FF
DE
FF
E8
FA
FE
FD
FC
01
FD
FF
FF
00
02
02
02
02
03
FE
FE
02
FD
03
02
FE
01
00
02
FE
03
FE
01
02
04
FD
FA
09
00
FC
FA
F7
F5
FC
FC
FE
FF
03
03
00
00
02
FE
01
08
02
02
02
FF
FA
00
F8
03
FF
FF
02
00
00
FD
FB
00
03
00
01
FF
03
02
00
FF
FB
FE
00
FE
FC
FF
00
00
FF
FE
F9
FC
F3
FD
F4
FB
00
FD
FE
FD
FF
FE
E8
02
FE
EE
F8
00
00
F7
F6
FC
FF
00
01
04
01
F5
00
FC
03
01
03
FD
F5
FF
03
02
FD
00
FF
03
01
DB
F6
01
01
EF
02
FF
01
FB
FD
FE
FC
02
FB
0F
02
04
05
0A
F8
00
FE
FD
FF
01
02
00
FF
FF
FF
02
03
02
08
FF
02
06
02
FA
03
FB
00
02
07
03
02
00
FC
FC
FE
FA
02
02
00
FD
FB
03
FD
01
FF
02
FE
00
FF
FA
FF
02
03
00
02
FD
01
FE
FF
00
FC
FD
FF
F4
05
FD
F0
03
FE
01
01
00
07
FE
03
FE
01
FE
FF
FE
FE
FF
F5
00
04
01
FF
03
02
00
FF
01
09
02
03
FD
FE
04
FA
01
FF
02
00
00
FC
FE
FE
FE
01
01
00
F8
01
FC
02
FE
03
FF
02
02
01
02
FE
FF
FD
FF
01
01
00
F8
00
FB
FF
01
00
FE
EB
03
03
FE
01
00
FE
02
00
C7
F2
03
00
F7
FC
00
FF
FB
FE
FE
FB
FE
F9
07
FE
F9
FC
F9
FA
FE
FE
00
01
FE
00
03
FE
03
FE
02
02
FC
FE
01
01
FC
FF
FC
FD
FF
00
FE
00
01
01
FC
01
03
FE
FB
0B
FE
FF
FB
05
01
0B
03
FD
FF
01
FC
FE
F0
02
FE
03
FA
FF
FA
03
FF
00
04
FD
01
00
00
01
01
FF
FD
FF
01
02
01
FD
02
01
00
01
00
00
02
FE
FF
FD
01
FF
00
00
FD
FD
FF
00
FF
FF
01
FE
FB
00
FC
FA
F5
FB
00
01
FF
06
FE
06
05
FD
03
FF
F7
FE
FB
FE
FF
FD
0C
FF
08
FF
03
FF
FB
06
02
FC

