06
03
00
FD
FE
FF
FF
02
04
FE
F0
F9
FD
FF
FC
FE
FB
F8
00
01
FB
01
F0
FF
01
F2
0B
01
00
FE
02
01
FC
FE
02
02
FD
FE
01
FC
FC
02
00
02
02
FF
02
FD
FE
FF
00
02
01
FC
FF
FF
02
00
00
01
03
FE
FE
01
FF
00
FE
01
01
FC
00
01
FB
FE
FE
FB
FD
FC
00
00
01
FF
FB
FD
00
FF
02
FF
01
02
FB
FD
FF
FD
FF
FF
F5
FD
FE
FF
FF
F6
FC
FE
02
FA
09
01
FC
01
02
FE
00
07
00
09
02
09
E3
FD
03
FD
F2
01
00
FC
01
FE
E4
02
02
01
FB
F6
03
06
F5
01
F3
01
03
02
F3
FF
FD
F8
00
FA
FD
FB
D4
02
FF
F2
F1
FE
00
01
FF
00
FE
01
01
FC
04
00
FB
FA
FB
00
00
FE
02
FD
FE
02
FD
FF
FE
FD
03
01
FD
FF
FF
01
FE
FE
01
01
FF
01
06
02
00
FE
05
FB
00
FB
F4
FA
FB
F9
01
FD
FC
01
01
02
00
F8
FC
F6
F6
00
FF
0A
01
00
FD
02
00
00
FB
00
01
02
FC
FB
FC
FA
05
F8
03
09
02
FD
FA
01
00
F8
02
01
FC
02
FC
FF
01
E7
F6
00
00
01
FD
FF
FD
FF
FD
FF
FE
00
FE
02
FE
00
00
00
FC
FF
FD
FD
FF
FD
FE
02
FF
00
00
00
03
02
01
FF
00
FE
01
FF
0A
FF
02
FE
FB
FF
00
FD
FF
07
F0
00
02
FB
02
06
01
0A
02
FF
04
02
00
02
FE
04
FE
00
00
00
00
03
FF
FF
02
FE
FD
FE
06
05
FB
FB
01
F8
FD
03
07
FD
04
06
03
EE
FE
06
FE
03
00
00
0A
FF
02
00
02
02
06
03
02
01
FA
FD
FB
FD
FF
FB
FA
F7
FD
01
E6
03
FC
F8
FF
00
00
00
D0
00
FD
FD
F1
00
00
FE
01
FE
FD
FE
FE
FF
F7
FA
03
F5
F5
08
03
01
F8
FE
00
00
FE
03
FF
05
01
01
03
00
FF
0B
F2
FF
04
01
02
02
03
00
FE
02
FC
FE
FE
F1
02
FF
01
FC
FC
01
FB
07
03
FF
FE
F8
01
F6
FB
FF
01
01
F9
03
05
FE
00
00
FA
00
FE
FE
F5
00
FE
03
FC
FD
06
07
01
FC
05
00
FE
F9
03
FC
FB
02
F9
01
01
CC
01
00
06
00
00
FE
FC
02
FE
FD
00
FC
03
07
FF
00
FF
F8
00
03
07
FD
04
0A
03
ED
F8
F4
FE
01
03
F5
06
01
05
01
FF
FF
FA
02
00
FF
00
05
FD
FE
FA
FE
04
06
F9
05
FA
FF
01
F8
00
FF
0A
03
FF
00
FF
FF
F9
00
FE
02
FF
FF
01
03
FE
FE
FE
FF
02
01
FD
00
FF
00
00
FE
FE
01
FE
00
FF
FB
01
FC
FF
01
FE
02
03
01
FD
01
FF
FE
EC
FF
FF
00
F6
F7
FC
FD
D2
01
02
E3
00
FF
FA
FE
FD
EF
F9
F4
E5
F3
FB
02
00
0B
F0
02
04
02
FE
02
FC
01
00
FE
00
00
02
00
FC
FD
FD
FF
FF
FD
FE
FE
FD
FE
00
FC
01
FE
FB
FF
01
F7
FC
00
02
02
00
02
FD
FE
02
FD
FD
FD
01
F4
F8
00
F5
FC
FF
FD
02
07
FE
F0
FF
FF
FA
06
FE
02
FF
FA
FF
FE
FE
FF
02
02
F3
00
FF
03
01
02
FB
FC
03
FF
FF
FF
FF
FF
03
00
01
07
02
FF
F6
00
FF
FF
FF
DD
01
FD
02
00
FE
FC
0C
02
FE
FF
F6
F7
02
01
F4
FB
F4
F3
F7
01
FE
FE
FE
F4
FB
03
F7
01
E5
03
FE
10
F0
FE
01
FF
FE
00
05
FE
FE
FD
F4
FC
FC
F7
00
FF
F7
FC
02
01
E9
02
FE
04
FF
00
FE
FD
FD
01
FF
E6
D3
FD
03
FE
00
FD
FC
FE
FF
00
F9
FE
FD
FB
FA
F9
F9
FF
01
FD
EF
01
FF
FE
FE
00
FC
00
DF
02
FE
FD
FD
FE
FF
FF
02
FF
FD
FD
03
FE
FC
FF
FC
F9
01
FD
FD
FD
FC
01
FC
FD
FF
FB
FF
FB
F8
FF
FE
02
02
FD
FF
FE
FC
01
FD
FE
00
FF
FE
FF
F4
FA
FD
FE
F0
FE
FA
F9
03
FD
F3
FE
FC
F8
FE
F5
FB
FA
DC
00
00
F1
E8
00
F9
FE
01
01
F5
01
00
FF
FF
FE
FF
02
F4
FD
F2
FC
FB
04
F0
F9
FF
FC
FD
F9
07
F8
F6
01
02
FB
FF
01
FE
02
FF
00
09
FE
FE
01
01
FF
FF
07
F5
01
02
FA
FE
00
FF
FC
FE
FC
FD
FD
FA
FB
F7
02
00
F8
FD
FE
00
00
01
03
FD
FF
FF
FF
FF
00
FD
01
02
FE
01
FF
FD
FE
FD
00
FD
FF
02
FE
FE
00
00
FD
FF
FC
FE
00
01
02
FD
00
FD
01
02
01
FF
F8
FF
FC
FE
01
F8
FC
02
FD
FD
FF
FD
03
FA
FD
F9
01
FA
01
01
FB
FA
00
FF
FE
FD
01
FB
FF
01
FF
F4
FC
03
FE
E6
FE
00
FF
FF
FD
FD
00
02
F5
02
00
F1
00
F4
02
01
16
EA
FE
01
02
FD
00
FE
FE
00
00
00
FE
FD
FD
FD
FD
02
03
FD
FF
FF
FE
FD
00
FF
FE
FE
FE
FF
03
FF
FF
FD
FF
FF
FE
FE
FD
F9
01
00
01
07
FC
FE
F9
FE
03
FF
FC
04
FE
02
FE
01
FF
00
03
FC
06
06
01
03
F0
F6
00
03
FE
01
FE
FB
00
FE
01
FD
FF
01
FD
FD
00
FA
FC
FC
05
00
00
04
FD
FE
FE
FD
FA
FD
FE
FD
FF
FB
FE
01
FE
FE
FD
F1
FF
00
02
FD
F5
00
FE
05
FD
03
F3
00
02
F2
00
00
FA
FF
04
FC
09
CB
01
02
FE
EE
FF
FE
FD
01
01
FA
01
FE
01
F7
F9
FE
01
00
FE
FD
03
01
FC
01
01
00
FB
03
FA
FA
FC
00
02
01
D0
00
FF
00
00
01
00
FF
00
00
00
FE
02
FE
03
FC
FE
FE
00
01
00
F9
FD
FD
FD
02
00
02
FE
FD
FF
01
FB
FD
00
FD
FF
FE
02
03
03
FE
00
FA
FF
01
FB
00
FB
03
F3
FD
04
FB
FC
FF
07
FC
F1
F5
00
04
00
00
0A
F4
01
03
00
03
02
01
FE
FF
FE
01
03
01
01
01
01
FC
FE
01
FD
FC
FE
00
01
FD
FD
FE
00
00
FF
FE
FC
FD
01
FF
03
00
02
F8
FF
FD
FF
FA
F5
FF
EA
F6
FF
FF
FB
05
FE
F3
FF
FD
FB
FE
FD
F8
F7
EB
03
01
F6
F3
00
FD
FF
00
02
F9
02
02
00
FF
FE
FE
00
FA
FF
FD
00
FC
FF
FF
00
FF
FE
03
00
00
FE
FD
FE
FE
FF
FD
03
03
FF
FD
FE
01
00
03
FE
00
FF
00
02
00
FE
FD
FD
FE
02
FF
01
01
FF
FE
FD
00
FE
FD
00
02
01
00
FD
03
01
00
03
05
03
FD
02
F5
FE
01
0C
F5
03
FB
00
00
01
FD
FF
01
F6
FF
00
FE
F9
01
01
FF
0D
D4
03
02
FF
FE
FE
FD
FF
FE
00
02
FD
00
06
04
06
01
03
FE
01
FC
00
00
FB
FF
0E
FB
05
00
00
FD
F6
02
FF
05
FF
FD
00
00
03
00
FD
FD
FB
FC
F1
00
07
F9
00
02
02
E3
FE
01
FE
FF
FE
FB
01
FD
02
00
EF
CC
02
03
00
00
FF
00
00
02
FE
FE
FE
FF
FA
02
F7
FE
02
00
FF
FE
02
00
FC
FE
05
03
01
DE
02
FE
FD
07
03
FC
FF
FE
FD
EB
01
00
FF
02
FC
FE
08
F4
00
05
01
FF
01
05
FD
01
F9
01
FF
F9
02
FF
FF
03
E9
F8
FD
00
01
FF
00
03
03
02
00
FA
F2
00
F9
FE
FD
F0
F8
03
FD
04
00
FE
08
02
FE
FF
FD
DD
02
FF
F9
F5
00
FB
FD
00
FE
00
FE
02
00
FE
01
FC
FE
FD
FF
FD
01
FF
FF
FE
00
00
00
FC
01
FD
FF
FC
02
01
FC
FD
FD
01
03
01
01
03
01
02
FE
F3
FF
FD
FD
FF
FB
F5
03
FA
FC
01
02
00
01
00
FD
FB
01
01
03
00
F2
F8
00
00
02
FE
FD
F2
FE
FF
FF
FA
FF
03
F0
FF
03
F9
FD
FF
FC
FB
01
FD
FA
03
01
FF
03
FA
03
03
F7
FD
FD
02
03
01
02
00
02
03
01
01
FE
FF
02
FE
01
02
FE
FF
01
00
FE
FE
02
00
FC
02
FE
FF
FF
01
FD
02
02
FF
01
01
FD
FD
00
00
FE
01
FA
FE
0C
FA
00
FD
F8
03
01
F0
FD
01
FD
01
00
FD
FF
FF
FF
FE
06
D2
FE
FF
FE
02
00
FE
03
02
02
FC
01
02
FE
FE
00
01
01
FF
FC
00
02
02
02
FF
02
01
FE
00
FD
01
FF
FF
03
FE
FE
02
02
EC
03
FE
00
FB
F3
02
F5
F2
FD
FB
00
00
02
F7
FA
00
F5
FD
03
09
00
E5
FE
FD
F5
F2
FF
FD
02
03
01
FA
00
02
03
05
FD
00
07
06
FF
06
FC
01
FF
09
FE
01
FA
00
F7
05
F4
FF
FE
FD
00
0A
03
04
01
00
00
00
02
00
FD
FA
FD
01
04
09
06
05
00
00
03
F8
03
01
FB
03
12
00
05
FF
FE
FD
FE
F7
00
05
00
02
FD
F8
02
FE
FD
FE
FF
00
02
F9
FC
FF
F9
FC
01
EF
01
FD
F9
00
FB
FD
FD
FF
01
01
EB
FC
FE
02
03
FE
03
F8
FF
FF
FE
FD
FC
FF
00
04
FE
08
02
01
03
00
02
03
FC
00
02
09
FE
FF
FD
FE
ED
FB
03
01
FE
FE
FE
1D
01
00
01
F8
00
FD
FF
EB
05
01
F6
06
04
FF
FF
FC
00
FD
FC
E9
F5
F6
01
00
12
F1
01
FE
FE
02
00
07
FF
FF
01
FF
FF
FD
FA
F5
02
FE
EF
FB
FD
FF
00
FF
FF
F9
03
08
F5
F8
00
FE
01
FF
FF
02
FF
00
FE
FC
03
00
00
FD
FE
FE
FC
01
02
00
02
01
FF
FE
FC
01
FE
02
01
FD
FE
FE
FE
02
01
FF
00
00
FE
01
02
FD
FE
03
FF
FC
00
FD
FF
FE
FC
FC
01
00
FD
FF
FC
00
01
FC
FC
FD
01
FD
02
01
FE
FC
FD
00
03
01
00
FE
FE
FD
00
FB
FF
FE
02
F8
00
F6
FC
FF
FD
EB
FF
FE
04
FF
F5
FE
FB
FD
02
00
F9
FF
02
FE
03
02
FF
03
01
FE
FF
03
FE
FB
FB
0A
F8
ED
05
FE
03
09
01
03
07
02
09
FF
08
F4
00
FE
FE
04
00
02
00
02
00
0A
FE
FD
03
00
FB
00
FA
04
F9
F5
F5
FE
FE
FF
FE
00
11
FC
F1
02
F8
EA
01
FD
FE
F3
00
FE
FF
FD
FD
F9
02
03
00
EF
FF
01
FC
00
03
EF
03
FF
FD
03
01
00
FA
00
F9
FB
FD
FD
FE
03
FC
06
00
FE
FF
02
03
FA
00
01
01
F1
01
03
F8
FA
01
F7
F4
FF
FB
FF
F9
03
FB
01
00
01
FF
F6
FF
02
E6
FF
00
FD
03
FF
00
00
FF
02
FF
F5
FE
F9
FD
04
FD
03
F0
00
00
F8
FD
00
01
01
FF
FD
06
B9
00
FE
FC
05
02
04
02
FE
FE
FE
02
FE
FE
FB
FE
FE
FA
02
F8
E2
FF
00
01
FE
01
FE
0A
03
03
FD
03
02
FE
02
DF
FE
FD
02
01
00
FF
FD
02
FE
FE
FF
03
00
F5
FA
03
03
FA
02
02
09
FA
00
FD
03
F2
FA
FE
FB
FE
01
01
05
03
FE
FD
03
01
FF
00
02
FF
FF
03
01
FE
F7
FD
01
F6
FF
FD
FB
03
FE
FE
FE
FE
00
FC
FE
FD
03
FB
05
02
FF
01
FD
FF
FE
02
FF
FF
FD
FE
FF
0E
FC
01
01
FA
01
03
02
01
FF
FE
05
F9
03
F5
F5
03
FF
01
FF
FF
00
FE
FE
03
F3
02
01
02
FE
F3
02
04
01
02
07
05
FA
00
FE
FE
FF
01
01
03
FE
FD
04
FF
FD
F8
FC
01
FF
01
01
FD
F9
FF
FF
FE
02
F7
FA
FB
04
F9
04
07
FD
01
FC
FF
FC
0B
00
FE
06
FE
02
FE
03
F9
F9
00
02
01
FD
FE
F9
FE
FF
FF
FF
00
FD
00
FF
01
FF
03
FC
00
FB
FE
00
00
01
00
FF
FC
FE
00
02
02
01
FF
FF
FE
04
03
FF
02
00
01
01
FD
FD
00
FE
FE
01
FF
01
FF
FB
FE
FE
01
FF
01
02
01
FF
01
FF
00
FC
FD
FD
01
02
02
FD
FE
FE
FD
07
FF
00
05
03
06
03
FA
02
03
05
FE
FF
07
00
CC
0B
EB
04
00
FE
07
F8
00
07
02
FF
01
02
FD
02
02
02
FC
FF
FE
FF
FC
FE
01
FE
01
FC
00
02
FD
00
FD
03
FE
FF
FF
00
FD
00
FE
01
02
FF
FF
FC
02
FE
FF
FB
FC
FE
F8
01
FD
03
F9
03
00
02
02
FE
03
FF
03
FC
03
F8
FF
00
FC
F5
00
FD
FD
FE
02
08
00
03
01
06
F9
FF
FF
01
FE
0C
EF
FF
03
06
FE
03
02
01
F0
FB
00
06
00
00
02
04
00
03
01
FC
FF
FB
02
01
00
FE
F8
02
FE
FC
02
FC
00
00
FD
FA
03
00
00
FD
FE
FC
FE
FA
03
FE
FB
01
02
02
00
00
FF
F9
FD
01
01
FD
FF
FD
03
FC
03
FC
FF
FC
02
FB
00
00
00
03
FD
03
FA
FB
FE
00
02
00
FF
FF
01
FD
02
FE
FD
00
01
FE
FF
FD
01
F4
01
FB
FE
04
FE
FE
FF
02
F9
04
FE
FB
02
EE
01
FD
05
FA
00
00
02
01
01
08
FF
02
01
F8
FB
FE
FB
03
FA
00
F9
FE
02
FB
FF
FE
F2
00
04
03
01
CA
FF
00
02
01
00
04
03
FE
01
0E
FF
FC
00
04
F3
FA
FE
F1
04
F5
F0
FA
FA
FF
00
FE
FF
FD
04
00
FF
F4
FE
FD
FF
F9
FF
FE
02
00
02
FE
01
FE
FF
06
FF
FC
F9
F3
02
03
03
00
03
FA
FA
03
FD
01
04
FF
FC
FD
FE
00
F8
F8
FF
03
00
00
FF
FF
01
01
00
FF
01
01
02
02
01
01
02
FF
00
FF
02
FD
FF
00
FB
00
FE
00
00
FD
01
FE
00
01
01
02
03
FE
01
FF
FD
FF
02
00
FE
FE
FD
02
01
FE
01
01
01
FD
FE
02
01
02
FD
01
02
FF
00
FD
00
01
FE
FF
00
03
01
01
FF
01
00
FE
FE
FC
01
FD
FD
FF
04
FC
02
FD
01
FF
01
FE
FB
FC
01
02
02
FF
00
04
FF
03
FE
02
FF
01
FE
FE
02
00
FC
FC
02
FE
01
FF
01
00
FF
02
FC
FF
FC
01
FE
FA
03
00
01
FD
FD
05
FD
FF
01
04
02
FD
00
FE
FD
FB
FC
FF
FB
05
01
FF
01
DF
00
FE
FA
03
03
FB
04
FA
FD
FD
01
D4
03
06
02
FE
FE
F9
02
FE
01
FD
FB
FE
FD
FA
FF
FB
05
FA
01
01
01
01
FC
03
00
FE
FD
FD
01
FD
FC
FC
02
FC
FE
FD
02
F9
03
03
FD
04
FB
FE
01
02
08
04
03
FA
02
EE
FF
FE
07
03
04
02
FF
FF
FD
FD
F6
EC
FD
01
FD
01
03
06
01
00
01
FB
F9
FE
FC
00
FE
FB
00
FF
02
FD
01
01
04
FF
FF
02
01
F2
02
02
FB
FF
01
00
02
00
00
FA
01
03
FE
02
FB
00
FE
F5
FF
00
FA
03
00
EE
06
FD
FC
FF
F1
FD
04
E6
FE
FF
FA
F4
01
FF
02
00
00
FD
00
00
01
FC
F9
FE
FD
06
FC
05
02
FE
FF
00
FF
FD
FE
FB
FF
00
03
04
02
FF
D4
00
FE
01
00
01
FD
00
03
00
FD
FD
FC
FE
F5
FD
00
F7
F6
00
FF
FD
02
FE
FD
00
F9
FB
FC
F8
00
00
FF
00
FE
FF
FF
FF
FE
FA
FF
FF
01
01
FA
00
02
03
06
01
07
00
FD
00
FD
FF
FF
FB
E7
03
F6
07
FD
00
F7
FA
FE
00
FF
00
02
02
FF
FF
02
0E
FE
02
02
FC
01
FC
00
FF
FF
FD
FE
FF
FC
00
FC
FF
FC
F6
02
02
DA
ED
00
00
FE
FD
03
FD
FE
02
FD
FF
FF
00
03
FD
01
FF
FE
00
03
01
00
FE
01
FD
FD
FE
FE
FB
03
02
FF
00
03
00
FF
FF
00
FC
FF
02
01
00
04
04
04
FF
01
00
FC
FA
02
FD
FB
FD
FC
01
FD
FA
01
FB
FE
FE
FB
FE
FD
FF
FF
00
01
FC
FD
FE
FF
FC
FE
FD
01
00
FF
F5
FE
FF
FB
FD
01
FD
FF
02
02
FE
FD
F0
00
FF
FD
FC
FE
FE
FE
01
FE
F7
FE
00
FD
FB
FE
00
02
FF
01
FC
FE
02
FB
FD
00
FF
FF
03
FF
FE
FF
FE
FE
FF
03
01
00
FD
02
FF
03
FB
02
FF
FE
FC
FF
01
F7
02
03
FD
FE
01
FD
01
03
02
F8
00
E7
FF
DE
01
00
02
01
01
FF
FE
FD
01
01
FF
03
03
01
02
01
00
00
01
FE
01
02
FF
01
FF
03
01
00
00
FF
FD
FE
00
00
FE
02
FF
FD
FF
03
01
03
00
00
FE
FD
00
FD
FF
01
F7
FE
FA
FF
00
FF
FE
01
03
FF
00
FE
02
FB
F9
FE
FF
04
FA
FF
02
FF
FE
FE
FE
FE
FD
FD
FF
FB
FF
01
00
02
FD
01
FD
FD
FB
FF
00
FF
FC
FC
FC
FD
FD
FE
00
FD
FE
FD
01
FF
FE
00
F5
FE
FF
01
00
FD
03
02
06
F8
03
FF
00
00
02
F0
01
03
03
02
09
FD
01
FF
FF
FC
F9
01
00
FD
03
02
FA
FE
01
FE
FC
FC
FE
F4
00
FE
FE
FA
00
01
01
04
FE
02
01
FB
FE
00
01
FE
00
E1
00
02
04
00
FD
03
FF
FD
FD
03
01
FD
01
FD
FE
03
00
FD
02
FF
FE
FF
FE
01
00
00
01
FC
FC
01
FF
FF
01
FF
02
FF
FF
FD
FC
02
FD
00
01
FA
FD
DC
F2
05
FE
FD
FD
03
02
FE
FE
F9
01
06
0E
01
00
01
02
02
F6
00
02
00
FF
FF
FF
FD
FE
02
00
FD
02
FD
FE
00
FD
FC
02
01
01
01
02
00
02
00
00
01
00
01
01
00
FD
FF
FD
01
02
FF
FB
FD
FE
01
03
FC
FF
05
0F
00
06
0B
FC
00
F8
FB
01
00
04
00
FB
FC
FF
FD
FF
06
FA
03
02
FE
FF
FE
FF
FD
02
00
FC
FD
FF
FD
06
FF
09
F9
FC
00
01
FE
05
0D
03
EC
F9
F8
03
FD
00
01
FB
01
00
FF
FD
00
FB
03
02
03
05
FE
00
03
F9
00
FC
FC
00
03
03
00
FF
F1
02
FE
05
FF
F8
FE
FF
FA
05
00
01
03
FD
FE
00
02
02
01
06
FD
02
F9
EE
FE
FE
F7
FE
FE
01
01
00
F4
FB
EC
F3
F3
FA
FF
02
03
08
FF
00
02
00
02
01
FE
FE
FF
FB
FB
00
F7
00
01
ED
FA
FC
FF
F8
03
01
00
03
FF
FD
FE
F9
FD
FE
FE
FF
FE
FF
FF
02
03
03
FF
FE
FE
FE
FC
01
01
FC
F9
06
FC
04
FF
FE
FE
02
FD
02
FD
FE
FD
FD
01
03
04
FC
00
FF
03
02
01
FC
FF
00
02
09
F4
F8
05
03
FA
06
09
02
FC
F3
FD
F9
12
FD
05
FA
03
04
FF
01
F5
08
FD
04
02
02
FD
10
FF
00
FE
04
FA
FB
00
06
07
FD
F8
FC
01
FB
FF
FD
F9
FC
F9
06
F3
FC
01
FE
EB
ED
01
04
01
FF
01
02
02
01
02
FD
02
02
01
FD
FD
01
FE
FD
02
FD
FC
01
FB
FE
02
FE
00
FE
FD
00
FF
FC
00
03
00
01
FD
FB
01
00
02
FD
FE
FE
00
FC
02
FC
FE
01
01
FE
01
FF
01
FF
FE
00
FD
00
02
01
FB
FA
FD
FE
FE
00
01
01
01
FF
00
FC
01
FC
FD
FE
01
01
FF
02
02
FE
FE
01
00
01
00
F8
00
00
FE
FE
00
FD
01
01
FE
01
01
01
FF
01
01
FA
FB
FE
01
02
FF
F8
FC
FF
02
F3
FF
00
F3
FF
FE
F9
04
00
FD
00
ED
E9
02
FF
FE
02
FE
FD
FF
01
FF
FB
FD
00
FF
F7
FF
F8
00
02
FF
FA
02
FF
FD
01
FC
F8
02
F1
01
03
04
EA
01
FF
FF
FE
00
F8
02
02
FF
FA
F1
04
F9
FC
04
FF
F0
03
00
05
FF
08
F9
01
E1
02
E6
01
03
FF
FB
01
01
02
00
03
03
FB
00
FE
FE
FF
F5
FF
0B
03
FD
02
03
02
FE
06
F4
04
06
FE
03
05
FB
04
01
FE
FF
F9
01
02
03
FE
03
FE
FD
02
01
05
FA
01
0A
FB
07
01
F6
F9
01
FE
FF
02
FB
03
A8
06
DA
06
03
FD
06
FB
00
00
FE
FD
01
08
00
00
FD
06
FA
00
0E
01
00
05
02
F9
00
F6
00
FF
00
FD
FA
0A
FB
00
FD
02
03
FC
FE
03
03
FD
03
F2
02
FE
FE
FD
FB
FE
FE
07
FA
FB
01
FC
03
F0
02
FC
02
FE
00
03
05
CC
02
02
01
F5
03
01
02
00
02
03
FE
FE
FE
F8
FB
00
11
00
03
05
05
FB
02
F9
FD
01
FB
FD
FB
FE
FE
FB
01
00
F6
F3
FF
FF
FF
FE
FE
03
02
00
02
F8
F8
FD
FF
02
04
FC
F1
FF
01
00
02
02
00
FD
01
FC
07
04
01
FE
FE
F8
03
FF
FD
00
00
FE
00
FE
03
FC
FB
02
01
FE
FF
FD
FB
FD
01
FD
FF
01
00
01
FE
01
FF
FB
01
00
02
00
FD
FD
02
00
02
FE
FE
02
FD
FE
00
FF
FD
FF
FF
01
02
00
FE
FD
01
FF
FE
FE
FE
FC
FF
FF
03
00
00
01
FF
02
00
00
FE
01
01
00
01
FD
F9
00
09
FF
F9
FE
07
FF
FE
04
02
00
FF
00
FD
FE
00
ED
00
02
EB
00
FF
04
FE
FF
00
00
01
FC
FF
FD
FE
FC
FF
FF
FD
00
02
FE
00
00
FF
FE
02
01
02
F9
01
FE
03
FE
01
00
01
FE
FD
FF
01
FD
00
00
FF
01
FA
FE
05
06
04
03
01
F9
00
EF
FE
FE
11
FF
0B
F8
06
01
FE
FD
EF
F9
01
00
FE
FE
00
FD
FD
01
FE
FE
FE
00
FE
FF
FD
FE
00
00
FE
FE
FE
00
02
00
01
01
FF
FF
FE
FF
02
FE
FF
FF
FE
FF
03
FF
FD
FD
02
FD
FD
FE
02
00
00
FE
00
FF
02
FC
FD
00
FE
FE
00
FE
FE
FC
FF
02
02
FD
FF
00
01
FE
01
FA
FE
02
FF
FE
FD
FE
13
FF
01
FD
02
FD
04
FC
03
FE
00
FF
FA
FE
FC
F6
02
02
F8
FF
FF
01
00
02
00
FB
FE
01
FF
FE
FB
FD
01
FE
00
FB
FD
00
FF
E1
00
FE
03
FE
03
FD
FE
00
00
01
F5
CB
FD
04
00
01
FD
F8
FE
FE
01
01
EE
06
F9
04
FE
FC
DD
FD
FF
05
FC
01
03
00
BE
00
BF
04
01
02
06
FF
FE
05
02
FE
01
FA
02
04
01
00
FB
FF
03
FA
02
FF
FA
FD
FE
F9
01
00
FA
FF
FC
01
FD
FD
02
FF
FF
F6
02
00
02
01
FF
FC
FF
FD
FE
FE
FF
02
FF
FA
FE
FD
FF
FC
FE
00
FD
FC
F8
FC
FB
FD
FA
FC
00
03
FF
01
02
01
00
02
FD
FE
00
00
FD
01
F6
00
05
F4
02
02
FA
00
01
FB
02
FE
FD
FB
F7
FD
F9
01
02
FE
03
F2
FF
FF
03
04
03
04
FE
02
02
F6
FF
00
F4
FE
00
03
FF
07
03
08
FB
02
FE
03
FD
02
FD
FF
00
02
E1
FF
02
01
02
00
FD
FE
FE
FE
FE
FC
00
FD
FC
FE
FD
FB
02
FD
FF
FF
01
00
02
FE
00
FD
03
FD
01
01
FB
FC
01
FE
FD
02
FF
03
FE
02
01
02
FD
FE
00
02
FE
FE
FB
02
02
EC
FC
05
00
FF
F9
FC
FE
00
02
FD
FA
E6
00
01
02
02
FD
FB
01
01
00
03
FE
FD
FC
FA
FA
01
02
FC
01
FE
04
FD
0E
01
FF
09
00
01
FD
02
F4
F9
FD
01
02
FB
02
FF
02
FD
02
FF
FD
FF
FD
FC
02
02
FD
FE
FE
FE
FF
FD
FE
FC
FE
FD
00
01
00
02
FE
01
FD
02
FE
01
03
FF
02
01
01
F6
FE
00
FD
01
F9
FC
F9
02
FF
FF
04
FD
F7
FE
FC
F3
00
EE
02
01
E8
FC
01
FC
FF
03
FE
F0
FF
FF
FE
04
00
FB
03
FC
01
FE
00
FC
FE
FF
02
00
06
00
FE
02
06
02
02
00
E2
01
01
02
03
FF
03
FC
01
00
02
FD
00
FD
00
FC
01
FD
FE
FF
FE
00
FA
FE
00
02
FD
FD
FF
FD
00
03
01
FF
FF
01
01
FF
00
F2
FE
02
03
02
F9
02
FF
FA
FF
F8
00
FF
FD
FF
02
FF
F4
FC
F9
F7
FE
FC
03
03
02
F0
02
FE
FD
FE
FF
09
02
03
02
FF
FF
FD
02
06
03
FA
EF
08
FC
FE
01
FD
04
FF
04
FE
FE
F9
00
02
04
01
FE
01
FF
FF
01
FA
FF
FF
FD
02
FB
FD
02
FF
FF
FD
FC
01
02
FA
02
FF
01
03
FC
FE
00
FA
01
FF
FC
FD
FD
03
00
FE
FD
F9
03
00
FF
00
FB
FB
00
00
03
02
05
00
00
F2
02
02
FA
FF
F1
01
EF
FD
02
FE
01
D5
03
FF
02
FE
02
00
FD
FE
01
FD
FD
01
FE
FD
FD
FE
FE
FD
FE
FE
FF
02
01
FE
FD
00
02
00
FD
FF
02
FF
00
FE
FD
FE
FE
FB
FE
FF
01
FD
FB
02
0E
00
FE
F1
FD
FD
04
03
FD
FF
00
01
F7
FD
F8
EA
FE
01
FB
FD
FE
FE
01
FD
01
FB
FF
FF
02
FB
FF
FD
F5
02
FA
06
FF
01
01
01
01
FF
FE
FC
03
FE
03
03
01
02
E3
FB
FD
FF
01
02
02
F0
03
02
02
FA
FA
FE
E4
EE
01
E1
EB
01
FD
E8
01
FC
F6
00
03
FE
05
F7
00
00
12
E6
01
00
02
FE
02
EC
02
00
00
05
01
FF
F8
F8
06
F7
07
FA
02
01
FE
FF
F5
02
F8
FF
F4
FF
FE
FD
0C
02
FF
00
00
01
FE
00
FF
FD
FF
FC
F9
FF
FB
03
FB
FE
F9
FF
FE
ED
03
FE
F8
FD
02
03
02
D3
00
02
FC
F6
FF
03
FD
FE
FD
FA
FD
FF
FF
00
FB
FC
0A
FB
02
05
FD
F8
01
F1
00
00
F7
02
FC
FA
FE
00
FF
FD
F5
FB
01
02
FE
FF
02
FB
02
01
FF
FE
FD
FF
FC
FB
01
FB
FF
FE
FE
06
07
FD
FE
02
F9
FF
FD
F8
FE
01
FD
FE
FF
FE
02
02
00
FD
FD
02
FF
00
FF
FF
FC
FA
03
FD
FE
FF
01
02
03
00
FF
00
F8
02
FD
FD
FD
FE
00
FF
01
03
FE
00
FE
FD
03
01
FD
FC
FC
02
01
F2
00
F6
01
FE
FF
FD
05
FE
0D
04
FF
00
08
EA
FD
FF
0B
F9
02
02
02
FE
00
FD
FE
01
02
01
FD
00
00
01
FC
00
01
01
FF
FF
02
03
FF
FE
01
FD
02
FE
03
00
02
FF
01
01
FD
FE
01
09
FE
FE
FE
04
FE
FF
FE
F3
FF
04
01
FE
FF
F5
FD
FF
FE
02
F8
04
F6
0A
02
FF
F5
F9
FD
01
02
02
03
FA
FE
FE
00
FF
F7
FE
F8
03
F8
03
FF
00
03
FC
01
01
02
FE
FF
FF
FD
FF
01
02
E2
F9
02
05
FD
FF
01
F5
02
00
02
FD
FF
FC
FD
FD
FE
F7
FE
FD
00
01
01
FE
FE
04
FD
01
FC
F9
FF
01
E8
02
00
03
FD
FF
FD
FB
03
01
03
EE
FD
01
06
03
F9
00
FE
05
01
FD
05
01
EE
05
F9
02
FF
00
03
02
07
FB
02
04
03
FC
FE
00
00
00
FD
01
01
FE
FD
FD
01
F8
01
FE
02
FC
FD
FE
FF
02
00
00
FE
FE
01
02
FF
FC
FF
FE
02
01
FF
01
FF
FF
01
04
F9
02
FD
FA
FF
FB
E6
FF
04
01
FD
01
01
FD
EB
FF
E7
04
FE
00
04
FD
FE
00
FD
FF
FE
01
FE
01
02
FE
F9
FF
04
02
08
E7
06
FB
FB
FB
07
00
FC
01
FE
06
04
F8
FE
02
08
FF
FE
02
FD
00
02
F5
FE
02
00
F7
05
05
F8
05
FE
06
06
FC
00
00
01
FF
00
02
EF
FA
EC
02
02
FE
03
07
00
01
00
FE
FF
FF
01
FF
00
F9
F9
FF
FD
FD
FF
FE
FC
03
01
E6
FE
FF
05
FE
01
FC
02
FC
02
FD
EA
D5
02
01
FE
FF
FF
02
FF
03
00
FC
01
FE
FD
00
FF
FF
FD
FB
01
FE
FD
FE
01
FD
FE
FF
FC
FE
02
01
FF
FF
02
FD
02
02
00
08
FE
FC
00
00
00
00
06
FB
03
FF
F9
FC
00
03
F8
FF
FA
01
ED
07
E6
00
00
02
04
00
02
04
FE
FF
00
FF
00
FE
03
01
F9
01
FC
FE
00
01
FF
00
FF
FE
FF
03
FF
FF
02
FE
FD
FD
01
01
FC
FD
03
FF
FD
02
FE
01
FD
FF
FF
05
F3
00
06
FA
00
06
04
FC
03
FD
FB
06
F3
F6
09
FF
02
00
03
FF
FE
01
01
FC
03
02
FF
F8
FE
02
FF
FB
FB
02
F5
FC
04
E6
FB
02
FD
F0
04
FF
03
FD
00
FF
FE
FD
FF
FE
F9
F8
FE
00
02
01
02
F6
00
FD
00
0C
FD
FC
0A
FC
FC
07
04
FE
00
05
01
FF
FC
FF
00
FC
01
01
FE
FF
EF
01
FF
FF
FF
00
FF
FC
02
00
00
F8
FF
FC
08
02
00
09
EE
00
01
FD
02
FF
F4
FF
ED
FA
FC
06
02
01
05
FF
01
00
01
01
01
0F
FF
00
FF
F3
FE
FF
00
04
07
0B
04
FC
02
FB
03
FF
04
02
02
F7
FF
01
FD
00
F5
FB
02
03
FD
02
FF
02
00
03
FE
F5
F5
FE
09
01
04
DE
EA
04
FA
00
01
FE
06
01
08
01
0C
F9
03
FE
06
FF
00
00
01
01
FE
FC
01
00
02
FF
04
01
01
05
03
FE
FD
02
01
01
00
FE
F9
03
FC
03
00
F8
00
02
DE
FF
02
FE
02
00
03
08
03
02
FF
09
FD
FD
F5
F7
FE
FE
F6
F9
FE
00
00
FE
F7
00
03
00
FF
F6
01
02
FE
F4
02
FE
03
00
FE
FE
02
02
02
01
04
00
FE
FE
02
FA
01
00
FF
FC
02
FD
00
FD
FF
00
FF
02
02
FE
00
FB
02
FF
00
FF
FF
05
03
FE
02
FF
FD
00
0A
05
FB
F8
F5
04
FC
F8
00
FC
02
FE
F1
FC
F7
FC
FE
02
03
00
01
FE
03
FE
01
03
03
03
FF
01
FD
00
FA
02
07
08
00
FA
04
EA
02
00
0B
03
0A
FE
0A
FC
FE
FE
F1
F2
FD
02
03
01
01
FE
03
FD
FE
FE
00
01
FE
00
00
FD
02
FE
FF
FE
FF
03
00
02
01
00
FE
FF
FE
FD
00
FE
00
01
01
FD
00
F1
00
01
FE
05
FF
00
06
02
05
0E
06
FF
03
FB
FD
02
F3
08
FC
02
FC
02
FE
FD
09
FE
01
00
FD
FE
FE
F1
02
FE
03
FF
01
FD
E5
00
03
06
FE
FA
00
FE
FF
FF
F4
04
01
FD
04
04
02
02
00
03
02
FE
FE
00
01
FF
00
00
00
FE
FD
FF
FE
FE
00
FD
FE
FF
02
FF
01
00
00
FF
FE
01
FF
00
FF
01
01
02
02
FF
02
00
FF
0A
FE
FE
03
FD
00
FC
05
FA
FE
FF
05
FE
05
02
FA
05
F5
01
B3
FC
D7
02
03
01
06
FB
02
00
00
FF
FF
07
03
02
02
02
FA
00
00
01
FA
FD
02
FB
FF
03
02
FE
FF
FE
FC
F7
FD
04
03
FE
E1
02
FD
00
03
02
02
02
00
00
FE
FB
FA
01
00
FE
FC
04
F7
FE
FE
FC
FF
FF
F5
FB
F7
FD
F9
F9
01
02
0A
FB
FE
01
FE
FE
FF
FA
03
FE
00
FB
FD
FB
FD
FD
02
F1
F8
FD
FA
EA
03
FC
04
F6
F5
04
F7
F8
00
03
FA
00
FE
FD
02
04
03
02
FE
FF
FF
FF
FA
02
02
F6
FB
03
F2
FF
FF
FD
00
FF
F9
FF
00
00
FA
FD
00
00
0D
F6
01
01
03
03
01
FE
FF
FE
00
0C
00
01
05
FD
01
FB
02
00
04
09
FD
01
FB
03
F5
05
E8
FE
02
FE
06
0F
00
01
FF
00
02
F5
01
FC
02
FE
FF
FF
ED
F5
00
FA
EF
F8
FE
02
FF
00
F8
02
F7
F9
01
05
02
03
02
00
FD
03
00
FC
FF
EA
FE
FE
FD
00
F5
FF
02
F4
FB
00
FE
FF
FC
FE
FD
FB
FE
00
F6
0B
FD
FF
03
FE
00
F5
02
FB
02
FE
01
05
00
00
00
FF
FB
02
01
F5
09
02
08
00
03
FF
FC
02
09
FF
02
FF
02
ED
FF
FF
0B
FC
FF
01
01
01
FE
00
02
FE
FE
FE
01
01
FE
01
FE
01
FF
FE
01
FF
03
FE
03
00
01
FD
FE
FC
02
FF
03
FF
FE
02
FD
FE
01
01
FF
03
FD
FE
FC
01
FE
FC
FC
03
FE
01
FF
FB
00
FE
FD
FC
FD
FD
FD
FF
01
01
FE
01
02
FE
FE
02
02
FF
01
00
02
FD
00
FF
FF
FE
02
FF
FF
FD
01
FE
FE
00
02
FE
FD
FD
00
FE
FF
FE
01
FE
01
00
FE
00
00
F1
02
03
02
FB
FF
01
EE
F5
FC
04
07
FF
02
FA
01
FF
FF
00
01
F9
01
00
01
01
0A
F6
FF
05
00
FF
FF
F7
01
01
FF
00
FE
02
00
F9
FE
F7
FF
03
01
FE
01
01
00
FF
F9
FD
FA
FC
FE
03
03
FD
00
FE
FD
FE
FE
FE
03
01
FF
FD
FA
00
07
FC
00
02
01
FC
01
EF
01
01
01
01
FF
02
01
FC
01
02
FC
F6
00
03
01
02
FF
FF
02
FD
02
03
02
FD
FF
01
FE
FF
01
FF
FD
FC
FE
02
00
00
FD
FE
FF
00
03
FE
03
FC
FF
FF
01
FE
00
00
02
FE
FE
00
FD
FE
FD
F7
FF
02
02
FE
04
03
03
02
FD
04
FE
FF
FA
00
00
01
03
FE
FE
FF
FD
01
FE
FA
02
00
FE
FE
01
FD
F9
F9
03
FB
FD
FB
02
05
FE
FC
FC
FF
FE
FF
FE
FA
FE
00
FF
02
00
00
03
02
FD
05
01
FD
02
F6
FB
FF
02
F9
FC
0E
06
F7
02
FD
FC
FF
F9
01
FF
09
FF
02
00
FF
09
F8
03
02
FE
02
FE
FC
FC
01
00
F9
FE
02
05
FE
FD
F9
FA
01
01
FE
03
01
FD
01
FB
03
01
F9
02
00
FD
00
03
03
02
FF
FF
F6
FF
01
00
01
01
02
04
FD
00
FE
01
FC
FF
03
02
FC
05
FF
FC
F4
01
00
00
FE
D5
05
FD
FF
FF
FE
03
F7
FE
00
03
05
FC
01
F6
06
FC
00
FF
02
00
FF
FF
00
04
00
FD
FB
01
FD
01
00
ED
FD
01
01
03
FD
FD
F7
FD
FC
01
FF
FE
01
FC
00
05
00
0A
FE
04
FE
FF
01
02
FB
09
03
0E
FF
01
01
FE
FE
FD
FE
02
00
FE
02
02
01
00
FE
FA
FA
FB
F8
FD
FD
F9
FA
00
EC
FC
FF
00
FE
FD
FF
FF
E3
01
02
01
FE
01
FF
FD
FD
FD
F5
FE
02
01
F3
01
FC
04
FB
00
E6
F1
FC
FF
FD
03
FB
F2
FA
E3
F6
E8
FC
FF
03
0E
02
01
00
FE
04
01
FF
01
FF
FD
FC
FA
FF
06
F0
FE
05
F4
FC
03
00
01
FD
04
01
C7
FC
E9
FA
FE
FF
FF
FE
03
FF
02
00
02
FF
FD
00
02
FE
FE
FD
FD
01
FE
FF
FE
01
01
FE
FD
02
FF
FC
FD
02
FF
01
02
FD
FF
FC
FE
FD
FD
02
FD
FF
02
FF
02
FA
FD
00
FC
00
FE
EC
00
FD
FD
FA
01
FD
02
01
02
FF
03
FA
02
FF
F7
01
03
FE
FE
00
01
03
02
01
01
04
F4
FD
FB
FD
FD
07
FC
FD
01
FC
02
FF
FB
00
03
FB
05
F1
FE
FF
CB
FC
FF
02
00
FE
00
FE
01
FD
03
FD
FF
FD
F7
FF
08
10
04
01
02
00
FF
02
EE
04
FC
00
F9
04
03
01
00
02
FD
01
FE
FE
01
08
02
01
01
06
FB
03
07
05
01
FE
FB
00
03
FE
01
05
FB
01
06
03
08
01
01
01
0B
FE
FF
04
02
00
01
FC
FD
03
FF
FE
FA
FC
F0
06
FC
01
FC
02
00
03
FA
03
05
FE
05
06
01
02
00
FF
F8
00
00
FE
01
03
FE
FA
FE
FE
FE
FE
F9
FC
FF
EF
00
FD
03
FC
01
F8
FE
00
F7
FC
F2
FE
F1
F6
FE
00
FE
01
00
02
FD
FF
03
FA
01
FE
01
FF
F5
FF
FF
03
00
FF
F9
FE
04
06
FA
01
F7
01
0A
09
01
02
03
FF
FB
07
02
FF
FD
FE
02
FC
FF
02
FF
FC
02
00
03
FC
FF
03
FD
01
03
FD
00
FE
01
FE
01
FE
FF
FF
FF
FE
00
FC
03
FD
03
01
01
F8
02
FE
FE
04
FC
02
FA
FC
FB
08
04
FE
00
E9
FE
01
FD
02
01
02
FC
EE
00
FF
01
F7
FE
02
FE
FF
FE
01
01
01
01
03
F8
FD
FB
FF
02
04
FE
FF
03
F4
04
01
00
01
FF
01
FF
F8
01
FF
FC
FB
00
02
01
03
02
00
FE
FE
03
01
FB
03
02
FF
FF
02
01
FD
FE
03
01
02
00
00
FD
FE
FE
FE
01
FD
FF
FE
02
02
FE
FF
01
F2
FE
FF
00
FC
FB
FD
FD
FB
FC
FC
F7
FD
FC
EC
00
00
F9
01
01
FC
02
DB
01
02
02
FC
00
02
FD
01
01
04
00
01
02
04
FE
00
F9
F7
02
F7
F3
FE
FE
01
FE
01
02
FB
00
FD
00
F3
03
FE
FA
F6
FD
FD
FD
FC
01
F9
02
02
FF
FB
FB
FF
FC
FD
02
F8
FF
FE
02
EC
FB
FE
03
FF
F3
F6
F7
FF
FE
FF
05
F9
03
FE
FE
FE
FD
06
FF
01
FD
EF
FE
00
06
FF
06
EA
02
01
FA
03
05
00
02
00
02
FF
03
02
01
00
04
FF
01
03
FD
02
02
E6
02
01
FD
00
FC
01
04
EB
05
D9
F9
FF
FF
FC
03
FE
F9
FE
F9
F9
FE
FF
02
00
03
F3
02
04
FF
FE
03
FD
FF
FE
02
04
FF
FD
FF
00
FF
04
07
FF
FF
E9
00
02
03
01
05
06
FD
EE
03
FE
FB
EC
FF
00
FF
03
03
00
00
00
FD
FA
F2
FE
FE
F3
FA
01
FE
F6
01
02
05
02
03
F9
06
F6
0B
FE
FF
01
08
D4
02
02
FD
00
00
03
FF
FD
FF
FE
FC
02
01
0B
F8
F7
F9
01
01
F8
FD
00
FF
FF
EC
F8
ED
F3
01
01
F9
DB
03
02
00
FE
01
04
00
02
FE
FD
F5
FF
01
F8
08
02
00
06
FD
04
FC
00
F0
01
FD
FD
FD
00
00
FD
FA
E1
FD
02
01
FE
02
00
FE
FF
FD
FE
FC
FF
FB
F7
03
02
06
FD
01
00
02
02
01
FC
FE
FF
FD
FB
FE
02
06
FA
00
04
00
FD
01
FC
02
01
01
F7
F8
00
00
EE
FB
05
FF
F5
01
D8
03
01
F8
06
FB
FE
02
FE
01
02
F5
D6
01
03
01
02
FD
FC
FE
01
FF
F5
FC
02
FA
F8
03
03
FC
03
01
F6
02
FE
02
01
FE
F8
FE
03
00
02
ED
F1
FF
02
FE
FD
FE
02
01
00
02
05
FA
01
00
FF
05
0C
F9
FC
FF
FD
FF
02
13
FB
B0
FA
DD
04
02
FD
06
00
00
02
02
01
01
FC
FE
02
00
00
FF
00
FB
FF
FE
00
FD
FE
01
FA
FF
FE
F9
00
FC
01
FE
01
02
FF
FB
FC
02
01
00
FD
00
04
01
01
00
FC
FF
02
F6
FA
01
E7
01
05
FC
01
03
FC
FE
00
FC
F9
FB
01
FE
03
08
03
FF
FE
FF
03
FF
FF
02
00
01
01
03
FF
FD
00
FD
FF
FC
FC
01
00
FE
FE
02
FC
00
00
01
F9
02
FF
FD
FF
00
00
00
02
03
F9
01
00
02
FA
F5
FC
FA
02
FD
04
00
F9
00
F6
FE
02
09
01
FD
02
02
03
01
02
F4
FB
FF
03
02
01
FF
F2
02
02
01
03
00
FD
F8
F6
03
07
FB
F8
FE
F9
01
04
FD
00
EC
03
EF
03
FF
01
F7
F5
02
01
FF
FD
FE
02
FF
FE
01
FF
FF
00
01
11
FE
00
EB
00
00
07
FB
02
FF
02
F9
FF
03
FA
03
01
FC
06
FD
03
00
00
01
01
00
FF
03
02
FF
FF
FD
00
00
FE
FC
FF
01
00
FC
FD
FC
FE
01
00
FC
FC
00
02
00
FD
FD
00
00
01
02
FB
01
FE
02
FD
F2
FE
0A
F0
FF
E8
00
04
FA
FA
FE
00
FE
FF
FE
02
FA
F2
03
00
FF
FA
03
FE
FF
02
FF

