FE
05
01
FA
FB
FD
FF
01
F9
02
0E
03
08
06
0C
FA
FE
01
00
EC
F9
08
E5
1A
02
E4
FC
FF
F4
FB
FD
08
FF
00
01
00
00
00
04
00
00
00
00
FF
00
FF
00
00
FD
E5
10
ED
3E
FD
05
04
F1
0E
FA
FF
F8
05
06
45
FD
EE
06
12
F6
D7
02
40
1A
DD
DD
FD
D5
F6
1E
25
03
0C
02
FF
15
D4
05
0C
F1
D0
0B
F8
11
06
03
10

