00
FF
FF
07
00
02
FC
11
F5
01
01
FC
04
04
FF
F7
00
23
02
08
02
FA
FD
00
0C
D2
05
01
FD
0A
00
FE
00
00
00
00
00
06
01
02
05
00
00
00
00
00
00
00
05
02
F7
F3
18
F0
FA
FD
FA
07
06
EC
ED
03
02
C9
C9
03
DD
F1
D0
F6
00
FE
09
04
BD
1A
F6
0E
DB
C5
CA
18
41
17
FD
00
08
09
00
0D
C4
F4
03
EB
B1
F6

