E2
04
FD
01
01
F8
FF
02
06
FF
FD
FF
FE
FF
FE
00
FF
FD
FF
FE
00
01
FB
F9
FD
FE
F9
00
F7
FE
F4
01
00
00
FE
00
FF
FE
FF
FD
00
02
FD
00
FF
FE
01
FD
FE
02
FD
00
01
01
FF
FF
01
02
FE
02
FE
FF
FF
FF
FA
FE
FD
00
FF
FD
FE
FD
FC
FF
FC
FE
FE
FC
FF
FE
00
02
02
00
FB
01
FE
00
00
00
00
FE
FC
FF
02
FF
FD
02
F8
FF
09
03
FD
FC
F4
FD
07
01
FF
04
00
FB
EB
FE
FC
FF
FF
FD
00
D5
01
FD
FF
01
06
01
F8
01
10
00
03
FD
FF
FE
02
01
F5
01
F1
00
FD
FC
01
04
05
03
02
04
00
01
FF
0C
FF
FD
F2
03
00
00
05
00
FE
FD
FE
01
FF
01
FD
FB
02
01
FB
02
00
00
FE
02
00
01
01
FE
02
03
FD
F8
FF
02
FF
01
FA
FF
00
FF
10
02
F6
02
FF
FF
01
FE
F6
02
08
02
FC
00
03
FE
01
00
FB
01
0E
FF
01
D9
FF
FE
02
FF
E5
02
06
FF
F3
FF
FF
FF
FA
0B
FE
00
F6
FF
F8
FE
FB
FD
00
09
0E
FE
03
02
FE
FE
FA
F4
01
FE
05
FD
02
FC
FD
FD
01
FE
FE
FF
FD
01
FE
FF
FF
FF
FF
FD
03
02
01
00
FE
FC
FE
FF
00
FD
FF
FE
02
FF
FF
FF
FE
02
03
00
FD
FE
FB
00
FD
0B
01
FE
FA
FD
00
FE
05
FE
FE
10
FA
F9
00
03
FD
FD
02
F8
01
FE
FD
FE
02
01
E5
FF
FE
03
F8
FE
05
F8
02
F4
05
04
09
FE
01
F8
03
F3
FE
FB
FF
03
F5
FD
02
F5
01
01
04
00
FB
FF
02
00
06
05
ED
03
00
FE
01
FA
F4
01
FE
02
FE
FE
01
F4
FE
FE
02
00
06
FF
01
F1
04
FE
EE
FE
03
02
ED
03
F9
01
02
02
F6
ED
00
FD
DA
03
00
02
FE
FE
FD
08
03
FE
FA
01
EE
02
00
EA
FD
03
0E
04
F9
01
FF
01
FC
FE
FD
FD
FF
FA
01
FB
F8
01
FF
02
FD
FE
FF
07
FE
FD
FE
FF
FC
FE
FD
E6
03
01
FE
FF
FB
FE
F2
01
FA
05
FE
00
01
FE
FD
FC
FE
00
F8
FE
FE
FE
03
0A
09
03
02
FF
02
FF
01
01
00
FF
09
02
02
00
07
FF
DD
FF
F2
02
F4
06
00
FC
01
05
03
04
FF
00
FD
0B
FE
FC
01
00
EB
01
FC
00
02
00
FD
FE
F4
01
FB
FD
F9
FE
F8
FE
03
FC
04
FF
FB
01
00
FF
00
01
02
02
FD
FF
00
03
FC
03
02
FD
04
FE
FF
01
FF
04
04
02
FC
FF
00
01
FD
02
02
02
FF
02
FF
FF
00
FF
00
03
00
FF
00
FD
00
FD
01
FF
02
00
FF
FF
FE
00
02
02
0F
FD
FB
FE
FA
FE
01
FC
EB
FF
FB
00
FA
FE
03
FF
06
FD
F9
01
F5
02
03
FE
04
02
00
FB
DD
FD
06
FF
FC
FE
FD
02
00
FB
FC
F8
FD
FE
FF
FD
FE
00
01
FE
FE
FF
FF
FE
FE
02
FE
00
02
02
FC
01
FD
FE
FC
01
F6
06
FF
FF
01
08
00
02
FE
00
FE
FE
FE
FB
FF
FE
02
FF
FF
FD
08
04
FD
F6
01
01
F9
FF
EF
FD
E5
01
FE
FC
FC
00
06
FA
04
FE
02
02
02
FF
FB
FE
01
00
06
01
03
02
FE
01
00
FF
01
02
FE
03
02
FF
04
00
18
00
C9
03
06
FD
FE
FF
ED
01
04
00
FF
FC
01
EA
05
FB
FC
FF
0D
FE
02
EA
01
01
F7
FF
01
00
0C
01
F2
00
FF
FD
02
03
00
FA
FD
03
04
FF
FB
00
02
05
EF
FF
FF
FE
F8
FF
FF
DC
FC
02
FF
02
04
01
F3
02
FE
00
FE
02
FA
FE
FE
F9
F4
FE
F5
FD
FC
FF
FF
FB
FC
01
FC
FD
01
03
03
EA
00
FF
04
03
00
01
FA
FE
FF
FF
FC
00
FD
FF
FC
FE
FB
FF
FC
00
00
FA
01
FC
FB
FC
FC
02
00
FD
FE
FE
FE
FF
FF
00
01
02
FE
FF
11
00
F8
FE
FE
FD
FD
00
FA
03
03
FD
02
FE
FF
04
01
FE
02
FE
FB
FF
FC
06
00
FF
02
FD
FA
FB
FF
FD
03
05
FC
03
FE
FD
02
00
F9
01
06
05
FF
FD
02
00
FC
01
03
00
09
01
03
FD
01
00
04
06
FF
02
06
01
06
FF
EB
00
F9
01
01
FE
FF
FF
0D
00
FF
00
FE
F3
FE
02
03
00
03
FD
02
F8
00
FF
00
00
F8
02
03
02
02
FD
FF
03
FC
FE
00
00
00
FD
FE
00
FD
FD
00
02
FC
FD
02
FD
02
02
FD
FC
02
FF
FF
FF
FE
01
FE
02
FC
FF
00
FF
FE
01
FD
01
00
00
01
00
01
FB
02
FF
FD
FB
02
01
FD
02
FD
F9
FF
FF
FA
FE
FD
FF
FA
FF
14
FE
E9
02
02
0A
00
FD
F4
FE
F4
00
FD
01
FF
F5
00
FE
03
00
F9
FE
FD
E1
FD
00
F0
FF
FA
FE
01
FE
01
FE
FD
01
FA
FC
FE
FE
01
FE
FE
FF
FD
FF
FD
FE
FE
FC
FD
FF
02
02
00
FC
FF
01
FE
FE
FD
00
01
FD
BB
FE
03
00
00
F7
FE
FE
FF
FE
FD
FD
00
01
FF
F8
0A
FF
03
01
05
03
FA
D7
FF
FE
FE
03
03
FD
02
01
FF
FC
FE
02
FD
FF
FE
00
FE
01
00
FD
FD
FF
FE
05
FC
FD
02
00
01
FE
FC
FE
05
03
00
04
FF
FE
02
00
FE
FE
F0
FF
F9
FE
00
01
FF
00
FB
FF
01
00
03
FD
01
FD
FE
FD
FD
01
FF
E5
FF
FE
FA
00
00
01
F5
03
FA
02
01
FE
FD
04
FB
FE
FC
00
0B
00
FF
FB
FE
FE
FF
00
03
FF
FA
02
01
00
FF
FD
03
04
00
FE
FA
FF
FF
02
FC
01
00
FD
02
FE
FE
00
03
01
00
00
FE
FD
00
00
00
FD
FC
03
00
02
01
02
03
01
00
01
FB
FF
E9
00
05
FE
FC
F5
FF
F5
EF
01
01
02
FF
FB
01
F5
FB
FE
FF
FF
FE
02
03
ED
01
00
03
FE
F6
00
04
02
FE
FE
FD
00
00
FF
FD
01
01
01
00
FF
FD
02
00
03
FE
FD
FE
03
FB
02
02
FE
03
01
FB
FF
02
FD
00
FF
0E
FD
F8
03
FE
FE
FE
07
F7
01
F9
03
FD
02
02
0C
01
01
01
04
F6
03
FB
F7
FE
02
F7
03
FC
01
0A
00
01
01
01
FE
01
FE
FF
03
01
00
02
FF
FD
00
02
FD
01
02
00
01
FF
00
00
FC
FF
FD
FD
FE
01
01
FE
00
FE
FD
01
02
FD
00
00
FD
01
01
00
02
FF
FF
01
00
FF
01
02
00
00
00
00
00
FE
FF
FD
FD
00
00
01
00
E8
FE
FD
02
F8
FC
02
FB
E5
00
F9
FC
FF
FC
FD
02
F9
02
FF
02
FF
FE
FF
ED
00
00
F8
FE
FC
FD
09
00
E8
08
FD
FF
05
0A
06
01
FD
FE
02
00
FD
FF
01
0E
D1
FD
00
00
F2
01
05
EE
FE
02
0C
01
06
FE
F1
FE
00
FC
00
01
06
03
FB
FE
F1
FD
F2
00
FE
FF
FE
05
02
02
FE
03
F5
FF
00
D1
FF
FE
00
02
01
01
EB
02
05
05
FB
FF
03
FD
01
FA
F3
03
04
00
FE
00
FE
FB
F8
FD
FE
FD
05
00
FB
EC
00
FF
F4
05
01
01
F1
01
FD
FD
FA
FE
00
FC
FE
02
FF
FF
FE
FD
FC
FE
01
FE
07
03
01
FE
EE
FE
FD
FF
02
01
02
01
FE
FF
05
02
07
03
F7
FF
FD
02
00
05
F3
00
EF
FE
00
FF
03
FD
02
01
04
02
00
FE
FF
0A
00
03
F0
04
FD
FF
07
FE
00
FC
FD
FD
FE
01
FC
02
FC
FD
FF
FC
FF
FE
FD
01
FF
00
FD
FF
00
FF
FD
FE
FE
02
01
FF
00
FD
FE
FC
F9
01
03
03
FF
FD
03
FF
F9
02
02
02
FD
FD
FE
EF
F6
05
FC
FE
FD
00
FF
F3
FF
01
02
FE
03
FF
00
FF
05
FF
F8
FF
01
F8
FB
04
FC
02
FF
01
FD
FB
01
01
FD
FE
00
04
F9
FE
FE
FC
04
00
FD
02
02
FC
EE
FE
01
FD
FD
01
01
FF
02
02
FE
FD
FE
FF
03
03
FE
01
FD
00
02
03
FD
FF
01
FF
02
FF
01
02
00
FD
00
00
EE
04
FE
FE
0A
03
FB
FE
F4
01
04
01
FE
02
FF
F7
F9
00
02
03
FF
FF
FF
E2
FF
FE
FF
FE
02
02
FF
FE
00
FE
FD
00
00
01
FE
FF
FE
01
02
FE
02
00
01
FD
FF
01
FD
FD
02
03
FD
00
FD
FE
01
FE
00
FF
00
02
11
09
F9
FE
FC
FF
FD
FC
EB
02
05
01
01
01
01
02
01
F9
03
04
FD
FF
01
0B
FE
03
03
02
F8
FF
0E
FD
EC
FC
FC
00
04
06
04
FC
FB
02
FF
FF
00
00
01
FE
FB
01
FE
FF
F6
01
02
05
FF
01
05
01
DA
FF
FF
00
E7
02
F6
FD
FE
08
02
06
FB
02
FE
FA
FB
01
FD
0E
B8
FC
00
00
EE
00
03
F9
02
02
09
FD
0A
FF
F1
02
02
07
01
02
00
02
00
FE
FD
FE
06
02
FF
02
03
01
FF
FE
FD
00
FD
00
00
FA
02
FF
04
02
FB
FF
04
FF
FE
00
FE
01
02
0C
01
01
01
03
F5
01
00
02
01
FE
08
FE
03
02
F8
02
FE
F4
02
01
01
FF
02
FC
02
03
0A
06
F8
FD
FD
06
00
FC
F4
01
05
04
FF
FB
01
FE
03
03
FA
02
09
00
FF
05
06
00
04
01
FA
05
02
01
0E
04
03
02
F3
FB
03
06
01
00
0E
08
00
01
FD
FC
0B
00
FF
FC
06
FF
FF
F3
02
03
F8
FF
EA
FD
08
FA
01
03
FC
01
FE
FF
FE
00
03
00
FE
FF
01
FE
FE
FB
01
FF
00
FF
FE
00
FC
FD
00
FE
00
02
FC
02
FE
FE
00
FF
FE
FF
FC
00
00
FD
FC
01
02
02
FF
00
02
01
02
FF
FD
02
FE
FE
01
FF
FE
01
01
FE
FB
00
FD
00
F0
04
02
FF
01
FE
00
FE
FB
01
FE
01
01
00
00
F6
F9
03
FF
FC
E7
02
03
FE
02
FF
07
00
FC
02
06
01
00
02
FD
FF
FF
FA
01
FB
09
FD
05
01
FD
00
FF
FE
EB
01
FE
01
FC
FD
FD
CA
FF
FF
FC
FE
09
00
F2
01
FF
FC
EB
00
F5
10
F9
00
F8
FD
FE
FF
06
01
04
FF
F7
FA
01
01
FF
03
01
F0
00
00
F4
02
F8
FD
E4
FF
04
FD
FA
01
00
FD
FC
04
FF
FF
FC
FD
FE
FE
01
FA
02
FF
01
02
03
03
FE
04
04
00
F9
FC
03
FE
F0
FF
0A
00
EE
FD
F7
0A
02
FC
FD
01
03
02
FD
FD
FE
0B
09
01
FA
FF
07
FF
FD
06
02
02
FF
01
F0
02
06
FD
FE
FD
F0
03
07
FF
01
FC
01
FE
F3
FE
FE
F7
03
F5
FC
F9
00
01
FE
03
01
F8
00
FF
01
04
02
01
FE
FD
01
FF
03
01
02
FF
FE
04
FF
02
F7
01
FC
FA
03
09
F8
FE
00
FF
FA
FD
FF
FE
05
FF
FA
03
02
01
02
FE
EE
00
FB
FD
03
F7
01
F8
FC
00
FA
02
00
01
FF
00
02
00
FF
02
01
FE
04
FC
02
04
01
04
E9
FE
01
FD
FD
FC
01
FD
01
FE
01
02
F9
FD
FF
FE
02
FD
FD
F8
FC
04
FB
02
FC
FF
FB
FB
01
02
FF
01
FA
03
FF
FE
F9
FD
F5
02
02
F2
FE
F7
01
03
00
01
03
FF
02
FA
F0
01
FD
FE
FB
02
00
FF
01
02
FE
00
F5
FE
FA
02
E3
FF
00
02
F1
FE
FD
F6
FE
03
02
FC
00
02
02
FB
01
FF
FD
01
FF
02
FF
D1
01
FE
03
FC
02
00
FF
00
05
01
07
FF
01
FD
F8
01
00
02
FD
01
FD
05
02
FC
F9
00
01
FD
FF
FD
F8
D7
FE
FF
00
01
FF
FF
0E
02
FD
02
FE
02
FD
FF
04
FC
FB
00
04
FE
02
02
FE
FC
FE
01
FE
FE
01
FF
01
FB
01
FE
03
04
F9
FE
00
00
00
FB
FD
00
FD
FC
FC
FA
FC
01
00
00
FB
01
00
FD
FD
FF
00
FF
01
02
FD
FC
FE
02
FE
FE
FF
00
01
02
B5
04
FA
FD
FE
07
FE
00
07
FE
05
FD
FE
FB
FE
03
0E
FC
00
01
00
02
F7
FC
FF
FE
04
FD
F7
FD
01
FD
FE
00
FE
FF
00
FC
01
00
FD
FD
FD
01
00
02
00
02
01
01
01
FF
FD
03
FE
00
02
FD
02
FE
FF
00
02
FF
00
02
00
FE
01
FA
FF
FC
00
FD
FA
02
00
F9
01
FC
FE
FC
03
00
FF
02
00
F8
03
FD
05
02
00
FE
FE
00
E9
FC
FC
FE
14
FD
03
F7
06
06
0F
FE
02
01
FE
FC
FE
FD
01
01
FC
FF
FF
05
03
00
06
02
F7
01
FF
02
FC
FB
FC
FF
FD
FE
00
06
F4
00
FC
02
01
03
03
FF
F8
01
FF
FE
F9
FF
02
FD
01
00
02
00
F9
FD
F8
01
03
02
FF
01
02
00
01
FD
FE
FF
04
FF
00
00
FE
F9
FD
01
01
FA
F8
FD
02
00
01
01
07
02
01
FF
04
03
0F
01
E8
FE
02
F7
02
00
00
FF
0A
02
FD
01
FE
EA
0A
02
FB
00
FB
00
01
FC
00
FF
F9
01
FE
00
05
01
06
FE
F1
FF
FE
FC
04
FD
06
00
05
FD
00
FE
FD
F4
FE
02
FE
00
0B
01
FF
F9
02
01
F3
FD
FD
FD
F1
03
13
FD
E4
01
F8
F7
FE
FD
EC
02
0A
01
FE
02
00
FC
07
02
FC
FF
08
00
FF
E3
FF
01
FB
03
E9
FA
08
00
EC
02
EB
00
FA
06
FF
F7
F0
FE
0F
FE
FB
03
FF
F8
F6
FF
FF
00
F2
03
03
F6
FE
02
03
02
04
FF
FB
02
00
FF
FE
FF
00
FF
03
FD
FD
FE
FE
01
FE
FE
01
02
FF
FE
FE
FF
03
00
FC
FF
FE
00
00
FF
FE
00
FF
02
FD
FF
FF
03
05
00
FE
00
FB
00
FD
03
02
02
02
00
01
00
00
01
FD
FE
00
FB
00
FD
00
03
02
00
00
01
00
04
01
02
FF
00
FE
FF
01
05
00
02
00
FF
00
02
FC
FE
02
02
00
01
02
FF
FF
FD
03
03
FF
01
FD
FD
FF
06
FC
FF
01
FA
FE
00
FF
00
01
FF
FF
FE
FE
01
FC
00
FF
03
01
00
02
01
03
02
FC
02
FC
FE
FE
FE
F2
05
04
FD
09
FC
F8
FF
E8
FD
F7
FF
FD
00
01
0E
F8
00
01
00
FC
03
00
E3
00
00
01
FF
05
02
E5
01
00
FF
F6
FE
02
02
FF
FA
FD
FD
FE
FD
FD
00
00
FB
FD
FF
FB
01
FF
01
FF
EF
02
02
FE
00
FF
FE
FD
03
F1
FF
FA
02
01
0C
FB
FE
FC
FD
FA
00
FE
01
01
06
D1
F6
02
00
F8
00
00
E5
01
FE
0E
02
03
FD
F4
03
FA
FD
F8
00
02
FD
FF
F8
02
FE
01
FF
FE
FE
01
FA
FE
01
01
01
F8
01
FD
E7
FD
FD
01
03
FE
02
F9
02
04
F7
F3
FF
03
FC
FE
FE
FF
01
FC
02
00
01
00
FF
FF
FE
FD
FE
FF
FE
FF
FD
FE
FD
FD
FD
FC
01
FC
02
FA
FD
FE
02
FB
02
FE
FE
01
01
04
FC
FE
FF
03
01
EE
FE
03
FF
FB
FE
00
00
00
02
02
00
02
FE
FC
02
F4
02
FE
FD
FE
FA
02
FA
F8
FF
FF
00
01
FC
FE
FD
03
FE
01
FE
FA
02
04
01
FF
FE
FA
00
FB
FB
FF
FE
92
FD
05
FE
FA
05
FA
06
FE
FF
0A
00
02
00
01
07
F5
F7
FD
02
00
00
EF
01
05
02
0A
FB
FF
FE
03
FD
0C
FB
01
FF
FC
FB
02
FF
FD
FE
01
02
FF
FF
FF
0F
06
FF
FF
FD
FF
01
FD
FA
FE
FE
03
00
F8
FB
05
01
01
FC
FB
01
01
01
01
FF
FD
FF
FF
FF
00
01
FF
00
FE
FF
FF
03
00
FD
FE
02
FF
02
01
00
FF
01
01
FD
01
FA
00
01
FF
FB
00
FB
FD
FD
00
FF
FD
FF
02
F6
FA
FD
FF
FD
F1
FF
00
FA
01
01
FF
06
00
01
FF
01
00
01
FA
01
FE
00
FF
03
00
00
FB
FE
FE
FC
03
FE
FC
00
FF
FF
FF
03
FC
00
02
02
F6
FE
02
01
F6
FF
00
FB
00
03
01
01
01
02
F8
02
FE
02
02
FF
FE
FD
FC
FD
00
01
F8
02
04
FD
FF
01
FE
FD
00
FC
F3
01
FA
00
F4
FF
F3
F6
FE
FE
03
02
F8
00
00
FE
02
15
FE
00
FE
03
FD
02
04
FC
FE
FE
04
FF
00
FF
F6
FE
00
FD
FD
01
01
02
00
01
01
02
00
FF
FE
01
02
01
FF
00
00
FD
FD
FD
01
FD
FF
FE
FE
FF
FE
FD
00
FC
04
00
FB
FE
00
FE
01
03
FE
FE
FE
00
00
FE
FE
FB
FB
FD
FE
FD
FE
FF
04
FC
01
FF
01
FE
FB
FD
FC
00
FE
FF
FF
FE
00
02
FE
02
FD
01
FD
00
FE
02
FF
FF
01
01
FF
FF
FE
00
01
00
FD
FF
FE
FF
FC
FC
01
02
EA
FF
02
01
F5
00
F9
04
04
03
11
01
F9
02
00
02
02
FE
04
FF
FC
00
F0
FE
F7
02
03
FF
FB
FB
02
FF
F9
F9
03
FF
03
F0
00
04
FE
02
04
FD
00
02
02
03
E3
03
FD
FD
FD
00
00
FF
FF
01
00
02
FF
FD
FC
01
02
FE
FD
03
FF
00
FE
FC
FE
00
01
02
FE
FD
00
00
FD
FE
FD
00
FF
03
FD
01
01
00
00
FE
01
01
FF
FF
FF
03
01
00
FF
FC
FD
F5
F5
02
EF
00
FF
01
00
13
03
FD
FA
FE
FA
02
00
CE
FE
FF
0A
FE
F5
FD
01
FF
02
01
FC
FF
FB
03
01
FE
01
FE
FF
02
01
FC
02
00
02
FE
03
00
FD
FF
01
FD
01
FD
00
01
FD
FF
FE
FD
0A
00
09
00
F2
FD
FF
03
00
00
FF
02
FD
FF
03
FE
F7
02
FF
00
F9
01
FF
01
02
00
05
05
FE
01
05
03
EB
FD
FA
FD
F4
F6
03
F4
F0
FE
03
FC
00
FE
01
01
FB
FE
FB
01
01
00
04
FE
FC
FE
0A
06
F5
02
FB
02
06
04
F8
00
F6
08
00
FC
05
01
0F
03
FE
03
02
F7
03
FF
FD
00
FC
FD
FE
05
03
FD
FD
02
03
02
0B
02
CC
FD
FB
01
FB
01
01
FE
EE
00
FF
01
FC
FF
FD
06
0C
FD
01
FF
F7
01
01
05
FD
FE
E6
02
E9
FD
00
FF
FE
06
FB
01
03
FC
01
03
FD
FF
FB
00
00
FC
FF
FF
FD
FC
FF
03
F7
00
01
F3
03
01
F5
00
FD
01
F6
FF
FA
03
06
FF
05
FD
FE
FF
FD
FE
FF
FF
FD
03
00
FA
05
03
02
FE
FD
00
FE
FB
FD
00
F7
00
FE
03
FD
01
F3
FC
FC
FF
05
FF
FD
0D
F8
FF
EF
FD
FE
FE
FE
00
F0
FE
FF
03
05
02
FC
C8
FE
01
0D
01
00
00
F6
FC
F2
FA
F9
FF
F2
03
FE
F9
F8
00
FE
FF
FE
05
01
03
CC
F6
FF
03
FF
03
FE
FC
01
FF
00
FD
04
FC
FA
01
FE
03
FF
FF
03
00
FC
01
FD
03
01
FF
FD
FD
01
01
FF
FF
00
02
FD
FE
FC
FE
FD
FE
FC
01
FF
FE
FC
FF
FE
FD
FE
FF
FB
FC
00
01
FD
FF
FC
FD
FF
FE
03
03
FD
00
FE
FD
FD
01
03
FC
03
FE
FC
00
FC
FF
FF
FE
FF
01
02
FE
01
00
01
FF
F9
FF
01
FE
00
FF
FE
FC
00
01
FF
FD
FE
01
01
FE
01
00
FF
FE
01
FF
FD
01
01
FA
02
03
FB
F5
FC
03
F3
00
FF
FF
FD
FF
00
F6
FF
01
03
00
00
FD
FC
F4
01
FE
F9
FE
02
00
FC
FE
05
FD
FD
FE
F9
FD
00
01
FA
FE
02
FF
FF
00
FF
F9
FB
01
FC
FF
F8
FD
FD
DC
00
00
01
01
02
FD
FB
03
08
01
F1
FF
04
F9
FB
FB
04
00
0B
01
02
FE
FE
E9
05
01
00
02
04
03
F9
F9
00
FD
00
04
FF
FB
06
00
BB
03
02
02
F7
04
FE
05
00
01
06
00
00
04
FF
09
FD
FF
02
00
01
01
EF
FC
FF
FD
0A
01
F7
FE
00
FD
C6
04
02
03
F9
06
F9
FA
0B
04
09
01
FF
FE
03
05
08
FD
00
FF
FD
00
01
F1
00
FF
08
03
04
01
04
00
F0
00
FB
01
F3
06
01
03
FB
00
05
FC
FF
03
03
04
C2
FC
FB
FD
FB
FE
FB
F7
FE
FF
05
02
05
00
F7
02
00
02
F4
02
F7
FD
01
FC
EE
FD
02
02
01
00
02
FC
FF
04
FD
00
01
FE
FF
04
00
FF
F1
03
02
FF
F2
03
05
FE
02
01
FC
FE
FF
F8
06
02
FF
02
FF
FE
00
F7
FE
00
00
FD
F8
FD
FE
FA
00
FD
00
00
08
02
FF
00
CB
03
FF
00
FF
01
FA
00
0C
00
FC
01
00
FC
02
00
01
F7
00
02
01
01
FB
CC
FE
01
F9
FD
FE
FE
F6
FE
FD
01
FC
FE
FF
01
FF
00
FE
00
FF
00
FF
01
FD
FF
00
00
02
FF
00
02
00
FE
FE
02
FE
00
02
FF
02
FE
FF
00
FE
FF
02
FE
00
FE
FE
00
01
01
02
FF
03
FF
FC
02
FE
FD
01
02
FE
01
03
00
02
02
FF
FC
01
FE
08
02
FD
FE
FE
01
FD
01
F3
04
F9
FC
FF
02
FF
01
0F
03
01
02
F4
FF
FE
02
01
02
FC
04
FE
FD
02
00
FE
01
01
02
FE
FD
01
00
F9
FF
01
FD
00
02
01
00
FF
FD
02
03
04
00
FE
FE
FC
FD
FB
03
FB
FD
01
FD
EA
FE
F2
01
00
0F
FC
F7
F5
00
FF
FE
FF
05
FE
FF
DA
F5
00
03
FE
FD
01
03
01
02
06
01
02
FD
E3
01
FF
00
FE
FD
00
FD
00
02
FF
FF
FF
01
01
FE
02
00
00
FF
FC
02
FE
03
02
FD
FF
00
FE
01
FD
FE
01
FF
00
FD
FD
FF
00
01
02
02
FE
01
FD
00
00
FD
01
02
FF
00
02
FD
FD
00
00
00
FD
FD
FD
01
FF
01
FD
FF
02
FF
00
FF
FF
FC
02
FB
FD
FF
02
02
FF
FD
01
FB
02
FF
FF
00
FD
FF
FF
02
02
FF
05
06
FD
04
01
01
FD
01
01
02
FF
FD
FF
FC
F8
00
02
01
FC
FF
00
05
01
00
01
03
F9
00
FF
D5
02
01
FC
FD
03
FF
ED
03
DA
FC
E5
FF
01
FF
02
F5
02
01
06
03
00
FB
00
05
07
FA
FF
02
FE
02
01
F9
FB
02
03
00
EB
00
06
01
F4
02
00
02
FC
FD
01
01
F8
02
FF
FD
01
05
01
01
FE
FE
02
FE
FC
FE
FE
F2
01
01
FC
00
FD
FE
00
03
02
FE
00
00
FF
FC
FF
F8
FC
02
00
FF
03
FB
00
FD
FE
FA
FA
FF
FF
FD
01
FF
FD
02
FF
01
FE
FD
FF
01
FC
FF
00
00
FB
FF
00
04
F9
04
01
01
FD
02
00
FD
FC
FE
FF
01
03
00
00
EB
FE
03
FE
FE
FA
FE
FE
02
F8
F9
03
FE
18
EE
FD
FA
04
00
F9
03
02
FE
03
0F
F7
01
FD
01
F8
01
00
FD
01
01
00
01
FA
FE
FD
02
FF
FD
FF
00
FE
00
FF
01
00
00
00
01
FF
FE
00
00
00
00
03
FE
00
FF
FD
FA
00
FF
FE
FF
FE
FC
FF
01
DC
F9
04
00
F3
FB
FE
FF
F2
01
06
FD
FE
FF
00
FF
FD
02
FE
01
04
FD
02
E4
FA
02
07
02
FF
FE
04
FE
FE
00
FD
FF
02
FF
02
FE
FD
02
05
01
FB
03
FF
01
E9
00
FC
01
FD
FF
FD
FB
FD
FE
FF
02
FE
FF
07
01
FD
FF
FF
00
FC
01
FD
03
FA
FE
FF
02
00
FE
FE
FD
FD
02
03
00
01
00
01
00
FE
FD
FF
00
FE
FF
FD
FF
09
FE
F5
FE
FD
F0
FC
FD
F5
FD
03
00
02
FD
01
03
FF
01
00
FF
05
FF
FA
FB
02
03
F3
FE
09
02
F0
FF
FA
FD
01
FF
F9
EB
FF
FD
FF
00
0A
FF
FD
01
00
04
03
02
03
FD
FE
FF
01
02
FD
FF
00
02
00
FA
F0
00
00
FD
01
FE
FF
FD
FE
FE
02
01
FF
02
00
FF
02
01
FB
FF
01
FE
00
FD
01
FA
02
01
FC
03
00
01
01
FF
E0
00
03
01
FB
F7
FF
04
EC
02
0C
00
00
FF
00
FB
FA
00
FD
00
F3
01
FF
DD
02
01
07
02
FD
FE
09
03
03
FE
FB
03
F6
08
FF
FC
01
FD
FB
02
05
FD
02
F0
EF
FE
02
FF
F9
02
00
FF
FF
FD
06
00
01
FB
E6
FE
00
04
02
03
FE
FD
FF
04
02
03
FD
02
FD
FE
03
02
FC
00
02
FD
F6
00
01
00
02
FF
00
03
FF
FD
FF
01
FC
00
F9
FE
07
01
FE
00
FE
00
01
00
FD
01
02
FD
DD
FF
02
02
F9
03
FD
E9
FD
02
09
02
F6
02
F8
FE
FF
02
00
FD
FD
FF
01
00
00
FE
FC
FF
01
FD
FD
FF
FD
00
FF
02
01
01
FD
02
01
01
00
FE
00
FF
00
FF
02
FF
03
00
FE
FE
FF
FC
FC
FF
01
01
01
FE
03
05
01
01
FF
FD
F9
02
04
07
01
00
07
04
FB
FE
FE
02
FC
05
04
01
03
FF
FE
01
FE
03
0C
FE
01
FF
02
FB
02
04
03
00
FB
00
00
FA
FD
FE
FB
02
04
00
EB
FE
FD
00
F6
00
07
00
F9
FC
F1
03
FF
FC
02
00
01
03
00
02
FD
FF
DE
03
FF
F0
FD
01
F9
FD
FF
01
E4
02
B8
03
FD
FD
FC
EF
03
FF
FE
00
05
03
00
02
FF
F6
0A
01
FE
02
08
FD
00
01
FD
FE
02
FF
E4
01
03
01
FD
03
EF
00
00
FA
04
FB
F1
00
04
01
FD
FD
FE
F1
FD
01
FE
FE
FC
02
FF
F8
03
FF
F7
02
01
FC
F5
00
E0
FF
00
02
FD
0E
FF
FD
F3
01
F8
01
FC
FC
01
F7
E7
00
FC
01
F8
00
03
EC
02
01
03
02
FE
00
02
02
FA
FE
FA
01
FD
05
FF
F9
02
02
FE
FD
FF
FE
FE
03
F8
FD
01
02
FD
03
FF
FE
03
02
00
00
F4
FB
FC
02
F9
FD
FF
03
FC
01
FB
FD
01
03
FC
FE
FD
FB
FF
02
FD
00
FD
FD
FE
FF
00
FF
04
FF
FD
00
FC
FD
FC
FD
0B
FA
F3
02
06
F7
FD
03
E8
02
FC
00
01
FB
FD
EE
01
00
01
02
03
03
FF
F6
FF
01
F9
FF
FE
F9
00
FE
FF
02
01
00
00
FE
FF
01
00
01
03
FF
FF
00
00
01
FC
02
FF
FE
FF
02
02
FD
FC
03
FD
01
00
00
FE
FE
02
FA
F7
03
FC
02
00
FF
FF
FF
07
02
FF
00
00
05
FC
FE
02
FE
03
FF
FE
FE
FF
03
05
01
F1
FE
00
01
FB
03
01
FE
FD
09
FA
06
FF
03
02
FC
FB
FF
FF
02
F0
01
02
03
FE
03
FB
EE
FD
03
06
02
03
00
08
00
02
FC
FE
01
FE
FB
00
02
04
00
FB
01
02
00
00
01
FC
02
01
00
FA
02
FF
FF
01
FF
03
04
FE
01
FE
FD
D6
00
FF
FE
03
09
01
FC
F8
FF
EF
FB
03
01
FE
09
0A
00
01
FF
00
FD
01
FD
FF
FF
04
FE
01
FE
06
FF
FE
03
00
FE
02
01
01
FE
FC
FE
00
02
02
00
02
FE
FB
FD
02
00
FF
01
01
FF
FD
FF
FB
FE
FE
FF
FB
01
C7
FC
F7
FF
FC
00
02
01
00
03
17
FF
02
FD
FD
0A
07
02
01
03
FF
02
05
FC
00
00
04
01
E9
FD
05
01
FF
FB
F8
FF
F8
02
01
03
FA
03
00
FE
02
FF
FE
FA
00
FC
FD
02
00
FE
02
01
04
03
EE
FE
F3
00
ED
FE
E8
02
FA
FE
FB
0A
03
F5
FF
03
FC
FD
01
FD
00
07
FD
FB
01
00
FD
01
03
FF
FF
01
03
FF
EA
FD
E7
FD
FD
FD
FA
01
08
00
FA
FA
F4
03
F8
00
FF
FF
FF
07
FC
FE
02
03
F3
FE
FF
E0
FE
FE
02
FF
06
FF
E8
00
01
01
FF
01
00
FF
FC
02
FE
00
FD
00
FF
FC
03
01
FD
02
01
FF
FC
01
FB
FD
00
FE
FE
FD
FD
02
01
FD
09
FB
F9
FF
F5
04
02
03
FB
00
18
03
FE
04
03
FC
0D
FE
FF
FE
07
02
FF
EF
03
01
08
FF
EA
FF
0C
FC
00
FE
FD
02
00
00
FD
FC
FE
01
FB
00
FE
FE
03
FE
FE
FE
00
04
FA
FF
FE
F3
00
01
00
FB
02
FF
01
01
DA
FB
FF
FF
FD
FC
FB
F7
F4
FF
05
FC
01
01
00
07
05
FE
FB
01
01
FE
03
F3
03
00
04
FE
FA
01
04
02
00
03
FC
02
00
FD
FC
08
F8
FC
FF
01
00
FE
FF
05
FC
FE
00
04
F7
FD
FF
F5
02
02
08
FE
FA
FE
F5
FE
F5
FC
07
FF
01
FC
FC
01
FF
00
FB
FF
FF
00
01
01
04
00
00
FF
F6
00
FF
FF
FD
03
04
FE
FE
FF
F4
FF
FA
05
FB
00
FA
FC
FE
01
F6
FE
F5
FD
06
FE
FD
FC
01
05
FE
02
03
03
FE
01
00
00
08
01
03
03
FB
01
F7
06
FA
01
FB
02
FF
FB
08
FE
F5
01
FC
FF
02
12
C5
FC
02
03
F8
FF
04
F5
01
02
0D
FD
04
FD
FF
02
BC
04
FE
02
08
07
FA
00
01
00
EF
00
FF
F8
00
F3
08
F8
00
01
FE
FF
F8
F9
FF
FE
EE
FE
FC
01
F7
FF
0D
FF
FE
FE
02
FE
00
FF
03
00
04
FF
03
01
00
02
04
01
03
01
00
00
02
01
00
02
F9
03
03
FB
0C
00
07
04
EC
03
FB
F8
FE
FE
F5
00
03
03
02
02
01
01
06
FD
FF
03
08
01
FD
FC
FE
03
FF
02
F3
FB
07
01
FE
FC
02
02
FE
FE
FD
FD
FD
01
FD
FF
FD
02
00
FE
FE
FE
03
03
00
FD
FD
00
FD
01
FC
03
FA
02
FF
03
D1
04
0C
00
F6
ED
FD
00
F7
03
F9
01
06
FF
03
04
FA
FF
02
FD
03
01
00
04
FE
03
F0
02
01
FE
D9
02
F2
03
F6
FF
00
F7
00
F1
DC
FF
05
FB
FD
FF
02
0E
D6
02
FB
03
FA
FD
05
EB
02
01
09
00
00
FE
ED
03
00
02
01
02
00
FD
FD
FE
02
01
FE
00
FF
FD
FD
00
00
01
FC
FE
FD
FD
FF
FE
01
01
01
02
FD
FD
00
00
04
FC
06
FE
03
FC
FE
04
01
02
04
01
01
FD
02
00
FF
04
FD
00
02
02
FD
FC
01
FD
07
07
00
02
0B
02
FB
03
FC
FD
01
22
FD
03
01
03
FA
01
FF
FF
FF
FB
FE
02
FD
FF
FE
02
FE
FF
02
FE
01
08
FF
06
0B
00
01
FE
FE
01
FD
FE
FC
FE
FE
FD
01
FD
FF
FD
03
FD
00
01
02
FD
01
01
01
FE
FF
FD
FD
FF
00
01
01
FE
DC
00
F7
02
F5
F9
00
FC
06
03
07
00
00
FE
FD
F9
FD
FE
01
00
06
01
03
04
00
FD
05
FE
08
01
FC
00
FF
05
09
04
00
0D
FB
01
FE
00
FC
FE
FD
FD
01
E6
F5
01
FF
FD
F7
FE
FE
FA
FF
FE
04
03
FB
03
E9
02
D7
00
03
03
03
03
01
FF
F9
FE
F3
02
01
FC
FF
FB
08
FE
FE
00
03
FE
FF
08
FF
01
E3
FC
F6
02
FC
01
FF
01
FC
FF
FF
FA
FE
03
FE
03
0A
FD
04
04
FE
01
FC
00
FF
01
FF
02
F7
F2
FE
03
FE
FE
F6
00
E6
01
09
07
F9
FE
FB
02
FE
FF
F9
FE
05
03
FE
01
02
08
00
00
FF
03
0B
00
00
F0
02
02
01
00
F7
00
06
00
FD
FE
FD
00
09
09
01
F5
06
03
00
01
03
FE
FD
06
FD
00
FE
02
00
02
03
0C
FE
FF
0B
01
DA
FF
FA
FF
06
00
F9
02
01
FC
FF
FF
00
03
00
03
01
FF
00
08
02
FF
01
02
FD
FD
00
03
FE
01
F6
04
F9
00
02
FE
04
FF
F5
02
FC
FE
FB
FC
08
FF
FC
03
FE
07
FF
02
03
FD
07
03
FF
FE
FB
FC
FF
02
05
FB
FE
FB
0B
03
0E
00
FD
03
FA
00
FD
FF
ED
02
F4
04
FD
01
01
00
04
04
FF
FF
04
00
01
F6
01
FE
00
03
FF
02
05
03
FC
02
01
02
FD
01
01
FE
02
00
FE
FE
FF
02
FF
01
FE
FD
03
00
00
03
00
00
FE
00
FE
FF
FD
FD
01
FF
FD
FF
00
FD
FF
FD
FF
FF
FC
01
FD
00
FF
FD
FD
00
02
FE
02
FE
01
FF
FF
01
FD
01
02
01
FE
FF
01
FF
01
04
01
FD
FD
00
FC
FB
FC
FE
FE
FF
02
00
01
01
FF
FF
FF
00
FC
00
00
00
02
02
00
01
FD
FD
02
FE
02
00
09
00
FF
00
00
FD
F8
00
00
02
FC
02
01
02
03
FF
00
FF
F3
01
FF
EE
FF
FE
FB
01
FD
FE
00
01
FA
FD
FD
00
02
04
FF
FF
FC
02
00
01
FF
01
02
FF
FE
02
01
01
FF
FF
FE
01
02
03
FC
01
FC
FE
F6
FE
F1
05
F9
FF
FD
06
FF
FB
F9
FE
00
FF
FD
00
FF
0C
D3
02
FA
01
F7
02
01
F6
01
00
08
00
FF
FD
F1
03
FD
FF
FF
01
02
00
02
FD
02
01
FD
FC
01
FF
00
00
FF
FE
FF
00
FF
02
FD
00
FD
FF
00
FE
FE
02
FE
FF
00
00
00
FD
FA
FB
01
01
FF
03
FF
01
FD
05
02
FE
FF
FC
FE
01
02
02
FF
FA
01
01
FB
02
FD
03
FD
FF
00
06
FF
FF
FD
FE
02
02
02
FF
02
03
FF
04
FE
F8
FF
01
FF
00
01
FE
02
F8
FE
02
01
04
FC
FF
04
FE
07
00
01
02
00
FC
01
F9
02
02
0A
02
02
03
00
04
F9
01
FF
00
F7
02
FF
F0
FE
00
07
03
FE
04
00
00
C8
04
FD
01
07
F9
FF
FF
F7
04
FC
FF
03
01
FF
08
07
00
01
00
FC
FF
00
03
FF
01
09
01
F9
02
03
FE
FC
00
05
01
03
F6
FD
02
01
02
0A
00
01
FE
02
14
01
07
01
FF
FB
FF
FB
02
01
02
02
FE
01
02
02
01
FC
FD
04
03
01
01
FF
04
FD
FE
0E
FF
01
02
01
04
05
FF
03
00
F1
FE
02
02
FE
03
02
03
01
FC
01
03
FF
FA
FD
00
FD
00
FF
01
02
01
03
FE
00
00
02
07
00
00
F9
01
FD
03
FC
FA
02
03
06
FD
FC
FF
09
02
FD
00
FA
00
FE
FC
00
FE
F8
01
00
FE
FF
FE
FE
F3
FF
02
02
FD
FA
FF
01
F6
00
00
FA
FE
06
FF
FE
00
BD
F8
EF
02
F3
05
FC
00
F6
01
FB
FF
FF
FF
FD
01
06
FE
00
FE
08
02
FA
FB
00
00
E1
F9
D6
01
F4
FE
B9
00
02
00
F9
FE
01
FA
E3
00
F8
03
FC
00
FF
06
08
01
01
00
FB
FF
FB
08
FD
02
01
02
B0
00
FD
01
FE
FC
FD
FE
FF
00
00
00
01
FF
01
FF
FC
FD
FE
00
FC
FE
00
01
00
FF
FE
FE
FD
01
FF
00
FD
FD
00
FE
FB
01
00
02
FE
FE
FB
06
06
FE
FD
00
02
FF
03
00
F8
FC
03
FE
F9
01
F8
F6
02
00
F5
00
FE
FC
F4
01
0A
03
F5
FF
02
ED
FE
FC
F5
00
FC
00
01
FD
03
0F
09
01
01
02
00
00
01
F5
FF
03
02
02
01
FE
07
FF
04
00
FD
00
03
0C
00
02
04
02
04
04
FE
00
00
05
03
01
FC
FB
FC
FE
03
04
03
03
0A
02
02
03
0F
FF
E0
05
06
00
F9
03
06
FE
05
00
05
FD
00
FE
01
00
E9
FB
FD
FD
F9
FE
05
FD
FC
FF
0A
02
08
00
03
03
BA
FC
03
FE
04
FD
FF
00
04
01
FD
01
01
03
00
FC
08
05
02
00
04
FE
F4
FE
FB
01
07
01
FB
00
FE
03
09
FF
12
01
FB
02
FB
F6
FE
03
17
02
FF
FF
FE
FE
03
01
FE
FB
FD
FE
01
08
FE
03
0F
00
F2
03
05
02
EB
FF
02
FE
FE
FC
FD
FE
0C
FF
0C
00
FE
FF
00
03
FF
FD
00
FF
FF
FD
FC
F5
FD
00
03
04
00
01
03
01
01
FE
FC
01
FC
02
04
FE
FA
FF
03
02
02
01
FD
FF
01
FE
01
01
FD
02
FE
01
FC
00
FD
01
FF
FC
FF
FE
FE
02
FD
01
FC
FF
FE
FE
FE
FE
04
00
02
FB
04
F5
FD
FD
F9
FD
FE
02
FF
EA
FF
FD
FF
04
02
02
F9
00
F7
FC
F7
00
FE
FF
FC
F7
FB
01
FF
FF
00
01
01
07
EC
FA
FF
00
F9
FF
04
FB
01
00
01
FF
02
FE
F7
00
FF
00
FE
03
00
00
FE
01
FE
FF
FE
FE
00
02
01
FD
00
02
FF
FF
FF
FF
01
FF
FD
01
FD
00
FE
01
FD
FF
02
03
00
FE
FC
FC
FE
FC
F6
FF
F6
FF
FE
FA
FE
F7
01
00
FC
03
FC
FE
03
DF
02
00
07
02
05
FF
F9
FE
0A
FB
F2
00
F8
F7
01
FD
F6
03
08
04
FE
02
FF
06
06
FB
00
FD
02
01
FB
F8
FE
02
FD
FD
EF
00
04
01
D9
FE
01
00
01
F9
FC
FE
F9
02
03
FE
FF
FE
02
FC
06
03
00
FD
EF
FE
FE
F2
01
FF
0C
02
FC
FE
07
01
FB
00
00
00
01
FC
FF
02
FA
01
FE
00
02
FB
02
09
FF
FE
FD
04
03
02
03
01
FF
FE
FC
FF
02
FE
E6
00
05
FE
FA
FF
00
F2
FB
01
FB
03
F6
FE
FD
F8
00
F8
FF
FE
FF
00
02
FE
02
F6
03
02
F1
01
FD
FD
FE
00
FE
00
ED
FE
FC
01
FA
FF
E4
00
FC
FD
01
04
FE
09
F8
00
FC
02
F9
FF
FB
F9
02
02
01
FD
02
00
FB
01
BE
08
FA
00
04
FD
FA
03
F8
FF
FE
00
FC
02
01
0F
08
FD
03
FE
06
00
03
EA
00
FF
FC
02
FE
FF
F6
03
E8
03
00
FF
FE
F9
00
FF
FC
00
00
03
FF
01
03
00
FC
FE
01
FE
07
FF
FC
FF
03
00
05
04
05
01
00
00
FB
FD
00
FE
02
F9
FE
FD
04
01
FC
01
FC
FF
00
05
04
04
00
FF
F5
00
FD
E6
FF
02
01
01
04
01
FC
02
02
FE
F8
01
FB
00
FC
FD
FB
FE
00
04
00
FE
01
04
FC
00
01
FE
FA
00
01
E0
01
FF
06
FE
FD
FF
01
00
FE
00
FC
FD
FD
FE
FF
FD
DB
03
F9
02
00
01
00
01
FB
03
FF
FD
FD
02
FA
D4
FD
02
07
F9
03
FD
E7
00
FD
FE
06
03
01
FD
02
FC
FD
00
FC
FF
FE
03
FF
00
FB
01
FE
01
01
FD
FA
E6
FD
FD
01
00
FE
00
06
02
EE
06
FA
FE
F9
11
FF
01
0A
01
FA
FF
FC
01
FE
F7
FA
01
04
01
FA
03
FD
EA
03
03
06
FF
01
FE
04
02
FE
FE
01
03
FD
FF
01
FF
FB
02
FF
FE
00
02
00
01
FD
FE
FF
02
01
00
00
00
00
FE
FF
FE
FF
FD
01
FE
00
FF
FD
01
02
01
FA
FF
00
03
FE
FE
04
FE
01
12
F6
FF
FF
00
05
FF
02
01
00
03
F5
01
00
FE
E4
FE
02
01
FF
FE
FE
FF
FE
00
FF
01
00
FE
FD
00
FE
FF
FD
00
FE
FF
FD
FE
00
03
FF
04
FF
FD
FD
FF
02
FF
FF
FB
FE
FD
02
FE
FD
03
F8
01
FE
03
01
FF
00
03
07
FF
05
01
F6
00
FA
F4
FE
FF
03
FF
03
FE
0B
03
03
FE
01
FF
F8
FD
FE
04
FA
01
00
04
00
FC
02
15
04
FF
02
01
FD
04
FD
D9
FF
03
08
F9
F6
00
FE
03
FF
FD
F4
FF
F4
FD
01
FC
02
FF
FF
03
FF
FE
00
03
FF
00
FF
FE
00
00
04
01
00
01
00
04
FD
FF
01
FD
02
00
FF
00
FC
00
FF
00
01
02
FE
02
FF
FD
02
00
FD
FF
FF
03
FE
00
00
FE
00
02
00
FE
01
00
00
FE
03
02
FB
00
FC
00
02
04
0D
00
F0
FD
01
FF
FF
F3
00
FF
02
01
09
FE
F7
02
01
00
F4
FE
F0
FD
F3
02

