02
79
05
05
03
7C
7E
03
01
01
01
7B
7B
02
01
7B
01
00
05
7F
7B
02
7D
7F
0B
78
71
02
05
7F
7D
0C
7F
03
01
03
7C
01
7B
03
01
7E
7D
05
00
7E
7F
01
00
7B
03
01
7D
02
03
7E
7D
7A
02
7F
7D
02
7D
07
01
74
0A
06
74
7F
06
03
03
02
7E
04
00
03
01
7D
7E
7A
02
02
7E
7F
0B
7E
0C
7F
01
03
7B
00
05
05
7F
08
0A
77
07
01
72
7E
7E
00
01
7E
05
01
7F
7E
7D
7C
00
01
04
03
00
7E
13
7F
02
01
02
7F
0A
08
00
7C
08
7D
04
03
72
7D
7C
7F
00
7C
7D
7E
00
7D
7D
7D
7E
03
02
00
03
7F
08
72
7E
7D
01
00
7A
7C
7D
67
0C
68
05
7F
5D
79
7E
7E
01
7D
79
76
00
79
00
02
7E
7F
7B
00
05
01
73
6A
0C
7E
78
00
71
01
7E
04
77
06
71
01
79
07
05
7E
01
13
07
05
00
00
04
08
05
7F
7F
03
01
02
0C
7E
7C
01
00
01
02
74
00
05
04
03
02
7F
66
7C
77
02
01
05
03
7E
00
7F
02
00
02
02
7F
03
7E
01
0D
74
05
7F
0D
7F
04
02
01
04
7E
7C
06
02
70
79
7F
7F
7F
79
7E
01
7E
7E
7D
00
05
02
7F
7F
7D
7D
09
74
02
7E
04
7F
7B
7E
7D
7E
06
7B
03
7D
01
7C
7E
7E
00
7F
04
7C
7E
00
01
7B
02
01
7E
00
7D
7E
01
01
00
7F
02
7E
00
7C
03
05
10
5C
02
7D
5B
77
04
02
02
78
06
7C
00
02
03
7A
07
00
02
7E
09
7F
77
72
02
7E
02
03
72
02
7F
77
00
00
7F
7D
00
7F
7D
7D
02
7C
7E
7C
01
7D
00
7D
01
00
7E
7C
7F
7D
7F
00
00
01
7F
02
7D
7C
7E
79
00
06
7A
01
79
00
72
02
7F
03
02
01
7E
7F
03
7D
7E
7F
02
02
04
00
77
7E
01
02
7B
03
09
00
01
01
17
7D
04
7E
68
79
7C
7E
7F
01
0F
7E
7F
7D
7E
7D
01
00
00
7E
7D
7E
0E
70
02
03
0B
00
72
7E
00
01
7E
01
7F
7E
7D
7D
00
7E
7E
7F
00
7E
7F
7D
02
7F
7F
01
7E
7D
02
7F
7D
7F
7C
01
7C
02
7E
7C
03
07
7E
0D
04
7E
00
03
7F
01
02
7A
03
01
03
01
03
77
7B
7F
00
7F
0B
7D
07
05
72
01
79
00
02
7F
00
7C
04
0E
7D
7F
7C
01
06
7D
02
7D
05
05
7E
00
02
01
7F
01
7D
00
00
7F
11
7A
7C
01
09
00
06
08
00
7B
7A
7F
7F
7E
7F
7F
7B
7E
7F
00
01
00
7F
7D
03
7A
00
7F
7D
7C
7D
00
01
7F
7D
7F
02
7F
7B
01
7E
7D
7F
7E
7F
01
7F
7C
7F
02
00
7E
02
7E
00
7E
7F
02
7F
00
00
7F
01
7F
7F
02
7D
01
7F
02
01
00
00
7D
00
01
7F
02
00
7D
01
01
01
02
7F
00
7D
00
03
7E
00
7F
00
01
7E
7E
01
00
01
7E
7D
7F
7F
7D
00
7E
7F
7D
01
7E
7D
00
7C
00
7D
7D
7E
7E
01
7F
7E
00
7F
7E
7F
02
02
02
02
7D
7E
7F
00
01
7E
01
02
7E
7B
7C
7D
02
00
00
00
02
00
7C
00
01
7F
7D
7D
7F
7E
7D
00
02
7D
7D
7A
7F
01
00
7C
01
04
7D
03
06
0A
79
03
02
07
7C
02
7E
00
01
0C
7F
02
02
06
02
04
02
04
7F
7D
7E
7D
7D
01
03
02
7E
07
03
00
07
01
05
75
03
2C
03
7E
7E
02
7F
74
7C
7F
05
02
7E
7C
01
01
7E
01
02
7D
1A
7F
7E
78
01
79
78
7D
7E
01
00
7C
00
7B
01
7D
7F
00
7A
7C
02
7E
7E
7E
7C
7D
7E
7D
7C
7C
00
7C
7E
79
7D
7A
03
7F
01
01
00
01
00
7F
01
7D
7C
00
7F
00
7F
01
00
7E
7D
02
00
00
7E
02
7E
7F
00
7D
02
7F
7E
00
00
7D
7D
02
0D
0A
79
7E
7F
0C
7D
06
00
7E
11
0A
02
04
06
04
00
02
00
06
7D
79
02
6E
10
03
06
03
02
7F
7E
7F
7B
79
76
01
7F
00
03
03
01
7E
00
01
7E
7C
00
7E
04
7D
7D
7B
04
7B
00
07
7B
6F
7F
04
00
00
0D
01
01
7B
79
7F
02
67
78
01
7E
02
01
7F
7C
03
01
7C
7E
7D
02
02
7F
79
01
7C
6D
03
7C
01
00
00
7C
00
7C
7D
02
78
04
7A
00
7E
02
7F
0D
0F
7E
02
02
03
75
0C
02
7D
00
05
00
77
02
7D
7E
7E
02
05
07
7D
00
00
00
7F
00
02
02
7D
00
00
7F
01
02
7F
7D
00
7D
7A
7E
01
7F
01
7F
7A
7E
7D
02
79
7F
02
05
7D
7A
11
7F
01
01
7B
74
01
01
01
05
09
04
03
01
7E
7E
78
00
7E
03
04
7F
6E
01
7C
03
7A
01
77
7E
01
78
01
03
7D
02
68
79
07
00
00
09
06
7E
7E
7D
02
77
0E
02
03
00
01
03
08
74
00
00
08
01
7F
7F
7D
77
0B
0B
7F
7F
7B
06
00
7F
7F
0B
7F
7C
7E
7A
7C
00
7F
02
02
02
02
00
77
7B
05
7B
7C
7F
04
0D
01
7B
1D
7D
7F
7E
7E
7F
7E
02
7F
01
09
7C
7D
7D
7F
7B
03
7F
78
7F
7C
7F
79
7D
08
02
00
7E
04
03
00
76
7E
7D
7D
04
7B
7F
7B
01
01
7E
7B
7B
7F
7F
03
04
7A
7F
02
00
01
00
00
79
7F
01
05
01
03
7C
02
04
02
04
7C
00
01
00
04
7F
01
0A
06
03
02
7F
7E
7D
00
00
7E
02
7F
00
02
02
04
00
7D
02
07
0B
7E
06
0B
7B
01
03
76
7B
79
00
01
00
7D
7E
01
01
7F
79
7D
7E
00
7F
7E
00
00
76
7B
7D
78
01
7F
7B
02
07
0A
77
7E
00
75
00
01
7E
7F
6F
75
01
00
7F
04
08
7A
00
03
7E
78
03
07
73
07
7E
7A
7E
78
01
7F
00
03
72
00
00
0E
7F
01
7F
01
06
04
00
05
05
02
06
02
01
03
7F
7B
7F
76
03
01
02
7A
01
01
7D
00
02
7F
01
7D
01
78
7E
00
00
02
7B
05
7E
7F
7F
04
01
08
7F
7F
7D
00
00
17
7D
7D
05
0E
00
7E
00
02
02
01
01
7F
7C
7E
01
7F
7F
00
00
7E
01
01
02
02
7B
7E
7E
01
7E
7F
7E
7F
7D
7E
00
01
7E
00
01
7E
0B
02
05
7A
7F
69
7E
7F
7F
7D
72
6D
02
01
7E
00
05
01
7E
7C
7C
7E
00
7D
72
08
04
79
7E
7E
7F
01
01
04
7C
00
03
01
7B
01
02
7E
7D
7A
01
01
01
01
00
7D
7F
7F
7D
01
7E
02
7D
00
7D
7B
02
7F
7E
7E
79
7D
01
7D
7F
00
01
7C
01
7F
7C
7C
02
7E
00
7F
79
00
01
02
7E
01
03
7B
7D
04
02
7F
01
7F
7F
00
04
06
7F
7B
00
07
79
72
7F
7E
65
76
7C
01
03
7A
75
76
00
7E
7E
7B
00
71
00
7C
01
7D
7F
7D
00
7D
01
05
00
7F
02
02
7B
7C
00
7F
78
7D
7B
7E
02
7E
02
7F
01
00
7D
02
02
7D
01
01
03
7D
03
00
7D
01
7F
02
7E
03
00
00
74
76
00
00
6D
71
7E
03
04
78
79
79
02
02
02
7C
00
76
02
03
00
79
01
72
7F
01
7C
7F
7E
7D
7E
00
7F
7E
02
7E
7D
7F
02
00
7E
7F
7D
02
00
01
7E
00
01
7D
01
00
7F
7E
02
02
00
7F
7A
00
77
7E
01
7E
7F
02
7E
7F
7D
03
01
7E
7F
7F
05
02
01
00
02
04
00
7D
00
76
00
02
01
05
0C
01
01
7C
00
01
01
00
7E
7D
7F
7D
00
00
7F
7D
7D
7F
7F
7F
7F
7E
00
7E
02
7E
7E
7D
02
02
02
00
7E
7F
78
7F
09
7D
01
7E
78
12
7F
00
09
0B
7C
01
7E
05
0A
07
7F
7E
7D
01
00
00
00
03
7F
05
7F
10
7A
01
73
01
6B
00
05
7E
77
7E
00
7F
02
07
01
02
7C
00
02
7E
7F
03
00
7E
01
7B
00
08
7E
78
03
05
7E
7D
02
0E
77
06
7C
75
74
7B
7F
00
02
7E
7A
7E
7C
7F
02
7B
7F
7F
00
04
02
09
77
00
7E
7D
00
06
75
01
01
75
6F
7B
00
08
01
01
03
7F
07
05
7C
04
01
00
7E
00
02
7F
7D
03
00
05
03
7C
01
07
00
0B
73
03
6C
7B
01
01
7D
6B
7D
04
7F
7E
77
72
79
7F
7C
01
06
07
01
7D
7F
79
7E
73
70
03
00
02
02
78
01
02
00
7D
7D
7D
00
7E
01
7E
01
7F
03
01
7E
02
01
02
7C
02
7D
7D
7F
01
01
01
7F
01
01
7F
7F
00
7E
7E
0D
05
7F
04
7D
63
74
7E
7E
7E
76
04
02
7F
00
7A
7A
03
00
02
7E
03
7F
02
71
06
7E
7F
02
7C
05
7F
7F
01
7C
7F
01
7E
7E
7D
7E
02
7D
00
7F
7E
7F
7D
07
7E
02
00
7F
7D
7F
01
01
7D
7E
7D
01
7E
7F
7E
00
08
0B
73
7F
75
7A
04
01
00
77
11
00
00
7D
05
76
02
01
7F
01
04
7D
03
7F
6F
7E
01
01
08
66
7D
7F
00
00
7C
01
79
7C
7D
7F
01
06
7E
7E
02
7F
01
02
01
7F
7F
02
03
7E
03
7D
7D
7E
02
7E
7E
7C
02
7F
7D
7D
7D
01
00
7F
7E
02
01
00
7F
7E
7F
00
00
00
7C
02
00
00
00
7E
7D
00
7D
02
00
7D
7E
01
7F
78
7E
78
7A
7F
7D
7C
7D
00
01
00
00
79
7F
01
02
04
7E
03
02
7D
7B
01
7C
7D
01
01
7C
7E
01
7D
01
00
7D
7D
7C
01
7F
03
7B
02
7F
79
77
02
02
7F
04
04
01
7E
01
7B
7F
02
02
72
03
01
7F
00
7D
06
02
7D
75
0D
72
7E
0A
7F
09
7E
01
12
0E
7F
7C
04
7F
78
0A
02
7D
7C
7E
7E
0E
7F
75
7C
7A
00
09
04
7F
00
7D
00
7E
7F
01
7C
01
00
7F
01
7C
02
00
00
7D
02
7F
7E
7D
7F
7D
02
7E
00
7E
7E
00
7F
7E
01
00
7F
7E
79
05
01
03
7A
7E
01
7F
04
7F
00
7E
7F
04
7B
7E
02
7F
7C
02
7E
04
01
7B
7D
08
02
7F
7B
7F
7A
7A
7F
7F
00
00
79
16
7E
02
1A
1E
04
02
01
05
0E
04
01
00
04
0A
02
1B
00
02
02
05
7E
10
78
7E
7E
00
00
7E
7F
01
7B
00
01
7E
7F
7D
7D
00
01
7E
7C
7E
7E
7E
02
02
7D
02
7F
7D
02
02
00
00
7F
01
10
0A
70
00
05
7F
7E
7C
7E
7E
04
01
7F
03
04
00
0B
08
01
08
7C
72
7F
7D
01
03
04
05
02
01
01
7E
0D
74
02
7C
02
06
0D
0E
00
7E
04
76
7C
7F
7E
06
00
7F
01
01
00
7B
00
72
03
76
02
7E
7E
6B
74
01
72
7D
70
7E
7E
7E
7F
6F
00
7E
68
75
79
7F
7C
7D
78
03
03
7E
01
72
7E
78
01
78
00
7C
00
06
6F
7E
04
13
77
7F
03
01
00
01
03
7D
75
7B
7E
04
02
01
09
08
03
02
7F
01
02
05
7F
6E
01
7E
7F
05
7F
02
79
78
03
7D
01
77
01
06
7F
01
78
00
01
01
01
04
7D
02
00
02
02
05
02
7D
79
7E
04
09
02
7A
76
00
05
78
7E
02
7D
68
7F
00
01
02
7A
0C
7F
7E
7D
7D
00
07
00
02
7D
06
7E
73
73
03
7F
79
7F
01
78
01
04
7A
01
7A
02
0A
01
0A
7F
02
05
72
7E
00
7D
79
11
03
03
7E
00
77
01
00
05
0D
00
7B
7F
5F
7F
01
03
05
02
00
00
01
7E
6E
02
01
73
7C
00
03
00
7B
6F
7D
7F
02
01
7E
7F
72
02
03
7F
79
7F
79
02
00
01
7E
7F
7D
7D
7F
02
7D
7F
00
7E
7E
03
7D
7D
7F
7F
00
7F
7D
00
00
01
7F
7B
7C
7D
00
7F
04
7D
7F
7C
7E
06
02
00
7A
03
02
01
7E
1A
1F
01
7F
01
79
05
7F
7F
01
04
0D
7E
1E
06
07
02
0C
7E
03
07
7E
77
02
7A
7C
7E
7F
7C
00
7E
7E
79
03
7E
7F
7E
02
7D
7C
02
00
00
7C
00
7B
00
7A
7F
7B
01
00
7D
01
6E
0A
77
03
7F
02
75
77
7F
02
7D
00
79
00
02
00
6F
02
7E
03
02
7A
02
03
01
71
03
00
02
7E
69
01
0D
00
7F
7E
01
6D
00
05
01
03
7C
06
02
01
7D
7B
04
07
00
02
01
09
7D
0F
7A
7F
7E
0D
7F
01
74
02
7F
01
02
00
00
7E
7B
7D
01
7E
7E
7E
00
7F
01
02
7E
7E
01
02
7F
7F
03
02
7F
7E
7D
00
01
01
7C
7D
01
7C
77
01
7D
7F
7F
7F
02
00
03
03
7D
7D
01
02
79
7D
7F
7E
7F
02
7E
01
7C
03
01
04
01
7F
00
7E
7F
00
7F
7D
7F
7E
7D
7F
7D
7E
7D
7D
00
7D
00
01
7F
7E
02
7D
00
01
7F
00
7E
00
02
00
02
00
7F
00
08
06
03
7E
04
78
7D
02
03
7D
6D
65
02
04
05
03
06
7D
03
03
7E
79
7F
07
00
05
02
79
7F
7C
7F
02
02
11
7A
06
01
02
70
7C
7F
00
71
72
7C
01
03
7A
7F
75
04
01
02
08
02
70
06
00
02
7A
00
6D
7F
02
7B
7A
76
7E
00
05
03
63
7F
03
7A
01
7D
7D
7F
7A
75
75
7C
06
7E
04
02
07
7F
75
09
7D
7E
06
65
00
7D
05
7E
00
03
7C
00
7A
00
00
71
7C
7D
05
01
03
7E
7C
7F
01
7A
05
01
75
6D
04
01
7E
01
04
7A
7D
7A
7D
03
7C
7F
7C
02
6F
00
7F
7A
79
03
7E
7D
02
78
02
02
7D
01
7F
00
7F
06
7D
7F
7D
01
01
09
7E
09
05
02
79
02
0D
79
7F
02
7D
09
7C
7E
05
01
00
78
7D
7F
03
7A
7E
03
00
7B
7C
00
7A
01
02
7E
7F
04
02
07
7F
7F
71
01
7C
01
7F
7B
7C
05
02
7D
07
01
06
01
02
7F
7E
7F
00
78
7F
01
05
00
07
7F
00
7C
6B
00
00
7F
03
7D
48
00
03
0C
1C
08
7E
7D
7D
6F
76
7C
03
7A
0D
7F
18
7F
03
02
0D
00
12
05
7F
7B
03
00
7E
02
74
6C
07
01
7E
01
0C
00
7F
7F
03
00
09
7F
01
00
7E
03
7B
7B
03
00
7F
7F
07
02
7F
0F
7A
09
77
7F
0F
03
19
00
7D
08
11
02
01
7E
00
10
0C
7F
02
7F
77
03
1A
03
0B
7E
04
01
65
09
7F
05
7D
01
7A
00
09
7B
07
00
02
08
02
01
02
01
7F
7C
01
01
02
01
7F
7E
09
6F
7B
04
7E
02
7D
00
02
00
02
05
78
7E
04
75
78
00
7E
0D
14
7F
7F
7F
7D
02
79
02
7F
7F
05
01
78
7A
7D
02
79
01
0E
0F
7F
02
7B
7E
7F
04
0B
03
7C
00
7E
01
7C
04
02
07
03
7C
7A
02
7F
78
08
7F
03
03
03
7E
00
00
7C
01
00
7E
0F
11
78
02
7C
7D
03
7E
02
17
1E
04
01
7E
00
79
03
02
01
00
08
01
00
79
69
7E
02
7E
7D
06
00
00
01
7D
02
7D
7C
02
02
02
00
7E
01
7F
00
7E
02
7D
7F
00
7D
00
7E
01
00
7D
7C
7E
7E
01
7D
7E
7E
00
7F
7F
7F
00
03
01
7E
7D
02
78
01
01
7F
7F
03
7F
7D
7E
7D
7E
03
7F
7E
00
7C
02
7E
00
02
02
7E
7A
09
6D
03
03
7C
78
7E
03
01
01
06
7A
02
03
00
04
01
00
01
01
7D
00
6E
7A
0B
7D
7F
00
7F
00
7F
01
7B
7A
00
00
03
77
05
7F
7E
10
13
06
7D
02
02
01
02
7E
00
05
7B
7D
12
03
04
00
0B
7F
00
0F
03
00
0A
03
7E
7E
7A
7D
78
7E
00
11
09
01
00
7C
00
02
78
03
7E
7E
02
7E
03
79
03
7E
06
01
0D
7B
01
01
00
7F
7D
00
01
7B
7F
7F
02
7E
00
00
00
00
7E
7B
7C
00
05
01
7F
02
7F
7D
7E
7D
00
02
02
7E
7D
00
7F
02
02
7F
7F
7E
00
7D
02
01
00
01
00
7F
7D
7D
7C
03
7F
7F
7E
7E
00
7F
00
00
7C
7F
01
00
7D
7D
7D
7E
02
00
00
7F
7B
00
7F
02
7F
7F
01
01
7E
01
7D
01
7E
02
7D
01
7F
7F
7D
7E
02
03
7D
02
7F
7D
7B
05
78
05
02
7D
7E
03
02
0D
09
02
7E
7E
06
73
05
03
7F
7D
09
7E
7E
7B
00
7D
01
7F
09
7D
01
7C
01
0B
7E
7C
7C
01
02
7E
00
7F
03
00
7F
7F
03
00
03
7E
00
02
00
02
11
7A
6C
00
05
02
7E
08
7E
01
04
79
77
7F
0A
08
06
7F
7F
0F
0A
7F
00
00
7C
06
03
02
7C
00
7E
01
74
0D
06
7F
77
7D
08
78
02
7D
01
7E
01
7F
01
01
7C
01
02
00
02
7E
7D
7F
7D
7F
7E
01
00
7E
7C
7F
00
7D
01
7E
7E
02
7E
01
02
08
0D
79
04
02
65
6C
7E
7F
02
73
01
05
01
7E
01
7C
7D
01
7D
7F
07
7F
6E
76
7D
01
7E
02
6A
7E
01
73
09
7A
7E
00
01
78
7C
00
02
73
75
7B
01
7E
7E
7A
7F
7C
00
03
7A
7F
09
00
70
7D
01
01
7C
78
7E
7B
04
7E
7D
7C
7D
01
05
7D
7F
06
7D
00
7E
7D
7E
04
01
01
78
03
7E
7F
7E
7A
73
7F
04
02
7A
03
7F
75
0A
69
7F
02
7E
03
08
00
01
05
7A
7B
7F
7E
7D
7C
07
7D
7E
01
79
02
6B
7F
7A
02
79
01
7A
04
7F
74
6A
7D
70
7B
74
7E
42
01
03
15
1D
77
7E
7E
7D
71
68
7C
7D
7C
0B
00
70
73
7E
04
7E
00
18
77
7E
7B
7A
6C
09
7E
7D
7F
00
01
02
03
7F
7F
7F
7E
01
07
7F
00
7E
04
02
01
7F
7D
6C
7E
04
02
7F
7F
7E
7E
7A
00
7E
78
79
7B
04
04
7E
04
7B
05
00
7B
79
00
7F
01
02
02
7C
02
7A
7E
02
01
02
00
5F
02
02
75
04
77
04
7C
01
03
05
7E
01
04
01
00
00
7B
00
09
02
7E
79
03
01
01
7E
7E
79
7D
0B
7F
6D
0E
7F
7D
02
7E
7E
02
7E
7D
7F
00
03
7D
00
7E
7F
7D
7F
7E
02
00
7E
7E
01
7E
00
00
00
7E
01
01
02
7F
00
01
00
7E
7C
02
7C
7E
02
02
03
7D
01
01
02
7E
7F
00
01
7F
7E
00
02
7F
7E
01
7C
7D
7A
00
00
02
03
78
77
75
7C
01
7E
05
7F
7E
01
79
71
7A
02
7F
02
7F
78
7E
00
7D
7F
03
7F
74
00
7D
0B
02
06
7F
01
05
08
10
03
7E
07
00
7F
02
03
76
7D
7D
01
05
01
00
03
01
7C
7D
06
01
7F
04
76
7F
75
7F
06
0B
7D
7D
7F
7D
7E
01
7E
00
7D
00
03
7B
79
00
00
7F
01
7B
01
01
00
7F
7F
7F
79
7F
7C
7C
7F
00
7D
7C
7E
02
7F
6D
03
7F
5A
7D
03
02
7E
7B
03
79
7E
79
7D
03
00
03
7E
7D
06
03
6F
6B
0F
7F
7A
01
7C
02
00
7E
01
7F
7E
7E
7F
7C
7F
7F
7F
7F
01
7E
00
00
7F
02
7F
02
00
7F
7E
02
00
01
7C
7F
7D
7E
00
01
00
7D
00
7F
01
7F
01
7E
7C
01
7F
7D
7F
01
00
7E
01
00
7F
01
02
7E
7F
7F
00
00
7F
7F
7F
7F
7C
7E
7F
6F
0F
7A
02
7F
7D
03
07
7F
02
03
7E
7E
7E
7D
7E
08
7D
7F
7A
06
00
02
78
7B
7B
01
02
00
78
15
7D
7E
01
7D
01
7E
02
00
7D
03
01
7E
7F
7F
01
7E
7E
00
01
7F
00
02
7D
7D
02
01
7C
7D
01
00
7D
02
02
08
00
07
7D
02
72
7B
04
7D
01
7C
74
7E
00
00
04
05
02
01
7F
7D
06
00
19
77
7E
7D
01
7E
00
7F
03
09
7F
7D
04
7D
66
78
7C
7E
7E
7C
7D
00
00
01
7E
7D
03
7F
00
05
00
7E
03
70
7F
7F
04
02
76
00
00
7D
7D
7E
02
7D
01
7D
7F
02
7E
00
01
7F
02
02
01
7D
7E
7D
7F
02
01
01
00
7D
7D
01
7F
02
01
02
02
7D
01
7F
7E
01
7E
01
01
7E
00
00
02
7E
03
7E
00
02
7E
7F
03
01
7F
7E
7E
02
7E
7F
00
7E
7D
7F
01
7F
7E
7E
00
7F
7F
00
02
7E
00
01
00
7E
7D
7D
01
02
7F
00
01
02
00
7F
7D
00
03
7F
01
7D
00
01
02
00
01
7F
7F
04
04
03
7E
7E
7F
6B
01
01
01
02
00
7D
78
00
02
7F
07
00
7C
7A
7D
01
7D
00
08
03
7D
02
7E
7F
01
7F
7D
7A
08
00
02
7A
7D
7C
7F
7F
00
7D
79
7D
01
7E
00
7E
7F
7E
7F
7F
02
00
00
7A
7E
0B
78
0B
01
7E
7F
04
01
01
00
79
00
7F
02
00
05
79
7F
00
02
03
05
02
00
04
71
00
74
00
00
00
02
7A
6F
7C
06
01
09
79
05
01
7E
05
08
77
01
04
02
7B
00
7E
03
7E
7E
7F
0A
02
71
7F
02
7E
7B
73
7F
06
76
03
00
7E
70
7F
76
00
00
05
7C
7C
7E
01
00
78
00
7E
00
7E
7C
7F
08
72
7D
00
04
00
7D
76
00
7E
08
0F
7F
7C
02
06
0A
02
7F
08
02
05
7D
7C
03
09
03
02
7B
02
7D
02
15
76
05
00
09
01
06
08
7E
04
0A
01
05
01
57
68
04
7E
7F
03
0D
05
7C
02
04
03
07
02
00
02
07
00
05
6A
05
03
08
00
6C
01
7E
07
04
7B
7C
01
0E
7A
7D
01
01
08
74
7C
00
02
01
77
00
03
7E
7D
7A
01
7D
7F
03
7F
7D
7E
74
00
01
00
7F
75
03
7D
6E
7D
7A
00
02
09
7B
7C
7F
00
01
02
7C
7F
02
02
01
7E
01
6E
00
01
03
7E
07
77
00
7B
03
6F
03
7F
63
77
7F
03
02
7E
01
7B
7E
7C
01
09
05
7E
00
7F
7E
02
7B
72
09
7E
7D
7F
7C
02
00
7F
73
78
01
02
03
7F
02
00
7F
77
03
7B
01
7D
00
7C
06
01
08
00
06
02
09
0B
00
7D
7B
03
7D
01
7F
7E
7E
7A
7D
7E
00
7C
00
02
7E
7F
7B
7D
00
7D
7F
02
7D
7C
7E
7E
7D
01
7E
01
7D
7D
7E
02
7E
7E
00
79
0B
77
78
7F
72
7F
7F
7F
02
7E
00
02
00
00
01
04
05
7F
04
7F
04
7E
7E
73
05
01
7C
03
01
05
7D
7B
02
7E
7F
7B
7C
04
7C
00
02
06
05
02
7C
7C
7D
08
7B
01
7F
7F
05
01
06
04
6B
7D
07
7E
7B
06
02
79
0A
6F
7E
01
08
78
68
7F
7F
70
74
7E
7F
04
01
6D
7A
00
02
7E
77
7F
7D
03
76
7F
01
7F
7F
70
02
02
13
78
01
03
74
74
02
7E
02
03
7D
01
7F
7E
7F
06
0D
01
02
7E
7B
00
02
7C
77
00
07
7F
7E
7E
7E
69
05
53
04
7D
7E
00
03
01
03
01
04
7E
02
7F
02
7E
04
02
7E
7E
7F
03
6F
7E
78
01
7C
02
7B
77
7E
7C
7C
02
7E
00
00
00
7B
00
01
7D
7D
7F
7C
7E
7F
7F
7C
02
02
7D
01
7F
02
7F
7F
00
01
01
7D
7D
7F
75
05
0F
77
7D
01
7A
03
02
02
20
1C
7C
01
7F
7E
03
01
00
7E
01
07
7F
0C
7F
61
7C
04
01
78
6D
01
01
7A
02
7D
7F
00
02
7E
00
7F
01
01
7E
7E
7D
02
7E
7E
7E
02
01
7D
01
7F
00
7D
7D
7C
01
01
01
7D
7C
01
7B
7E
7E
7F
02
77
7E
01
7D
7A
01
01
02
7B
79
7D
7E
7E
7F
7E
00
02
7F
7B
7C
7D
00
7E
03
01
7F
03
7F
01
02
7F
7C
7E
7E
7E
7E
01
02
01
7F
7E
7E
7E
7E
7D
7D
7F
02
7F
7E
7C
00
7C
7D
7F
00
7E
03
76
0A
7C
01
0B
75
72
02
02
0A
06
7F
03
7F
7B
7B
7A
02
00
02
01
7F
75
7E
06
01
77
7F
0E
7E
01
7E
7F
00
7D
7D
7F
7E
7F
01
7E
00
00
01
7F
00
7F
7F
7C
7F
7E
7E
01
7F
00
00
7F
7D
00
7E
7F
7D
7E
7D
7E
00
7F
7F
00
00
7B
7D
7F
7F
7D
00
01
7C
7D
7C
7D
00
7E
02
7F
00
7E
02
7C
7F
00
00
7F
7F
02
7E
08
00
03
7E
7D
72
7E
03
01
71
6B
7F
03
03
7C
78
75
03
02
00
04
7E
71
7E
7F
00
77
00
6D
7D
01
04
75
7F
01
02
7D
00
00
03
01
7F
05
02
03
00
08
7E
79
03
7F
00
06
01
04
7B
7F
03
7E
00
07
7C
00
7C
11
79
02
02
04
7C
7C
7F
02
00
08
01
00
00
05
09
0B
01
7F
7E
76
02
02
08
7F
02
0B
02
08
7C
02
76
03
7E
7F
02
73
77
09
02
02
08
0A
01
00
01
03
7A
0B
01
01
7F
7E
7F
04
77
00
7D
00
02
07
7F
01
01
0E
71
7F
7F
75
71
00
7E
01
7B
0F
02
01
7F
7E
03
7F
03
00
00
7F
02
78
02
04
00
7B
00
74
01
02
7D
01
01
7F
7E
01
7F
7E
00
00
02
7E
7D
7E
01
7F
7D
7E
7E
7D
7E
7E
7E
00
00
00
7D
02
00
01
02
01
7B
7F
76
00
00
05
7D
7E
01
02
01
7E
7F
7B
7E
7F
03
01
01
00
03
7F
03
0B
00
79
00
7B
00
7F
7D
01
7A
7A
7A
7F
04
05
03
7F
01
00
04
7E
7B
02
04
02
7E
02
01
01
7E
7E
00
04
00
7E
7F
01
02
7D
00
00
7A
79
01
06
00
77
75
74
03
7F
05
0A
02
7F
01
7C
78
76
01
02
7E
02
00
77
7E
05
7F
7F
00
0C
7E
02
03
7D
02
7F
7E
7F
08
0E
00
02
03
7D
7E
7F
02
7E
08
03
01
7F
7D
7E
02
02
7D
7E
00
00
02
6D
05
7E
00
7F
12
7F
00
00
04
03
01
7F
0B
73
00
01
7D
7E
04
7A
7F
7E
01
02
7D
76
05
7E
7D
7A
02
7D
04
01
06
06
7F
79
01
26
7C
00
7F
01
02
72
7E
04
06
02
7E
7A
03
03
7B
7F
00
7D
13
7D
02
77
00
74
7F
7F
09
7F
7E
05
7F
74
7E
77
7D
02
7F
01
01
02
7C
7C
02
77
00
00
7B
08
01
00
74
05
03
06
01
02
7C
7F
7D
7F
00
78
7E
01
03
7D
02
02
7F
05
7F
7F
00
09
02
7E
7F
05
00
00
7F
08
7D
7A
03
07
7E
00
07
7D
76
03
01
7E
03
7C
77
05
7E
01
00
02
7D
7E
7F
04
02
02
03
7E
00
03
01
03
01
03
7F
07
7E
75
04
00
7A
63
7A
01
01
07
7C
7E
04
01
00
05
00
7C
01
02
79
06
7E
7C
01
05
02
64
03
05
04
7E
02
7A
7B
01
05
7E
79
7D
7F
7B
05
71
03
00
6A
75
03
7E
7F
7D
6D
03
7E
7D
7D
7A
7D
7D
04
70
01
7D
02
7B
7E
7D
03
07
7E
7E
7D
06
7B
6C
02
01
65
6F
00
03
01
79
72
75
7F
7E
7B
76
00
72
03
01
7D
7A
01
7B
7C
7F
02
00
7F
77
04
72
7B
0D
7F
02
08
79
77
7E
01
0A
12
05
00
7E
01
7A
7E
0A
7A
0A
7F
08
01
61
05
03
05
06
7C
7C
7C
08
79
69
7E
7E
62
71
7E
03
7E
77
75
75
03
7F
7F
79
7E
6E
04
7F
00
78
7F
7C
7D
02
75
01
05
05
03
6F
7F
07
7D
00
70
7C
01
7F
01
01
00
0B
03
02
7D
7C
7F
00
79
05
7F
01
02
7F
01
7E
01
7F
02
7E
7E
7E
7D
7D
00
02
01
02
00
00
7C
01
02
01
7F
01
01
00
02
7F
01
7E
00
01
01
7F
00
7E
00
0A
03
02
7F
71
73
02
7F
7D
7A
76
00
03
7E
7F
01
76
01
02
02
03
7F
7A
00
78
7F
0E
7E
69
7D
7F
7D
7E
02
00
7E
7F
02
7F
7F
7F
7F
7E
01
7D
7F
7E
7B
01
00
7D
00
00
7E
00
00
7D
00
7E
01
01
7E
02
73
7B
77
01
00
7E
02
79
7F
01
02
00
7E
01
03
7E
74
7A
7E
05
7F
7D
7E
0A
00
00
07
11
7E
7A
72
01
03
01
7E
00
7D
07
78
6B
01
7F
63
6F
7F
00
01
77
73
74
04
00
7B
76
00
6D
06
00
7D
77
01
6C
7F
00
02
08
04
08
7F
72
70
7D
7E
7E
6C
79
7E
01
04
00
01
04
02
7F
02
01
02
6A
7E
02
04
7F
7E
69
7E
7F
7E
00
7D
01
01
01
7D
7E
02
01
7E
00
7D
7F
7E
00
02
7F
01
00
02
02
7E
7F
01
7D
7E
02
02
7E
7C
7D
7F
7E
01
01
02
7F
02
00
02
01
7F
7F
02
7E
7D
01
7F
7E
02
7D
00
7D
01
00
00
7D
7C
01
00
7F
7D
7E
04
79
7E
7C
00
7C
7B
71
7F
7E
70
77
7F
7E
01
7C
75
77
02
7F
7E
03
7E
72
02
75
7D
79
7F
0C
77
01
7C
02
7D
01
7F
54
74
05
7E
7E
0B
02
02
7C
7E
00
07
09
00
7D
04
7F
00
06
5C
7D
7E
13
02
6C
7F
7F
74
05
73
06
7C
00
04
7F
7F
7E
7E
00
01
7D
7B
7F
06
01
7F
78
7F
05
7E
01
7B
78
01
08
7F
74
0D
02
03
04
77
08
7F
66
79
7D
00
7F
7C
04
7E
7D
00
78
7F
03
02
01
00
06
01
1D
71
07
00
01
02
7D
05
01
70
02
6B
7F
00
02
07
06
01
7F
0A
0D
78
00
7F
7E
03
09
7F
77
01
04
00
72
7F
78
00
04
02
05
7F
7E
00
7E
07
78
7F
79
00
05
7F
00
74
75
7F
00
7F
00
7F
7B
00
03
7E
00
7E
0A
79
07
02
7E
02
7C
04
7E
00
02
03
01
03
79
02
06
01
7F
05
0D
02
7D
01
08
7E
03
7F
7F
7F
03
00
12
7C
7C
01
0C
01
06
0B
00
7C
02
01
00
04
77
7C
75
7F
7F
7F
7C
01
03
01
02
00
78
00
01
01
7F
00
01
6D
03
00
7D
03
00
7D
02
7C
06
7A
7C
03
11
7A
08
00
02
0B
0F
04
04
05
03
7D
13
7F
05
7F
78
7F
14
07
02
00
09
7E
08
7E
00
78
08
71
08
7E
7F
7F
7A
01
7E
03
00
79
01
7C
01
7E
7F
02
7D
7F
7F
02
10
7C
6D
01
03
00
03
74
7D
00
7F
01
7F
00
7E
7F
01
00
7E
02
00
7F
7E
00
7D
7F
7C
7E
7E
03
7E
01
7F
00
7F
7D
00
01
7E
7E
7E
77
07
6F
01
01
7C
7E
7F
7E
00
07
02
7F
04
05
05
08
00
7F
03
01
7F
02
78
75
08
00
7B
7E
7D
7D
03
00
79
7F
7E
01
7E
10
12
00
00
71
7E
79
02
03
08
01
02
00
01
7E
70
02
72
7E
7E
7F
73
02
08
66
7E
0A
01
77
04
00
7C
75
70
7F
7D
68
7A
7F
7E
00
79
70
7A
00
02
7C
01
7F
75
7F
7D
02
7F
7E
73
7D
01
7D
13
7E
00
00
66
78
08
7E
7D
05
0A
03
00
7B
7E
7D
0C
03
7E
7F
01
01
04
6D
02
7F
0D
02
09
7D
7E
7D
7F
7E
7E
7F
01
7C
01
00
00
01
7F
7F
01
02
01
7D
7F
7F
00
7E
00
7E
01
7F
01
00
00
01
00
03
02
7C
00
01
7E
00
02
01
7F
00
7F
7E
00
01
7F
03
00
7F
00
7E
7D
7F
02
03
00
02
00
7E
7D
01
7E
7E
7F
79
05
65
7A
00
03
07
70
01
02
7D
07
77
02
7E
7E
7B
7F
01
7E
7D
7B
7E
0C
00
67
02
0A
00
00
63
7C
7E
7B
0F
04
00
7E
06
04
02
7F
7C
00
7E
7C
00
7D
01
02
00
00
02
01
00
0E
79
72
00
01
7E
03
09
7D
06
0F
74
00
7D
66
70
02
00
7E
76
04
01
03
05
00
75
03
7F
02
00
00
03
78
74
01
01
02
7E
55
02
02
7D
00
7E
00
02
02
7D
7B
02
7F
00
01
7E
01
02
01
7F
7D
7F
00
7F
00
02
00
00
7F
01
7E
02
00
7F
02
02
07
7D
7B
00
0B
79
71
00
7D
61
6D
01
03
7F
79
76
76
7F
00
7E
7B
7E
6F
03
7D
00
76
7F
78
7E
03
7A
04
76
01
01
0C
7D
78
7F
00
7E
7D
01
03
06
01
07
07
02
06
7F
73
03
7A
05
7A
02
7F
02
04
7D
7D
74
0C
7B
02
7F
7E
00
08
7F
00
01
7D
02
00
7D
7F
04
7B
7D
77
02
06
00
78
7D
73
7E
00
00
6E
10
00
6D
7A
7A
7C
01
7E
7F
4D
00
7E
7B
02
7A
03
03
00
7A
78
7E
7B
7C
06
02
67
7D
6E
02
79
00
0E
5C
00
00
7D
73
04
01
68
7C
7A
00
00
6E
0A
7A
7F
7D
7A
7B
7D
01
01
00
7D
7D
7D
69
03
01
7A
00
00
7C
02
69
03
00
7E
7C
7F
03
06
01
01
06
07
00
7D
7A
7D
06
02
01
74
7F
01
02
71
7A
02
03
0A
7E
02
75
01
7D
00
00
7D
01
02
01
02
7F
7E
00
02
7F
00
7E
00
00
7E
01
7E
01
01
7F
7E
7E
7E
00
7E
01
7F
03
01
00
0C
07
01
00
04
7A
6F
7F
7D
66
67
7A
00
03
78
75
75
01
7E
02
7C
00
6E
02
01
00
79
01
6E
7E
7D
00
06
03
02
00
79
7B
06
7E
03
10
09
03
7E
7E
7E
7E
7D
00
04
04
01
01
0F
74
7A
03
0E
01
7B
7C
02
03
7F
7D
01
02
02
7C
7A
00
01
07
02
01
00
02
04
7E
7D
02
01
77
03
00
7E
7B
01
03
7C
7E
08
7A
00
0B
77
01
7F
7E
7B
7F
77
7E
7F
7C
7C
02
7D
01
7F
79
78
7D
01
00
0C
00
79
01
74
7F
7F
7F
02
0C
01
78
10
6C
7D
00
01
03
7A
7E
7F
03
7E
7F
00
02
02
04
7D
7F
00
7B
06
7F
7F
74
00
00
77
7F
03
7C
00
7E
00
01
00
7F
08
02
7B
7E
00
02
02
03
01
00
00
00
01
01
02
00
03
7F
0B
02
7B
01
03
7E
7C
0B
7E
7F
07
7D
01
00
02
02
66
7E
00
03
03
02
7F
7F
7D
79
79
7E
04
7E
06
00
14
05
02
03
06
7E
03
76
00
7F
77
0C
74
01
06
76
79
02
00
05
04
02
04
01
7D
6C
7A
7F
7F
7D
7E
7F
7A
00
7C
04
7A
7F
0C
00
01
79
7B
7F
7D
00
01
7E
77
7F
7E
7F
7E
7F
7C
04
7D
7D
7D
7F
7F
02
02
01
08
01
7A
7F
04
7F
00
75
7F
79
0C
02
7E
02
00
00
03
7F
00
01
09
04
03
03
02
7C
05
00
7E
03
09
00
02
04
06
00
06
01
07
09
01
7F
01
7C
7D
7D
7D
00
7C
01
01
00
7F
7E
7E
7E
00
7E
7F
7D
7F
7F
7E
02
02
7D
7D
7E
7E
00
00
7E
7F
00
7F
7F
7D
00
7E
7D
7D
00
02
7E
01
7E
00
7C
7F
03
00
00
01
01
7F
02
01
7F
7F
7D
7C
7F
02
01
7F
7D
01
00
02
00
7D
7E
7F
7E
03
7F
01
01
7F
7E
01
7F
7F
02
7F
7C
7C
01
02
01
7E
7D
02
01
7E
03
00
7D
09
0B
02
00
79
08
05
02
7E
7D
00
06
01
00
01
00
00
01
7E
02
79
7F
0F
76
77
7F
06
7D
06
0A
7E
05
79
08
78
00
78
08
7F
01
03
77
79
02
7E
7F
02
75
7C
00
02
7C
7E
7F
0A
7F
73
7D
7C
00
7F
7D
7F
7E
01
7F
7E
00
01
7C
7E
00
01
7E
02
01
7D
00
7F
7F
7E
7F
02
00
00
7D
02
7F
00
7E
01
7E
01
7F
02
03
05
08
01
7D
07
7C
6B
7F
02
64
6F
7C
03
04
7A
75
74
7E
00
7D
79
00
71
02
7D
7D
77
7F
7B
7E
02
7C
09
02
01
7D
7F
02
05
01
7F
7E
01
7F
7C
00
7D
07
02
7F
7B
03
7C
01
7B
7E
7C
7F
05
02
7E
0A
01
7D
02
7E
06
01
72
7C
01
02
01
7F
7E
7F
7F
7F
7E
7B
7E
00
7E
00
7E
02
7F
77
00
7E
7E
00
02
7D
00
7A
08
03
00
02
7C
04
74
7F
02
02
78
01
7F
7F
01
07
7E
00
7E
01
03
7F
7D
7F
06
7B
02
00
01
06
00
05
07
7F
07
7E
6F
7E
7B
7D
7E
7B
02
05
00
01
7C
7D
05
03
03
00
03
7E
07
79
03
02
0E
00
7B
7C
7E
7C
00
63
03
7F
01
79
00
02
7E
7F
05
00
02
04
02
7D
00
7E
01
02
7D
00
6C
7E
0A
7F
7E
7E
7A
02
03
7F
0A
6D
7B
00
70
7D
77
7F
00
03
7B
7F
7E
7E
7F
04
02
01
02
7F
02
01
79
6F
00
02
7A
02
03
7F
00
0A
7F
1A
00
02
00
00
04
7F
7F
75
01
7F
00
01
02
7A
02
01
7A
01
05
00
05
09
74
00
7B
02
06
09
03
6F
75
7B
01
04
02
03
1C
00
02
09
01
7B
03
02
0B
0B
06
7F
76
00
7C
01
7A
00
05
7E
7E
7E
72
77
02
01
7D
7C
7F
02
7E
7F
7D
00
00
7E
00
7F
01
7E
7F
01
7E
00
02
7E
00
7E
7D
7C
7C
7E
7B
7E
01
7C
00
06
7B
01
7E
04
6B
7D
7F
7F
7F
7C
00
02
04
00
06
00
03
03
04
00
04
00
79
74
7D
04
08
03
7B
7C
00
7F
7C
0B
79
7D
75
04
01
01
01
03
05
00
01
7F
7D
7E
7D
7E
7F
7C
00
02
0C
7A
7E
7E
08
02
7E
7D
02
7A
0B
7B
04
03
08
7E
05
7F
00
03
0B
03
01
04
05
07
0A
02
08
7D
78
7E
01
07
02
7F
00
00
09
7F
7F
7C
06
6F
7B
01
76
7E
7D
02
7D
00
7A
7E
05
02
03
02
02
01
00
02
02
02
00
75
7F
7F
7C
02
0A
00
03
01
78
05
72
01
7A
07
05
02
7E
09
0A
08
7F
7E
09
05
02
01
7D
01
02
00
7B
01
75
7F
02
01
09
0A
01
7C
7F
7B
7A
7E
7E
01
04
7D
02
7E
7A
7C
01
07
09
00
01
01
02
7E
78
7F
7C
00
7A
01
7D
7D
7F
7D
02
7F
04
07
7C
7F
7F
05
7B
00
03
7A
03
01
00
7F
01
7E
05
7F
7C
04
7D
7E
05
78
06
7F
02
7F
0A
09
02
00
7D
7F
7D
7C
02
7E
01
7F
02
00
7E
00
00
7C
7D
01
01
7E
7C
02
7D
01
00
7D
7F
02
00
7F
00
7E
02
7C
7F
7E
0B
7D
00
05
0A
02
7F
7C
7F
02
00
7C
7D
07
00
00
7F
02
7F
00
0B
76
71
7B
03
7E
7C
04
7E
7B
0E
7F
01
7C
71
7E
7B
7F
7E
0B
03
03
7F
01
7F
04
01
7D
03
04
7E
00
0F
73
00
03
10
7F
79
07
03
7B
7A
77
7D
02
77
01
0A
00
7F
04
0C
7D
02
01
0B
06
09
03
7E
7F
7F
7E
14
7C
01
02
7F
7F
04
00
03
0A
02
7A
7E
7F
27
7D
71
00
7F
72
78
7F
03
02
04
73
03
02
03
7B
6C
02
04
1C
7F
02
7A
7F
09
67
02
78
78
05
78
7D
7B
7B
0C
00
02
0B
7C
77
7D
05
05
02
03
01
7D
7B
7C
00
03
00
08
7C
7F
01
5C
7D
02
04
03
7F
79
7F
21
06
78
03
7E
7F
72
03
03
00
00
02
7B
7E
00
7F
7F
7E
7A
10
00
7F
75
03
77
7B

