F7
01
F8
01
00
FE
00
FA
FC
FE
FF
F8
F8
03
01
FF
02
FD
03
FD
FB
02
FE
FF
FF
FC
FE
00
03
FD
00
FE
02
02
FF
03
02
02
02
02
01
FE
FF
FF
FD
00
02
00
00
02
FF
01
FF
FF
02
00
02
01
01
00
FD
02
02
FF
FF
02
FE
02
00
00
00
FD
03
FE
FE
FC
03
01
00
FB
FC
03
FE
01
04
00
FD
FD
00
05
FF
01
01
01
FE
00
00
FE
06
FD
FC
01
01
FF
FE
F0
00
EE
00
00
00
03
FC
FF
F9
0B
FC
EC
F6
FF
FF
01
00
00
F3
FD
00
02
FE
02
FF
01
FE
FD
02
02
04
FA
01
11
F2
01
01
11
02
FF
E9
F1
FE
F5
FE
FC
06
FA
FE
02
FD
FF
00
FF
FE
00
FF
01
01
02
00
FD
01
FB
02
FE
03
00
01
FD
FF
FE
01
FE
FF
01
00
00
FA
FF
FF
FC
FD
01
03
01
F6
01
FE
FD
FD
03
FE
FF
F3
FC
FC
0C
FC
FE
00
E9
00
FE
07
F1
02
FE
DC
F9
E9
FF
0C
01
FF
FF
03
FE
04
02
E5
02
FE
05
01
FB
F8
F9
02
EB
FB
FF
FF
05
F9
02
FD
01
FE
EB
02
03
F5
FC
00
FE
FB
FE
FE
FF
FB
01
03
01
01
01
00
00
00
FD
FE
00
FC
02
FF
FF
01
FD
00
FE
FB
00
01
FF
FF
03
FF
02
FF
01
FF
FF
0C
FD
F8
02
FF
FB
FF
06
E5
F5
00
0B
F5
FE
04
01
00
01
0D
FF
F5
FF
FA
05
FE
F7
FB
FD
FB
03
01
03
FE
01
FC
01
04
FC
FA
FE
01
F2
02
F3
FA
00
FE
FC
08
03
03
F4
00
07
FB
03
F7
00
01
01
00
FE
03
FD
FF
03
10
FD
FA
02
03
FF
FC
FD
FF
FB
FA
03
00
02
E6
03
00
06
FE
FB
F7
01
FC
00
FE
FE
FF
FC
03
00
02
02
EE
02
FD
00
FF
FD
FC
EE
00
FA
03
03
FF
02
F5
FF
E7
FA
02
0B
08
FD
02
FE
F8
00
00
00
03
01
FE
01
F2
FD
00
FF
FF
FE
F0
FE
03
FD
FF
FF
01
FC
ED
00
00
FC
FC
03
FB
F8
F8
01
00
00
05
00
FF
FE
02
02
0E
00
FF
FC
03
FD
DC
FE
00
04
01
02
FC
06
04
FE
F0
FE
F8
D5
05
FE
DB
FE
FC
FE
F3
FC
01
00
00
FF
FD
02
F7
FB
FD
05
E9
FD
01
F0
FA
03
03
00
06
02
02
00
01
01
06
01
00
FC
F8
02
00
00
FE
01
F9
02
FF
FE
FD
FB
FF
FF
01
FD
03
F1
03
01
FD
F8
F8
00
09
03
03
FB
F8
03
FA
FD
F8
FF
F5
FE
FE
FE
FE
00
05
03
01
02
FF
02
FE
FE
01
FC
00
00
FE
FD
00
01
01
02
00
FD
01
FF
00
FD
01
03
FB
00
01
FF
FB
00
01
02
FE
03
FB
FC
02
FC
FE
09
02
FD
FD
E4
F1
01
05
04
F8
04
05
09
FE
05
F6
04
01
03
03
03
FD
FF
FC
FE
FC
FF
FF
FF
FF
FD
01
F9
01
FF
FD
FE
02
01
FF
FE
00
FC
FE
01
FB
00
FF
FF
FD
FE
FF
03
FD
01
03
FF
FF
00
FE
01
FA
FA
02
FE
F3
03
02
FE
FE
00
EB
02
F9
FD
FC
FC
01
FF
FD
FC
FE
01
01
01
FB
FD
0C
03
FA
F6
FE
FD
03
07
FD
FE
04
00
FE
02
05
00
03
F4
02
9E
FF
0A
E1
FE
F9
FF
FF
FD
01
FE
FF
02
16
FF
03
FB
03
FE
FB
F9
02
0E
F8
01
FD
FF
F6
FC
0B
FE
FD
FF
CB
F8
FF
02
15
02
00
00
00
FF
01
FD
F8
01
FA
FF
01
00
04
03
FF
F2
F4
01
FD
05
DF
FB
FB
09
00
00
00
02
01
01
02
02
00
FF
FF
01
FD
02
FF
00
FB
02
04
FB
F8
F7
FE
00
F9
02
FA
06
F9
02
00
F3
04
FE
FD
FE
04
FE
FB
FF
FA
FF
00
FD
FF
02
FD
02
FE
02
FC
00
F9
FD
02
FF
F9
01
00
FF
FE
FD
01
FF
FB
00
00
FD
FC
FC
FD
FC
FC
FF
FD
FF
FD
FF
01
00
07
FC
FC
01
FA
FB
FE
12
FB
00
03
0A
03
02
F5
12
FE
F0
FF
F3
09
FB
FB
FF
01
01
01
03
FF
FE
01
FF
02
03
00
03
FF
02
FD
FC
01
01
01
02
FA
FC
F8
FF
02
FE
FA
FF
FF
FD
0A
03
FD
03
03
FF
F5
01
09
00
02
FC
FF
01
F8
00
03
02
03
FF
03
04
F1
03
04
07
FB
00
F8
FC
FB
FC
07
01
F9
04
02
FF
02
03
FD
02
FC
FC
00
00
02
FF
FE
FE
FE
FF
FF
FE
FF
FF
FF
FF
FD
FF
FE
02
FE
01
00
00
00
FF
01
01
FF
FF
00
FF
FE
03
00
FC
FA
F9
00
00
FA
02
00
FE
FA
FD
FC
FE
01
FE
02
01
FD
FE
FD
FF
FD
FF
03
00
00
01
05
01
09
FE
02
04
FD
F9
FF
0B
0B
03
03
FE
EE
01
04
F2
FD
FD
D5
02
F8
00
03
04
02
02
FE
FD
01
FF
00
FE
FE
FD
04
00
01
03
FE
01
FE
FE
02
FD
FE
FF
FD
02
02
FE
02
FD
01
02
02
01
02
FD
02
FE
FA
FF
FA
00
06
FC
FF
FD
02
06
FE
CF
00
00
01
08
F9
FA
03
06
00
06
F4
F7
F9
FE
FC
FF
02
00
01
FE
FB
FD
FC
FD
FB
FF
FF
FC
FC
FB
FE
02
FF
02
03
FD
FF
FE
00
FD
FC
FB
FF
FD
F9
FB
02
00
FF
FB
FE
FD
FF
00
06
FF
FC
01
00
FE
F6
F8
FF
FE
FB
FD
FB
01
00
FA
03
0B
04
FA
FB
FD
F9
01
FC
00
F8
FE
00
FF
01
FD
EA
03
FF
FB
FF
00
F8
FF
00
FF
08
03
FD
05
01
FF
04
06
FE
91
F7
00
DF
FF
FD
FD
FF
00
02
01
FF
01
FE
FF
02
FE
00
00
FE
00
01
FE
00
FE
01
FD
FA
01
FF
02
FF
FC
FB
02
FA
FF
00
01
FE
FF
00
FD
FE
FE
04
00
FF
00
F7
FD
FF
D6
FF
E4
FE
03
FD
F0
EC
00
F7
F8
FD
0F
09
02
F6
03
0C
00
FE
00
02
01
03
02
FD
02
01
01
00
FF
FF
FF
02
FC
FF
02
01
00
00
FD
FE
02
01
01
FD
FE
01
01
FD
FD
01
01
00
02
00
03
FE
00
0B
FA
FC
00
EA
FB
01
0E
FB
00
FE
04
ED
FD
F0
10
01
F0
00
F7
02
FC
F6
FF
00
01
00
FD
00
FE
07
FF
00
FC
02
FD
FE
01
FE
FC
01
FF
FD
FF
FE
FF
01
FC
FD
FB
FE
FD
FA
FF
FE
FE
FA
00
FD
03
00
02
FF
FD
FD
FE
FF
FD
00
FF
02
FE
00
FF
02
FE
00
01
00
01
FF
FD
FD
FF
00
FF
01
FF
FF
00
FD
03
F7
01
F6
03
01
FD
01
FE
00
00
FE
D5
09
01
FC
03
F3
FF
F2
F2
02
09
04
F3
F5
00
01
01
FF
FD
FF
03
09
FE
06
FE
02
01
03
FF
FB
EF
01
E4
F9
FD
00
FF
FD
FF
01
07
01
03
F7
02
07
07
FA
06
04
01
FF
00
00
FC
F3
01
01
04
04
FF
04
00
FD
01
F4
02
FE
04
D6
FE
FF
02
FD
F3
FD
03
FF
03
FB
00
00
FF
FE
02
FB
00
03
03
FB
FF
02
FF
02
FF
00
FE
FE
01
FB
FF
00
FF
01
05
FF
FA
FB
FC
01
04
01
FD
04
FE
01
FD
F5
FE
FF
01
FD
F9
03
FD
FF
01
FE
FD
03
02
FB
03
04
00
07
F7
03
BD
FB
00
F5
00
F8
01
FD
FC
01
00
0A
FE
00
FE
00
FD
FE
02
FE
F7
FE
0D
F3
FF
FD
F2
07
FF
FB
DE
FC
F9
01
FC
F6
03
F6
FC
FE
01
FF
FE
FF
FF
02
03
FD
FE
00
FF
FB
FE
02
02
FD
03
FD
01
FD
FE
02
FF
FE
FE
FD
FC
FC
FD
FD
00
00
00
01
02
F9
00
F6
01
00
FC
03
00
FF
07
00
F7
F9
00
00
02
FB
FE
03
00
01
C0
F9
01
EA
FF
02
FF
F2
FC
02
03
FB
00
07
01
05
FD
FF
FF
EB
F6
FF
0A
F6
00
FE
FD
FA
FE
07
FF
F7
02
F9
F6
F1
FF
FE
FB
F2
03
02
FE
FE
03
02
FE
00
FF
01
01
FE
FD
FF
FF
FF
00
00
01
FD
FD
02
FF
FE
00
02
FE
FE
FE
01
FD
01
02
00
FE
03
FE
FC
00
00
00
04
FE
F5
F2
01
E5
01
FF
00
05
EB
FC
0B
04
00
0A
FF
EE
FB
02
07
03
FC
03
FE
00
FF
02
FD
00
FD
01
01
FE
FD
01
FF
FF
FE
00
02
01
FD
FD
FF
01
FF
FD
FE
FC
FD
FC
00
02
FF
FF
FF
FD
FF
FE
02
03
04
FC
FC
FF
FC
FB
FD
0C
F2
FF
FD
05
F6
FD
04
0F
F9
F6
03
F9
0A
FE
06
00
F9
00
01
00
0B
02
F9
01
05
FE
F7
00
FC
FB
00
F3
FD
FF
FF
D5
04
02
05
FA
FE
02
07
FA
01
05
01
FE
FE
FE
02
FF
0B
00
FD
01
04
07
02
08
FF
FD
FE
DA
01
01
00
0A
F9
FE
00
0E
03
00
E8
02
00
04
F4
05
05
FF
00
FE
FB
01
02
FF
06
03
FD
03
03
FC
00
F8
F9
03
FB
01
FC
FD
F7
16
FF
FC
F7
FF
07
04
FB
01
F9
FF
FE
00
FF
00
F6
FF
03
F7
01
02
09
FF
02
06
03
00
FF
02
01
00
FA
03
03
DA
04
FD
E4
02
FB
FF
FF
FD
FE
02
00
00
FE
FE
FD
01
00
01
FF
F7
00
05
09
FF
FA
EE
F5
02
06
00
FE
FD
FE
FE
FF
04
03
03
FD
02
FD
01
F6
03
FE
02
05
02
F8
05
02
F6
FF
0C
FB
02
FF
F8
FA
FD
05
FD
FF
05
FC
00
F7
FF
09
FE
FC
04
FE
00
FD
FD
03
02
FF
01
02
FD
00
FD
01
FC
FF
01
02
FD
FE
01
00
03
01
FD
00
FE
00
02
FE
02
FD
FE
FE
FE
02
FF
FF
01
FD
FD
FE
FD
FB
FD
01
FD
FD
FF
02
FF
00
FF
01
01
FD
FD
02
FF
FF
01
00
01
FE
00
00
03
FD
03
FE
03
04
01
FA
01
FB
FD
03
F1
EF
01
FE
02
FB
FD
F0
FD
01
FC
00
0A
F4
FE
09
01
FE
02
03
FE
F7
01
07
03
F4
FF
04
FD
FE
FE
FF
F6
FC
FE
FC
00
0C
00
F9
FB
FE
EE
F7
FB
03
00
FD
FD
FC
FE
02
00
07
02
01
02
02
02
FB
FC
FC
09
02
FC
F0
00
FE
F5
F1
FE
FA
FC
FA
03
FD
F3
ED
FD
08
FD
00
FD
03
FF
06
01
0A
FE
03
00
02
00
EE
F8
FF
08
F6
FD
FE
FF
02
03
03
FA
FC
02
F9
10
FF
03
07
FF
F5
01
00
03
01
FD
FE
FF
F9
04
F9
00
F5
01
FE
0C
FD
FE
FD
08
04
FD
FC
04
FA
FC
E5
00
03
03
05
FE
F7
FD
00
FE
FE
FF
07
02
F8
02
02
FC
F4
F4
02
FD
FE
FF
FD
01
FD
FE
03
0D
F9
F3
FC
06
00
FC
FF
FD
F2
FD
01
03
FF
01
E9
00
FE
02
FE
03
CB
FD
02
F9
F2
00
01
00
FE
04
00
02
FB
90
FC
01
DE
FB
FD
FD
FA
FF
01
FD
FF
00
EC
FF
01
01
FA
01
FE
F1
FE
E2
FF
03
FE
F6
03
01
00
FC
01
04
FC
04
05
FC
FD
FD
FA
FF
FE
01
FA
02
FA
00
FE
FC
01
00
01
FE
FE
FB
01
02
02
02
FC
FE
FF
00
F9
00
00
FB
00
FB
FE
FE
FD
FD
02
FD
03
FE
02
02
EE
F3
FD
05
FE
FF
01
F7
FE
00
02
F0
05
03
02
04
03
F5
F6
FE
F1
01
FA
FD
03
FF
FF
FF
F5
03
F9
FE
FC
01
FF
FB
06
05
02
C5
FF
03
01
03
F8
FE
02
02
04
06
04
FB
FB
F9
03
03
F9
02
02
01
02
FF
FE
FE
00
00
00
FD
00
FA
02
FC
FC
FF
FF
05
FF
FC
FE
FB
FD
9C
04
FF
F8
02
FE
01
F8
FD
01
FE
FA
02
FD
01
00
01
FC
00
00
FF
FF
F5
03
FF
00
FB
FC
FF
FC
FF
00
04
01
FB
01
FF
02
FF
FA
00
02
00
00
02
FE
01
FD
FE
FE
FE
01
01
01
FD
FC
FF
FE
FC
FC
01
02
01
FD
02
02
FF
03
00
02
FF
01
FE
01
00
FB
FD
01
00
05
04
F8
00
FF
04
FE
D5
03
FD
00
F5
01
FF
FC
05
FD
0A
06
F7
FB
05
09
01
07
FF
03
FD
FC
03
01
03
01
02
FF
01
FE
02
FD
FB
FD
FD
02
FD
FD
00
FE
01
03
FB
FF
FF
FE
FD
FE
FE
01
FE
03
FF
08
02
0D
01
00
02
04
FD
EA
ED
FE
FF
FC
FE
02
FD
FD
02
02
FF
F4
E9
00
01
F7
02
FA
FF
FE
01
FD
FF
01
00
EA
FE
FE
02
FD
01
05
FE
00
E9
05
02
02
EE
08
02
F6
F9
FF
07
08
F0
F3
FF
0D
02
01
FD
01
02
05
FD
FF
00
05
01
FE
00
FA
F9
FE
02
00
01
FF
FB
FA
FF
02
FD
02
FD
FC
00
FB
FF
05
FD
01
02
00
FD
FE
FD
00
FE
00
FF
FE
FF
02
00
FE
F6
00
03
FF
FC
FE
FD
FC
03
FE
FC
00
00
FB
01
05
01
FE
03
01
FF
FD
FF
09
00
F9
00
00
00
00
02
02
05
F6
00
F9
05
FF
02
FE
08
02
03
DB
09
05
FB
07
02
05
FF
FE
02
01
FD
11
01
F9
FD
04
00
FE
00
FD
F9
FC
FE
FE
02
FF
04
FD
05
00
03
F8
02
02
06
03
00
04
FD
FD
FF
FC
03
FC
02
F7
FC
FC
FB
FD
00
01
11
FC
03
FE
FC
F8
FD
05
00
00
01
D6
FE
FF
FB
0A
02
FF
02
01
02
00
FF
04
03
F6
FD
FB
00
01
F6
01
EE
F8
FE
FF
00
FA
FE
FC
12
01
FF
FA
F6
FA
03
06
05
FE
FC
00
FD
FA
00
00
01
FF
01
01
FD
01
FD
00
01
FC
FF
FD
FF
FE
FF
FF
02
02
FD
00
01
FC
FD
FE
FF
01
00
01
FD
FA
FF
FE
FE
FD
00
00
FD
00
FF
FD
00
02
FF
00
FF
00
00
FE
01
FC
FE
00
FF
FE
00
FE
FF
F9
FE
01
03
FF
02
FF
FE
03
03
FC
00
02
FF
FE
FF
02
00
00
FC
FD
02
FF
FC
FC
FE
00
02
FE
FE
02
00
01
FF
00
03
01
01
FF
FF
02
02
FE
02
FF
FB
00
FD
FA
FD
FE
FD
FF
FE
FE
FD
FE
FE
FD
FE
FE
FD
03
00
FF
FF
01
02
03
FE
E0
03
F6
FD
04
02
03
01
04
FC
0B
FD
FD
02
CF
FE
FA
FC
FE
F7
F9
02
DA
01
FD
FD
FD
00
00
03
FA
01
FF
03
FB
01
FF
FC
00
FF
00
FE
FE
00
FA
FF
FF
FE
FF
00
FF
F6
F8
01
03
FE
FD
FF
FE
FF
01
FD
08
03
F6
FF
FF
FF
FD
F8
FC
D9
FC
F0
FA
03
F7
02
F4
00
05
0E
00
FD
FF
07
06
02
F9
02
F7
FF
02
01
FF
FE
09
FD
FB
01
FE
FB
FD
F6
FF
F9
00
03
00
FE
FB
FC
FF
01
FD
EE
FB
FB
F2
FF
FE
01
FF
FA
FD
00
FC
FF
03
FE
FB
FF
03
FD
00
ED
02
05
FB
FE
FF
FE
E4
FE
FD
04
FB
FE
00
FD
FD
FF
01
FD
FF
FD
FE
02
FD
00
F3
00
FE
FC
FF
04
01
00
FE
F7
00
FF
03
01
00
04
02
03
02
82
04
02
EC
00
FD
04
FF
01
FE
FE
FE
02
04
FF
FD
FB
FE
04
F4
F8
FF
FD
FE
FE
02
FC
FF
04
08
FB
F9
03
FF
FC
FA
F8
F8
FE
FE
03
03
00
01
02
FC
01
F9
00
F4
FA
FD
01
02
BB
02
03
F8
FB
03
FF
04
11
FA
0B
F5
02
F8
00
05
01
FE
FE
FE
01
F6
00
05
FD
FD
FA
FE
02
FE
F8
00
0C
00
00
01
02
F4
03
00
02
01
FC
DC
FC
FD
FD
06
FF
FD
FF
02
FE
FF
FF
01
00
FD
00
FF
FF
00
FD
02
FF
FF
01
FE
FD
02
FE
01
FF
02
FC
FE
00
FE
02
FD
FF
FF
02
00
FF
FA
00
FA
01
FA
00
02
FD
FD
FA
FE
FA
FF
01
FD
FF
FC
00
FC
FA
01
FF
04
FE
00
00
FC
04
FE
01
02
FF
00
FF
FA
FD
01
FE
FC
FD
00
FF
02
03
FA
01
FE
FF
FD
03
00
01
FC
FD
FD
01
FE
FC
FC
FC
00
01
03
FD
03
02
03
01
01
FE
FF
FF
F3
F4
02
06
FD
01
01
FC
FE
02
FF
FC
FD
FA
FD
FF
02
FC
FE
00
F6
FE
FF
FE
F4
02
0D
03
FE
FE
01
03
F9
F1
FF
08
FC
00
03
FC
05
FE
02
09
F7
06
FD
EA
FC
FD
FE
FE
F3
02
FF
01
01
00
FF
03
FF
FE
00
FE
01
FD
02
FE
FD
00
FE
FF
02
FF
01
02
02
FC
02
FE
FD
FC
00
02
02
FD
02
FE
04
01
01
00
02
FD
FF
00
FC
FD
02
05
FB
FE
01
FE
03
01
02
03
00
FE
FC
FD
04
FD
FE
04
00
03
01
03
FF
FD
01
FD
FF
01
FC
01
01
FC
02
00
00
01
01
FE
FD
FD
01
FF
FF
FC
01
FE
FC
00
FE
FE
00
FE
FD
03
FC
01
FE
01
06
00
FA
06
02
FB
FF
E6
FC
02
00
05
08
FC
FE
05
02
FD
03
F5
EA
00
FB
03
F1
02
02
03
FC
FE
F0
03
FE
FA
02
01
00
FD
01
00
00
FE
FE
04
04
02
04
08
FC
8C
FF
FD
F7
FF
FC
FF
FB
FE
02
02
FD
FF
FC
02
02
01
FF
FD
FF
FE
FF
01
01
02
00
FE
FE
01
FD
03
00
01
00
FE
FB
FD
FE
FE
FC
FE
FF
00
01
03
F8
03
FB
01
FF
FC
05
F1
00
00
FB
FD
FD
EF
F5
02
F1
E7
00
09
06
FB
EF
FC
F3
04
FD
FF
00
00
FE
02
00
FE
FE
FD
02
00
00
00
FF
01
00
00
00
FE
FD
FF
FE
FF
03
FD
FF
FE
FA
02
01
FE
00
FD
01
FF
F4
03
FE
02
01
00
FD
FF
07
FB
00
FC
0F
03
FE
F7
02
FD
FE
F8
01
FB
03
07
FB
09
00
02
FB
FE
FD
FE
FB
01
FD
FE
00
01
F6
FF
F7
E5
00
E5
FE
FF
FA
DE
FA
FE
FF
F0
FB
0B
00
09
FA
01
09
04
FA
00
00
FF
02
01
06
00
06
01
FD
01
04
01
00
FE
FF
02
FF
03
03
03
06
FC
00
FC
01
FD
00
FE
09
01
FE
FF
FF
FE
00
02
03
FE
00
FE
00
FC
F8
E0
00
F7
FA
03
FE
F3
FE
02
FA
F5
FC
05
04
FF
FA
FC
01
FE
00
00
02
FE
00
02
F6
01
01
FB
FE
FF
F1
FA
FF
02
F4
03
FF
FB
FB
03
FB
FA
FE
00
FE
01
00
FB
FC
FD
FF
FF
FE
02
04
FF
FD
02
FA
01
03
01
06
02
FE
FE
FA
01
FD
FC
01
02
01
FD
00
EA
01
01
EE
00
F8
00
02
FC
02
03
03
FF
B0
FE
05
01
02
F6
04
04
FE
F9
F9
04
FD
04
FB
FD
FD
0F
FE
08
E1
F9
FE
FA
FC
00
F7
01
02
FF
FD
03
FF
01
FE
01
F9
00
FF
ED
02
FA
F9
03
FF
FB
FC
FF
01
FF
FC
FF
FD
EB
09
02
F6
FF
FD
00
00
FF
FF
01
FC
FD
FF
02
02
01
01
FE
02
FD
FE
03
FF
FE
01
FF
FF
02
FE
00
FF
FF
FE
03
FF
00
FF
FF
02
03
FD
00
FD
FF
FF
00
FE
FF
00
FD
FD
FD
FC
02
FD
FB
FE
00
FF
02
FE
FD
FD
FD
FD
FF
01
01
FD
FF
02
02
00
FE
01
01
00
00
00
FB
FE
00
FE
FE
FE
02
00
FB
FB
FE
FE
01
01
FE
FE
FE
00
FE
FE
01
01
02
FE
FF
FD
00
D8
FF
FD
FB
00
F9
D6
0A
FE
00
02
03
02
FF
EA
FD
FA
01
FC
F6
FA
07
E4
FC
04
02
F7
03
FE
FE
F9
FE
01
02
F9
04
02
01
FE
05
FE
FB
02
00
FF
02
F0
FE
01
F9
04
FC
FC
FF
01
00
FC
00
FE
00
02
00
FF
01
FE
FF
F7
FC
F9
FE
FC
0C
FF
03
02
01
FD
FD
02
FD
03
03
03
08
DF
F1
FA
FB
0A
FF
F8
01
03
FF
02
01
03
01
02
FB
FE
04
00
FD
FF
D2
03
03
FE
F8
04
01
01
08
03
0C
F4
02
FD
F8
06
04
F6
00
03
03
F4
02
01
00
FC
03
FD
FF
FC
07
01
E6
06
FE
00
FC
02
FF
06
17
FF
02
F2
EE
FE
FE
FF
02
FE
FD
02
00
0A
FE
FA
02
FD
01
FA
00
0C
E8
00
F1
F7
01
FF
04
FD
FD
F2
03
02
FF
04
F8
FA
FF
04
00
01
00
02
FE
F5
FE
04
02
FB
FE
02
FB
04
04
FE
00
F6
02
00
00
ED
01
01
07
00
FF
FB
02
FD
02
FC
01
03
01
02
00
F6
00
FF
02
02
06
FD
FF
0A
03
FE
F6
FE
01
00
FA
00
02
F0
EB
01
FC
07
08
FA
02
04
01
FC
04
02
03
02
FF
EB
FF
FB
FA
03
F9
EE
F1
FE
E4
F1
FF
FA
02
FD
00
F3
0C
FC
03
F9
04
FC
FD
FA
FA
01
FD
FF
00
00
01
FF
01
02
01
00
FD
FE
FD
00
FD
FD
FD
FE
FF
00
00
00
00
FD
FE
FF
FC
FC
FD
FF
FF
00
FE
FE
03
01
01
FF
FF
00
FE
FD
FD
FC
01
FF
01
FE
01
FE
FC
01
FE
FF
FE
02
FE
FD
02
FE
FC
02
FF
FF
FD
FF
02
FF
FE
04
00
FC
F8
00
FF
09
07
00
EF
FE
FF
01
FF
01
FE
08
FC
03
E5
02
01
FC
01
FB
01
F8
FF
03
00
FA
FD
02
03
01
02
FD
01
F7
F9
00
03
FE
FD
02
F8
FE
01
FA
FE
FE
FF
FD
01
02
00
FF
FF
FD
FE
03
FF
04
FF
F1
01
F9
FF
F9
F9
04
D5
FD
E6
F8
FF
FA
03
E3
FC
F0
06
05
01
01
07
FD
FB
00
01
FC
FE
00
FE
01
FD
FF
FF
02
01
FB
FF
01
00
00
00
FF
02
FD
FE
02
02
FF
FD
00
FF
01
FE
FC
FE
00
FD
FD
02
02
FE
FD
FE
FD
01
FE
FF
FD
01
FE
FE
00
FC
02
02
00
FE
FD
FF
FE
FF
01
FE
01
01
FD
FF
00
FE
02
00
01
FF
FC
03
07
FF
01
FE
00
00
FD
F9
02
FD
00
FE
FE
FC
03
00
00
05
FA
F9
F9
FE
03
04
01
03
F8
FF
FF
FE
01
FD
00
00
FB
02
02
01
FF
04
FF
FF
F4
FE
03
05
DB
00
01
09
FD
F6
00
FB
FB
03
FA
01
01
03
02
01
F7
FE
FF
01
06
F9
FE
01
EC
F7
01
C2
01
01
01
02
06
01
03
09
FD
07
F5
F5
12
03
05
03
F6
FD
02
FF
02
00
F8
01
FA
FF
00
01
02
04
03
F2
01
FE
02
FD
F7
FE
00
FE
02
02
FE
F9
FD
FD
05
01
FD
03
FE
01
FD
FD
FE
FE
FE
02
FB
FE
FC
FC
00
01
FC
03
FD
FF
FC
FB
03
FC
FE
01
00
FB
00
02
FE
02
01
FD
FE
FE
FF
01
F9
FF
03
00
FD
01
FF
04
FF
F3
03
FF
00
01
F4
FF
FF
FF
FB
FE
02
F7
F8
03
04
02
FE
01
03
02
F5
FD
1D
FD
F4
F9
FD
00
06
FC
01
FB
04
01
07
FB
0A
FF
02
10
01
FD
07
F9
EA
FD
F4
FF
FF
02
02
00
FE
00
FE
FE
FE
01
01
00
FF
FE
00
FD
FC
FF
FE
FE
01
FE
02
FE
02
FF
FD
01
FD
FF
FD
02
02
FE
FD
03
FD
00
E5
00
FA
00
00
01
F4
06
FE
E5
FE
FE
03
02
F1
02
F5
08
01
FA
00
F2
F2
05
0C
04
FF
FD
FE
00
EC
FD
06
FF
FB
F7
01
FF
FF
FF
01
01
FD
01
FE
00
FE
00
F5
FE
00
94
03
00
FE
03
FC
02
FF
FB
FD
FE
02
03
FF
02
00
FE
00
FE
FB
00
FE
00
01
FD
00
FB
FE
FF
00
03
02
01
FE
FF
FF
FF
FD
00
FE
02
03
03
00
FE
03
FD
FE
F9
FE
FD
F9
FD
02
0B
F9
FD
01
05
04
00
F3
17
02
FE
F3
FB
04
FC
06
FE
FC
01
02
02
FC
03
F7
03
FD
F9
FD
FD
FD
FE
00
F2
FF
03
F9
05
FF
02
04
00
FF
89
05
04
FA
FF
FC
FE
00
FA
FE
FE
FC
00
FE
FE
02
02
FD
02
FF
FE
02
FF
FD
00
FF
F9
01
FC
FF
02
00
FF
00
01
00
FF
FD
FD
FD
00
FF
02
FC
01
E6
00
FE
FE
02
00
09
06
02
D6
01
FE
FE
05
F4
FE
FE
FE
FF
0C
02
FB
F7
FA
0A
FF
FD
FF
02
FE
FD
FE
FC
01
FB
FD
FB
05
F9
FB
03
01
09
FF
03
FD
04
FE
FD
00
FE
01
FA
03
02
FE
F0
02
FE
03
00
02
FB
FF
04
01
FC
FD
00
FF
FC
FC
00
FD
00
00
FB
FF
01
FE
00
01
FE
F8
FA
FC
FC
FE
FF
03
FC
FD
00
03
03
FD
F4
01
FC
FC
FF
FE
03
FF
02
F3
07
FF
FD
FD
F2
FC
01
03
FF
05
FB
FD
F4
FE
FE
FF
03
02
03
01
FE
FE
FF
FD
00
00
FF
FF
FF
FE
FF
FE
FF
FF
FF
FC
FC
FF
FD
FD
01
FD
FE
00
FC
FE
FF
FF
00
00
01
FF
FD
03
00
00
FE
FF
FC
FE
02
F7
FE
FB
07
00
FB
03
01
03
02
FF
FD
FA
FF
FB
FD
05
00
01
FA
04
02
02
FE
02
E4
00
00
F9
00
00
FF
01
FE
F7
04
00
02
03
01
02
E8
01
FE
89
03
FE
E8
03
00
FE
FF
01
02
00
04
FF
E6
03
FF
FF
FE
FF
E9
FE
03
05
FB
01
03
02
D8
04
FC
F1
FA
00
F8
FC
00
FE
ED
FD
FC
03
FE
FF
F8
00
00
03
F6
FF
FE
FF
FE
02
FE
D9
00
00
FD
EC
00
00
F8
F7
01
07
F9
F6
0A
00
08
01
FC
FE
02
02
02
FD
0C
FF
FA
FF
FF
FA
FB
FE
02
00
FA
FD
FC
FF
EF
01
FC
0E
02
FA
F3
04
00
03
FD
01
01
FB
FD
02
03
02
FD
00
F9
05
FE
FD
FE
EA
00
D4
01
00
FB
FA
F7
F9
0B
03
FB
00
01
F9
06
04
FB
04
FE
01
00
00
FE
FE
00
FF
F9
01
FE
02
FE
F8
02
F9
FE
02
02
F4
00
01
FD
FD
FD
FC
FE
FF
FD
FE
FE
00
FC
00
02
02
FE
FE
FA
FD
FE
00
FB
FE
FA
F9
00
FF
00
FE
00
F9
01
02
FD
00
01
FF
FA
FA
FD
02
FD
FE
FF
FF
02
FE
FF
03
02
FF
F7
FD
05
FD
E3
02
FE
02
FE
FF
FD
FE
F9
01
0B
FC
F7
01
E5
06
FA
FF
09
00
F5
01
FE
FD
00
FF
01
02
FD
FF
00
FF
FC
01
FE
FC
02
01
FC
FE
FC
01
FE
FD
01
FE
FD
FE
03
FF
01
FD
FF
01
FF
02
FD
FF
FA
FF
FE
FD
FE
FE
00
FD
FE
05
01
FF
00
02
F2
FF
F5
07
FF
FA
F1
F7
EE
00
08
FF
FD
01
FF
01
FA
01
F5
00
FB
FC
FE
FF
FD
01
01
FF
FD
01
FE
01
FC
01
F7
03
04
9F
FF
FE
EA
FF
FB
00
FA
00
03
02
FB
03
04
02
FE
F6
FF
00
FB
FC
02
FE
FD
FE
FB
FF
FF
03
00
FA
FB
FB
FB
FD
FB
FB
04
01
01
FE
FF
00
00
01
F4
00
F9
00
00
FE
05
04
FF
EB
FE
03
00
02
03
00
FF
06
FE
F5
0D
F0
FB
05
F5
FF
FF
00
FF
03
00
03
FC
FF
02
FE
01
FE
FB
FD
02
FF
FC
FE
02
02
FE
FF
FD
02
FB
FE
01
FE
FF
00
FF
FE
FD
01
FF
FF
F5
00
03
03
01
FC
FD
FF
EC
F6
00
C1
01
03
FE
F0
FA
FD
00
FE
01
09
F2
F4
0C
00
0B
01
FC
00
FD
01
06
02
F6
02
FD
FF
FF
FA
FE
FC
FD
04
FA
FD
FD
FE
01
04
E9
F0
FC
04
FE
FD
FD
FB
FF
FD
01
01
00
FE
01
FE
FD
FE
FF
FC
F8
02
FF
02
00
F0
00
01
FF
C0
FD
FE
FA
F8
FE
05
FC
F5
11
00
08
02
FE
01
FF
01
01
01
F4
FF
FD
FC
02
03
04
01
FE
01
F6
01
FD
06
D5
FB
FF
01
FE
ED
F7
01
FD
02
F9
00
FE
FE
00
00
FF
FF
FF
00
FE
FD
FE
FD
FF
01
FE
FE
01
03
FD
00
FF
FE
FF
FF
FD
00
01
FD
FF
01
FE
01
FD
FD
FD
02
FE
00
FD
FF
FC
01
F7
FE
03
04
01
05
03
02
FD
E3
06
FB
01
FB
FB
0A
02
ED
FA
00
14
01
FD
FF
02
02
01
FE
F8
01
FB
FC
03
FB
01
FD
03
FC
FE
00
00
02
FD
FE
00
02
01
FE
FF
01
FB
FF
F8
03
FD
03
FE
FE
E9
FE
F0
02
FD
FF
FF
F5
02
03
FF
BC
00
FD
FB
03
F6
F7
03
FC
FF
06
07
F9
F8
FE
FF
02
FB
00
FE
FE
FF
FF
FD
02
09
FD
03
FF
F6
EE
00
03
F5
02
FD
FE
F0
03
FA
00
FE
FB
F8
01
FD
FE
04
FD
FD
01
FD
00
FD
01
07
00
01
F8
02
FD
FD
FA
03
FC
00
FE
FC
FE
01
03
05
F3
FB
AD
FC
01
09
01
00
00
FB
FD
FE
02
FF
FE
F9
00
02
00
00
FB
FC
00
02
F7
FB
FE
00
F9
FC
00
F8
0C
FF
04
FD
06
E7
FE
09
01
05
FD
00
02
03
01
07
01
F9
00
FF
01
EF
D9
02
F9
0A
00
FF
FE
05
FB
F4
FA
02
FD
00
FD
F1
FF
EB
01
FF
FD
FE
00
05
FE
F5
FD
00
00
FE
FB
E4
E8
FF
F2
DF
FE
FB
FF
FA
FE
FC
F9
F7
01
00
07
FB
FE
FF
FC
FF
FC
01
01
05
00
02
01
03
FB
FD
02
00
04
01
09
07
01
00
09
03
04
01
F5
01
C0
05
04
DF
00
F9
00
03
FC
01
01
F5
01
FF
FE
FC
FE
FB
FF
FB
F8
02
06
01
FF
FF
00
F7
FC
04
F8
01
02
ED
01
F6
FF
07
00
FB
FD
00
01
FE
FE
FF
FF
00
FE
FE
FF
FA
FA
FD
03
FE
FF
01
00
FE
FF
FF
FF
FD
FD
01
00
FB
00
01
01
FE
00
02
01
07
01
F5
02
FD
FC
FD
00
F4
F0
00
EB
E0
00
02
FC
F9
00
F5
FA
FE
01
09
06
EE
FD
02
FF
01
FE
03
03
FE
01
05
FF
F5
02
01
01
F3
DD
FD
E6
FF
00
FE
00
DB
FF
F3
03
03
00
FE
FC
01
FF
FA
03
04
01
02
FF
FE
00
FE
FE
00
FF
FF
01
02
FE
FF
FF
FD
01
FD
FD
FD
00
01
01
01
FE
FC
00
FE
FF
01
FF
01
FF
FF
00
F7
01
FE
03
03
02
00
FB
07
01
01
FB
12
FF
FE
02
FE
FB
FF
03
03
FF
05
FD
05
04
FE
05
01
FF
02
FF
FA
00
08
02
FE
01
FF
FE
04
03
01
FB
00
00
FC
02
FF
FB
F6
FE
05
03
00
FF
03
00
04
05
00
03
FF
01
FF
02
FE
02
FF
FE
00
01
00
00
FF
00
FF
01
FD
FC
FE
FF
FE
FE
FF
FE
FD
FF
FF
FE
00
02
02
FD
FF
01
02
FD
F8
FE
F5
FC
FE
FD
03
0A
00
F2
06
03
FA
FB
03
01
FC
15
00
01
13
EC
01
06
0D
04
F6
FC
01
FF
06
FF
03
01
01
FB
00
FD
F4
FC
FE
F7
F8
FE
01
02
FE
FF
07
FB
02
94
F6
FA
09
FC
00
00
F8
FE
FD
FF
F9
00
FF
03
04
04
FF
02
FB
FE
00
00
FC
FD
00
F7
F5
02
FF
FB
FD
00
02
F4
FA
00
0B
FE
FE
01
FF
03
FC
00
FE
02
FB
01
FB
FD
03
FF
03
07
F6
02
FC
FD
F1
03
F3
0A
02
FD
F9
F0
12
FB
01
FC
00
01
02
FF
FC
02
FD
FF
FB
FF
01
00
FF
FC
FF
FF
0B
FE
FE
03
FC
00
04
00
FF
FB
F9
FC
FD
03
05
04
02
02
FE
03
04
00
03
FE
FF
FA
FA
03
02
00
FF
F5
03
00
04
E3
0A
FE
F8
FD
03
FC
00
FD
F9
03
F8
03
02
01
FE
01
F8
02
F9
FE
F3
FA
FD
FE
EF
FD
FE
00
F0
01
FB
02
01
FF
FC
F9
FE
02
03
FA
F3
F7
00
04
FA
02
00
FF
F6
FE
FD
FE
F9
FD
FA
00
F4
FE
02
FA
0C
00
03
04
04
01
0A
0B
03
FC
E9
07
FD
FA
07
04
02
FC
02
FD
02
02
03
00
03
FF
02
00
05
FE
FD
02
FD
FF
FE
03
FD
00
03
00
02
01
D9
F1
03
FE
09
FF
05
00
FE
01
01
01
01
FE
00
00
FF
FE
01
00
00
FD
01
FD
00
01
FD
FE
FC
00
02
00
01
02
FE
FF
00
FF
FD
FD
00
FF
01
03
FD
FF
01
00
FB
FE
02
00
00
FD
FD
FF
00
FB
FE
FF
01
FE
00
FD
FE
FE
FF
FD
FE
FF
03
04
02
00
03
01
F9
02
FF
FD
FF
02
FC
FE
01
00
01
04
FD
FD
FD
FE
01
01
FE
FE
01
02
FC
01
FD
02
02
FE
02
FF
03
FE
F4
00
FC
00
00
FF
0C
03
FC
02
FF
FD
01
F6
C5
02
01
13
FE
04
04
FB
FC
03
F3
FD
02
02
FF
FF
02
00
03
FE
FE
F9
FD
FD
03
FE
01
FE
F7
FF
FE
FB
FD
03
FE
FD
02
FF
FC
FE
FD
03
FD
FE
FF
00
FE
FF
01
02
05
FF
F9
00
FE
FF
FA
EA
02
EF
FA
FE
FD
FB
F4
00
FB
05
00
FD
FE
FB
00
FF
FB
FF
00
00
00
01
FC
02
FE
FE
FE
01
FD
FF
00
FF
01
FF
00
00
00
FE
02
FD
FF
02
FF
FD
03
FE
00
01
FF
00
00
00
FD
01
FF
00
FD
FE
01
01
01
FF
03
00
FD
02
01
00
FA
FF
FF
01
FA
00
01
00
FD
FC
F9
02
F8
03
FF
FF
FE
01
00
02
08
FE
00
FF
02
00
03
FF
FF
F9
FE
01
FA
FC
03
FF
FA
03
02
02
00
FC
F9
FD
FE
04
FE
FE
00
FF
F2
00
FC
00
FF
02
FF
01
05
00
00
F9
07
FF
01
06
FF
FC
FF
10
01
FF
06
FF
FF
00
FA
03
F9
02
00
01
00
04
F3
02
F9
FD
FE
FF
FD
FF
02
DC
FC
03
FD
F9
02
00
FD
0C
01
F6
0A
04
FD
01
F9
04
04
FF
00
02
FE
02
06
FD
FD
F9
03
FE
FA
FB
FF
FB
FF
FF
F8
FD
01
04
F8
00
FA
81
F7
F6
F4
FC
FC
FC
FC
FD
FE
FE
02
FE
E9
FE
FD
F9
04
01
04
FE
FE
00
01
FF
FF
03
FF
04
F3
FE
FE
99
07
FF
EE
01
FE
03
FD
FD
03
03
F0
00
FD
01
FD
03
FF
FB
FF
FC
FE
F4
03
02
FE
02
FF
FC
01
18
FE
01
03
FF
04
01
05
03
FA
FF
00
01
01
02
FC
03
FC
FF
FF
FA
F2
01
00
FF
FB
01
FF
04
DE
FD
02
F3
FD
FD
01
FF
02
02
FF
02
FE
FC
FF
FF
01
02
FB
01
FF
FE
FD
FC
FD
FE
FF
E7
EE
FF
02
00
FC
01
E0
06
FA
0A
F9
EC
00
F6
06
FD
FD
FD
01
FF
FE
03
F9
FF
00
FD
FD
00
F9
F2
02
ED
00
FF
FF
E2
F5
00
F3
FF
F8
06
04
F9
00
FC
FE
FE
FE
01
FF
FE
00
02
01
FF
FF
03
FC
FD
03
FC
FF
00
FD
FE
00
FE
FE
FE
FF
02
FC
FF
03
00
FF
02
FE
02
FD
01
00
02
01
01
F9
FF
01
F9
FD
FF
F5
F9
01
04
F6
FF
FC
FB
01
00
FC
FE
FB
FE
FE
03
FC
FE
FD
00
FE
FE
01
FF
00
FF
09
03
F2
FD
FF
FB
F7
EA
01
0D
01
01
FE
03
F8
FD
05
10
FD
01
E3
00
05
F9
08
FE
F6
FE
FF
03
FC
FE
04
00
F9
00
FD
FF
07
04
FF
FB
0B
00
FE
02
02
02
FA
09
03
00
07
06
FD
FE
01
02
FF
02
FE
00
04
01
FA
FD
F9
04
02
06
F9
FD
FF
BC
09
02
FF
07
FD
FD
01
0A
FD
08
0B
F8
07
04
FD
04
02
01
02
00
01
FD
03
02
FE
00
00
01
03
FB
02
D9
FF
02
01
FC
FF
01
02
05
02
04
F5
F9
F3
FB
07
FD
F7
FD
02
02
FD
FE
01
01
FD
03
F9
FD
0C
E3
01
01
11
03
01
01
FF
00
FB
11
00
FC
05
F6
0D
02
04
01
FF
00
FF
FF
F4
FE
FE
FF
FE
FA
FF
FF
FF
EA
FE
D0
04
FE
FB
06
09
FE
08
08
F8
FC
F8
01
07
00
FD
04
FC
00
FE
01
FF
03
04
00
01
FD
FC
02
00
FE
FF
FA
00
FF
FE
FA
FD
02
FE
02
00
FF
00
FC
FD
02
FF
FD
FD
FF
02
FD
FB
01
00
FE
FB
02
00
FD
FE
F7
01
00
01
02
FE
05
FB
00
02
19
FD
FB
FE
FA
03
00
00
FF
F9
FC
FF
FE
FF
00
FC
FF
FD
FE
01
FD
FA
F0
FF
F7
01
01
FE
01
FB
FC
FA
02
FF
01
01
FD
00
00
F9
01
FC
FF
FE
01
FD
FF
00
00
FE
FD
02
00
02
00
02
FF
FF
00
FE
FF
02
00
02
00
FC
FD
00
FE
FE
02
FE
FF
02
FE
FE
FF
FF
FE
01
FE
F6
02
00
FC
FD
FB
01
FB
F9
FD
FF
05
F8
04
01
E8
03
01
FE
FE
07
FB
FE
FC
F8
FB
00
02
F8
01
FE
03
F7
F6
FA
02
F2
F5
FE
0E
04
00
FE
02
00
FC
02
FC
FF
01
E8
FD
07
FE
09
02
FC
01
FD
FF
FF
FE
F5
FF
FD
FF
04
FA
F5
FC
FF
F6
09
00
FD
02
FF
00
F4
07
FB
FD
01
00
02
FD
0C
03
FA
00
03
01
03
00
FF
FE
FE
FF
01
00
FF
F6
02
06
FE
03
00
01
03
02
FF
0D
F5
04
01
07
01
FB
01
FB
F8
01
FD
FF
FA
02
FD
FF
03
FE
01
00
FC
F8
01
04
EA
FF
FE
FE
EE
FE
0A
EF
FB
02
F0
FA
01
FF
0D
00
FF
01
FF
01
03
02
EC
FF
FE
02
01
00
02
FC
01
03
FD
02
FC
FF
E3
FF
00
FB
01
FE
FB
FD
FE
FF
F8
FF
FD
02
03
00
FA
FF
FB
FE
F8
01
00
F7
FC
01
02
E6
04
02
F9
03
E6
FC
04
05
FB
02
06
FB
F1
FB
01
FF
FB
01
FF
FF
00
02
FC
02
FB
FF
FD
02
00
00
00
ED
00
FF
FF
02
0D
03
EF
08
02
FB
FC
F5
F5
02
09
FF
FD
01
01
FD
FF
02
F6
02
FE
00
01
FE
FF
FD
FF
F8
01
FE
FE
05
F8
FC
FE
00
01
03
0A
F6
FE
FB
F6
01
FD
FF
FD
FF
01
FE
FF
02
FF
FF
02
FE
FA
F9
FC
FD
02
01
FE
FF
F6
FF
FD
FB
FE
FB
FF
FE
F5
00
FF
01
FE
04
00
FF
00
01
E7
FF
F3
FC
03
00
02
06
FE
00
05
FF
FE
05
D1
FB
FF
11
FF
F9
FD
FA
E2
03
FE
FD
FB
01
00
01
FA
FE
01
03
FB
FB
01
FE
07
05
01
FE
FF
01
FE
03
FE
03
F9
02
FE
B4
FD
F9
F6
01
01
00
FF
00
FE
FF
03
FF
01
FE
FE
01
FC
00
01
EF
FF
F5
0A
FE
03
EC
F9
FF
0C
1F
FE
00
04
F4
06
01
F9
FF
01
01
03
02
FA
FE
FF
FF
FF
03
FE
00
FE
03
02
F9
FF
FD
FD
FA
FC
01
FE
00
FF
FC
02
00
00
FE
02
02
FE
02
01
01
02
00
FC
03
FD
FF
FE
FE
DE
F2
00
03
E3
FF
04
F4
FF
00
DF
00
F8
FE
FF
0C
FF
FE
FE
02
F9
00
FD
FD
FC
00
02
FF
00
00
FD
FE
01
FF
00
FD
04
FD
00
01
FE
FF
02
FD
FD
FD
FE
03
04
FE
FD
FD
FF
FC
FE
FD
F8
FD
FC
00
F7
F6
02
00
FF
FF
02
F7
00
02
FE
FF
FD
04
FD
FD
02
B2
02
02
F8
FD
FC
04
FA
00
02
FD
FF
03
FD
FF
FC
FF
FC
FD
06
FF
FF
00
F6
FE
FC
F4
EE
01
F2
F8
03
07
FC
FD
F0
04
04
02
FD
FF
FE
FF
00
01
FF
01
01
FB
FD
02
F3
F4
02
F1
06
FE
00
E6
02
FD
03
01
FD
FC
F6
FF
00
02
FF
01
F9
01
FD
03
FC
01
00
FF
FF
03
FF
FD
FD
02
01
FD
FF
02
02
FF
FE
00
01
FE
FD
FE
00
02
FF
00
01
FE
00
FB
01
FF
02
FE
01
02
FF
FD
FE
F8
03
FE
00
0A
F8
00
FF
F8
01
01
00
D7
FC
FD
00
FE
06
02
01
FB
FE
04
00
FF

