06
00
F4
FF
00
F7
00
1B
03
FE
09
01
20
F9
11
02
FE
04
09
FE
F9
FE
01
FC
09
FA
2B
FF
01
01
FF
ED
00
00
00
00
00
01
FD
00
00
FF
00
00
00
04
00
00
FA
03
12
06
06
FC
02
09
F8
04
EE
FB
F8
FE
E4
2E
0D
14
06
10
EE
02
F9
FB
18
FE
0B
2F
10
04
08
CA
0E
3A
F8
D5
FA
F8
0B
FE
04
F5
09
16
0E
02
0E
B6

