F2
0D
07
03
F8
FE
0D
F9
00
FF
07
F2
FB
FC
10
0F
05
0F
F9
F6
FF
05
02
02
FE
00
03
F4
FA
07
0C
02
09
FA
E9
F7
F5
FB
E3
07
09
F4
E5
06
FD
13
F6
06
DC
06
FF
1D
0B
12
FC
05
F8
E9
0F
F8
EE
04
FD
00
01
03
02
FC
FF
02
FD
01
F7
FD
F4
FF
01
01
FB
04
05
00
FF
FB
FE
FF
04
FB
FE
06
06
04
FD
FC
02
FE
EF
F4
05
02
FD
F3
FF
FA
FD
F8
13
F3
FC
E9
F8
F6
FD
EF
FA
EF
F0
02
05
F7
FA
FE
00
EB
06
EB
09
FF
00
04
FF
02
05
04
03
00
FD
FB
FD
FC
FB
FC
FF
FF
FB
FB
FD
01
03
FC
FB
FF
FB
FC
03
04
FD
00
00
00
00
FA
FF
01
FA
02
02
FE
FD
04
05
FE
00
FD
02
00
FE
FD
FA
00
04
FE
FE
03
01
02
04
02
FD
03
01
FD
08
01
05
02
FD
0E
F6
F8
F6
07
F9
F9
F0
F7
06
12
F5
0A
02
F5
FE
02
F5
05
E8
FB
0D
FD
F7
F8
00
FD
0D
ED
F4
E4
10
15
0C
0A
FB
FD
E6
04
EF
04
EC
00
F9
03
0B
04
F2
FA
11
EC
F0
08
F0
F1
09
08
FA
E2
FF
15
11
07
DE
02
F5
FD
03
DD
1B
06
02
FB
EA
B2
E6
24
B0
DA
D1
24
E7
02
FA
DD
FD
EB
F6
02
04
ED
00
FD
02
FA
01
00
FB
00
00
FB
FF
00
FF
FA
FE
FE
FE
00
01
FF
FF
00
FF
FC
00
FD
FF
04
FC
04
02
02
0B
EF
ED
FB
F8
F6
F9
F4
08
05
F3
02
FA
05
12
01
D6
08
FC
14
FA
0F
F8
FD
FD
FC
CD
E4
FE
03
01
FC
FA
0B
12
0B
0A
07
12
F6
F1
FA
15
F4
FC
ED
F6
FB
04
04
04
C0
DD
03
0D
FC
EC
FB
02
F7
02
FD
FF
05
F9
10
0B
17
0D
FF
FC
07
ED
11
12
FC
F9
ED
19
11
FD
FE
18
F5
FB
FD
FC
0F
F0
F4
23
0D
05
FD
0A
11
FC
FC
FF
FA
FA
FF
01
FA
F7
F9
F7
03
FE
FF
F1
FF
00
FF
00
FD
00
F7
F2
FD
FC
FF
FC
F9
F5
F9
04
FC
F8
0E
12
0B
08
05
0E
FA
F2
FE
16
EC
FE
F6
F1
04
05
F9
02
C4
E4
FF
08
FB
E9
FB
FD
F8
03
01
FD
08
EE
01
F6
FA
FB
E3
FB
FB
01
F1
FF
07
04
FF
F5
E8
09
F7
FB
07
F9
F2
00
F5
01
F7
EB
F3
07
F8
FC
FF
FC
FE
FE
FD
03
FD
01
FF
FB
00
02
FB
01
FB
00
FD
01
FD
04
02
01
02
01
FF
FC
FC
04
00
FF
FE
FD
FF
FE
04
FF
00
FB
04
FC
FD
FD
02
FC
02
FB
FF
FB
FD
FF
FD
03
00
03
02
FC
03
FC
01
00
FC
FE
FC
FC
02
FC
FF
FB
FC
F9
FD
F2
FD
FF
00
F8
06
FC
FF
FF
EF
05
FA
F7
F9
00
FF
FA
FB
04
F9
FB
F9
F9
FB
FD
F6
13
EB
E0
EC
FD
15
07
0A
EF
0A
F8
08
02
08
DF
F8
ED
0C
EE
02
F8
FC
13
DF
F3
0C
FC
FE
FE
FB
05
F7
FC
0C
14
0E
18
FC
08
02
F5
05
0C
F4
07
F8
10
2A
07
0D
11
E8
04
06
00
16
F6
FF
1C
05
FD
0D
09
05
FE
F0
EA
F3
F4
F5
00
FF
0A
E9
ED
FB
04
0D
F7
F9
CA
00
03
11
FE
07
F6
0A
FE
F9
F4
E8
F6
00
F5
FD
F6
FC
03
FD
FC
FA
03
FE
FF
FA
05
F8
01
00
FE
FC
FD
04
FA
FE
F9
03
F9
03
FF
01
F9
00
FF
03
FE
FB
FB
FC
F6
01
FA
FA
FF
FF
FD
00
FE
01
01
F9
FC
03
00
FE
00
FC
FD
FB
03
FB
02
04
02
02
FF
F9
01
01
D3
F7
0B
04
F4
C6
0B
03
FA
FD
00
FE
15
09
F4
D8
1C
F0
F0
FC
D8
00
C5
F9
08
F8
E1
EE
04
FA
DF
FC
18
0A
0A
0A
FD
14
F6
03
F9
F9
0C
0A
07
F4
F3
EE
0B
FB
E3
FA
04
0C
EE
F7
08
0C
F5
F1
EC
FA
06
12
FA
F8
F8
F9
F9
F7
FF
F5
04
FF
FE
F3
FD
F8
03
02
E8
F8
FD
FC
F8
FE
FE
FA
F9
FC
FD
FF
FF
FB
F5
FF
09
F9
F7
FB
FC
05
03
F7
FA
00
FF
F9
F2
FB
F8
0F
EF
03
F2
F9
FB
FF
FD
01
E8
02
12
FF
F8
FA
FC
FE
FE
00
FC
FD
01
FD
FE
FB
FD
FD
03
00
02
FC
05
04
FC
01
02
FB
04
00
FE
FD
04
FB
02
FD
00
FB
FC
02
03
00
FC
FE
FE
00
F9
03
FE
FC
FC
FB
00
FD
F7
F3
F5
FE
00
04
F8
FE
FE
FD
FB
FA
F8
01
02
00
FC
FB
EE
04
0E
0E
FF
F1
01
EF
F6
03
19
E2
01
F5
FD
D4
03
F5
00
D7
E8
01
F2
F6
F2
FD
FF
00
0B
F6
F6
08
EC
09
0A
0C
07
F6
05
FF
09
06
08
EA
0A
F8
10
04
04
F9
01
FD
01
FB
F5
0A
02
F0
1B
0A
05
06
0A
0A
18
0B
02
FD
FD
11
16
F4
EA
15
21
06
F0
F9
0A
17
DA
09
D9
00
FF
04
E2
04
E4
1C
1C
10
DC
F9
06
FC
07
FB
00
01
FD
09
F7
FA
F4
00
F6
01
F5
FA
F7
01
F8
01
FB
FA
FC
FA
FC
01
FD
03
0A
02
F6
F3
01
03
01
00
04
02
F7
0A
F9
02
F7
FD
F5
01
00
FA
01
FD
FD
00
FE
F6
FF
FB
F4
06
03
F7
FC
F7
EC
00
FE
03
02
FF
FB
FD
07
02
00
FA
FE
F8
FB
02
FE
FC
F7
00
02
00
05
01
F9
FF
04
FD
FD
05
FA
FD
02
F9
FB
01
F6
FB
FF
FC
F6
EF
FE
F3
00
F6
FA
F4
F8
FC
00
FA
EE
FF
FD
FE
01
F9
F7
03
FE
FA
F8
F9
F7
F8
00
01
03
01
FD
01
FB
02
FD
03
FD
02
02
01
00
01
FD
01
FF
01
FF
FD
FC
FB
FB
FB
00
FC
FD
02
03
FE
FC
02
FF
00
02
FC
FB
03
FE
03
04
FB
FC
02
FC
02
FD
04
FD
FF
00
FC
FD
FC
FE
03
03
04
FD
FE
FF
FC
01
03
E4
02
E9
F5
04
FC
F9
02
02
F6
F1
F0
F0
01
01
F6
D9
FB
F6
09
EC
01
0D
00
E2
FC
FE
02
00
02
F4
F3
E6
F3
F6
F9
03
F5
10
07
02
E1
FB
F3
0E
F7
F9
FD
D3
03
FF
01
FC
0D
DC
01
FC
02
FC
FD
E8
01
04
02
1E
06
FA
F1
D9
1C
05
00
09
04
04
FC
EE
0A
F9
EA
E8
0E
EA
07
FB
FA
F5
FC
F7
DE
0A
F6
FD
FD
02
F5
F6
F7
FE
FB
F8
FC
F0
FE
01
F3
F9
02
00
F6
F7
FA
05
FB
FC
FD
04
00
F3
F7
04
F9
EE
F3
00
F8
F8
01
F3
06
FC
F4
F9
FF
0F
0B
FE
F0
04
F3
0B
06
16
0B
EB
FA
F6
06
01
F9
1E
08
06
11
05
05
FE
0A
FA
FB
05
01
01
FB
03
FD
FF
FB
FF
03
FD
FD
FD
FE
FF
02
04
FB
FD
FC
FD
FC
00
FB
01
02
FC
00
FE
03
04
03
03
02
FD
FA
00
FD
FA
FD
05
FA
F1
01
FE
06
FD
FE
EB
03
FB
01
FE
00
FB
01
FD
FE
FD
F9
FD
02
FE
01
07
FD
02
03
04
FE
FC
FE
FE
FC
FC
FE
FD
04
F8
FA
FE
01
FE
FD
02
FA
00
FB
F9
03
FB
00
FB
FF
04
01
02
FD
01
F7
FF
07
F6
E1
FB
12
FC
FB
F9
FC
FE
0A
F3
FF
FE
FC
FD
03
F1
08
F0
04
0F
05
FD
E8
F5
FC
03
FD
04
FD
04
FD
FC
FB
FB
FC
02
FC
03
FC
FC
01
03
FC
FD
FC
00
04
FF
03
00
FB
FE
04
FB
02
FF
01
F4
F8
FE
FE
FE
FC
00
00
FB
F9
FF
FC
06
F8
02
08
F7
FF
FC
FD
FF
05
FD
FF
01
FD
F3
FE
FF
FD
FD
02
F0
FF
EC
F5
F0
F4
0A
F9
06
F0
F3
EF
04
FD
FA
D8
E1
08
FB
08
F7
03
F6
FA
FF
03
D8
F1
07
09
F2
F4
07
10
FD
F6
F6
11
0F
04
08
E2
EF
05
F2
02
10
F1
CA
0F
FD
08
F5
FE
F4
FB
F8
EB
E5
ED
FB
0C
E4
F0
FF
04
00
02
FD
FD
FC
FC
FF
FE
02
FD
FE
01
02
FF
FD
FF
FC
03
FB
FE
FD
FF
04
FC
FB
FF
03
00
FE
FC
FD
0B
08
09
FB
02
EB
FA
FD
19
00
F1
14
F0
3F
2A
00
FE
09
EE
04
1A
0B
19
F6
FC
0D
05
E6
FE
02
06
FC
02
03
FB
FF
00
FE
FE
FC
05
01
02
03
FF
06
FF
03
FD
00
FB
FC
FA
FD
FD
FB
01
02
05
02
02
FE
FF
14
05
01
FE
F9
1B
EC
08
FA
F9
DB
FE
ED
07
EE
EF
F3
07
FB
04
E8
FB
0B
DD
F2
EB
FC
E3
01
01
E8
F7
FC
03
01
FE
EB
02
E1
FC
FD
F7
DC
04
11
FE
F7
03
01
00
19
FE
05
F6
DD
07
07
1F
18
0C
DE
06
FA
F8
00
02
FE
0A
08
EC
00
FB
F7
FE
12
FD
F8
FF
12
09
F8
FF
02
D6
D2
00
1C
03
F5
F5
03
F9
0D
F6
08
06
03
01
01
04
F9
FF
FB
FC
00
F9
04
FE
FB
02
F8
04
00
FE
02
01
FA
FC
03
01
F9
FA
00
FF
03
FF
00
09
FF
FF
FC
02
01
00
02
01
FC
01
01
00
01
FF
02
FC
FE
FD
03
FC
FA
02
FE
FC
00
FE
03
FD
05
01
FF
02
FE
00
00
02
01
01
FF
04
FD
FF
FD
FF
02
FE
01
01
FF
FE
FC
FD
FC
FD
FC
FE
FE
01
02
00
03
00
FC
FB
F2
00
07
F2
FE
EF
07
F9
0C
EE
F1
09
00
FF
00
07
02
F0
EA
FC
F2
0C
06
FB
08
00
A2
E3
01
10
CD
F4
F9
ED
F3
EF
F8
F3
FC
06
04
FA
F2
0B
F7
07
F1
EB
07
03
F4
0E
FB
F7
FE
F2
01
10
E8
F9
0C
01
FD
F6
FB
06
0D
08
0F
02
0C
F4
F3
09
14
F4
F5
ED
EC
07
0F
FC
FE
D7
D6
01
F6
FA
ED
F6
C4
ED
08
02
0A
FE
F1
F4
06
FA
F3
F1
13
FC
FC
EE
09
EF
FD
FF
00
F5
FD
F2
F2
FB
E7
FD
EE
F8
00
02
F8
FB
02
FE
EB
FC
FA
FB
FC
FD
FD
FB
FE
FC
FF
F3
FC
FC
F1
FC
F2
03
FF
FC
06
00
02
FC
02
FE
F6
FE
FE
FD
00
F3
03
FD
F4
0B
02
F3
F8
FF
05
01
0E
EB
E6
ED
05
02
EB
F4
ED
FF
EC
09
FA
0D
12
F5
02
F9
F4
02
00
16
BE
F5
1B
12
00
FB
FF
11
FB
F2
E9
20
DE
09
FD
FC
03
17
FA
02
D3
F6
FB
07
F1
04
EC
20
1D
11
FD
ED
08
03
FB
04
04
FD
03
FC
FF
FC
FF
04
FE
04
FF
FE
03
03
FD
02
FC
FE
FF
FB
00
04
FD
04
00
03
02
FC
FC
FE
E3
FE
08
08
08
EB
0E
F4
F7
FA
0D
F4
03
F8
DC
FD
13
FB
01
DB
E0
02
03
FB
F2
F0
EA
E9
0F
FE
D0
00
06
FE
F9
FD
F4
F4
FF
02
0F
F2
F2
01
FA
0B
FE
F3
D6
F5
FF
13
02
04
FD
FC
03
E8
E1
F3
07
09
FB
04
E4
02
0A
F9
DD
04
0C
04
08
F5
FC
ED
E7
0A
00
F2
F4
0F
C6
04
D0
F8
FF
F8
01
ED
DD
F1
04
0E
B3
FE
03
FA
FD
01
03
FD
FB
03
FC
FB
FF
00
01
03
FE
FE
02
02
02
FD
02
FC
00
01
02
00
03
02
FF
FC
01
01
F5
02
00
F6
F7
F7
12
02
03
F7
07
EE
02
FA
F4
FE
ED
FA
ED
FB
EF
00
F0
03
F9
04
F1
FF
02
00
D5
F9
04
02
02
FF
03
FC
04
FF
FD
FF
FC
00
01
FB
FE
04
02
FD
00
FB
01
FC
03
FD
FB
01
FF
FF
01
04
05
02
FD
FC
F4
E4
F5
FB
06
FB
F8
FB
D6
F9
04
ED
13
0D
EF
F8
08
FD
06
0D
F7
0E
FA
FB
FD
E9
E2
F7
FE
ED
F0
EC
08
EC
02
F5
15
03
FA
DE
02
FE
F1
03
FA
FB
FC
EE
0A
00
F7
FF
0B
F5
ED
0A
F2
F5
FF
ED
00
F1
03
04
05
01
FD
06
FE
FE
F8
FD
FD
FE
FE
FD
FE
00
FF
FE
FE
00
FD
FD
00
00
01
03
00
FB
FF
FB
02
FA
06
01
F6
01
03
03
F8
FB
FB
F4
FB
FC
FA
01
F7
F8
F4
04
06
00
FE
FF
F9
F3
F4
06
09
F9
FD
FC
03
FA
F7
03
FF
FC
FF
FF
FF
02
FF
F9
F9
FA
F7
EE
02
05
F9
FC
04
FB
00
02
FD
FB
F7
01
05
03
01
F8
01
02
FA
FA
FD
FF
FB
F9
F9
FF
01
F8
F2
F7
FF
F9
F8
02
F8
FE
FD
FF
F3
F7
03
FE
FC
F9
EB
F5
FD
FF
E9
FD
09
FE
FA
FE
05
08
F5
01
FA
FA
ED
FE
FB
02
F4
01
F6
FF
FD
02
FC
FB
FE
FB
FD
FF
FE
F5
FA
F5
0C
00
FB
01
FC
FC
FF
FD
01
FC
FA
03
FF
FC
01
02
02
FD
02
01
FA
00
FA
02
03
03
FC
04
04
00
FB
FD
FE
04
03
FD
FC
F9
F1
FE
0B
F5
F9
EF
F6
FE
F9
FA
F1
00
FE
FD
FB
FD
01
F8
FB
00
F8
01
FE
FA
F4
EC
FB
F8
E4
0A
03
FD
18
0A
F2
F5
F7
FB
FA
FC
FB
F4
08
E6
EA
03
04
E2
FA
08
13
D0
D0
FB
F2
F3
FF
01
01
FD
01
FB
03
04
04
02
03
02
FF
02
FD
00
FF
03
03
00
FE
01
FE
01
01
FC
01
01
03
03
05
03
01
01
00
02
FD
01
FD
01
FC
FD
FE
FD
FC
01
FF
03
04
FD
FF
FE
FE
04
00
FD
FF
02
02
FD
FB
04
FD
02
01
FE
FE
FE
F6
F6
09
07
E3
F0
06
06
F0
F9
0D
0A
08
FB
F1
0A
13
FB
F4
DC
07
FC
07
F6
06
16
0A
F3
03
F0
23
06
FB
08
10
0B
09
F4
F4
00
F5
EF
05
EE
10
E8
F8
08
0A
FA
05
E8
06
0F
F8
0A
0C
02
F1
C9
FB
FB
04
10
0D
01
F8
FC
03
05
F9
00
FD
FC
FF
FB
00
04
06
06
F8
FE
FE
FA
F8
03
02
FD
F7
FD
FC
FD
00
FE
05
FB
01
04
03
02
00
02
FC
FD
FF
FE
FF
FD
01
FE
FE
FF
FB
03
FF
FC
02
03
00
03
00
FB
01
FF
02
FE
FC
FC
EB
E7
05
06
FA
EB
10
CD
FE
F7
0D
F1
06
C5
04
0A
00
FF
FA
E4
11
09
F7
08
0C
E1
FC
07
FB
E8
FD
0D
01
03
F9
03
F4
04
F5
02
F7
F8
FE
02
F7
F5
F8
F5
0A
FA
F9
F6
08
FB
FE
FB
04
01
F8
FA
FB
F4
02
FB
FC
00
F7
F7
08
02
01
FE
FA
FB
F5
FA
F9
00
FB
01
F8
FB
05
00
FD
04
00
FB
F6
FE
FD
F2
02
FA
01
FF
0B
FF
0B
02
F0
0B
E3
10
FC
FF
F9
07
03
FF
04
FA
0E
F5
F8
FC
0A
00
FC
08
09
F2
D7
E7
D2
09
FB
09
FC
FC
FE
FE
F9
FD
01
FB
FD
FC
04
FE
FC
FF
FD
01
03
01
FF
01
01
FA
FE
00
FA
03
03
FF
FA
FD
FD
02
FF
01
FB
F8
00
02
F8
02
FE
FC
F5
FD
FC
FA
F9
FC
F4
FC
FD
03
FF
F8
01
FE
F4
FD
01
F9
F7
00
FE
02
FC
FB
FB
FB
FD
01
FD
F8
FF
FC
FC
03
06
FD
F6
FC
FE
FE
FC
FC
FF
FF
F7
F4
01
02
F3
F9
FD
FA
01
FA
E9
04
ED
F4
13
EE
02
00
FC
D8
F1
EE
FE
FD
EC
FF
CD
E7
19
00
01
03
F9
F8
F7
0C
F0
01
FA
0A
08
F7
01
F9
EE
F6
F7
FB
FD
07
0A
F3
E7
05
FA
0E
07
E9
FF
01
FB
0E
FC
05
F8
F0
09
F9
F6
F5
08
02
05
FC
0F
02
EC
F9
FD
02
0F
F1
03
FB
F4
06
F3
FA
24
E5
10
01
06
02
E3
F3
E2
D5
F6
01
ED
00
08
D1
0D
FD
0B
FE
EA
EC
05
05
01
02
09
E2
E8
F9
F9
07
0C
F7
E6
00
F4
0F
EA
FF
FF
0C
F2
F7
E5
D2
FB
02
0A
FC
DC
EA
0F
0A
06
ED
19
06
FF
F8
17
E7
0D
F9
D2
CC
19
F0
F1
E2
DB
10
D8
04
07
F6
FC
F5
03
EE
E1
F5
02
FC
00
FE
FD
00
FE
00
FC
FD
01
01
FC
01
04
FB
FD
02
FD
FD
00
01
01
00
01
FF
00
FE
FD
00
FE
03
16
F3
FA
FB
02
0D
FB
0A
FF
F2
EB
05
F8
FD
09
05
CD
06
0B
05
05
0B
DC
05
FC
FE
02
E4
FF
FD
0E
04
19
05
08
00
00
18
05
F2
EC
1A
FD
06
F9
00
00
18
F1
03
CA
F9
FC
00
E4
02
EA
17
29
0B
EC
F2
0C
01
F8
07
0A
FF
05
08
F6
F9
08
10
FC
00
0D
F3
1C
0F
03
08
15
01
03
F8
F5
09
04
F6
09
13
FD
0C
01
0A
06
02
04
FD
00
02
FD
01
F9
01
01
F9
FB
03
02
FD
01
00
01
FF
03
FA
F8
F8
FA
FC
FF
FE
F3
FD
02
F8
01
FE
03
FF
F8
FE
00
00
00
FB
FF
FB
FB
01
F7
FE
FE
03
FB
F2
00
F9
F7
04
FB
FE
FE
F9
FA
01
03
FE
00
06
FC
EC
FB
0B
F7
FC
F5
08
06
F9
F9
F5
03
05
F5
04
F3
FD
FB
04
F7
0A
FC
0A
11
07
F8
FC
E9
F0
E9
FC
EF
F4
FC
D8
02
04
0A
FB
EB
0D
FD
0D
E7
CF
04
02
FE
12
F4
06
F6
F1
0C
E6
F3
F0
09
01
EF
FE
15
04
F3
F9
00
08
EC
09
F7
FC
E5
FC
F2
02
F1
F7
EF
08
07
04
F9
FE
FA
F3
F7
F8
FD
F0
F7
F9
02
FC
F6
01
08
00
01
FF
FD
03
01
FE
FD
FE
00
FE
03
F8
02
04
F9
F9
FD
03
F4
FA
00
FC
F7
FC
F6
F9
F9
FC
F7
00
FE
FF
FB
FB
FF
FA
FA
0A
06
F9
F8
F8
0A
0D
01
FB
FB
F5
01
FC
FC
00
FB
F7
02
02
FC
FF
03
02
20
0A
09
E5
F0
21
F6
FF
EB
07
EF
FF
FE
00
FE
F8
02
0E
02
F6
F8
EF
0B
F4
F0
1A
04
05
EB
04
19
E8
D4
E1
FF
FC
F5
F0
0C
01
06
E3
FB
E6
09
EE
F0
01
0F
FD
F2
FC
F1
FC
FB
FB
0D
F7
CE
EA
F7
FD
F4
FC
05
06
01
04
FF
FB
01
03
FC
FC
F4
F9
FA
07
FD
FA
FF
05
FC
F9
00
F8
02
FC
FF
FE
00
01
FD
FE
04
04
F4
02
01
00
FB
FD
FB
FE
FA
F5
F2
00
10
F8
F4
F8
06
08
FA
03
07
FE
F4
02
0D
1B
13
0B
F0
00
06
03
01
FF
02
03
01
04
FC
04
FE
FE
01
04
01
FC
FE
FC
01
02
01
FF
01
FB
02
01
02
02
FD
01
FB
FD
FD
FC
00
FB
FB
02
00
FE
FE
F9
FC
06
FA
FF
FC
FE
00
0A
FD
FC
FF
FF
F8
FF
03
FD
F5
04
09
07
00
F3
05
FA
FD
FD
F9
FE
FF
00
FF
F9
FC
FE
FF
FE
FE
FF
F8
01
FF
00
FE
03
FF
FB
02
FC
FC
FD
01
FC
FD
F8
00
02
FC
F4
03
FB
E5
07
EB
FA
F8
EB
07
01
07
E5
EE
DA
0F
01
ED
F6
01
FD
EA
00
09
02
EF
F1
FA
F7
F1
FC
CF
00
12
07
FC
E5
08
F5
F5
F9
17
F4
06
EF
F7
C0
04
17
F7
D1
E1
FE
03
0A
F3
18
FF
ED
0F
F8
EF
FF
02
FC
F8
FA
FD
01
07
06
FE
F5
00
F2
FE
04
02
F3
F4
F8
F9
01
F3
FC
02
F9
F7
FF
FE
03
F2
06
ED
FD
E3
03
0F
FD
CA
BB
E3
F2
FB
F2
E2
E8
10
F2
F8
14
13
F5
C4
ED
E2
0B
06
06
0A
06
F3
10
03
0C
F5
D9
F5
11
16
17
02
F6
06
01
05
FA
13
F5
04
F2
07
15
0E
FD
FE
F7
0C
03
FD
0D
0C
FC
17
EB
FC
0F
04
09
FC
FF
F9
00
FF
FD
FE
FD
FF
F7
FA
FE
00
FD
F3
FE
00
FA
02
00
02
FD
FE
F7
02
01
FC
01
FE
EF
FF
FD
F2
FC
EB
F9
F9
EE
EE
FC
00
04
F1
05
FF
FB
FB
00
04
F4
F6
FF
0B
F1
F6
05
04
F5
F2
FE
F1
ED
FA
F8
01
08
F4
EE
0B
17
FC
FD
FD
FD
E8
09
F3
FE
FA
F0
F6
09
13
02
F9
0A
03
E6
F6
05
FB
FF
05
02
04
FE
0C
01
00
F2
FC
09
F2
09
01
F9
E6
EC
FA
08
F1
EF
E9
F2
F9
02
F2
FF
04
FB
FF
E9
FE
FC
F4
0C
F0
F4
E8
FF
00
ED
1C
E8
09
00
F7
FE
03
E7
FD
E9
FB
EE
09
EE
0F
EF
02
07
22
D0
DE
FE
E1
D5
0C
FF
FB
EA
0F
07
07
03
FD
16
02
F6
E7
1D
09
07
FB
FF
0A
1B
F5
00
D2
FA
01
0B
E7
05
EB
1C
23
0F
ED
F4
0B
05
02
04
03
05
03
04
FD
03
FF
00
FA
01
FF
01
FC
00
02
03
00
00
03
02
FA
FE
FF
FC
FE
FC
01
04
03
03
0C
09
04
04
FD
02
FD
01
0C
F3
F4
EB
F4
FB
FB
00
D2
11
F5
05
F4
0C
E3
03
F6
F7
08
FE
00
07
01
0C
FB
02
FC
00
FB
02
FD
01
00
FB
FB
03
FE
FD
F9
F9
01
00
01
01
FC
01
FE
F9
FD
FB
FC
01
FC
01
FE
FC
F8
FC
FB
F8
F4
F9
02
FE
FC
F8
0A
FD
FB
01
F4
F9
FE
FF
F8
03
04
01
FC
00
00
FD
F1
01
FA
03
F6
F9
FC
FE
04
FA
FB
FB
00
01
FF
FC
00
FE
FE
FC
FD
FB
FE
02
FE
FE
FE
01
FD
FD
FF
FE
FE
FC
FC
01
00
04
F1
FD
ED
F9
F7
F8
09
04
00
F7
FA
08
FF
0C
FB
F2
01
FE
03
07
F6
EF
00
EE
02
05
F7
FB
05
FC
F2
FA
FD
FF
E1
FB
19
DF
09
04
FA
F3
06
EE
FC
F6
E9
11
0A
FF
0D
F7
E9
0D
08
03
E7
F5
DE
E9
04
F1
FF
FA
F8
E3
ED
F7
00
06
EE
13
08
F2
E6
06
09
FB
FE
F7
0F
EE
FB
07
07
FE
19
02
10
E3
DD
E7
ED
EC
01
00
F9
F1
F6
FF
FD
F7
F1
F5
0D
E9
F0
FD
FC
F5
0B
F6
D8
07
05
0E
02
0D
EF
FA
FE
F1
03
EC
FC
FB
0E
03
07
12
03
0F
05
05
F8
05
00
EF
17
F1
E8
00
04
18
19
08
03
EC
06
0C
F4
0A
FD
FF
01
E6
FF
06
00
FD
04
FF
F4
FB
01
05
F6
02
F8
FE
F4
06
F8
FE
F8
FE
FB
F9
07
03
FF
02
FA
FB
F5
FC
FF
FF
FD
F6
02
FE
06
08
01
04
FA
00
FD
05
01
F4
FB
FD
02
00
F6
F8
F3
03
00
00
FD
FF
FD
F9
FD
F7
FE
F5
FA
00
F5
FE
07
F6
02
E8
F2
11
E2
FB
02
FE
FA
FF
FB
FD
03
F8
06
0C
17
0C
F9
EE
03
FE
05
0C
0B
0A
E1
08
03
EA
FD
FF
FA
F9
FC
00
FF
00
FF
FE
00
03
01
FA
FF
FC
FF
F9
FB
00
01
FE
00
FF
FE
FE
00
FD
02
FD
FD
FD
00
E9
09
FC
F1
F5
0C
E6
05
F6
0D
DF
06
DE
13
18
05
EE
F1
F0
07
10
FC
0B
01
FD
FA
F6
FE
F3
10
FF
FC
F9
FC
FA
F8
FF
01
00
01
F6
FE
FA
01
FE
FE
F7
F6
FE
F6
04
FB
FF
FA
FC
FF
FC
F9
00
01
03
F9
FE
FA
07
16
07
0C
F7
10
F7
F1
02
24
F0
01
F0
FD
FC
05
01
02
CD
E6
F6
00
FF
F1
10
FE
E4
05
F9
05
07
FC
02
04
04
03
FB
FD
FC
04
04
03
01
FD
04
02
FE
03
FE
FE
02
FD
FF
FF
FD
03
FE
FF
FB
FC
01
02
FF
E0
01
FB
FA
F9
E7
F9
F3
0E
04
F3
F1
00
FB
06
15
E7
01
FA
09
03
F5
F9
06
F7
FA
05
F3
F1
0D
11
FA
02
05
FE
00
08
F9
F9
01
00
05
00
F9
00
F6
04
02
FA
04
00
FE
01
01
F7
FE
FB
F7
07
F4
FE
08
12
03
F8
03
F3
F7
F6
FB
F5
FF
FD
00
F3
03
01
FA
FE
FA
00
01
FB
FF
03
02
F9
07
00
05
03
09
F8
FB
F9
F8
01
03
FD
FB
03
FE
FB
FE
FD
FE
FD
04
01
F8
FF
00
FF
FF
FF
FD
03
02
FC
FF
FF
01
FC
FF
FC
FB
FD
FD
02
03
00
FD
FD
FB
02
02
02
FC
02
FF
02
03
00
FB
04
04
FB
FF
02
02
03
FD
01
01
FD
FE
FD
02
01
03
01
FA
FF
00
03
00
FA
00
02
FC
01
FA
03
03
03
FC
01
FE
FD
FB
03
00
00
FF
FB
01
02
FE
FD
FE
04
02
EF
FD
F9
01
05
FC
04
FE
FF
F8
FD
F6
07
F8
FF
07
EE
FF
08
FB
F6
14
FE
05
F9
FD
FA
FC
F5
05
EE
FC
08
FC
EF
F9
FB
EF
FC
02
0B
EC
F2
F7
04
04
F4
FA
D6
01
00
15
FE
0B
11
FE
FC
F4
E0
E1
FA
08
0E
FE
15
15
CB
D4
FA
2A
D4
09
EE
E4
FC
06
E0
0B
04
F3
ED
22
17
00
FC
EA
15
D6
EF
01
04
FC
E6
FD
06
E0
07
FA
FC
FB
05
01
FF
00
FF
F3
F7
01
00
02
F9
F9
F7
00
03
FC
FC
03
02
F5
FC
02
F1
FA
02
FA
FA
FC
FD
FC
FC
02
FE
00
FB
FB
FE
FE
FB
01
FD
FF
04
05
FE
FE
FB
02
00
01
FD
FE
FC
03
05
FE
02
01
00
03
FB
FD
FE
F8
FD
FE
F7
FC
FE
FE
F1
FD
FB
01
03
FD
02
FA
03
FA
FE
FD
FE
03
FC
FF
07
FE
F6
F6
02
FE
F3
FF
E4
E9
F8
F7
FB
FD
00
F3
EC
FD
F1
07
FA
FA
C6
F7
08
03
FD
02
F4
01
F7
0A
EA
05
00
07
08
F5
FE
01
FD
F5
FB
FA
02
03
FD
F6
F6
FD
01
FA
FB
FB
F3
00
FB
FF
F7
02
00
02
FF
FC
EF
FD
F9
01
F1
FF
FF
03
FD
FF
FC
00
FC
03
FF
03
FC
FB
04
01
FE
01
FB
FE
FE
FB
01
01
02
FE
FC
02
04
FD
FC
02
03
02
FE
F5
EA
F1
F8
EF
03
F5
FD
F0
06
0A
FA
D9
F2
FE
00
F9
E8
FF
F2
02
E0
FA
01
FC
E8
D4
FF
E5
04
FE
08
FD
F6
F7
FD
05
F5
FE
FB
F3
F7
03
02
FD
FB
FE
FC
03
FC
03
FE
02
F6
00
FF
00
FC
FF
F3
F1
FB
FA
FC
FE
FF
FE
FF
01
FB
01
02
FC
01
01
04
FB
05
01
00
FC
FC
01
02
FB
03
00
00
FC
FD
04
FF
00
FE
FD
FA
01
12
08
0B
EA
10
F2
FA
FD
24
ED
FD
EB
0B
F4
0F
04
09
D9
F2
14
06
02
01
04
FB
ED
08
E3
13
03
FE
01
FD
FC
01
FE
01
FD
FB
FD
FB
FE
FB
FE
FD
FE
04
FC
FB
FC
03
FB
03
FB
FF
FC
01
FE
FC
FE
FF
01
03
05
FD
FD
01
0A
FB
00
FB
FD
F8
FF
F8
FF
05
FF
F5
01
FE
FF
FC
F8
FC
00
FA
04
0A
FD
FA
00
00
01
1B
03
D3
03
12
14
E3
FB
EF
05
EB
07
ED
04
F0
12
E1
03
12
FA
FF
F6
00
F6
D5
14
FE
FA
01
F8
1E
F8
DE
09
F2
F3
FB
C2
04
EF
08
E1
EA
07
EF
FF
EC
02
FE
11
FF
0B
F2
F9
DF
DB
00
F8
F3
E8
08
08
FE
F3
19
0A
05
06
04
12
FF
EF
EA
1E
0D
0A
F9
FC
0C
18
EF
08
C7
FA
FF
00
F0
05
E5
1C
26
0E
F1
F4
03
FC
16
0C
0C
0B
0F
1A
0E
0E
F2
E2
0D
0B
F8
05
CD
F1
00
07
11
D2
F9
08
0B
E7
EF
FB
F9
EE
FE
02
27
05
E9
07
11
10
0A
EF
13
F2
F4
00
1A
F1
04
F4
F8
DB
06
04
FD
C5
E2
05
FC
00
F7
11
FF
EC
0A
00
02
08
03
0F
14
0C
06
FA
0B
FA
EC
05
1D
FA
03
F5
05
FA
04
08
03
C6
E8
09
03
F8
E9
02
05
ED
00
FC
12
05
D8
1C
F2
08
16
C0
DC
F4
FF
06
FC
F5
0D
EC
11
33
07
04
13
F3
07
F7
00
17
F9
FA
02
E3
EF
04
F4
FA
04
01
FF
02
FA
FF
00
FE
FD
02
F2
03
FA
FC
06
04
03
FF
FF
FD
FD
F9
F8
05
00
01
07
02
F9
FE
F9
FE
FF
FC
02
FD
04
00
FE
FD
01
01
FC
FE
FE
01
FB
03
FF
FD
FF
FE
04
02
01
FB
FC
03
03
04
FC
FB
FE
04
F8
FC
FD
FA
FF
F7
FD
FD
FC
F9
F3
01
FD
02
F7
FB
08
F7
F8
FD
FD
FB
FA
FA
FF
07
FA
FF
04
F7
FB
FF
FA
FC
FE
02
F8
F7
FB
0B
0E
E5
F5
FF
FD
FE
EC
F4
ED
F4
06
13
06
00
19
F4
0E
F9
F8
FD
00
0D
03
0A
EA
02
01
EF
E3
D3
E0
FD
01
E3
BD
EE
1C
FE
00
F4
10
F8
A6
F4
FB
0E
0B
E9
07
16
FE
F8
F0
07
D3
E9
0C
F9
F9
F6
FF
FE
FE
F5
0A
EC
F4
F2
F7
F5
F8
F5
E7
0A
F7
0F
FD
02
E1
FC
00
FF
DB
E5
F8
03
15
01
EF
0F
0F
09
0B
FE
14
F9
F4
05
16
F5
FB
F5
FE
FA
09
06
02
C5
DE
05
0A
FF
E7
03
F6
F4
08
FE
F6
03
FB
05
FF
FF
0F
FD
07
01
F6
0F
16
EC
0C
EA
1D
2B
08
13
F7
F0
FA
0F
F8
15
F5
FC
16
0A
F1
F6
FF
FB
FF
FD
F9
FF
FA
00
03
FA
02
01
F8
FE
F9
FA
F9
00
FF
02
00
01
02
FD
03
02
00
FD
03
FB
05
F9
00
FE
02
FE
02
FB
04
01
00
01
01
00
FF
F7
FE
FB
02
FA
FA
FB
FF
FA
FA
FF
FC
F9
F6
FE
F9
FC
03
FB
FE
01
0E
03
F0
FA
FA
0D
F4
05
03
DF
E5
02
F7
0D
EE
FC
DA
03
04
12
F6
FB
07
F4
F9
F4
E7
DD
03
05
04
F7
F8
FD
FA
FE
FB
F7
FF
FB
04
F6
06
F5
09
01
F6
F9
EB
02
F4
FF
F5
03
F5
03
FC
FE
F3
FD
FD
00
EF
00
FE
FB
01
05
FD
F8
00
00
FA
00
00
F9
FF
FA
FF
FF
FC
04
FD
FB
02
00
F9
FC
FF
FA
0A
07
F9
FD
FB
05
F4
F8
0A
FE
FF
F7
05
F9
05
F9
08
EE
10
F1
02
10
F2
F9
06
FA
FA
00
EA
00
00
03
FD
F0
F2
04
FD
02
D7
FB
F9
FB
EC
AF
05
FD
06
EF
E8
09
0E
00
FC
F5
0C
FB
E7
0A
00
0A
DF
E0
02
E6
F3
04
05
FF
F0
ED
ED
F8
0E
00
D6
CF
07
0A
03
0F
1B
DE
09
EE
13
E5
1D
F4
B5
E5
FA
0A
F0
14
0D
FD
EE
07
03
F8
F1
FA
08
15
14
15
09
0B
04
FF
F3
FA
24
F0
FF
F2
F5
FD
14
05
0B
CF
F3
02
0A
FC
F8
E7
F1
F0
06
FB
0F
02
F9
F6
EB
F1
EF
FF
F0
F1
00
F4
F5
E0
10
F1
ED
EA
10
F8
EA
F9
E0
00
E7
EC
07
06
ED
FA
01
E9
01
E0
19
0E
11
0E
1B
16
FE
0F
FA
11
03
E4
FA
11
D4
D4
05
07
07
E7
E7
F6
16
DC
FE
D3
F9
F4
05
0D
F3
FE
D6
F5
06
FC
F3
E4
11
00
0F
DB
FB
ED
06
00
F5
FE
FE
F2
03
F9
EC
02
0D
F8
06
F7
CD
F4
1C
09
FE
02
ED
01
05
FB
F3
D5
0C
FD
FF
E0
0A
09
EF
FE
E8
F0
01
FB
FB
FA
FD
E9
F9
FD
FE
12
FF
FA
0A
FD
F3
03
08
02
03
01
00
05
FD
FD
F7
FD
F9
01
ED
FB
06
FE
F3
06
FF
FB
02
FA
EF
01
F6
F7
00
FA
F7
F9
08
F8
FC
FE
F6
00
FD
F9
02
FD
FD
F6
F7
04
F9
FD
FB
F9
00
FA
FD
01
02
F8
02
FE
FC
FC
FF
00
FB
EE
00
F9
F2
0A
10
0F
0F
F9
03
00
01
05
0C
F3
05
F6
12
29
03
02
13
F4
06
17
1A
13
FA
F7
F6
FF
FA
FF
05
0A
E1
F2
E2
FB
F9
E8
FF
DC
FE
0F
F6
FD
F9
02
06
0D
F9
EE
09
FC
07
09
06
0D
FB
FD
E3
06
FA
05
F4
00
00
FE
05
07
FD
FD
04
02
F3
00
01
02
02
FF
00
FE
FE
FD
FD
F5
FF
FB
FD
01
03
FA
FF
01
FA
00
03
03
FC
FB
FE
02
FE
FF
F9
F9
FA
FD
FC
FA
05
FB
08
05
FE
FE
FF
F9
FA
FE
FA
FF
FB
02
05
04
FC
01
F9
04
FE
FA
F3
FD
02
01
09
FE
FD
FC
EE
FE
FC
FB
F9
00
00
F9
01
FD
F9
00
EF
EF
FC
01
F1
F8
04
F5
F5
02
F9
F8
E7
00
05
00
EE
05
07
08
ED
02
FE
0F
05
FF
E6
F9
08
15
FE
03
05
07
FD
E1
01
FE
FC
02
F5
05
FD
F8
00
FF
FE
FE
02
F9
FB
04
03
00
FD
FE
04
FB
01
FB
01
FC
01
00
FA
02
FA
FE
FD
03
01
FB
FC
FC
04
FE
FB
FD
04
04
FF
02
FF
01
02
FC
00
FE
01
FC
FE
01
00
FE
FD
FF
FE
FD
02
FF
FE
FF
FF
00
FB
FE
F5
0C
13
0E
01
F0
05
F7
F2
02
20
ED
0E
F7
06
EF
04
0A
01
BF
EA
0C
03
FB
EE
06
01
ED
09
FE
08
03
FE
FD
FD
03
03
FE
03
03
FE
02
FF
00
FF
FB
FD
00
FE
FD
FE
03
FD
03
02
01
FB
01
FD
FD
04
05
FC
FC
FD
02
00
FE
FB
F5
00
F8
F8
02
05
02
03
FD
05
03
06
FA
FD
F7
FD
02
FD
FF
03
FC
02
06
F9
FC
FD
02
09
FB
02
04
FD
0D
F9
02
F3
08
F6
F9
F4
01
18
06
FA
07
F5
ED
FE
FB
F7
05
EF
F7
08
F6
EF
F7
0C
03
F9
FD
FB
F9
FF
F8
FF
F2
FE
F1
FF
F1
00
FC
F7
F3
F0
FF
FD
02
EC
05
FB
F3
F8
01
F9
F9
F9
01
FA
FA
F9
FA
F0
F1
FC
FC
FF
FB
FF
FC
FA
01
05
02
F7
EF
05
F8
FA
FF
FD
01
F7
FA
00
FE
ED
F7
FC
FA
02
F7
FB
02
03
03
FE
03
FC
FE
01
02
FB
02
00
03
04
02
03
01
FD
00
FC
FD
02
04
FD
FF
FC
01
FC
04
01
FE
FD
F7
0A
F1
FA
F5
18
07
05
F0
0B
E5
F0
03
F0
FE
13
FC
EE
EF
DC
FA
EF
F8
0B
FF
F2
ED
05
FF
E6
09
00
06
04
09
F4
00
01
FD
F1
FD
FF
FD
01
FE
07
FE
03
02
F9
F7
05
FA
F7
02
04
FF
08
FC
F6
01
F7
FC
0C
FC
ED
F5
FD
FB
F2
00
0F
E8
EE
01
F5
11
EE
EC
D4
04
06
16
03
FB
F3
03
FC
ED
F2
E8
00
02
05
00
0D
FD
F9
FA
01
0D
FC
FC
FE
FC
F7
FD
FF
00
F4
F4
F4
04
01
03
F5
FB
FD
F4
EF
08
F8
F9
FE
FC
FE
FE
03
FE
F8
FF
00
FA
FC
00
00
FC
FC
01
01
FE
F8
FE
FE
FF
01
FF
FE
FE
02
F7
FD
FF
F6
FE
01
00
01
FF
03
FE
FC
00
00
02
FB
00
FD
00
02
FD
FC
FB
FC
03
FB
01
FF
03
FF
FC
00
FC
04
01
FE
03
FC
FB
03
FD
1A
0D
FF
01
F5
0C
F2
07
FB
02
DE
0D
07
00
04
08
05
01
FC
07
0F
0F
EF
0E
FE
02
0E
F9
D6
F5
F7
00
FC
02
FE
00
FC
03
01
00
FD
02
FF
01
02
00
00
03
FD
00
02
F8
00
04
FC
FC
02
FB
02
01
FB
03
FE
00
F6
01
FE
02
02
F8
F5
00
F9
03
F9
FD
04
FC
08
00
00
02
F9
FF
02
FA
FB
FF
02
01
08
01
FC
F8
FA
02
FD
15
0D
04
13
04
E8
F7
F9
F4
DF
0E
FE
07
15
D7
F9
00
16
F0
D6
00
03
AD
E4
E5
12
0F
01
09
F7
F2
06
05
FF
EA
F2
0A
01
FD
06
E1
FB
03
DE
0C
00
ED
C5
F3
FD
0A
00
FF
D3
F6
FA
FC
EB
0B
CE
08
DF
F2
02
FB
FE
FD
03
FD
FA
FD
02
FB
FF
FC
01
FD
FD
FF
01
04
FF
FF
FE
02
FA
FB
FC
00
FC
FE
01
FA
FD
01
04
01
FB
FB
02
05
02
FB
FB
FD
F7
FD
FA
FE
FE
F7
FC
FA
FF
02
FD
01
02
F7
FB
02
FC
FB
04
01
FA
FD
01
FA
02
FE
00
02
04
FA
FE
FB
05
FE
FC
FC
FB
FD
FC
FA
02
00
FB
00
00
FD
02
FF
FD
03
02
01
FF
03
03
02
F6
00
FF
FD
F6
F4
FD
F5
F6
FE
F6
02
F5
F9
E7
FF
06
FE
00
FE
00
F8
F6
05
02
FE
FE
FD
00
FF
01
F9
FE
FC
FE
00
F9
FE
00
FB
FA
02
01
FB
FE
04
04
01
FD
FB
FD
FE
FB
FE
03
01
FA
FE
FB
FD
FD
03
F9
EC
03
FF
04
04
F9
FC
0A
FD
FC
F9
13
02
00
17
F6
0A
E5
01
00
04
FE
02
11
00
FA
FD
04
03
F6
FA
03
00
FA
03
FA
00
FD
FE
F8
FC
FB
00
FE
FF
F9
FF
04
FE
FD
FD
04
F9
00
FE
FC
04
00
FD
FA
F7
00
FB
03
FD
FE
FB
F9
06
00
FE
F9
FD
03
01
ED
00
F9
F8
03
01
00
00
FD
FC
06
FB
FB
00
FE
FF
07
F9
02
FA
02
00
04
FC
02
FC
04
FB
01
FE
FC
FA
FE
FD
00
FC
FB
02
00
FD
02
FD
02
02
00
FB
FB
FB
FB
FD
04
01
07
FE
08
0C
F1
09
F2
0A
0D
EE
ED
03
08
F3
F6
F6
0C
F9
F5
02
0A
03
FC
03
15
F8
E1
DB
FF
FF
06
05
F5
FE
03
FD
FA
FA
F5
05
FA
F0
F6
EF
0A
FE
F9
F8
02
FB
F9
FA
FD
06
FE
FD
04
F7
F8
FA
F2
FE
F6
FF
FF
F5
FA
F9
F4
FC
ED
09
FB
F1
F7
EC
06
FD
FD
FB
0F
01
F7
F9
03
F3
05
03
06
F9
EE
ED
F8
EE
FD
EE
FC
FE
F4
F8
FF
00
00
FB
FE
FA
FE
01
FB
FA
FE
FB
00
00
FE
FC
03
FF
FD
F9
02
FE
F8
FD
F6
FF
FD
F9
07
07
E5
FA
03
09
E4
09
0C
FE
E6
06
FE
10
FA
F8
E5
00
06
1C
0B
FC
F9
0B
FD
F2
1B
01
F2
0A
FA
FF
F9
F5
FC
03
FB
FD
02
FF
FC
FA
F3
FB
03
F8
F3
EE
06
FF
F2
FA
EA
03
F2
F4
04
FB
F8
E3
06
F3
FD
01
F2
F9
F4
FD
FA
FD
FD
FE
FF
FC
FA
F3
04
F8
01
07
F1
02
01
01
FB
05
02
05
F3
FB
02
FC
FD
FF
FC
03
17
0B
01
0D
06
02
F2
FF
F9
FE
0E
F3
E7
FE
F8
0D
09
FD
09
E1
F6
E4
20
08
F0
FB
FD
FC
04
02
0A
05
FF
11
12
13
0A
05
01
08
F5
FF
12
E7
F7
F3
08
FB
08
FD
03
CA
DA
F8
01
FE
EC
FA
FA
FD
08
05
0E
09
FC
FF
00
FD
05
FF
FE
FF
02
F9
FD
FE
FD
F8
00
F8
01
F7
01
FC
FB
03
01
F9
FE
FB
F8
FF
FB
FA
FA
02
00
FB
F7
FB
FD
05
01
01
FE
EF
F7
FB
FD
FE
F7
F6
FE
FF
03
FF
F9
02
02
FA
F9
03
F7
FA
FE
FF
FC
F9
03
FD
FE
FB
FD
FD
FD
02
00
02
FD
FA
03
00
02
02
FD
FF
FC
01
FD
04
03
02
FF
FF
FD
04
01
04
00
01
09
01
04
07
FB
0B
FE
03
F4
F9
06
FC
F0
FE
FB
01
FB
06
FA
F3
FA
F5
F8
FC
FB
F7
F9
F8
00
FD
0F
04
0B
FC
F9
FE
02
04
FE
00
FC
FB
FA
02
FA
FD
F0
04
FA
03
FF
FB
F9
F9
FE
FB
F3
05
06
F8
FD
F6
FE
FB
00
FC
FC
FC
FD
00
FB
FF
01
00
00
02
00
FC
FC
02
02
FB
00
00
FB
FE
03
02
FF
FE
01
03
FE
FA
FD
05
F6
C6
FA
C3
DE
F3
08
F3
05
FE
FB
DC
02
CB
FB
F7
F9
F9
EF
05
EA
05
CE
D2
F8
FA
F7
10
09
F8
01
F4
03
04
FF
FE
00
03
FC
FF
FE
FF
FA
FE
F5
FF
FF
06
FE
FE
FF
00
FE
01
03
FF
F0
FE
04
FD
FE
F6
00
FC
FC
01
FB
01
FA
02
FB
FF
03
FF
F9
F9
03
02
FB
FE
02
01
FA
FD
00
FF
F9
FD
02
FF
F7
01
FB
FF
FA
F9
D9
10
F6
03
11
DB
FD
DE
FE
F5
E0
04
E4
F7
FB
15
FA
EB
06
03
06
F4
F6
07
DA
01
FB
F6
F6
08
0A
E4
FE
01
FE
FF
02
FD
04
00
F6
FD
04
FE
FA
F6
FE
FF
F7
00
03
F3
F6
01
06
FB
EA
FD
FC
FC
FD
F9
F4
FC
0A
FE
04
0E
00
00
EB
11
07
F6
EC
04
FF
F4
06
F7
13
FD
05
02
07
11
FD
04
14
F6
EA
DB
F0
FB
14
01
03
FA
E1
F4
F8
04
08
04
01
E6
D7
02
FD
07
F8
F4
04
FB
FA
07
E4
F9
08
EA
FE
0A
ED
EB
0C
F6
F5
F2
00
FC
11
0D
ED
F6
FD
0B
FF
FF
06
05
07
EE
05
FB
2A
F6
F8
FD
0B
03
24
03
13
D9
FE
E0
F5
F9
00
11
FC
FF
0C
07
06
FD
15
03
0B
DA
13
D8
0A
F9
FA
0C
07
02
FE
00
F2
F0
F0
08
0E
0D
24
F4
00
05
E5
FB
0C
FF
F8
FB
01
09
03
F6
F4
F6
FB
02
EF
FC
FF
FC
F1
07
03
FF
FE
FA
FA
EF
F6
0F
04
FB
03
F9
F9
F7
01
E3
DB
EC
08
0A
0C
00
FF
FD
E9
06
F2
05
FF
F8
F6
FE
0A
04
F7
08
F9
E9
F7
0A
F5
FD
08
02
02
E9
08
02
F9
FF
01
03
03
FA
FF
00
00
FC
FD
FD
FD
07
03
FD
FD
FA
00
F7
FE
04
FD
02
03
00
FD
FA
FC
00
EF
02
F7
F9
F5
F6
F5
0F
17
D8
DD
FA
0B
04
FE
F5
FD
00
01
0A
04
09
10
00
12
ED
DE
EC
02
09
00
07
FC
FB
FC
FF
FB
F9
FE
F8
FE
03
02
F9
FC
01
01
03
EF
FA
00
03
FB
FE
FA
F9
F7
FF
02
FF
F6
FE
FC
00
08
FF
EF
FF
FC
06
01
03
F1
F8
00
00
F4
04
FB
FE
F7
05
03
FA
FA
FC
FB
EE
F1
09
02
00
FC
FE
01
F6
D9
00
FD
F6
F0
ED
0B
EA
FF
F0
0B
F0
06
FA
01
FF
DB
E0
FA
08
05
FC
ED
01
FD
12
06
07
FC
0A
F5
FA
02
02
11
09
03
FA
05
F3
F9
F9
18
F4
06
F3
00
E6
07
03
FF
DB
F5
F6
0A
FF
00
18
F1
E7
09
FA
0A
08
FA
FE
F5
F6
00
FE
F7
FD
FC
FB
F7
FD
02
FF
F9
FC
00
F6
03
FC
FE
00
FC
FA
F5
FB
F8
FD
FD
FC
FD
F9
FC
FE
FE
FC
07
FE
FF
04
FD
FB
F1
FF
06
FA
FD
FA
05
01
FE
FC
FD
04
FB
FB
01
02
F5
F3
FE
FA
01
04
01
00
02
04
FE
02
F3
FC
FF
03
F9
FA
F3
FF
FE
FF
F3
06
FE
FD
FE
00
02
FC
F3
FD
0D
07
F6
FD
FE
01
00
FB
FF
FB
05
FD
FC
FC
FE
F8
01
FE
FD
FF
FF
00
F9
FF
01
FB
FC
01
02
01
00
01
FD
FD
05
F8
00
FD
03
FB
FF
FE
05
03
F8
FD
FA
01
F8
FE
F7
F9
FE
04
FD
FC
FF
FE
FF
03
FA
01
F8
04
04
FA
F8
F6
F9
FC
0A
0C
0D
14
09
0F
E9
F1
F7
FE
0A
F5
02
F9
01
F5
E5
08
06
D2
FA
07
0D
E8
E8
F6
FD
F7
07
02
00
10
02
FD
01
FD
FF
05
FB
FF
02
FA
FE
F8
00
00
F9
FE
F7
03
FC
FF
FB
02
FA
03
FC
FF
08
03
FA
FE
FA
FD
FB
03
FF
01
FD
FB
FA
FF
FF
FA
02
00
F9
F7
FD
FB
FE
00
01
FD
FF
FD
FF
FA
F6
01
07
02
00
01
FD
03
03
00
FB
01
02
FB
FB
FB
FA
FB
01
FD
04
FB
FF
FB
04
F9
FE
00
03
01
FF
FF
00
FF
FF
01
00
00
FE
FD
00
01
02
01
FB
02
00
FA
FE
04
FE
04
FF
FD
05
03
FB
01
FF
FF
01
02
05
04
FD
00
FC
02
FD
04
04
04
EF
03
0C
0C
01
F7
F2
F9
04
01
03
EE
0A
F1
1C
15
F4
FE
08
F9
03
10
F3
12
00
F2
18
FF
FD
02
02
0D
04
FE
03
FD
FE
FE
FC
04
FA
FD
FB
03
FC
03
FF
03
FC
03
02
00
04
FF
FB
04
FC
FB
02
01
01
FB
04
FD
FE
FE
01
F7
FA
FA
01
01
FC
F6
FD
FA
FD
FD
FA
FF
FD
FE
F9
FC
FD
01
FE
F8
F6
00
F8
F6
FD
FE
FE
F8
08
07
E8
F5
F9
00
0E
08
10
DE
E7
FD
F6
09
FA
FC
EC
0D
F1
0D
EF
F5
FF
E5
00
FA
F2
EA
FE
0D
F7
DD
F0
02
12
0B
FC
0F
15
04
F5
FD
28
E7
03
FD
02
FA
0B
1D
F7
D3
E8
04
FA
0E
FC
03
FF
F4
04
F3
FA
FF
07
FD
F7
FE
03
07
FC
F8
00
FC
F4
00
00
00
FA
02
04
FE
02
06
FE
FE
FD
FE
01
07
FD
04
F9
FD
00
FD
FC
05
FD
02
F4
FB
E1
FA
09
EF
F1
FF
FC
02
0D
FE
EF
09
F8
06
01
05
EB
02
FD
F3
F0
EA
FC
09
14
03
0F
12
00
FE
EF
19
FC
04
07
F5
EF
EE
ED
0B
FA
E0
E6
05
EF
07
EA
FF
F6
CB
E3
E8
F5
E1
0C
10
ED
F6
FC
FE
FE
FF
FF
FE
00
03
FF
FD
FF
FF
F6
FF
F9
00
F7
FD
01
FF
FB
FC
FA
F9
F6
05
05
FC
FE
F9
FB
01
E7
01
10
06
06
E9
08
F3
F8
F6
1C
F1
03
E9
F9
D5
0A
04
00
DA
EB
FF
FB
F9
FB
F9
F9
F0
0A
F3
04
06
F7
02
FB
FA
0A
FB
0F
0B
F9
FA
02
FF
06
11
D0
C1
08
F9
F7
F2
ED
0D
01
FA
06
F7
F4
FA
0C
EF
D8
F9
EB
02
10
19
F9
FA
0A
00
F9
F5
21
F5
06
F9
06
FE
08
FC
01
C7
ED
11
F5
FC
02
0D
FD
E9
07
FB
FE
01
EA
F3
0F
04
FA
EF
0B
FC
F0
0D
00
08
0C
F2
FD
F7
32
ED
FC
F3
06
12
FA
FD
0F
1D
0C
0E
FF
FA
02
05
00
FB
FB
FC
FD
FB
02
00
FE
FC
01
01
00
01
F7
00
04
FE
02
01
F7
FF
FA
FE
FF
FF
F3
F7
03
FB
FE
FF
FC
FD
00
F0
F1
F0
F6
FA
FF
FB
E5
F2
FF
FB
FD
02
F1
F4
EF
F5
F5
06
03
F4
FF
FB
FE
02
F4
03
F2
EB
10
07
EE
02
F8
13
FC
F8
F7
0E
F9
FE
FA
00
06
12
DF
02
FD
F8
00
0A
06
05
EB
10
1A
06
F7
FE
F9
02
0A
03
05
08
F9
08
FD
05
ED
FE
FC
F6
F2
01
F3
FB
F9
07
FD
F2
FC
F4
FF
F9
FD
FE
04
F6
FD
FF
07
FF
E6
FE
04
F7
FB
EF
0D
FB
0C
DE
F3
EF
05
03
F4
01
FF
03
04
FF
E6
02
15
F7
07
FE
D9
F8
13
0F
FB
F8
F8
FC
FF
FD
FB
F2
FE
F4
F8
00
EB
ED
F8
FD
F7
04
FB
FD
0B
00
ED
FE
17
FF
E0
FB
15
0D
01
F9
00
FC
02
FC
FA
F6
04
0B
07
FD
F5
F5
08
F8
F9
04
FC
FD
F7
FB
05
FD
EF
FE
0A
F8
F2
05
01
F9
05
F2
F5
F6
EF
FC
FB
FA
FD
F7
EB
FF
FF
FA
FB
F8
FA
FE
F9
FA
01
FE
FA
00
FE
FF
F5
FE
08
05
FF
01
F4
FB
F9
F9
F8
02
FE
02
02
FE
F9
FB
FD
FC
00
F5
FF
FE
FC
05
F8
FF
FE
FC
00
06
FC
FE
FD
02
FF
FD
F7
01
FF
FE
07
02
FC
FF
FA
FF
FA
FE
00
F6
F2
FB
01
FE
FC
FE
F2
04
F9
FD
FD
03
FB
03
F9
FD
F6
F4
FD
F7
06
FC
00
0A
10
11
0C
0A
05
08
F0
FD
23
E6
EF
F4
00
04
14
10
04
D0
F1
05
EF
06
F2
DE
FC
E9
06
02
09
07
04
FD
06
0C
F5
04
EE
05
08
DE
F8
01
FC
FC
FF
F5
0B
06
02
04
02
0E
F7
FF
0A
F9
ED
D2
F7
01
0B
00
0F
F6
F1
F9
01
FD
F5
0C
10
E2
ED
FB
F6
06
E4
E5
D6
FB
04
17
FF
08
18
F7
04
F1
EA
EB
03
07
FD
04
D2
09
D8
01
0D
C0
E6
D8
04
01
ED
E2
DF
F1
FE
E3
F0
DA
0A
0F
FE
E9
E7
E4
CA
00
08
FD
03
01
FE
F4
02
FC
F8
F7
FD
04
00
03
FE
F5
F6
F9
F8
04
00
00
E6
FE
FB
00
F8
FC
FF
F8
F1
FD
F2
01
FD
00
F0
F9
E8
0A
FD
F9
E6
D6
2C
FF
04
E0
FD
01
F5
11
19
07
BA
E2
1E
0C
FE
FC
D6
FD
00
13
CA
05
F9
06
BB
FC
FE
FC
FF
03
01
01
FE
FA
FD
05
FC
FC
FB
02
FE
FD
01
FA
04
FE
FC
FD
FF
FE
FF
FC
02
FF
00
02
03
FF
02
FA
FA
FA
FE
03
04
FC
FB
F4
01
F8
FC
FC
F8
FA
F7
FC
FB
FB
FC
01
FF
F9
F7
04
FD
FE
00
FD
FB
FF
07
FD
F6
F4
FC
F6
FC
06
11
DB
ED
01
FD
0B
F8
E9
D9
F5
FA
14
02
07
FE
F2
0C
EC
EA
E9
03
09
FC
FB
F6
FB
FB
FE
F7
F9
FE
FB
01
07
FE
F8
00
FD
0A
03
00
FA
FD
FF
00
FD
FC
08
FF
F9
FE
07
FD
03
F9
00
FE
05
F9
09
FE
FE
EB
FE
05
F1
E3
06
FD
F8
00
F8
0B
F9
F8
FB
04
08
FD
F7
07
F2
E5
D6
EF
F6
08
09
0B
0D
0D
11
FB
06
04
04
FC
F1
0C
E4
F3
0C
F8
FC
FE
12
FC
F7
F8
FE
02
FE
FD
EF
F9
E4
01
09
00
08
06
F9
01
FE
03
FE
00
FD
FF
FF
F8
FC
03
FE
FE
01
FA
FC
FE
04
03
FB
03
03
02
04
01
00
03
F9
02
FE
FB
FD
02
FD
02
FF
00
FD
FC
04
01
FC
02
FC
02
04
FD
FF
FD
03
FD
FB
FE
FB
02
01
02
FC
00
FF
FE
02
FE
FD
F9
FD
FC
05
01
FD
FB
02
FC
FB
FD
FE
FE
03
FF
FC
00
F9
00
02
FE
02
FD
FC
FF
FE
00
01
FB
03
0F
01
EA
FA
F9
03
ED
F9
0B
F1
E7
03
02
15
F8
FE
CF
01
03
17
01
0D
F1
05
FB
E4
F5
EF
F6
07
06
01
06
01
03
04
F8
07
FC
04
F2
FE
01
FF
FA
FC
FB
01
F7
04
00
FC
F8
FF
00
FE
FD
FF
FB
F7
FA
FD
04
00
04
02
FB
03
F5
06
FD
02
F6
08
00
FC
FA
FD
03
05
00
FB
F9
FB
FF
F2
01
01
F9
FC
FB
03
FF
F8
00
FA
06
04
FF
03
FE
0B
02
FF
F6
FF
05
F8
FA
05
F4
F3
F6
05
01
FF
FE
F9
04
F8
FD
02
FF
FA
F8
01
07
00
0A
03
FE
FC
FD
0E
F6
03
F7
FF
F0
FF
F8
02
FB
09
FC
07
08
FB
FA
F9
05
EE
F9
04
F9
F8
FB
FC
00
FE
03
04
FC
FD
F9
0E
FC
04
F2
FE
DD
04
DD
08
FC
F7
E3
0B
FF
07
F1
FD
F7
D6
F2
05
FA
F3
07
02
00
FD
F9
0F
1A
0C
08
FF
12
FF
F3
07
24
F9
03
ED
03
F4
07
04
05
C1
E4
FF
04
F2
F7
FE
04
EE
09
FD
11
01
FD
FD
FD
01
02
F7
FD
FA
FB
04
FB
00
FC
FC
FC
02
FB
03
02
FC
03
FB
F8
02
FA
FD
F9
F8
FB
F7
01
FD
F7
FD
03
F9
F9
F6
FD
F9
F9
FB
08
FD
03
F4
FC
F4
00
F4
FC
F7
F9
FE
FC
F8
FC
FC
F1
F7
FE
FA
FC
FE
03
0E
14
12
09
0F
0B
07
EF
FA
18
E7
FC
FE
F1
0B
0C
04
07
CD
E8
0D
04
03
F1
EE
FD
F2
06
F9
0C
08
FD
01
FE
FB
FE
01
03
F7
F6
FB
03
F6
03
F9
F8
0A
F3
00
FF
F3
F2
0A
FE
03
F0
F3
FA
FD
F0
01
FE
FD
FE
FE
FE
01
FB
FC
FE
01
FC
FF
03
FF
02
FD
FC
02
FC
FE
02
FB
00
01
03
04
FC
FF
FC
FC
FE
02
FC
01
FD
FE
02
07
FF
05
FE
03
F5
06
04
F6
00
FB
0E
07
FE
06
02
FA
FB
FB
FB
00
FC
FB
0A
02
04
FA
FB
00
FE
01
06
03
FF
07
FF
FE
FA
02
F4
FE
03
FC
00
FF
02
01
03
FA
00
FF
FA
05
03
03
05
FC
F5
FE
FF
04
FF
FB
F2
00
FD
FC
EF
FD
F9
FE
FE
05
03
FB
F9
F9
01
FB
FE
02
F7
04
F6
FC
FE
FE
0A
06
F9
ED
F9
00
01
0B
02
12
0F
F0
0D
ED
F2
FB
21
E2
F5
E4
07
FE
06
0B
11
D5
EE
02
06
FD
F5
FC
FF
EC
03
F1
0F
05
FA
F4
F5
F0
F9
F4
F8
E8
FD
01
FD
0B
F3
EF
EB
EB
0B
F8
FA
FC
F4
00
FF
F0
FF
08
FA
02
02
D6
F4
EB
04
03
FF
00
FF
0D
F5
FC
FA
FC
EE
04
FF
00
01
FC
FB
01
FD
F9
07
F9
F8
03
FB
05
00
F8
E7
FD
FD
F7
F7
01
FA
F6
FE
FA
06
F7
FE
FB
F3
FE
FD
FB
F6
FB
F8
02
F9
00
F9
00
FD
F7
FF
01
F2
F4
03
FC
FC
FF
00
FE
FE
01
00
00
00
00
04
02
F5
FF
FB
FD
FB
01
F4
01
FF
01
FD
02
F9
FB
FA
FE
FC
FB
04
FF
01
02
E1
F8
02
03
F3
E9
15
FB
0B
E2
05
EE
FF
FF
F3
F7
03
FA
09
FA
ED
05
14
F4
06
F0
CB
FB
23
08
FB
06
E6
08
01
FA
F2
00
12
F5
01
FB
13
E5
FD
EF
09
02
F9
F9
03
F2
06
F8
06
0A
04
FF
FA
03
F9
00
FB
EF
13
04
FF
01
F5
0B
F1
F5
E3
19
E8
07
FA
F7
0D
12
FE
05
EC
F1
FE
F7
FA
0A
EC
17
0C
04
F6
FD
12
05
FB
FB
00
F9
03
FA
FC
00
FC
FC
F8
F7
03
F8
FA
F6
04
F6
FB
FB
F8
01
FB
F6
07
00
F8
F8
FF
02
F8
FC
04
FA
FF
01
FD
F9
02
FD
FC
FD
F9
00
FB
F8
FC
FD
F6
03
FE
FF
F9
02
05
00
F5
FC
04
04
FF
00
FD
FB
F5
EC
F3
F9
FF
EC
F6
02
0D
E0
F3
01
08
07
F2
F4
D4
FE
0C
17
0C
14
09
FA
07
E7
E5
EC
FD
FE
06
06
F7
F9
00
F7
01
FE
05
F8
FB
FE
04
FA
01
FB
F9
FB
FC
F6
FE
F7
F8
FE
05
F6
FD
FF
F7
F1
00
F4
01
F8
01
FF
FF
FC
F9
06
FD
01
FA
FA
FE
FE
03
FD
FE
00
FF
F9
01
F9
FF
F9
00
03
FE
02
02
FB
FB
FE
05
FD
FB
01
FB
FC
01
FD
00
01
04
FE
02
01
01
FD
FD
03
FE
FC
04
FD
02
FD
FE
03
FD
FF
FC
02
01
FB
FF
00
FD
FC
FB
FB
FF
00
05
FD
F9
FA
01
FC
FA
02
FE
FA
F8
F9
FB
00
FE
FB
03
FA
F8
FD
FD
FD
03
01
F5
FC
12
0E
F8
05
E5
0F
F5
05
00
D8
D4
11
DF
12
E9
FE
FB
0F
EF
0E
02
FA
DB
ED
FF
FC
E8
D3
F8
09
16
02
01
04
FE
04
02
FF
FF
03
FC
FE
FB
02
03
FD
00
FD
FE
00
01
FF
FD
04
02
FD
FE
FD
00
FF
04
02
FE
02
F2
FB
EE
FD
FD
EC
F8
FA
08
EE
E8
FB
01
0A
F8
09
D7
FD
FE
10
03
0D
F2
0E
00
FE
E7
E0
F9
03
0A
03
F3
11
12
06
08
FB
0D
FB
EF
FC
18
F3
FF
F3
08
FF
00
05
FD
CC
E7
05
0F
FE
E8
FD
F8
F2
05
FC
01
06
01
FC
FE
FA
04
FC
01
04
04
F1
F3
F8
FE
04
F7
FD
FF
FB
00
FF
FB
FA
00
00
FF
FD
F7
FB
FC
FE
FB
00
05
05
05
13
0E
00
09
F4
E7
02
1B
FB
E5
F8
FA
F4
02
02
0F
D7
FD
FE
DC
F3
F0
F2
03
EE
FA
07
13
10
E0
FF
12
F1
FD
F3
03
EF
06
F8
ED
F8
05
F7
F0
F3
E5
EF
ED
F8
E6
0E
18
E5
F8
FA
E7
F0
03
03
E6
FF
EF
FD
06
F5
F9
F5
04
F5
04
FB
FC
F1
04
00
FD
FC
F3
FB
F0
FF
F3
01
05
FA
F6
00
EE
F1
03
04
E9
F6
00
00
FB
01
01
FE
FC
01
02
FF
F7
01
FE
FE
FC
02
F9
04
00
FD
FF
FA
F8
FC
FE
02
F9
F8
FB
F9
07
FB
EC
06
F7
F6
06
F8
F6
F4
FA
08
E7
F6
0C
EE
0A
0D
DA
FF
FD
F7
F9
0C
FB
10
F8
04
FB
0A
E8
01
F2
EB
EE
01
05
0D
02
F1
FD
FA
11
07
FE
F9
05
F9
15
F6
FF
FA
06
08
06
00
00
04
0A
F6
ED
FA
04
0D
03
07
FB
FC
FB
FA
FF
FC
F6
FF
02
F9
FD
FF
02
02
F4
F6
FD
F9
FD
FD
02
02
F8
FB
FE
F5
FB
03
FC
FE
00
FC
FE
03
FB
00
01
FE
01
FE
FE
FF
FD
01
FC
FC
03
00
FD
FF
03
03
03
02
03
FD
FB
00
FD
00
FC
FE
FF
02
00
07
06
FD
EF
05
D4
09
06
FC
F6
08
09
F4
00
F1
14
F9
EF
01
FD
F8
07
F9
09
E7
EB
D7
F1
ED
01
F9
01
04
02
FE
01
FB
03
FD
FC
FE
02
FF
01
03
04
02
02
FE
02
FB
FE
FF
01
01
01
04
FB
FF
02
FD
FE
01
F1
FF
08
FC
F6
F6
0F
FB
FE
F8
1B
F9
F5
EA
F4
0A
07
F2
EE
E9
02
09
EF
00
03
F7
FC
F5
FF
FC
11
09
FF
FE
F9
FC
FD
00
FB
FD
FD
FA
FE
04
FB
FE
FC
FC
FE
05
FD
03
00
FC
FE
FC
FC
FE
03
FB
FB
F7
00
02
06
06
09
03
FE
03
01
FF
F4
F7
F4
FE
FD
00
FD
F9
FC
02
02
FD
FB
F4
F9
FF
FE
02
08
F8
ED
F9
08
FF
F0
FC
F4
FB
FB
E7
FB
06
15
E5
EC
FB
06
02
FC
F6
E1
F3
04
0E
FD
00
F5
05
0F
EF
E3
F4
05
0C
F9
02
FE
FB
F7
FD
FF
FF
04
03
03
FF
F1
FB
00
F9
02
FD
FE
FD
01
FF
FB
01
03
FB
04
FC
FD
FD
00
F8
FD
03
ED
FA
FD
FA
FA
F7
0A
FF
F7
FD
F6
07
F5
F1
04
FA
03
FA
FB
FD
FC
FA
06
F4
F3
FF
F9
F9
FC
DA
01
FB
03
04
EF
EB
04
09
1C
FB
05
F4
02
FA
FE
11
14
1E
B6
0C
0C
0B
FA
0D
F1
02
E4
25
0B
1A
FF
0F
E4
E5
FF
0A
F5
FA
03
06
FE
08
0A
02
EC
EA
F6
07
0C
FD
DA
0E
05
0A
FA
FC
F7
FE
F6
DF
07
FC
FD
06
F8
07
17
04
F4
FC
0A
14
FE
03
F8
F9
F5
FB
F2
01
F9
F3
E8
09
02
01
F4
04
04
DF
ED
03
FA
FB
F8
01
01
FD
FC
01
FA
00
FD
FA
F1
03
F8
FC
E9
FB
FE
FC
FD
FD
08
FB
01
F8
04
00
F3
FE
00
F9
FF
03
F8
FE
FE
FD
F5
00
00
04
F3
F7
F2
09
15
D9
EF
FD
08
07
F3
EC
F4
05
FA
0C
07
FA
EF
00
10
F0
E1
F6
FF
09
FF
02
F5
F6
F2
FC
00
F1
FA
FB
0B
E3
FA
FA
07
0E
F3
F9
D4
F8
07
08
F8
12
05
04
F7
E3
EC
EE
F9
04
F1
01
24
09
FE
FB
F2
11
F5
00
FA
FE
F8
14
FD
FE
0A
F4
05
09
EC
03
17
12
EC
09
01
04
32
06
C3
F5
17
FD
0F
DC
04
07
01
F7
07
FA
09
03
06
F1
F6
EE
F9
DE
0F
FF
F2
FB
08
0D
F2
FE
12
F9
EB
F8
02
00
F5
FE
0C
FD
F7
FC
FD
09
FE
FD
F1
02
FB
F2
F8
FC
01
0B
F4
03
00
F6
FF
FB
0C
FE
EB
06
0D
FF
01
F9
0C
FA
F7
10
14
07
0A
FC
08
FB
F6
00
14
EB
FF
F4
F3
FD
09
00
04
CB
E4
F9
0C
02
E6
F4
EB
F9
0B
04
09
FF
FF
03
FF
01
02
FE
02
FF
01
01
FD
FB
FE
FF
02
01
01
00
00
03
02
FE
01
FD
02
FF
03
02
FC
FF
01
FF
00
FC
04
FD
FE
FC
04
FD
FC
FB
FE
FE
00
FE
FC
FF
05
FE
04
02
FF
02
FF
01
02
FD
01
03
02
04
03
FC
EB
ED
15
06
F5
F9
00
0B
F0
16
DD
0A
0A
F5
FF
EC
33
E2
E5
ED
0D
1D
05
F5
11
18
03
05
01
FC
FF
0C
02
00
FE
FE
03
01
FB
01
FD
02
01
01
FB
FC
01
02
FC
FB
FC
FD
FE
FD
00
FC
FF
FE
FC
FB
01
00
FE
02
0D
06
12
0C
10
1C
08
01
F3
E1
16
E7
FC
F4
DD
0D
06
00
06
CE
E6
02
0F
F7
EE
E5
F6
F6
01
FF
04
09
E9
F5
CE
E6
FA
AF
03
DF
06
F8
F7
DB
FE
DF
01
F3
F6
F8
FA
00
CA
0E
05
F6
F3
02
D3
E1
05
F2
F4
F6
0D
04
FF
FE
FB
04
01
02
FC
F7
FD
FB
F8
03
F9
03
F8
04
FC
FC
F7
FA
01
FE
F1
05
02
F9
F7
FF
02
FB
EC
0C
F0
F2
03
F4
0B
FA
06
F3
DC
FC
FA
13
F7
0E
B6
01
10
0F
FB
07
08
05
F3
15
F9
04
05
16
E8
ED
E3
D6
12
0D
E4
E9
03
F1
FA
F6
1E
F3
ED
CB
FB
F9
0A
F1
F3
E2
FB
FF
00
F5
FE
FE
03
E7
03
E3
05
0B
F0
03
10
FD
11
0D
EC
EA
FB
FA
08
F7
0A
EA
04
E1
F7
FB
08
E1
0B
01
10
DD
E9
FC
F7
E5
06
07
F8
00
03
01
02
04
00
FB
FB
03
FB
FB
FB
FC
FA
01
02
FE
04
FE
02
FE
FD
01
FF
04
FD
02
FE
FC
00
04
FF
FE
F0
EF
ED
FB
02
E5
F0
05
03
03
CD
05
F8
0A
F4
E2
FE
DA
01
04
FF
F1
10
F3
FF
02
FE
17
F5
FE
F7
FE
16
F2
F2
FC
FD
F3
FE
05
0F
DA
EF
FE
FA
02
F1
FC
E2
03
07
1E
0D
0F
04
FB
03
F1
DC
D7
FC
FF
0F
06
0C
16
10
0E
04
1A
04
FC
F3
F7
16
EE
F6
FC
E9
01
05
01
03
C5
DC
FE
07
00
F1
E3
00
EA
08
01
05
07
0C
FD
11
ED
FD
18
14
06
F8
0E
20
E9
F3
FC
0C
1B
0A
02
FF
F2
F1
E5
0F
0F
EC
08
0A
0B
F8
FD
CB
DB
EC
F8
08
FA
E3
FC
07
F9
08
F7
FD
F1
0F
F9
FB
F5
05
00
E5
01
D7
0F
EA
FE
04
00
E6
EA
FD
01
E0
F8
F5
05
05
09
10
05
D3
FD
FE
0E
07
F9
0E
F7
2B
1E
05
F8
16
F7
06
09
F6
18
F9
FA
0A
09
D9
00
03
03
F6
F8
F1
F4
F7
F1
D2
0E
F9
09
E2
0F
08
F9
FA
FB
14
FD
02
FE
0E
F3
01
05
0B
E6
08
F5
F6
F9
F7
02
FC
01
FF
FE
04
EF
FE
FB
00
01
FB
FE
F9
F9
F9
FB
FD
FB
02
FA
FF
02
00
FE
F7
04
00
FD
02
F9
FB
FD
04
00
FD
FD
03
FC
04
00
FE
02
03
FB
FD
01
00
FC
01
04
04
FE
03
FB
04
02
FC
03
FE
00
03
FE
FD
FB
19
E3
0D
0D
03
1E
02
02
E3
0B
0F
12
B3
E5
0C
ED
DA
F0
0F
DB
0F
FB
F4
F9
FB
0E
FF
FE
FF
E2
1F
0E
FE
00
00
FB
FC
03
00
03
02
FF
FD
FF
03
FE
04
FE
02
FD
01
FB
FE
FD
FE
00
04
FF
00
FA
FB
FC
00
02
1A
FC
F6
FA
FC
0A
F8
06
F7
05
D7
12
04
02
09
07
06
F9
F4
00
0E
0B
F3
10
FE
03
04
00
D1
F7
FF
01
F5
FB
FF
F6
F7
F4
F5
FC
FA
FD
F4
FA
F8
FA
FB
FC
FB
FA
F5
FF
F2
02
01
FC
F4
00
F8
F5
FE
F8
F1
00
00
FF
03
FF
FA
FF
03
FB
F9
FC
01
FD
FB
FC
01
FF
FD
00
03
EA
F5
FC
FB
FF
F9
04
FB
FB
00
F8
06
00
FF
EB
06
F6
F6
FE
18
04
FC
00
01
03
FC
F5
EC
F6
FA
E9
FE
F9
F7
FE
0F
09
F9
04
F0
F6
00
EF
05
F2
DD
F6
FE
FD
F6
EE
06
F9
0B
DF
FC
F1
01
04
F0
FD
01
F7
F5
FF
EC
08
07
F9
06
01
D7
F9
13
0C
07
04
0C
F6
ED
F5
F7
02
F1
FE
09
F4
F0
05
FB
0E
F6
0B
D2
F9
FD
15
07
03
01
10
F5
EF
F8
EB
F3
01
F9
01
FD
EB
F0
FC
FF
F1
01
06
04
EA
E3
F9
0E
10
F8
FC
E5
F6
02
14
FD
08
05
01
F9
F7
E6
E3
F7
FF
F5
F9
FF
FD
F9
01
00
FB
FC
02
F9
F7
F7
00
F9
01
FA
FF
01
FD
03
FE
02
01
FE
FE
FE
01
02
F9
F7
EF
02
FD
05
FD
FE
F9
03
FE
F7
01
FD
01
F9
FC
FF
F8
F9
03
FE
04
FA
FF
FE
05
00
01
FB
FB
05
FC
F9
F3
02
02
2F
19
07
0A
C3
2C
E5
F8
03
F9
07
EF
0D
09
F2
C7
0E
27
9B
EC
FD
F0
F7
04
FD
FD
F7
EF
F9
08
F6
ED
19
11
01
00
F4
14
FE
F3
EF
18
F5
04
FB
FB
FB
16
F6
0A
D7
F6
04
07
EC
07
F0
17
19
0D
FB
F5
0D
03
05
FC
F7
06
FE
06
FA
00
09
ED
EF
FC
F4
F9
09
0F
D6
08
0A
12
01
F7
F9
03
FC
F7
02
E6
FE
01
0D
08
03
03
FD
03
FD
FD
03
FD
00
03
FD
00
FF
02
FB
FE
FE
FB
FB
02
02
00
02
03
FF
04
FF
00
02
03
03
FF
EA
F5
09
05
F3
F4
0B
08
0A
ED
FC
D8
19
0C
09
F5
FB
F4
D7
0A
D9
04
F1
1D
11
F4
DF
DB
0D
04
B7
FC
DF
01
E4
F8
02
E8
11
F6
0A
F3
F2
02
F9
05
1F
10
CF
F7
F6
06
F7
0B
DA
03
FD
F7
CF
07
FD
06
CE
FB
08
FB
01
05
D3
01
FF
01
EF
FF
16
0C
08
F4
00
F3
16
F9
F0
FB
07
F7
FC
FA
07
13
17
01
EC
E9
0E
17
F9
EE
F9
EF
F9
F2
F4
00
03
F4
EA
FF
F6
0E
ED
F6
E1
E9
E6
08
03
FF
09
02
FB
F8
FB
FD
EA
03
FC
FD
09
04
02
10
09
F9
08
03
FE
00
17
F4
EC
F8
1B
00
05
FE
0A
D7
E0
F9
33
0A
F2
F5
FB
F9
07
F4
11
07
A5
F7
06
EB
E8
B2
EF
ED
FE
DF
CD
D8
1E
E8
06
0E
1A
F5
BC
F2
04
0D
12
02
0C
2A
F3
F9
F0
00
E1
E9
FD
FB
F6
FA
01
FF
FB
F6
FE
EE
FB
F3
F4
F3
FA
03
F5
04
03
03
F4
FC
08
FA
F0
00
03
03
FE
ED
FA
F9
1A
05
09
08
04
0D
FB
09
EF
FB
F9
06
D9
09
E0
F7
FD
F5
FB
EE
FE
FD
0E
C9
F2
F3
EB
FB
04
FD
19
0A
FE
FB
FE
FE
03
FC
01
FC
FC
FF
01
FF
04
03
FF
01
02
FD
01
00
01
FF
FF
FE
FB
FC
03
01
FF
FB
FB
01
FF
FE
FE
FE
01
07
01
01
F8
00
F8
FF
F6
FE
FD
00
FD
02
00
FD
FF
FC
FC
F8
F9
04
05
01
FD
FD
FF
F8
F9
C4
DD
D7
F6
EC
F4
F4
FF
00
0E
EB
12
D8
F3
08
05
F9
E4
FB
03
0C
0B
08
05
FF
F2
FE
FA
F0
FA
F3
02
FD
F2
F9
00
FF
0B
FB
00
F4
F9
F1
FD
07
FC
F8
EA
00
00
FD
F7
05
FA
F8
F3
FD
F7
FC
FB
06
F6
F9
FF
00
F9
FA
02
04
02
FA
04
FE
FE
FD
FB
FF
FE
FC
FC
FE
FB
01
FC
04
00
FE
FF
02
01
01
01
FD
02
FF
08
06
F4
F8
06
03
F6
FC
05
EF
EE
04
02
08
06
03
DE
F9
01
10
08
02
FA
0E
FA
EC
EF
E4
FC
09
0A
FD
FF
FB
FE
FC
00
04
FF
01
FF
FD
F7
03
FB
FF
F6
FB
FF
FB
FD
03
FF
FE
F8
FF
FE
00
FF
07
FF
FB
FA
FC
F4
F3
E1
F5
FA
C7
06
FB
08
0F
EF
FF
EE
0C
EB
F1
00
F7
01
0E
FC
04
03
F1
F7
1A
D2
D7
04
FE
FA
01
00
EF
12
04
0F
07
06
05
FD
FB
18
01
00
F4
09
EA
22
E8
F1
F3
06
02
10
FA
15
FC
0D
F7
FE
F6
FC
0E
0C
04
07
06
FD
09
F0
01
F6
F2
F1
FE
FE
FD
F3
F4
00
F8
DD
FB
0B
FB
E6
07
05
04
FE
F3
D7
00
04
07
D5
F0
FB
02
04
E0
07
ED
09
E9
FC
FD
FB
FC
E5
F3
F2
F8
FD
03
01
01
E4
02
0A
F5
EE
F6
FA
FD
00
01
1A
0F
09
FF
FF
15
05
0C
E7
11
EF
F4
F7
08
04
06
FC
0D
F8
F4
F7
F4
20
F4
ED
0F
FA
06
0D
04
12
F9
00
FA
FE
FC
02
FC
03
FE
FA
FB
F7
00
FB
FF
F6
00
02
FE
FF
FF
FC
FF
FD
F5
FB
02
F3
F6
01
FF
FA
FD
F7
03
04
FE
03
FF
F9
02
FD
F9
FE
FB
01
01
FC
02
F9
00
02
FD
00
01
FB
02
01
FE
03
FC
F5
02
F8
FF
F9
FE
FE
FE
FC
F4
11
02
FD
00
FA
03
E5
FF
16
FD
FD
01
F0
FC
DF
FE
08
0C
F6
FE
00
F7
0B
DF
EF
F0
00
00
F2
E6
CC
0A
0B
F3
FE
F4
1E
F4
F8
0E
06
1C
B9
12
03
0B
FB
FB
E0
08
EB
27
08
1B
D7
08
F0
EC
FE
03
FD
FA
EA
F9
13
FC
02
E2
F9
F9
F4
03
F4
D7
C9
01
E4
0A
FB
02
DB
F2
FF
FF
F5
05
F4
0C
EF
09
F8
F9
FD
01
FB
FC
FC
01
FE
F4
FE
F9
FD
00
F8
F4
07
04
F7
F8
FB
01
F8
FA
02
FE
F5
F6
FD
FC
FE
04
FF
FB
F3
F0
01
02
EE
01
04
F0
F6
F9
FB
FF
02
FD
E9
00
03
04
F6
02
02
FD
FA
F2
F3
F7
F5
01
F2
00
F1
FF
01
FC
F6
F6
03
FB
FB
F8
04
F6
00
FC
FD
FC
EC
01
F6
FD
FE
FA
EF
FC
FD
FF
F8
03
01
02
EE
FC
14
0A
06
FD
F1
0A
F0
07
09
E1
F1
F7
E4
0D
DE
DD
D8
06
F0
08
ED
07
F7
C7
F0
E9
EE
06
03
0B
E3
05
F9
02
05
05
FE
FD
FB
FC
FA
FD
FE
01
F8
FC
F9
02
F8
FF
FF
FE
00
FE
F9
FE
F7
FC
0D
01
F8
FB
01
04
F4
CB
05
E2
FF
04
0F
05
04
F3
F6
E9
F4
FB
0F
FC
02
E7
FB
FE
EF
FC
0D
FF
FF
FC
E0
F4
F9
FC
F6
E2
05
FC
F4
FC
FC
05
01
FA
FB
02
FC
03
F9
01
FC
F9
FB
FD
01
FE
FB
F9
FA
FD
F6
FD
FA
FD
00
F9
05
00
04
FF
01
03
02
FD
FB
FB
FE
FC
FB
FF
01
02
FD
FF
FC
04
00
FC
FE
00
00
04
FE
FF
FC
FB
00
FD
FE
03
FD
13
0D
09
07
08
10
FC
F2
00
1D
EF
FD
ED
F1
04
09
FC
01
C5
E4
01
0E
FA
E4
F5
04
FF
07
FF
FE
05
F4
F1
06
F1
04
FF
FF
02
FE
E4
F1
F2
0C
FA
F4
F3
10
F7
F6
FB
07
19
E7
0C
07
F2
00
EB
F3
FE
E3
EF
06
02
FA
FD
F9
FE
EE
00
F7
F5
EA
07
02
FE
FE
FA
05
FB
F7
01
04
F7
F6
03
FD
F9
FC
F8
DB
FF
FA
FD
F2
FB
F2
ED
F6
F5
FA
FE
F5
F8
F8
01
F5
FD
F5
F4
01
FB
F8
FE
FC
F7
01
F8
FF
05
FA
F5
01
F4
F8
F1
E1
F4
0A
FF
E2
BA
01
E4
FD
05
01
F6
E4
F4
03
F7
F6
F7
DB
00
D7
F6
DC
E0
FD
FD
04
FC
0D
FD
DB
FA
00
03
FB
FD
05
03
FB
03
03
01
FD
05
02
FD
FD
00
03
03
FE
FF
02
03
FC
00
01
FE
01
FE
01
03
FC
FF
F7
FF
FF
F0
04
F2
F5
FC
F8
F6
EF
00
03
F9
F5
FF
00
F6
F6
F7
F7
03
05
FB
FE
FE
F9
F4
F8
FD
FA
F6
02
00
FC
FE
FF
02
FC
FD
FC
00
FE
00
FF
00
03
FE
FC
FB
02
03
FB
02
01
FF
04
03
00
00
FF
00
FD
04
CC
DE
06
F5
10
E4
0E
FA
09
F3
EA
AD
0A
EE
08
22
13
E8
08
FC
EE
12
EC
05
0E
FE
C5
E2
03
09
EA
E4
02
02
FF
FE
FB
FE
02
F7
F8
01
F9
FD
F5
FE
FC
F8
FE
03
01
FF
FD
F8
03
FB
F6
FF
08
02
FC
F8
FB
FE
06
FC
00
06
05
02
01
03
FC
FB
02
FF
F7
FB
F6
F8
02
01
F9
F9
01
03
FC
F5
FA
03
FE
FC
01
EB
0C
00
1D
07
F1
07
FE
EC
02
09
0F
DA
0A
F7
FA
04
0C
FB
09
06
05
01
F5
F9
E8
FA
0C
18
FB
F1
0A
F9
08
01
F5
FB
01
06
F7
FB
F2
EE
F8
09
02
F2
01
F9
20
1C
F4
FD
02
FA
00
01
FF
11
FE
FA
06
00
EF
FD
F4
FB
E4
01
07
F6
01
F5
F8
F5
07
F4
F5
F8
EF
FC
EB
E9
C1
E2
F8
FC
EE
F8
08
D4
F7
00
F6
F8
07
08
F1
02
0A
FC
ED
F9
F4
03
E4
FB
0D
EC
EA
04
FB
09
F9
F4
D3
07
03
12
07
06
FF
04
FE
EF
FC
E7
F5
05
FF
07
FF
FD
F6
FD
FF
01
FE
02
05
FA
F5
FA
FB
FD
F8
FC
FB
FC
FA
00
01
FF
FE
FE
F4
F9
F3
FE
FC
FD
01
FA
FB
02
03
FD
00
00
FD
FC
00
00
03
FF
FF
FB
FE
03
02
01
FB
02
00
FC
01
FF
FB
FF
00
00
02
01
04
03
00
FC
FF
FF
FD
FD
FF
02
03
FD
01
01
FB
01
05
03
03
FE
01
FF
FD
FC
02
00
FC
FC
02
03
02
03
FD
00
FE
0A
0F
0A
01
02
09
FA
F3
03
16
F1
F6
F0
F7
FA
07
03
FD
C7
E4
04
15
FB
E8
FB
F7
F1
06
FE
F8
FF
FD
01
FC
FF
00
FC
02
FE
FA
F8
02
FB
FB
FF
FE
FB
F6
00
04
FF
F8
FE
FD
F9
FB
01
00
FE
FF
00
FA
02
F5
0F
04
0F
12
00
0F
FF
F7
0E
0D
F0
0A
F3
1D
24
06
FF
0B
ED
01
F9
0C
16
F4
FD
19
06
ED
07
FC
10
0A
00
F3
FE
01
04
F9
09
0C
FB
E5
00
01
0A
FF
00
E5
F9
03
12
09
07
FE
09
F6
F7
FB
EA
FA
05
00
00
FA
01
FA
F8
FA
02
FD
F8
06
F9
F3
F9
FD
F8
FF
05
ED
FE
FB
01
FD
FE
FA
FB
FF
F9
F5
F2
F6
02
FB
FD
14
06
F7
EE
04
10
04
09
FF
F0
FB
FD
FF
0A
02
F0
DF
05
FF
FD
FA
06
0F
FD
F7
FE
F7
FE
01
05
02
F4
FC
FC
FD
02
FF
02
02
00
02
FC
FA
03
FC
04
FB
FC
FA
00
FE
04
01
FF
FE
FB
FD
04
FC
FD
03
FC
FF
FE
F0
FA
F6
01
FB
ED
F3
11
15
C5
EC
FE
09
07
00
E5
04
FF
0D
16
06
0B
12
01
1A
E9
DF
ED
F8
0B
FF
03
FA
0C
13
16
01
FF
1D
03
F8
02
26
E7
F6
ED
04
F1
0E
06
FB
DB
EE
05
F7
00
04
FB
FE
F4
08
FA
1C
0E
FD
FA
FE
FC
03
01
05
FE
02
00
F9
FE
04
FF
01
02
FD
00
FF
FD
FE
03
03
00
FC
FF
F9
02
FE
FA
FC
FA
FD
02
04
02
00
FE
FD
01
02
FF
FC
04
FC
04
FE
FE
00
FE
FC
FC
03
FC
FD
FC
FE
02
04
02
FF
FF
01
00
ED
FA
05
EA
F4
EF
FE
F5
FD
04
E3
F7
09
FA
FF
0C
F3
F4
F1
FE
01
03
12
07
00
02
F6
07
F9
FE
EC
F4
F9
FA
FF
02
01
FD
FE
F5
FA
FA
05
FB
00
F8
F9
00
FC
FD
02
F5
FF
FE
01
F9
F9
FD
FB
F5
F9
FA
FA
00
04
03
03
FE
FC
FA
01
FD
FB
02
04
01
04
FE
FB
FB
FE
01
FC
03
02
FB
FD
01
FB
01
FE
FE
00
00
01
FC
04
02
F8
02
FC
07
00
FF
F8
FB
F5
02
FB
FF
F2
02
F7
FC
05
FD
FB
FB
FE
FD
FB
05
FA
F9
FE
FE
04
FD
05
FD
00
01
FD
FD
FF
FE
F9
F5
FB
FF
00
03
FB
FF
FE
03
00
F9
00
FC
02
FF
F8
00
01
FE
FF
00
04
FD
06
04
EA
D6
1D
11
0A
F6
02
F0
1C
ED
F9
0C
0C
24
A5
10
16
0D
F8
07
EA
02
E9
2B
0B
1F
D1
08
E9
DD
03
FC
03
FF
FF
FE
FD
FE
FC
04
01
FF
03
FE
00
02
02
FF
02
FC
FC
04
00
FC
01
FF
FE
FD
FC
00
02
02
01
01
00
00
FD
FC
FC
00
FB
03
FE
01
02
FE
04
03
FE
FC
FF
FB
FD
FC
03
FC
02
FF
FF
FD
02
FB
00
01
FF
F8
F1
FB
04
00
FC
FF
F6
F7
F7
FA
F9
FC
F7
FE
F3
FB
07
03
FD
03
F5
F9
FB
08
00
F9
F9
F7
06
FB
01
03
03
04
FE
04
FE
01
03
00
FD
FE
FF
02
FF
FB
FF
FB
FC
00
FD
03
04
03
FD
FB
FE
FE
FC
03
04
FC
15
0C
0E
04
E0
03
04
F1
FC
14
10
D8
17
03
13
EB
FE
F7
D7
E8
F4
01
08
0E
F8
0B
F7
00
01
0C
FE
07
F9
FD
07
FD
03
FA
06
FA
FF
FD
FE
FD
F6
FF
FC
03
00
FE
FC
FF
FB
FE
00
F6
F2
00
05
04
F9
EF
FA
FB
04
07
F5
FE
FF
02
F7
F9
F8
FE
F3
00
FD
F3
FD
02
00
FF
FF
FE
FD
FB
FE
03
F5
FE
F6
F8
FC
FA
FE
FE
FE
FA
FB
FC
FE
02
04
03
FC
FE
FD
01
04
01
04
FC
02
FD
03
01
02
FC
FC
04
03
FF
FD
FC
03
FE
FB
01
DE
FB
E0
F5
FE
FC
EB
06
03
09
D6
0C
01
F2
0B
FE
0D
E3
0E
07
05
F1
CE
03
03
EC
B9
F8
CA
E3
FA
E1
0C
12
12
0D
0E
05
EE
03
F4
EB
0A
04
0E
02
F4
35
07
05
11
D3
0B
08
09
13
F6
04
02
E5
FD
0A
0D
02
05
FB
FA
F9
F9
00
FD
FC
F9
FA
FD
00
FB
FC
FB
F7
F4
F8
02
02
F7
F6
03
F5
F9
01
08
00
FD
FD
FD
FD
F6
00
00
FA
0A
EF
07
FC
F6
F5
05
FE
00
F6
D6
E7
0C
FA
06
E2
DD
06
0D
F4
F1
F7
E7
D3
08
F6
EB
01
FC
FD
03
FE
03
04
FD
01
FB
FC
FE
FB
FB
01
01
00
FE
02
FC
FE
01
02
F9
03
FA
03
FE
FE
FE
02
FC
03
0F
EC
F1
D9
FC
05
11
E4
ED
11
F6
05
F7
FC
0A
13
FE
08
E3
FE
00
FF
FC
0C
EE
14
16
0F
FF
EE
FC
F1
0D
FF
FD
FE
F9
0F
FF
01
EE
07
F5
FA
FD
F9
0E
08
F2
02
FC
F8
FF
FA
01
01
F1
08
0B
01
F8
F7
05
F6
F7
13
F7
FB
04
F5
08
F7
06
EC
05
04
FF
04
0A
0F
CF
E2
F4
07
FD
F5
FE
08
F6
0F
E0
0D
00
0F
EE
F9
FD
FE
FD
FE
02
FE
FC
FB
FE
05
FB
02
FD
02
FC
FD
01
FE
02
FC
FC
04
01
01
05
FF
03
00
FD
FF
01
FB
09
09
0F
F8
08
F0
EA
FF
F9
DD
E5
04
0F
FC
E9
05
02
0E
F9
E2
ED
09
1E
F5
FC
06
E4
B2
00
06
F9
F9
02
F4
09
FD
F7
FB
09
F8
02
F8
13
E0
F2
F2
F4
F0
0E
FD
EC
F5
F3
F0
FF
09
09
01
F4
E9
06
04
EF
FD
01
FE
03
01
FF
FB
FD
01
01
00
04
02
FC
FD
FC
FC
FB
FC
04
FB
00
02
FC
FF
03
FE
FC
03
05
02
02
01
03
00
F9
FD
FD
FD
02
FF
FB
FF
FD
01
FE
00
04
02
01
FC
00
F9
FD
05
FB
00
FB
05
02
FD
FF
FE
01
F9
0D
F6
F4
04
04
08
01
04
01
E4
E8
01
FB
05
EB
EC
F9
F9
08
16
FA
04
06
F0
00
F7
F2
F0
F9
EF
06
05
05
08
03
FE
07
FE
FF
05
F9
FA
04
EF
FB
FA
F9
0B
FC
0C
FD
F7
01
02
ED
02
FA
FC
FC
EF
F9
02
02
04
06
FB
00
01
05
FE
F8
FD
FF
F7
F4
04
00
00
F5
01
02
02
FE
FB
FF
03
FF
FC
FB
00
FD
FD
F8
F0
06
00
ED
06
F0
FC
FB
E7
EA
F4
07
DC
D0
01
10
0E
07
F7
E3
F7
FC
11
F9
02
DB
FC
F3
05
DE
E0
06
05
FB
FD
D6
E2
0D
FA
FF
F0
0A
01
F5
F1
21
F4
F6
E9
01
00
02
F5
FD
B6
F5
04
06
EF
FE
12
F8
DD
05
F0
14
F8
FF
FF
00
FF
03
02
F9
FB
FB
03
FA
04
FB
FC
04
FD
04
FD
FE
FE
00
FC
FD
FF
FC
FD
FF
03
FF
FD
00
03
02
FF
FF
FE
FF
FD
F8
FC
04
FD
F4
FC
FD
05
FE
FB
FE
FE
01
FC
00
FF
FB
01
FE
FD
01
00
01
FD
FC
FD
FF
03
FB
FF
02
FF
00
03
FD
02
00
04
00
03
FB
03
FA
02
FF
02
FD
01
01
01
02
04
01
FD
FF
FE
01
FD
F8
FA
FE
F5
F9
08
F3
F8
F3
FB
FA
04
F0
FE
FA
F9
F9
FE
F8
FA
F7
F9
FA
F8
F9
FF
03
F9
ED
E8
01
F6
FD
FF
03
FF
03
03
03
03
FD
FE
00
FD
FD
04
00
00
FE
FE
FC
00
02
00
FF
02
01
02
FD
03
FB
FC
02
FC
DB
FE
F5
FA
F5
EC
FA
EE
06
D4
E2
F7
04
FD
0C
02
E9
FA
03
08
FE
01
D8
FD
FA
07
FD
F9
04
00
09
04

