7D
7D
04
00
6C
0B
7D
00
0A
7F
02
7F
02
00
02
11
02
7D
01
00
7F
01
7D
02
7F
00
0B
02
71
00
08
7E
04
06
78
00
7E
7C
7D
7E
02
7E
7F
00
7F
00
01
7F
7D
7D
7F
7F
01
01
7E
79
7D
00
7E
02
74
00
03
01
07
06
77
01
7C
06
00
01
07
00
0A
01
01
7F
02
01
01
01
00
03
03
03
7D
7C
03
03
07
01
76
02
07
7F
73
01
7E
02
02
79
7F
7F
74
02
71
00
7F
00
7D
06
78
00
03
01
78
02
7E
03
02
7E
00
02
06
01
7B
00
76
7D
02
01
05
79
01
04
7B
01
7E
7F
00
01
00
75
7D
00
03
01
78
03
02
78
7F
03
00
7C
7D
7F
7E
7F
44
7E
0A
7E
03
7C
7E
05
70
7F
7A
7E
04
7F
7F
00
7A
7E
01
00
72
02
7A
04
78
00
7C
7F
03
04
6C
00
01
04
5A
7F
72
17
01
76
7D
7E
16
01
00
01
7E
07
04
04
7B
00
09
7F
7C
0C
04
02
13
7F
6D
01
07
7E
79
7C
04
00
03
7B
02
03
76
7E
79
7F
7F
02
00
7D
02
02
04
7F
7C
7E
7F
72
7C
02
75
7C
78
00
75
02
73
7E
07
7E
03
69
03
7E
74
02
76
7E
7D
02
02
01
04
04
02
02
7B
7E
7E
6B
7E
00
05
7D
02
7E
7C
02
7F
01
00
01
7E
00
04
01
07
7D
7E
00
7C
7D
00
02
7A
7F
05
02
78
7F
7D
7E
00
7F
7F
7D
7C
00
7D
02
53
7C
04
00
7C
02
01
04
6E
7E
6D
7F
02
7E
00
03
7F
7E
02
7E
6B
7D
7D
0A
02
01
77
02
79
7D
71
01
7E
00
7E
7D
00
01
00
03
7D
01
01
7E
01
7E
03
01
7D
00
02
01
01
02
00
05
01
7E
01
7C
7C
02
7E
01
03
7D
7B
7F
01
7E
00
00
7C
02
08
02
02
00
01
7F
7B
02
01
7E
00
02
01
7A
00
00
01
04
02
01
7A
00
78
08
79
7F
0B
78
01
01
73
02
09
03
01
02
7E
02
79
05
03
02
75
00
7D
78
01
03
0E
7D
04
00
02
7F
7E
7E
7D
00
7E
7D
03
01
7F
7E
7E
7F
7D
7B
02
7C
7F
01
00
00
01
7E
7E
7E
7D
7E
01
02
7D
7F
7D
7F
7A
78
7B
03
75
0C
05
7E
7D
7E
7E
7F
00
00
02
04
10
08
05
7F
01
01
02
22
02
7F
7F
01
6F
02
00
01
06
7A
7C
02
00
03
7D
05
07
7E
7C
01
02
02
02
03
09
02
01
7F
05
7F
7C
7D
7F
00
05
02
75
03
06
01
7B
7E
7C
00
00
7F
01
7B
7C
04
7B
00
7F
7E
02
7D
7F
02
02
7E
00
7F
7D
7B
7E
02
7E
7F
7D
02
7D
7D
03
7D
7D
7E
7E
03
7F
01
00
7F
00
00
7E
7E
01
7F
7F
01
7E
00
7E
02
01
7C
7F
7E
7F
7E
7F
7E
7D
00
7D
7E
01
01
7C
00
01
7F
7E
7E
7D
7E
04
7E
7D
02
01
00
7F
7F
7F
00
7E
7F
00
7D
00
01
7E
7D
7E
00
7F
03
01
7E
02
02
00
7E
01
7D
02
7E
00
02
02
00
02
02
7F
02
00
01
7F
00
7F
7E
7F
00
7F
00
7F
7F
7B
7F
7B
00
7B
7F
02
7F
7B
7F
00
7F
7F
02
00
7E
7D
7E
02
7F
7F
7E
02
7F
00
01
7B
7F
7D
7D
7C
7E
7D
09
03
7E
05
07
06
7D
72
02
05
7F
7F
04
02
02
79
0B
00
01
72
7D
03
67
00
02
06
05
07
7C
79
00
05
03
70
7E
00
08
04
7E
13
02
0E
7D
01
00
01
5E
04
01
7D
01
03
7E
07
78
00
02
76
01
03
02
68
01
01
7F
7C
00
7A
00
7E
7F
02
7E
7F
02
00
01
00
01
7C
7D
7F
7E
7B
02
7E
00
7D
7F
7D
01
7E
03
7B
00
01
00
01
7E
01
7F
00
02
7D
02
7D
00
00
00
7E
7D
7D
00
7E
00
7D
02
01
00
7D
7D
7F
7D
7F
02
7F
7F
6F
0C
05
7E
7C
71
04
03
02
02
0D
7F
01
04
00
00
6A
03
04
7D
7F
01
09
01
07
03
06
05
0F
00
7E
04
03
7A
04
01
70
05
7F
02
06
01
00
00
7E
7F
03
08
7D
7A
04
7F
7D
7E
7D
7C
7E
00
06
7C
7A
01
7D
7F
7B
7B
00
01
00
04
03
00
01
7F
7D
02
01
7E
7D
05
0B
01
03
00
03
7D
03
7E
01
01
7B
02
03
01
07
00
0C
03
7C
00
03
79
01
7F
10
7F
02
03
02
00
01
01
7C
01
7E
7E
03
00
7F
02
00
7F
7B
02
76
01
78
7F
7F
7E
7C
01
02
7F
05
00
03
01
00
7D
03
00
7F
02
7F
7F
7F
02
01
01
02
7D
01
03
7C
7F
7E
02
7E
02
75
02
09
7E
06
77
00
04
70
04
05
00
00
7F
7E
0B
61
00
03
7E
7B
00
7D
61
01
01
0D
03
00
02
73
02
74
7F
7E
00
7D
7B
01
05
78
7F
03
00
00
03
00
0F
73
00
02
7E
72
01
7C
0E
00
7F
0B
01
05
7D
01
7F
00
0A
0A
02
78
7A
7B
78
06
7C
07
08
01
7C
7F
78
05
7F
7C
00
04
7F
78
71
7C
03
7F
00
71
7A
7E
7D
04
0B
72
7F
78
0E
00
02
02
7D
7E
01
7C
03
00
09
67
78
02
7F
6C
7F
7E
79
7C
02
0C
7C
7F
7E
79
01
7F
7D
02
00
02
04
7D
03
08
02
0B
7F
7F
04
7F
03
7F
7D
01
7E
79
02
04
7B
04
01
02
02
00
7D
6A
01
03
08
77
03
7F
05
00
7B
06
00
07
03
01
7C
02
03
04
01
7D
01
02
7F
7C
7A
00
00
7D
01
6F
05
00
7D
7A
03
02
02
02
79
7D
7F
7D
00
7C
01
00
7F
7E
02
01
03
01
01
7E
01
03
79
7E
7E
7E
7F
02
7C
7A
03
67
10
00
7F
05
6F
00
03
10
01
05
01
01
04
7E
7E
78
03
00
7F
7D
7E
7F
05
04
00
00
06
0F
7E
76
01
72
0A
7F
01
03
73
03
03
7C
01
7F
02
00
7E
00
76
56
07
7F
01
77
7E
03
52
04
00
06
02
07
02
6F
02
5E
7B
01
7E
7D
7C
7E
01
05
00
7A
7C
01
03
02
10
7C
00
04
7D
7D
7D
7A
11
04
7F
7F
7E
05
02
7E
01
7D
01
03
01
7E
7F
7F
7E
00
7C
00
02
7D
00
7F
7F
7E
02
7D
00
02
01
7D
7C
7E
7E
7C
01
00
7D
01
7E
54
7F
79
00
7A
70
07
04
14
7F
7D
7F
01
02
01
7C
7A
7F
02
01
01
7D
05
0C
03
7E
08
06
0D
01
78
00
7D
7D
7B
02
7D
02
03
7F
00
7F
05
7F
00
04
01
78
7B
7B
7F
7E
78
00
02
06
03
01
01
7F
00
7C
01
02
7D
7E
00
7E
7C
7E
7C
01
7E
00
03
7F
00
7E
01
7B
78
7F
7F
7E
06
7E
01
7B
02
00
7B
7D
7C
02
79
02
00
02
01
01
7D
7E
03
01
7B
7E
78
02
7F
7C
02
77
7F
00
7B
01
00
03
01
5F
7F
7E
7F
00
04
7E
78
01
7F
03
03
01
7A
7B
02
7D
7E
7E
7D
00
7F
02
00
01
7B
7E
7D
01
00
00
7E
77
03
01
7F
03
7E
02
7A
00
7C
7C
78
02
03
7E
7E
02
73
00
79
7B
7E
7C
02
79
7C
01
02
00
7F
7F
01
69
7F
7F
00
03
03
01
78
01
7D
7F
7A
03
7F
7D
7F
00
00
7E
7D
02
7E
7D
7F
7F
7D
7E
01
7F
02
7D
00
7E
7E
01
7D
01
7A
7D
01
00
75
7B
05
7E
01
7E
03
7E
07
7D
7D
7F
7E
01
00
0A
7A
7D
00
00
78
7E
00
01
7E
00
07
7E
7B
7A
07
01
7E
01
01
7D
00
00
02
00
7E
7E
7F
00
02
7E
02
02
7D
7F
7E
7F
7D
00
7D
7D
7E
02
7E
7E
01
7D
7F
7E
0B
7A
01
00
03
04
02
02
7B
7D
18
00
7F
0A
03
03
7A
7F
7F
7D
7F
00
7C
78
01
7E
02
7E
7D
7E
02
03
7A
02
02
01
78
70
03
05
7E
01
7D
01
03
06
02
03
5E
7D
7E
00
7D
02
7D
64
02
7F
0A
01
04
7F
74
00
77
7B
03
03
06
7D
01
03
7E
7E
7F
7F
7C
7E
7E
0F
01
03
00
01
78
02
05
0A
7F
00
7B
7F
7A
7E
01
00
66
02
7F
00
05
09
7F
7F
06
03
7A
01
7E
7F
7D
08
7B
7C
00
01
7B
7F
05
08
7F
7F
7C
04
76
00
7D
7E
00
7D
03
7E
03
04
02
03
7D
7F
7C
7F
00
03
02
08
7D
00
05
7D
05
02
7D
09
01
01
7C
7E
06
7E
02
7F
7E
7E
7D
01
7D
01
7E
00
7F
02
7D
01
00
7E
00
01
7B
7F
7E
02
02
7E
01
7F
01
7F
7E
02
02
00
7F
00
63
02
07
02
01
74
02
03
7B
01
74
7F
7D
7C
02
07
7D
02
03
04
00
03
7F
77
7D
7E
03
03
09
7F
7B
03
00
02
7F
7E
7F
00
7E
7E
00
03
00
7E
7F
02
7E
7C
7D
01
02
00
7D
03
7F
7D
01
02
01
7D
7C
01
00
7E
0C
7E
77
00
76
0F
04
00
74
7E
79
7E
02
02
02
6E
7F
04
00
7E
01
00
7A
01
03
7F
01
01
75
03
05
7E
02
7B
7E
02
7F
7A
00
01
00
7F
00
01
7F
7E
01
7D
7F
03
7F
01
7E
7F
01
7D
7D
02
7C
7E
7D
7F
00
00
7F
00
7D
02
7E
7F
7E
7D
00
7E
7E
7F
02
00
7D
7D
02
00
01
7F
01
01
00
7E
7D
7E
00
7D
00
7F
7D
00
7A
05
04
01
7E
79
7D
06
08
7F
00
7E
00
02
7F
75
60
7D
00
00
7D
02
7D
73
7E
02
03
00
08
02
69
7F
0E
02
7A
02
0F
0A
00
7B
09
7F
02
7F
03
7C
7E
06
0C
01
00
7F
7F
7F
05
01
02
03
7F
01
7E
04
04
01
0A
7D
78
7E
7E
11
01
7C
04
01
10
7E
02
01
7E
05
04
01
02
02
0B
00
76
7C
7D
01
0E
07
77
01
04
02
7D
7F
7E
01
7E
7C
7C
7F
01
02
01
00
02
02
02
7F
7C
7F
7D
7D
7E
00
01
7D
02
02
7E
7F
01
00
7D
02
00
02
7C
7E
01
7F
00
01
7D
7E
02
01
7F
7D
03
7C
7D
04
7F
7E
7D
7F
7D
02
7E
7E
7E
7E
7D
00
7B
7F
7F
00
79
01
0B
7E
02
04
75
01
0C
04
7E
02
7F
03
79
7E
02
00
7B
03
7F
02
00
03
7C
02
7D
03
7B
7E
7C
7E
7B
7E
7D
7F
7F
7E
7D
02
01
02
00
7C
7E
7D
00
7E
7F
7E
7C
01
7E
01
7F
7D
01
7F
7D
00
7F
7F
65
0A
03
02
7C
6E
02
06
02
01
05
7D
7E
07
7F
0C
6A
01
7E
01
6E
00
04
7D
04
7F
0B
06
0C
01
00
03
73
01
66
00
7F
7D
03
00
02
7C
0A
00
00
00
7F
02
01
03
7F
7F
7A
7E
01
09
05
7F
01
7E
72
7F
0D
02
10
7C
01
00
7D
7D
7F
01
75
7F
05
02
7E
02
02
07
01
01
04
00
04
02
7C
0A
00
7F
7F
00
7D
7C
08
03
6E
7C
00
7F
74
73
04
09
04
01
05
7D
01
05
02
01
6E
7B
05
7D
6F
7E
7E
03
01
7E
08
06
02
7C
7B
04
54
7C
7A
7E
7A
00
00
06
7F
01
03
7D
00
03
03
0B
7C
7C
01
01
7F
00
02
08
03
01
06
00
0A
7F
7B
02
58
78
7D
02
03
07
04
00
0B
7D
6E
02
7F
7F
7F
0C
7C
7F
00
7C
7D
00
00
0F
02
02
08
7B
01
7D
7E
01
6A
7D
7D
00
7C
78
7D
01
03
7E
13
01
00
7C
02
06
7D
7E
7D
7D
7B
7D
7C
79
02
02
06
00
02
04
0E
7E
7B
01
7C
03
04
7F
02
7D
76
00
00
00
02
7A
7F
7D
03
01
02
7F
7E
00
02
71
01
7E
02
01
03
7F
7C
7E
7E
7F
7F
01
7F
7D
02
01
7C
7E
7E
01
03
7E
7F
7E
7E
7F
00
02
00
7E
7B
03
7F
7F
7C
7D
7D
7C
00
7D
7B
04
7F
7F
09
07
03
7D
7D
7F
79
04
7F
00
7F
76
03
02
02
02
01
01
7D
75
00
7F
03
7D
7A
03
7F
01
7D
00
7C
01
7B
7A
7E
01
7C
00
01
7F
00
7E
00
01
7A
00
02
7E
7D
03
01
01
01
7F
7D
01
78
00
01
7D
19
75
0A
7F
00
09
7F
7D
5C
00
71
7E
7C
7A
01
7E
0A
7F
00
02
7A
7F
02
7B
00
7E
76
03
72
7C
0C
7F
4B
00
03
7D
01
03
7F
02
79
7D
7B
7F
7F
04
01
15
76
00
05
7F
01
02
01
06
00
7E
04
7F
00
02
7A
01
7E
00
01
00
7F
01
7F
00
00
7E
7D
7E
01
7F
00
02
00
7E
01
01
00
00
7D
7F
7F
02
7B
7F
7D
7F
7D
02
7D
00
7A
00
01
04
00
01
7E
7E
7B
7F
03
7D
02
01
7C
7F
7E
7D
7A
00
01
00
7D
02
7E
7D
00
01
7F
7F
00
7F
02
00
7E
02
02
7F
00
7D
7D
01
7D
7E
01
01
7E
01
02
01
7D
01
02
7E
7E
00
7D
01
01
02
7E
7D
5D
08
7F
7E
7A
69
03
09
0C
00
7B
7E
7E
03
7E
77
77
02
00
00
7F
7D
03
03
01
01
05
09
0E
04
7D
02
71
05
06
02
7D
04
01
7F
5F
03
7E
7D
01
7D
01
0C
64
01
03
7E
76
7D
01
66
00
7E
0F
02
02
01
73
7F
07
09
02
7F
09
08
7D
03
7B
03
60
7F
7D
77
7E
07
00
77
02
7E
06
01
04
0C
78
02
5E
7F
7B
79
7E
7D
0A
00
7D
01
08
0D
7F
00
0B
7F
09
7C
00
00
7D
7D
7C
02
00
02
00
7E
01
08
00
00
7C
02
7F
03
7D
03
02
06
79
7F
7B
7F
7E
01
04
7E
03
00
02
01
00
02
01
00
00
00
0D
7E
7C
7B
04
7F
00
7D
6F
04
03
7F
7F
05
7E
7E
08
03
02
7D
7E
7D
08
7D
03
00
00
68
01
00
7E
00
7E
7E
04
66
04
03
78
00
03
7E
6F
01
76
7F
7B
7E
79
01
00
7F
7A
01
7B
7F
7F
05
01
02
7D
7E
02
7E
5D
03
01
76
00
02
76
7D
7F
00
79
00
5A
03
7C
01
06
12
7F
04
76
03
7F
7F
02
7D
02
0C
76
78
04
7E
02
7D
00
0A
7F
01
60
7E
00
7B
4D
00
6C
7F
75
01
73
78
7E
00
77
03
7E
01
7E
07
7F
02
70
7D
00
7E
79
02
7D
07
00
7D
0B
7E
04
00
00
7E
07
01
72
02
08
00
00
7C
01
00
0E
7E
02
02
7E
7C
04
7F
00
7F
02
00
07
03
06
01
0D
01
73
03
17
03
7B
7F
75
02
7B
7E
04
7F
7F
7F
00
7D
00
7D
00
6F
7E
00
7C
03
7F
7E
03
6F
01
02
6D
04
01
7E
75
01
03
7D
79
02
7F
08
02
7B
78
02
04
01
00
79
7F
79
01
7E
7D
01
0A
01
7E
6B
7E
7E
77
02
7E
7F
71
01
73
7C
03
7E
00
06
01
05
02
00
7D
7B
02
03
02
7F
78
7E
03
04
7B
00
02
11
7C
7D
7D
02
79
06
00
03
0C
09
78
01
79
17
7A
79
79
7D
7B
02
03
7E
00
7B
01
00
7F
01
0B
00
7B
70
02
02
03
7F
75
03
08
7F
00
7E
7D
02
7D
7E
7F
7E
7E
7F
7E
7D
7D
7E
7E
00
00
01
01
02
7F
7E
7D
7F
00
7E
00
00
00
7D
7D
7F
00
7D
00
01
01
02
01
7E
78
00
7D
01
7F
7E
01
01
7C
01
7E
02
7E
03
01
7F
00
00
7C
02
78
02
7B
01
75
05
03
7E
01
7A
00
03
7E
03
7D
7E
01
02
00
71
5E
01
7C
7E
74
00
02
57
7F
02
05
7C
08
7F
6B
7F
01
05
73
01
11
06
7F
04
7A
01
75
03
01
7E
02
7F
7A
7F
00
00
78
00
02
79
00
7F
70
7F
7F
02
7A
01
73
03
02
01
02
7C
7F
02
00
7F
03
01
03
7D
01
04
02
06
03
00
05
02
7F
09
02
01
00
7C
7C
07
75
01
00
00
01
7D
7E
7D
7F
7D
7B
7D
7D
00
7F
02
01
7E
7E
01
7F
02
7C
7F
7F
01
7E
01
7E
7E
7D
00
00
7E
00
02
7D
01
7F
01
7F
02
7F
7E
7F
7F
7F
7E
7E
00
7E
00
02
7E
7E
03
7D
7F
00
01
01
7E
7E
02
7F
7E
7F
01
7F
7E
00
02
01
7F
02
01
00
7F
03
7F
7F
7C
7B
7E
01
02
01
7F
00
01
7F
7E
00
00
7F
7F
7E
7C
0B
07
74
7E
7B
7F
02
7F
04
03
0D
00
00
01
01
7E
7C
03
7D
01
7E
7F
7D
05
7F
01
06
00
73
7F
00
7D
7D
7D
01
00
70
06
03
01
05
01
0E
01
03
01
01
00
0A
7D
05
7F
04
00
7C
00
01
7F
08
7E
71
00
07
00
09
0B
61
7F
7D
1A
7E
7D
0C
01
79
00
7E
01
00
7C
7A
74
7B
00
7E
01
0A
6E
7F
00
0D
00
7A
7E
01
02
7E
7F
7F
02
00
01
02
7E
7C
01
7C
7E
01
7D
7E
7E
7C
7E
03
00
7E
00
7E
7C
7F
7F
7F
00
7F
7F
7D
7F
6B
78
05
7E
7E
0D
03
05
6A
01
78
7E
7E
7D
00
7E
6B
00
01
01
70
00
7E
65
04
7F
0A
01
00
7F
72
02
10
7F
07
7E
7D
0B
00
7C
7A
7E
04
01
7D
01
7E
03
02
03
03
7D
76
00
7D
00
7D
02
78
7C
7E
7C
03
02
04
7B
7E
7F
7A
04
01
7D
01
02
7E
7D
02
01
7D
0C
73
7B
01
7F
70
7E
7C
7E
7D
03
08
00
7C
01
04
02
5A
06
7F
7E
07
6D
7D
03
06
7F
7B
01
7B
03
01
0C
7A
71
01
7D
77
7F
7A
07
7A
7E
7B
02
7D
7D
75
00
77
7C
75
02
79
13
7C
7E
75
7E
0A
7D
01
79
02
7D
7C
7E
03
7F
06
02
77
77
7E
01
56
7B
7B
7C
4B
01
06
01
11
02
77
01
04
7F
05
00
06
7F
00
01
02
02
00
7F
00
7F
61
01
7D
06
7D
00
09
7F
7A
7C
7C
7F
77
7F
03
7E
7D
06
06
7C
75
01
00
01
05
7D
7E
10
7D
00
7E
7D
01
7D
00
14
7E
01
02
00
02
06
09
00
7D
77
02
7D
01
02
00
7C
08
7F
6B
03
7B
7E
02
06
79
78
00
7F
68
7E
79
79
7D
03
0E
01
7D
7A
7F
01
00
00
7E
00
7B
02
7F
7E
02
00
7D
7D
00
7F
03
02
00
7D
00
7F
7D
7F
7D
7E
7E
7D
7F
02
7E
7E
01
02
7C
7E
00
00
7E
00
7E
00
7D
7E
7E
7D
02
7E
02
7D
7D
7D
00
00
01
7E
7D
01
01
7F
7D
01
7F
01
7C
00
0E
7E
06
7E
03
03
7F
03
09
7F
05
7F
02
01
00
7E
04
7C
00
7F
77
00
7F
7D
06
7F
00
7E
01
01
79
01
7E
00
7E
01
7B
05
03
00
09
01
77
01
03
7F
7F
79
0F
02
7F
03
03
02
03
18
03
03
05
00
72
01
0B
00
7D
01
7E
7E
7F
00
01
00
02
02
01
02
7E
7F
01
00
7E
7F
7F
7F
7C
7F
00
7A
01
02
02
00
7F
7C
02
7D
61
7D
03
7D
03
73
7C
05
7A
7D
7F
7E
01
02
04
7A
73
7C
00
7E
74
7E
7B
61
00
01
02
7F
06
01
73
01
00
00
7D
02
02
00
7F
00
7F
7E
01
02
7D
00
02
00
00
7E
02
7F
01
02
01
01
7F
00
7F
00
00
02
7F
00
7E
01
02
00
02
7E
7F
7D
7D
01
7C
7E
00
00
00
7E
7C
00
7E
7E
01
00
7E
01
7E
02
00
02
7F
01
7F
02
78
7C
7D
01
7C
7C
7D
01
0C
01
08
00
7E
03
02
01
74
74
7D
04
66
00
7B
74
7A
00
0A
7E
79
7B
77
7F
02
01
7F
7D
7F
7D
02
7D
7D
02
7E
01
7D
7F
01
7E
7E
7F
02
03
7D
7E
02
02
02
01
02
7D
7E
7E
7D
7D
62
7C
7B
01
7E
68
01
03
03
01
7E
7E
02
05
7E
7C
7C
01
7F
7E
02
01
7E
0D
7C
7E
01
00
7E
00
7F
02
75
7F
7E
7F
7D
7E
7E
00
73
00
00
03
7D
7E
7F
7F
7A
00
01
04
00
7E
7A
71
7E
03
04
7F
05
7F
79
7F
01
00
7E
02
02
7D
01
00
7E
7E
02
7D
02
7F
7E
7D
7E
7E
7F
02
7E
01
7F
7F
00
7E
00
01
00
00
01
7F
7D
02
02
02
00
01
02
02
03
7F
02
02
02
7C
00
00
7D
01
00
02
7D
02
7D
01
01
01
7D
02
7E
02
7F
00
02
7E
01
00
02
00
00
7D
7D
7F
7D
00
7D
02
7F
01
00
01
7E
01
7F
02
7F
7C
01
02
02
7F
7F
01
02
02
73
02
75
02
00
7F
7F
04
02
7E
7E
7F
00
03
7F
7C
7D
7E
7E
02
74
01
05
7F
03
01
7E
01
7A
7C
7E
01
7B
01
7C
7E
00
7C
03
7F
7B
00
05
7F
7E
7C
00
7F
7B
03
00
01
7B
01
03
01
01
00
7D
00
7F
7D
7B
7F
7B
7B
78
7E
77
08
02
03
03
7F
00
00
00
7F
01
0A
02
04
01
03
02
7F
03
1A
01
01
00
7C
72
7E
0A
02
06
78
7E
01
7A
0D
7E
01
78
7D
0A
03
79
7F
7E
0B
01
02
08
7D
77
01
00
7F
7F
02
7B
7E
00
7F
02
02
09
7F
74
7E
79
0C
03
7F
09
01
78
02
06
7E
01
13
00
00
7D
7E
7E
00
03
7E
04
7E
07
00
7A
7F
0A
7C
06
00
7F
7F
09
06
7D
02
00
02
01
03
01
01
7E
6D
09
01
00
00
05
01
7E
7F
02
7E
7E
01
73
03
03
7F
7D
03
7A
02
05
7A
7C
08
5B
02
05
01
7F
01
00
02
67
04
7F
02
76
01
7A
6F
00
7F
04
7D
05
7C
75
7F
7F
05
7B
7E
04
00
00
7D
7D
03
0C
7F
03
01
02
6E
7C
7E
7C
02
7E
00
01
60
03
03
75
03
04
7E
71
01
7D
7D
06
03
04
7D
7D
01
00
00
05
00
7E
01
7D
08
7B
02
01
02
75
7F
7E
7B
7D
7F
00
7F
00
7D
7B
01
79
7C
02
02
08
73
7B
04
00
7E
02
7C
01
02
00
73
58
7D
02
7D
76
02
7B
50
7E
01
00
7B
0C
00
65
04
7F
7C
00
02
7F
01
01
7C
02
00
78
01
00
01
7E
7C
7D
7D
00
02
73
01
07
04
01
01
7A
00
79
7F
00
7F
79
7F
7B
7E
7C
00
02
01
00
7D
7F
7F
00
02
7E
01
7B
7F
7D
03
7B
7E
02
7D
00
7E
01
7E
7C
7E
7B
00
79
03
7F
00
08
79
00
7D
06
7F
76
02
04
01
7D
74
59
03
7E
7E
7F
01
01
77
03
01
02
7B
06
00
71
00
06
01
00
7E
79
04
7A
7F
09
00
01
01
00
01
00
7E
00
7E
03
00
02
7F
7B
00
7E
02
02
01
7A
04
00
03
12
01
01
03
05
7D
7F
7C
73
01
09
7F
7F
01
02
0B
00
01
7E
7E
06
02
04
06
04
01
73
02
04
7E
06
03
70
02
06
7D
01
7A
00
03
00
03
02
7D
03
02
00
08
70
03
7E
01
72
7E
00
07
00
02
12
02
06
7F
00
03
4B
7F
03
7F
7B
07
7D
05
03
00
7E
01
00
01
7E
0D
75
78
00
7F
72
7E
7F
04
7C
00
7A
03
7E
01
72
7D
01
7F
7E
01
00
7E
01
7E
02
7F
7E
00
01
00
00
01
02
7E
7F
00
01
02
7D
7E
00
01
7F
7E
7E
7E
7F
01
0E
7A
7F
7D
75
17
7F
7E
70
03
6E
7E
00
02
7E
02
7F
04
01
00
08
7F
7F
72
01
02
02
01
73
01
08
02
7E
02
7C
00
7D
02
01
7F
02
03
7A
02
02
02
03
7D
7B
7D
7B
03
01
7E
00
7F
02
00
7E
00
7F
00
01
7F
7D
7F
7F
7E
7D
02
00
01
7F
01
7D
7D
00
7C
7E
00
7F
7B
7D
7D
7C
7E
00
7C
7F
7E
7B
7D
7E
7E
00
00
7F
00
7C
7E
7E
00
00
00
00
7F
7F
01
02
03
7F
7F
7E
02
7C
7F
01
01
02
7E
7C
7F
7B
7E
7E
7D
7D
02
04
09
7D
7E
00
72
7E
7A
01
02
0D
7F
01
7B
01
6F
04
7F
7F
7F
0C
01
03
61
01
01
79
01
02
7E
75
7E
7F
02
7F
7E
7C
7D
7D
00
00
00
00
00
7F
7E
02
7E
7F
00
7F
03
7F
02
7E
01
00
01
7E
7E
7F
02
02
7F
7D
7A
01
7E
00
7D
7E
02
7E
01
7E
00
7E
7F
7F
00
7C
00
7C
02
00
02
7D
7F
00
7E
7F
04
00
00
01
7F
77
09
05
7F
78
04
02
03
69
00
04
02
7F
7C
7F
08
6F
02
04
02
76
7F
03
67
00
00
0F
01
02
00
7A
7F
78
7F
04
7F
7A
7B
03
7F
03
01
06
7C
01
06
01
7C
7A
7D
00
7D
7E
00
05
0B
00
7D
00
7E
7A
06
02
01
72
00
08
01
0A
78
7F
0A
0C
00
09
01
7E
09
7F
00
6A
7D
02
02
79
03
7F
05
06
02
0C
01
0B
7C
7E
7F
76
06
7A
03
01
79
7E
02
7E
7F
03
7F
03
04
02
07
6B
7F
7E
01
02
03
00
0A
03
01
09
04
07
00
7D
01
6E
01
08
01
01
02
03
04
62
7E
7B
00
7F
7F
00
09
68
00
07
01
79
7F
01
69
01
02
09
00
7D
7E
67
7E
7D
00
00
01
7D
03
7F
7D
02
7E
00
7E
7E
7F
00
02
02
01
7F
01
7E
7D
02
7D
01
01
7E
7E
00
7F
01
7F
7F
06
7D
7D
7B
7A
01
03
01
02
7C
03
7E
7B
01
02
02
7B
03
7E
7A
7F
01
78
7D
02
01
02
7A
00
00
00
7F
02
7E
01
05
03
00
7F
01
02
06
7F
05
03
7D
7D
03
00
7D
01
74
02
01
01
01
02
7A
02
7A
04
05
02
06
0B
03
03
05
75
02
04
66
7E
01
7F
01
7C
7F
0D
7B
04
03
01
05
00
02
73
04
7D
77
03
05
7F
73
02
6C
03
79
01
73
05
7D
00
7C
7F
0B
7E
7E
01
00
02
7F
7B
7F
02
7D
01
01
7D
02
02
0A
00
6F
7F
0B
00
09
05
7D
7F
78
7C
7E
7E
7E
01
0C
00
7E
7C
7F
6A
0B
02
01
7F
09
7F
00
6C
7D
00
79
00
61
03
0A
7F
04
03
73
7F
7D
03
05
7B
18
02
10
7F
05
7F
01
59
7B
02
7E
02
7D
02
06
73
01
7E
6F
03
04
04
5C
03
77
7F
04
03
7B
08
01
00
00
04
03
00
01
7F
03
00
78
00
01
00
03
7D
02
0C
00
00
00
7D
00
00
7C
01
08
07
77
7E
7E
05
02
7F
00
7F
7C
01
02
03
7F
07
00
00
01
7D
7C
7D
7F
02
01
02
79
7B
75
03
05
00
57
7D
7D
00
01
06
7F
00
75
7F
06
7F
03
06
7D
12
7C
7D
7F
7B
6C
7E
7D
06
7F
7E
7D
02
7B
00
76
04
4A
7E
00
7D
70
15
7D
02
5F
00
7A
7E
7E
7E
7E
10
01
7A
00
7E
06
00
7E
0A
79
00
7C
02
50
02
6B
7F
08
78
07
00
74
08
01
7D
0B
02
7D
7D
02
00
01
7F
02
03
03
7C
68
02
7F
28
04
01
71
7D
6D
05
08
7D
7B
00
7A
7D
7C
01
7F
7D
79
01
7A
7D
01
78
02
73
7D
7E
00
7E
00
7E
7E
5F
04
01
00
7F
00
7E
75
03
69
79
78
7E
02
74
00
00
01
7F
06
7D
7F
05
00
04
7A
7E
01
00
78
01
7F
0A
01
01
06
7B
07
01
0B
03
7C
7C
7E
00
7E
00
01
7E
79
7E
74
02
04
75
02
77
00
00
7B
02
01
01
04
5F
02
02
01
7F
04
00
76
02
7A
7B
7B
7F
7A
7E
7F
05
7D
01
0B
7C
7F
08
7F
02
76
7D
00
7F
7B
01
7C
06
7E
02
08
7D
7D
02
02
01
7C
00
7E
7E
01
01
7F
00
77
02
7E
01
00
7F
7E
7F
7E
7F
7D
02
7A
01
7D
7C
00
02
7F
7F
7B
7F
7A
7E
6D
06
0B
03
05
7C
02
06
64
00
7E
7E
01
7C
7F
08
63
01
01
02
7A
7F
00
70
02
00
0E
04
7B
02
6E
7F
01
02
00
7E
01
7E
01
00
01
03
7D
01
7F
7D
02
7F
00
7D
7E
01
7D
01
7D
7E
02
02
7F
7F
7A
7F
7E
02
01
03
01
7F
0E
05
7E
7F
7C
02
77
7E
02
7F
7E
7B
7F
7D
04
7D
02
02
7E
05
7B
00
6C
7A
7F
7F
7E
7F
7B
7F
77
02
7B
7F
7F
7F
79
7E
7A
7F
02
79
02
79
7F
7E
00
7D
00
7E
02
60
00
02
7F
00
06
00
77
02
6E
0A
03
7F
79
7F
00
07
64
7F
0B
01
01
02
00
05
6B
05
05
02
02
7F
7D
5B
01
01
7F
03
05
01
72
00
7E
00
7F
01
7D
00
7F
01
7F
01
00
02
01
7D
00
02
7C
00
02
7F
7E
7F
7F
7E
7E
7E
7E
02
7F
7D
00
02
7E
01
7E
01
7C
7E
00
02
01
7D
01
7E
00
00
02
7D
7C
7D
7E
03
7E
7F
7C
7D
02
7F
00
7F
00
02
00
01
7C
79
01
03
77
0D
04
7F
01
7E
77
7E
01
7B
00
09
75
06
7F
00
7A
01
7E
13
7D
7E
7F
7E
6B
7F
76
7C
76
79
03
00
0D
7A
7E
02
65
01
74
7C
7F
05
7C
06
6D
01
00
00
7E
00
7F
5B
7D
7F
7F
7F
7E
01
5C
7F
79
7D
03
7E
7C
08
01
7F
0C
03
7A
02
7D
03
00
0A
77
7C
03
00
72
7D
7A
7F
7B
7D
12
7E
7B
7C
7B
7D
66
7C
08
02
07
77
7F
01
06
7E
73
02
01
7E
01
04
7A
02
05
03
78
7F
7F
0C
00
00
07
02
0B
7F
7A
04
4B
7B
7F
7E
7B
17
7D
01
0D
7F
7D
7D
7C
05
00
14
7A
76
01
7F
6F
7E
79
0D
7A
02
0A
7F
79
7B
7A
01
5D
01
7D
02
01
6C
01
02
0A
7E
00
7A
7E
02
7D
76
00
7D
00
05
01
7E
05
08
00
01
02
02
02
7F
01
7F
75
04
7B
7E
01
00
03
05
06
00
04
7E
02
09
01
7C
6B
02
02
02
7D
03
7E
0B
00
00
06
02
06
7D
7C
7F
02
7C
04
00
7E
03
7F
02
07
00
0B
02
7F
02
7E
04
76
7D
7E
7F
77
7F
02
7A
00
7F
08
7F
01
7D
79
01
67
0F
7F
7D
0C
78
03
04
7E
01
0A
7D
01
04
7F
14
67
00
02
7E
76
02
05
79
04
01
00
07
0A
01
78
02
12
7E
0B
7F
7E
0F
02
00
04
7F
01
01
7C
7A
7F
04
04
01
04
03
6F
03
7A
7F
00
01
7E
7D
79
7A
04
7D
01
01
7E
02
7E
7E
7C
7F
7F
02
02
02
01
01
03
7F
7E
7F
7E
01
00
7F
7D
7F
03
00
00
03
7C
7F
01
00
73
0F
04
01
03
70
7F
05
7C
02
01
7E
7F
02
7F
76
50
01
7D
01
73
7E
7E
51
00
01
07
01
0B
02
72
03
10
74
04
7E
7D
7E
01
01
04
7F
12
7E
00
0A
02
0D
00
07
03
00
14
00
7B
1B
7D
7E
03
01
7A
03
08
02
77
01
0D
02
7D
7F
7E
0A
6D
02
03
7C
7E
7D
7E
05
74
7F
05
01
7B
7F
02
69
7F
7E
6F
02
04
01
6C
02
70
00
7D
00
0A
08
02
03
7A
7E
07
7F
01
07
02
09
6D
01
01
01
71
02
7A
05
7E
02
08
02
06
7E
7B
00
00
02
01
02
7F
7C
02
00
00
00
7E
7D
7F
00
03
00
7F
01
7E
01
7D
7F
7F
01
7F
7E
7D
7F
00
7F
02
7D
7E
7D
7E
02
01
00
00
00
7F
7E
7E
02
00
01
7F
00
7E
01
7E
7F
7F
00
7D
7F
7F
7F
7F
7F
7D
7F
7E
7D
0C
7D
7F
01
75
12
00
02
0B
02
7D
00
7F
7C
02
06
79
04
00
7F
0A
03
00
0F
7F
00
72
7E
7E
7C
7F
7E
7C
7C
00
00
76
04
00
02
06
01
02
7F
7F
01
7E
7C
0D
7D
7F
02
7D
7F
7D
7E
01
00
03
7A
72
7E
01
01
57
05
01
7E
05
06
03
02
5B
01
79
7E
02
00
00
09
7B
02
00
03
69
01
7D
70
03
7F
7A
7F
03
00
7A
7E
01
7F
7D
7E
7D
7F
02
7E
7C
7E
00
7E
00
01
7F
7F
01
7E
01
00
7E
00
01
7E
02
00
00
7F
7F
02
01
01
7D
7F
78
01
7F
00
7F
7D
7D
02
7A
7D
7E
7A
7F
78
7D
00
7B
7F
01
7F
05
64
01
02
7E
02
03
02
76
7F
6F
09
7D
00
7B
71
04
06
06
7F
09
7E
01
04
7F
06
70
7D
03
01
78
02
05
7A
05
7D
09
02
02
7F
7E
01
74
7C
7D
7D
78
02
00
02
0B
7F
73
7F
78
7D
03
07
74
7A
7D
00
68
7D
79
73
77
02
13
01
76
00
02
7E
6A
7A
73
00
6C
0B
7B
78
77
7F
01
00
00
07
7E
00
7E
01
7F
7F
04
00
7B
06
00
00
64
7F
70
7F
48
7F
75
00
06
7E
00
6E
00
02
0D
00
66
03
7E
7A
7E
02
00
04
03
7F
74
7D
7F
77
04
01
07
00
0B
00
7D
00
53
04
7C
02
75
0D
7D
05
08
02
0D
00
7D
03
00
16
71
77
7E
7E
78
01
7A
7E
7C
03
05
03
79
01
75
7E
7E
01
01
02
01
00
7F
7E
7F
01
7B
7E
00
03
02
01
7B
02
03
7D
7E
02
7E
00
7D
7F
7D
7F
7E
02
7E
7D
76
7D
76
7F
7F
7F
7F
00
74
02
7F
01
7E
78
7E
76
74
02
00
7E
07
7E
02
5D
02
7E
09
00
03
7E
7E
00
7D
06
00
7E
07
7A
7C
7E
74
02
7F
7F
7D
7D
01
7D
7E
7B
01
01
7A
01
03
6F
7D
7F
7F
7D
7C
02
7F
7F
03
7E
7F
00
02
74
02
00
06
7E
05
7B
01
7F
00
06
7B
7E
00
01
05
7F
03
07
7E
02
04
04
00
02
79
02
03
74
7E
00
7A
7E
05
00
04
7F
78
7F
02
7A
02
7E
79
06
7E
04
75
00
7E
23
7C
03
73
7C
6F
06
76
7F
7D
06
05
7E
7E
00
00
7F
05
03
7B
00
04
01
02
78
59
01
7E
01
76
01
04
79
03
7F
07
7D
08
7F
6F
04
7E
01
7C
7F
7D
7D
00
03
04
02
7C
00
7E
02
03
79
7E
7F
7F
7E
7E
7D
00
78
7B
7F
79
00
79
00
7C
7F
7C
08
7A
7E
04
09
02
00
76
02
69
03
7F
00
01
6F
02
7B
06
00
01
01
01
7F
7D
02
71
7C
7E
00
7A
00
08
7E
77
7F
07
71
7F
7E
7A
02
09
01
02
7F
7F
02
01
7F
7C
7E
09
7F
7F
74
00
00
0C
04
77
7F
03
02
7D
04
7D
7F
7B
03
02
02
7E
7E
7B
7E
7D
7C
00
02
7C
7B
00
7F
7C
01
01
06
02
7E
74
7C
7C
7E
7C
01
06
02
02
02
03
0B
00
00
79
01
07
04
00
03
00
7F
02
7F
02
03
04
01
00
7D
01
00
79
7E
70
04
79
01
7F
01
00
7E
7D
01
02
01
7F
7E
7B
00
7F
7D
01
7E
01
02
00
01
7E
02
00
7F
00
02
7D
00
01
01
01
00
02
01
7C
00
00
7C
00
02
7E
7F
7E
7C
7A
7E
7F
7F
7D
02
00
02
00
7D
00
7D
7D
01
01
7D
7E
00
00
7D
01
01
7F
7D
00
00
01
00
02
7F
01
02
7D
7D
7E
01
7B
01
02
01
7D
01
7F
7E
7D
00
7D
01
01
7F
7E
7F
08
7C
02
02
79
0B
7F
7E
07
00
02
7E
00
01
03
0B
08
02
01
00
03
7E
7B
00
7F
01
7F
01
72
7D
05
00
08
7C
7F
7F
78
0A
02
7D
7F
7F
00
00
01
7F
7E
78
01
04
00
7D
06
7E
7D
1E
00
02
03
7B
70
04
04
7F
7F
01
7E
7F
02
02
00
02
7E
00
7E
01
02
7F
03
00
01
00
03
02
7D
01
7E
7C
7E
02
7F
02
01
00
02
7E
7D
01
7C
00
7A
7E
7F
7C
7A
7E
7B
7C
01
79
00
72
7F
7D
00
02
01
00
02
5E
01
7E
05
00
04
02
76
01
7F
79
7F
7D
01
03
00
7F
06
7D
00
01
7E
7E
7F
09
6C
7B
03
03
70
7F
79
02
7B
01
10
00
00
7E
7F
7F
76
7D
02
00
7E
02
02
7E
78
7F
7F
03
7E
02
00
01
7A
00
01
7E
7E
01
7C
71
7F
7E
04
02
02
00
7F
03
7E
01
7C
01
7B
00
7D
7E
03
7D
7F
02
7F
00
7E
7B
7E
7F
00
7B
7C
7F
7D
7A
7D
02
7A
02
72
00
77
7C
6E
03
7E
01
05
79
7B
7F
71
02
79
7E
00
01
01
0A
7C
7F
02
02
02
00
7C
72
02
01
02
7F
07
02
7A
01
5A
03
05
01
02
77
00
7F
76
00
7B
00
02
03
7E
7D
74
02
03
7D
70
01
02
6D
7F
02
7D
7F
0C
7D
6C
00
7C
01
04
01
7A
7E
7F
06
07
7E
7C
7F
00
02
02
7C
5C
00
7C
02
7A
02
7C
76
01
7D
09
7C
08
7E
6F
03
7A
79
03
7F
7B
05
04
7E
04
00
02
04
04
7B
01
77
23
05
7E
00
19
01
7D
14
7F
01
04
7E
74
01
14
7F
06
6D
0B
00
01
7D
7B
7F
7E
00
05
7E
7F
0B
01
08
01
02
7E
01
77
02
7E
0D
7C
02
78
7C
03
00
09
02
7F
7F
01
02
7F
01
03
7F
00
7E
7E
7E
7D
7C
01
01
7C
7F
02
7F
7D
03
02
7F
01
01
7E
7F
7C
7C
02
7C
59
7C
01
03
7E
7F
00
06
7D
02
7B
7F
7F
02
02
0E
7B
04
7F
01
7E
01
05
0D
03
03
02
00
05
03
7A
04
77
7A
7B
00
7B
03
04
02
02
01
01
00
7F
7D
00
08
0F
02
05
02
01
00
7F
18
7F
01
05
7E
7B
01
0D
00
6B
04
05
7F
7D
70
00
02
06
7E
0C
00
02
02
02
09
6C
03
03
02
7A
7F
05
03
02
01
0E
03
11
01
00
7F
7D
02
00
03
7F
77
7F
03
06
7F
7D
02
02
00
7E
78
5B
01
7E
7F
7B
7E
01
77
7F
01
07
7D
04
00
67
7F
08
7E
71
02
7D
09
02
7B
08
02
07
00
03
05
7F
7F
00
08
00
7E
08
7D
7D
21
00
7D
08
7E
6B
05
02
7F
7C
06
7B
01
7F
03
00
7C
7D
00
04
7D
01
03
7D
7D
7C
03
7D
02
7B
7F
03
7E
7F
01
7D
02
7A
7E
7F
7C
05
04
01
03
00
06
7D
02
7F
7F
06
01
01
00
01
79
7F
00
03
00
00
01
7E
7C
01
01
7D
7C
6F
01
7C
02
7E
7E
7F
7F
7B
7C
7C
00
02
7F
7D
7C
00
00
7F
00
7F
7C
00
02
7F
7E
00
7D
01
7F
7F
00
7F
7E
7D
7F
0C
7A
03
7F
76
09
7E
02
02
7D
7C
01
01
00
7F
11
0C
7E
03
00
03
01
7A
7B
7D
02
02
00
6E
7E
0E
01
79
07
7A
00
09
7F
00
00
77
7E
7D
7F
00
03
7F
01
7E
02
00
02
7C
7D
7D
7B
7D
7D
00
7E
7D
01
02
01
72
77
02
7E
05
73
7F
7D
03
7E
0B
7F
04
05
7F
13
77
7F
01
01
73
7F
02
0B
7E
7E
7C
7D
06
03
75
03
1D
02
02
7F
05
78
7F
79
79
02
16
04
04
02
02
03
01
01
00
7F
13
7F
01
11
00
02
75
03
01
7D
08
01
70
7A
00
7D
7F
00
01
02
79
7E
0B
7D
7D
05
7F
18
7F
7C
04
7D
7E
02
00
17
7E
01
04
7E
02
7C
07
01
04
02
71
7E
04
12
04
7C
09
02
0D
7F
07
7D
7F
7B
01
7E
7C
7F
01
02
06
02
00
00
7C
03
01
05
05
01

