FE
F7
FD
00
FF
FB
FE
FE
FC
03
01
FB
F5
FF
FC
F3
FD
FC
01
00
FB
01
FC
FC
01
FE
03
FF
01
01
FB
00
02
FC
02
FE
FE
FE
FE
01
01
FB
FF
00
02
FD
FD
FD
02
FF
03
03
00
00
FE
00
FF
00
FE
02
02
01
FF
FE
01
FE
FE
03
FF
FD
FE
FC
00
00
02
FF
00
02
FD
FC
02
FE
FE
FF
01
01
FE
00
FC
00
FF
03
02
02
02
FF
03
FF
03
02
03
FE
05
01
03
03
00
FF
03
02
00
FF
F9
00
FC
FC
FB
FE
FD
02
09
05
FE
F8
FD
FB
F7
03
01
FA
FE
FF
FE
08
F2
02
FF
08
FE
FA
FD
02
00
04
00
FD
FA
00
FA
01
EE
F5
FE
FE
00
FF
03
FA
00
FF
FD
01
FE
FF
02
FC
07
01
04
03
FE
02
FE
FF
FB
04
01
FF
F9
01
01
FF
FC
FF
01
01
FD
00
FF
FC
01
02
FF
02
02
00
02
D5
0A
00
00
08
FD
04
F9
02
FD
08
FE
FE
FB
FD
01
01
F3
F9
00
00
FD
FC
00
FD
F8
02
01
05
FE
FE
02
FF
FC
03
01
F4
01
F6
13
F3
FF
F8
00
03
FF
01
FE
FE
06
02
F9
01
FD
FC
01
00
EA
02
01
FD
FD
00
FE
02
FF
FE
FE
FF
00
FF
02
FE
FD
FD
00
FE
FF
FD
03
02
FB
FB
00
FB
FD
02
FD
02
00
FE
00
0A
02
00
00
F5
F8
FE
02
00
FE
00
00
03
01
03
FD
01
FE
FD
01
05
0B
01
FD
02
00
FF
FE
03
10
FF
FE
05
FA
01
00
EC
04
06
FE
EF
03
01
00
FD
FE
FC
00
02
F8
FC
00
02
06
FD
FD
E7
01
00
FE
FC
FB
02
FF
FD
FD
FD
FE
FE
04
FB
FD
FE
FE
02
ED
01
FE
02
00
FE
FF
FF
FF
01
FB
FD
01
07
FF
F4
FF
02
F7
00
FF
01
FD
FE
00
FE
E9
00
00
02
02
FF
0F
FB
FD
FE
01
02
FD
FE
03
05
FF
F9
EA
00
00
0C
01
F8
02
FF
02
FF
05
FE
01
FA
FF
00
00
FB
FD
00
FA
FA
FF
01
FE
FF
FE
FE
00
05
FE
F8
FF
00
02
FE
02
00
FE
03
FD
0B
01
02
01
FE
02
03
FE
03
01
00
18
FE
FA
01
FC
00
01
FE
01
01
05
FC
FE
01
FE
FC
01
03
E6
01
FE
FD
03
FF
02
EC
FB
FE
01
FA
01
FE
FD
FF
FF
ED
00
01
F9
02
FF
FC
FE
F8
F6
E1
FE
01
FE
FD
05
FD
02
F0
FD
02
FE
FF
0A
FC
01
F9
01
02
04
FF
06
EF
FD
02
FB
00
02
02
E4
00
FA
F7
FE
FC
FE
F8
FE
01
02
FF
02
02
02
00
04
01
FE
FE
00
FD
FF
01
FF
FD
FD
FF
FE
FF
FD
02
FF
FC
FD
00
FF
00
00
FE
FE
02
FF
02
FF
FE
01
17
E8
F7
02
09
FE
FE
FE
FE
FF
0D
01
FE
FD
00
FE
FD
F9
E9
FB
FD
FF
F6
01
FF
FE
01
00
FD
00
02
02
00
FC
04
01
F8
FF
FD
09
FF
FF
01
FF
01
00
01
FF
FF
F9
FE
FB
00
00
FE
FE
FE
F8
02
FD
04
01
FF
FF
F6
FD
01
01
05
00
FE
02
FE
FD
01
FF
00
03
FF
00
06
00
05
04
FC
FD
01
01
FD
E8
FE
00
FA
FE
FF
02
01
01
FE
01
09
FF
FF
F6
FA
FD
FE
02
FC
07
FD
02
FF
EC
05
FB
05
FF
F7
03
F6
01
FF
01
FF
05
02
FD
FB
06
FD
FD
05
FE
FD
F4
FE
FE
0C
FE
FE
F7
FF
FF
02
F1
FD
00
03
03
E2
00
F2
F3
03
01
FF
FD
FF
FD
FF
F6
00
00
F2
02
01
F3
FA
FD
FF
02
FF
00
FE
FF
FF
FF
FE
FA
04
01
FB
FF
00
10
FF
01
FD
FF
00
00
01
04
00
00
02
02
FE
F6
00
FD
FE
FF
01
FC
FC
01
01
01
03
05
00
FE
FF
FF
00
F9
FF
02
FE
FF
00
02
FF
00
00
FE
FB
01
F9
FE
FF
02
FE
01
02
FD
00
FD
FD
FF
FB
FE
00
FF
FF
01
FD
03
03
01
08
02
03
FF
03
FE
00
01
0D
00
FB
F3
FB
FF
0C
FC
FD
FB
04
FC
00
F3
F4
FE
FC
00
FB
01
FB
02
FC
FE
F7
05
02
FD
07
01
FD
00
F9
FD
FD
FF
FC
00
03
00
01
FC
01
01
01
F4
FC
FC
FB
02
01
FE
05
F8
00
01
FF
02
01
02
02
FD
02
02
FB
FD
01
05
03
FE
01
FD
FE
00
02
01
01
F6
F3
FF
FF
01
00
02
FF
FD
00
02
00
FF
FF
00
02
00
00
01
FD
FD
FF
FD
00
FE
01
00
FD
01
01
FE
FD
FC
01
FF
FD
00
01
FD
00
01
03
FE
00
00
03
02
03
FC
02
FE
FE
FE
FB
02
FC
03
01
FE
FE
FE
00
FE
FF
FC
FC
FF
FD
FD
FD
00
01
FD
02
FF
F7
02
FE
04
E8
F4
FF
01
09
02
03
F4
FD
FE
0B
03
00
FF
00
01
00
F9
FF
FD
FF
FE
FE
00
00
F7
FE
01
FD
FE
02
FE
FF
00
FF
02
01
02
02
02
02
01
FE
00
FE
01
00
02
FE
FC
FF
00
FD
01
01
FE
FF
02
00
FF
FC
FD
02
FE
FD
FE
04
FE
FC
01
03
F8
FD
FF
FB
FD
FF
FD
FE
02
00
05
FD
06
02
03
FD
03
FA
F2
01
FF
00
FC
01
03
02
05
00
FF
00
FF
FD
03
03
02
FF
FD
FF
FC
FE
FF
00
FC
FF
01
00
FE
F8
FE
FC
FE
02
03
F2
FE
01
FE
FE
00
FE
FE
FE
FF
01
FE
FD
03
FE
FE
00
FA
01
01
01
F0
02
F1
FE
FF
F8
FF
00
00
01
01
FD
FF
02
03
03
FE
FD
00
00
02
01
F5
03
00
FE
FF
FF
03
01
01
FF
06
FC
03
02
03
F6
FE
FC
E6
FF
02
00
FE
00
00
FF
FF
02
FD
FF
FF
02
FF
00
FD
00
00
FD
00
00
00
FD
FF
02
FB
FD
FD
00
02
04
FF
FF
FD
FC
01
01
FE
FB
03
00
FF
F0
01
00
00
FE
FE
05
FF
00
03
00
FC
FF
07
FF
F9
E0
03
01
00
02
07
02
00
01
01
02
02
FE
FE
00
00
FF
00
FE
FF
FE
FE
00
01
FF
FF
01
FF
FF
FC
FD
FC
01
FD
02
FF
01
03
02
FD
02
00
FE
FE
0D
F6
FE
03
03
02
FB
F7
FD
FF
0A
03
00
F6
01
FC
FF
F2
FA
FE
F7
03
00
00
F8
01
FD
FF
F9
01
03
FE
02
FF
FF
01
FB
03
00
06
01
FF
FF
FC
01
FE
04
00
FF
EE
FD
FE
FD
00
FF
FF
FB
FE
02
FF
01
FE
FF
01
01
FD
00
02
00
FE
02
01
FE
FE
FE
01
02
FF
FE
00
01
FF
FE
FD
00
00
FC
01
FD
FF
00
01
FF
01
FE
02
F8
FA
FD
00
C5
03
FF
FC
FF
FC
EA
00
04
FF
FD
FF
01
06
F2
F8
01
FF
07
FE
F4
01
FF
02
02
01
FD
00
E3
05
FD
04
CC
01
01
02
03
00
E7
04
FE
FD
FB
FB
06
FF
FF
F6
05
FD
FB
00
07
F5
FF
02
FE
FB
FF
02
02
F6
FE
FF
FF
03
01
F1
FF
01
FC
04
FB
FE
02
FF
02
FE
02
FD
02
01
FF
01
05
07
01
02
FF
01
03
FE
FD
FF
FC
FE
FA
02
00
FB
FD
FE
FE
04
01
00
02
FF
00
F3
00
07
00
FE
FD
FF
02
FF
FE
FE
F8
00
02
FF
FE
FC
FE
01
04
FF
FE
1B
F6
00
FE
FF
FF
06
FB
00
00
F6
0A
FC
03
FD
F3
02
F7
F6
01
FD
0C
00
01
02
06
EB
FF
FF
06
00
FC
05
08
FD
02
02
FD
04
FE
FD
00
F9
FE
F9
FF
01
02
02
00
00
02
FD
01
FE
FE
FE
FD
FC
01
FE
01
01
FE
FC
FC
FE
FF
FE
00
00
01
02
00
FD
FD
FE
FD
01
FD
02
FF
01
02
02
F7
00
02
01
01
FD
02
01
F1
FF
01
0C
FF
FB
02
FB
FF
01
FE
00
00
01
02
02
05
FF
F4
FE
FE
FA
FF
FE
FC
00
FE
FF
F4
F6
01
00
FF
00
FE
FF
03
01
08
FF
FF
FF
00
FF
FE
02
02
FD
03
01
00
03
04
FA
03
00
01
FE
FD
FD
FF
00
FD
00
FB
02
00
01
03
FD
FF
FD
02
FD
00
FE
00
02
FF
00
FD
FD
01
FF
00
FE
FE
FD
00
FE
01
01
E7
03
00
FE
FD
01
FF
FE
FD
02
0A
00
FE
03
03
00
FE
05
F2
FB
03
00
F3
FE
F2
04
00
FF
FD
FE
FE
FF
00
02
FD
01
01
FD
01
01
01
00
FD
01
FF
FF
00
01
FD
FD
00
FF
FE
02
FE
03
01
00
03
FF
FF
FE
02
FD
0F
09
00
FB
06
00
FD
FE
01
01
06
FF
FF
FD
FD
FD
F9
E4
F6
FC
02
FE
FF
00
FE
00
FC
03
00
FE
01
02
FD
04
02
03
E9
02
FE
F3
06
00
E2
04
04
FE
02
00
FC
00
F8
F9
DF
04
03
00
F7
06
FD
FF
00
03
03
01
DE
01
FF
02
C1
00
FC
08
03
03
E0
02
FD
FC
02
FB
06
02
FB
0A
0D
FE
F6
FF
0B
F5
FD
02
F5
02
FF
FF
07
F4
FF
00
FA
FF
FB
FE
03
FE
01
FE
00
00
00
FE
FE
F0
FD
FB
FA
FE
02
FF
FE
EF
FE
01
01
FE
01
01
F9
FC
FF
01
04
00
00
18
04
FF
FA
02
02
00
00
FC
00
FE
FF
03
04
FE
FC
02
F8
F2
FF
03
0B
FF
01
02
FB
EF
F7
01
07
FE
FE
09
FE
03
00
01
03
F6
FE
01
FB
F9
F8
FF
FF
00
F8
FE
F8
03
03
FE
FD
02
FF
FF
0C
00
02
FE
0B
FF
01
FC
01
02
0E
02
00
FF
01
01
FD
FC
F5
FD
F2
00
02
02
02
01
FF
FE
FD
02
FE
01
FD
01
01
00
01
03
FE
00
FF
02
FD
FD
FF
01
01
FD
FD
FD
00
02
00
FE
00
01
FD
FE
FE
FF
00
FD
00
01
FC
FF
FF
02
01
FD
00
FE
FD
FD
FF
FE
00
01
FD
FD
FC
FE
FD
FF
FB
02
00
FF
FD
FF
00
FF
FB
FD
FD
03
00
0A
02
01
F1
01
FE
FB
FD
FE
0B
FD
00
00
01
02
03
DF
01
FF
F4
01
FF
FE
01
01
FE
02
FD
03
FF
FE
02
02
02
00
FA
FF
02
03
FD
FE
FA
00
FD
FD
FD
FC
FF
F8
0B
EA
04
00
F5
03
FF
F9
FE
FE
03
01
03
01
F7
01
04
03
F5
00
FF
F7
02
FC
F9
FD
03
FF
01
FF
FF
07
FF
04
FB
03
02
FE
FA
07
FD
FF
02
02
00
00
F9
FA
02
FF
01
01
FF
02
FE
FF
09
FF
02
00
FC
FF
FE
11
06
01
FE
FF
06
01
03
08
03
03
03
03
00
00
E7
FD
04
00
0F
FE
02
0B
FD
FD
07
FC
02
F9
FD
01
FE
FF
F9
EC
FB
FD
FF
FD
FD
D7
FE
02
FC
02
01
01
00
00
01
01
02
FE
FC
07
04
FC
FA
FD
00
FD
FC
FB
02
FF
FD
02
02
FF
F4
01
04
F7
FE
02
00
FF
FF
02
FE
08
FE
FD
F4
FF
FF
F6
FD
FE
01
FA
00
FF
01
FD
FF
04
FF
01
05
FE
FA
FE
FD
EB
FD
00
05
04
00
01
01
01
03
02
E7
FE
05
0A
04
03
ED
FE
01
02
FF
00
01
01
F3
E1
F0
FE
F7
FF
07
01
02
02
FD
01
02
FF
FB
FD
FD
FE
00
02
FF
FB
FD
02
FF
00
01
FD
FE
03
FF
FC
FC
00
FD
FF
01
00
00
FC
01
01
03
00
FD
FF
FF
FE
03
01
F4
FF
04
F4
00
00
FE
01
02
F7
FD
FE
05
FE
FD
F4
F6
03
F8
02
FE
FB
01
00
F2
FF
FE
FF
EB
FB
FD
01
F5
03
03
FC
FF
01
00
03
00
FD
03
04
FA
EF
F7
07
01
02
FB
00
FF
E7
03
03
02
03
FF
01
F8
06
FE
FC
FD
02
02
0D
F7
FF
FE
04
00
FE
02
01
00
06
04
F8
03
02
FB
02
F8
ED
01
02
F4
FD
01
00
F9
FD
02
02
F5
01
01
FA
00
02
FF
02
02
FC
02
01
FE
F0
00
FC
F9
02
FE
01
00
00
02
02
00
FE
03
FF
FE
03
FC
FF
FF
02
00
02
FF
02
FE
FE
00
00
FE
02
01
FE
FC
FE
FF
00
00
02
01
01
00
FD
FE
FD
01
03
00
F8
FE
02
F2
03
FD
01
FD
FF
F1
FF
FE
00
FE
FA
FF
04
EE
00
D6
02
E4
00
00
08
03
FE
01
FF
FE
03
FE
01
00
02
FD
FE
FD
03
02
FE
FC
02
00
00
01
00
FD
FE
FE
FE
FE
01
FD
00
FE
FD
FF
FD
FE
03
03
02
01
FB
02
FF
FF
02
FB
F8
FD
FD
FF
FD
00
F9
FC
F9
01
FF
03
FF
FE
FF
F6
FE
FD
F9
FF
FD
06
FB
FC
FF
F9
05
04
FF
F1
02
FD
0C
0B
FF
05
04
02
01
00
FE
03
06
F6
01
F5
03
FD
03
05
09
02
00
F9
FF
FF
FE
00
FE
01
01
F9
FD
00
F9
FB
FF
00
FF
04
03
FF
FF
FE
03
FE
02
FF
FD
03
FF
03
01
00
02
FA
FD
03
02
0A
FF
02
03
FA
FD
02
FC
FD
01
FE
FA
FD
FD
02
FF
FC
F3
FD
FE
F9
00
FD
01
FC
FB
00
04
00
02
FE
FF
D5
FC
FF
00
0E
01
03
F6
FE
02
04
04
FF
FE
FE
FF
04
FD
04
04
06
02
FA
01
FD
E0
FE
03
02
FB
02
FF
FF
00
FB
03
01
FF
02
EC
FF
02
05
05
FD
FD
03
FE
02
FC
01
FE
02
01
F9
00
FE
F9
00
02
00
00
FF
01
E0
00
02
FF
0B
FF
FF
FE
01
02
09
FF
FF
01
01
00
02
F8
FD
FE
00
FE
FF
01
FB
E1
00
FF
00
07
01
02
FD
03
FC
FE
EE
00
00
F9
04
03
F4
02
01
F1
FD
FE
00
F1
FC
E9
FF
01
F5
FF
F6
FD
01
FF
FD
FF
00
02
01
03
FE
FE
FE
01
02
00
FE
00
01
00
01
01
FE
FF
03
FF
FC
FF
00
00
01
03
FE
FC
FF
FF
FC
01
FE
03
FE
03
FE
02
FE
FE
FF
01
FF
FF
FF
01
00
00
03
FC
FE
FF
00
01
FD
FD
FC
01
01
01
00
FD
FD
FD
FE
FE
FD
01
FD
03
FC
00
00
FB
00
FE
FF
FF
FE
01
01
FD
FD
FD
FD
FF
FE
02
00
02
FE
02
FE
FF
FB
01
00
FD
FD
01
FC
FF
FB
02
FD
00
FF
FD
00
00
FF
FB
FC
01
FF
F9
FF
01
00
00
00
01
FE
00
FD
FD
FF
01
03
FF
FC
F2
03
FE
F2
01
05
0C
F8
02
FF
FC
01
03
FD
FB
06
04
02
E7
05
01
E9
FE
EB
F4
FE
00
FC
FD
01
01
00
01
FF
FE
FC
FF
01
02
FF
FE
FE
FE
FF
FD
FE
FD
02
F7
03
02
FE
FE
02
01
01
FC
00
02
00
09
FF
01
F0
0B
FD
02
D6
FE
00
02
FA
02
E6
F9
FF
FB
FE
FB
04
FE
04
FC
02
FE
02
00
07
05
03
03
03
FF
01
03
02
04
FD
FE
F5
00
00
F9
00
02
FA
FF
FE
FE
FF
FC
01
FB
00
FA
01
FF
FA
01
FC
F8
01
02
F5
FF
FE
03
FE
04
02
02
00
FF
FE
FA
00
FF
FF
03
FE
FE
FD
00
00
02
00
FF
FD
02
F8
FE
FA
FF
01
FE
01
FA
02
03
FA
FF
00
00
E8
FD
02
0C
FC
FE
FC
05
02
FD
02
FA
FC
03
F8
FE
03
FF
F2
01
FA
EE
FF
01
FD
FD
00
01
06
F1
FD
00
FE
00
00
00
02
FF
00
FE
FE
FF
FC
FF
02
F8
FB
01
F9
FE
FE
02
00
01
02
01
F7
FE
FE
02
06
04
01
04
E3
00
FB
FA
FB
00
DC
FF
FE
07
00
FE
01
06
04
04
E0
03
FC
00
01
FB
00
00
FB
FF
02
01
F2
F4
FE
FF
0B
03
01
F4
00
FD
0E
FF
FD
02
02
01
FD
FC
F9
03
F5
FD
FE
00
01
F8
01
01
FD
02
00
01
FF
FE
01
FD
FD
02
00
FD
02
02
02
FF
03
03
00
FD
02
00
FC
FE
FE
03
FF
FE
FD
01
02
01
FE
FF
00
FF
FE
FB
00
00
F9
01
FD
02
01
FF
FA
FE
02
FB
00
FD
03
F9
FD
FF
01
00
FD
02
FB
F9
FF
00
00
FF
FE
03
00
FD
FF
FE
FD
FF
02
FB
FF
01
01
01
01
FE
FF
01
FF
F9
00
FE
FE
01
FF
FE
00
FE
00
FE
FC
FD
FE
FF
FD
F6
01
02
FB
FF
FD
01
F8
FD
05
01
02
03
01
FD
FF
FE
01
01
FF
01
06
01
01
FF
01
FF
FF
FC
00
FF
FA
F7
03
03
00
FD
00
FA
FE
01
03
FE
00
00
FD
FE
04
04
F1
06
F1
FF
F6
02
FC
FD
01
01
01
FD
FF
01
01
FE
FE
00
FD
FE
01
01
03
FF
01
FD
FE
FD
FD
FD
01
FC
01
00
FD
02
FD
02
FE
FF
03
FE
04
FE
01
01
F6
05
03
03
FE
03
FF
F6
FF
FD
01
00
02
03
04
01
00
FD
FB
FD
FD
FF
FE
FE
02
06
FE
FF
FF
03
01
00
01
FF
02
FD
FE
03
FF
01
FD
FF
FE
02
FF
00
FE
FC
FF
FA
00
FF
FD
00
00
FF
FC
FF
01
02
F0
FD
FF
FE
ED
FF
00
FE
04
03
02
04
FB
FF
ED
FE
FD
04
04
01
FE
FC
FA
04
FF
01
01
03
F1
FE
00
FF
F9
FD
FF
FE
FA
05
00
FE
E7
FD
00
08
FF
FD
00
00
00
00
00
FB
02
FE
00
07
00
FF
F8
01
F9
01
FE
FE
00
02
00
03
FF
FD
FD
00
FF
FE
FD
FD
02
FF
FC
FF
01
FD
FD
03
FD
FC
00
FE
01
FE
01
01
01
FD
00
00
FA
FE
01
00
FD
FC
01
00
03
02
FF
10
00
FF
06
FC
00
00
FC
FF
02
02
FE
FC
0C
03
02
04
06
02
00
00
00
FE
FF
FF
FD
FF
FE
FD
FE
FD
00
FE
FF
FD
FD
FE
FF
01
FF
02
FD
02
FE
00
FD
FD
01
01
01
01
02
02
E9
00
02
01
1F
03
02
02
FC
FE
03
04
FE
FE
FD
01
02
F9
04
FF
00
E5
13
03
F8
03
FF
FE
09
E2
FD
FF
05
00
02
FD
0A
02
05
03
EE
FF
00
09
06
01
01
02
FF
FA
FD
FD
03
03
F9
DE
DB
FE
F0
03
FF
03
FF
01
F4
01
02
FE
04
01
FF
FE
03
01
FE
06
FC
FE
05
FD
01
04
01
02
02
F0
08
FA
FB
FE
F4
00
04
F9
FE
FE
E8
01
FE
FE
FE
F6
00
FD
08
FF
00
0D
FD
FD
D7
FE
01
00
05
FC
FC
FD
F2
F9
F5
00
02
00
F8
04
01
00
03
03
02
01
03
FD
FF
FF
01
FD
FB
F8
00
FD
05
00
01
FD
FE
00
02
FE
FF
00
00
FF
FC
00
00
03
01
00
FF
02
FE
02
01
F8
01
01
FE
FE
02
09
03
FF
FE
01
02
02
FD
FF
01
F7
FE
FE
FF
FE
02
00
00
02
02
FE
FE
00
FF
FF
EF
FE
FE
01
FA
02
FB
FA
F9
04
F1
03
01
07
01
00
03
02
01
05
00
FD
05
01
FE
F1
00
02
08
05
03
02
FA
03
03
00
D6
02
01
08
FC
01
F1
FD
01
FB
03
FD
05
01
F7
00
FA
FF
01
FD
FF
F8
02
02
FE
FF
02
01
FC
FE
FE
FD
FE
03
FE
FD
01
00
01
00
FF
01
FE
FB
FE
FC
00
FC
FF
02
00
FD
FB
FF
02
00
FF
00
01
FD
00
FE
FD
FC
FD
02
FC
02
00
FF
01
FE
01
00
FE
FE
FF
00
FB
FD
FA
FE
FE
FE
FD
FB
FD
01
01
FE
01
03
02
FE
00
00
FE
FE
02
01
FE
FF
00
00
FE
FD
FF
FF
FE
00
FD
FC
FC
FE
FF
FD
00
01
00
FC
01
01
00
02
00
06
02
00
00
03
FF
07
FD
FE
04
FD
00
01
FE
FD
FD
02
FA
FF
01
01
F9
01
07
F3
FE
02
FE
00
FF
02
0A
F7
FF
00
FC
FD
03
01
FB
00
03
FF
FD
FD
01
FC
FF
E5
FB
07
03
02
FE
02
FF
F6
FF
02
FD
05
03
03
D4
FE
0A
FE
FE
02
02
09
FC
02
0A
04
02
02
01
00
FF
04
F9
06
D9
FE
02
00
F6
DD
FF
01
FE
01
FF
01
F0
FF
FF
02
F4
01
00
FE
FE
00
EF
FE
FE
03
02
00
FE
03
01
01
F8
01
00
00
05
03
FF
02
F2
FE
01
00
05
FA
03
01
F2
FF
FD
04
FC
FF
F4
FE
FF
FF
00
FE
03
01
F4
0F
B1
01
F2
FD
F9
FB
02
FE
04
07
01
FE
EA
03
02
02
DC
01
00
F5
FD
FF
F8
00
01
FD
02
F9
01
01
FD
FD
FF
FF
FD
02
F8
10
00
FD
04
FE
FD
04
FD
FF
FE
01
00
FF
01
00
03
02
FF
04
02
FE
FD
FE
03
EA
FD
05
03
01
02
FE
FE
FA
00
FE
F1
02
FE
02
FE
EC
FB
02
FB
00
FF
06
02
FF
02
FD
FF
FD
04
00
FC
F7
08
06
F0
00
0C
01
FB
F5
00
00
05
01
02
FD
11
F9
FF
01
FC
03
FA
00
FE
FB
02
01
00
03
00
FB
01
07
00
01
06
FD
FC
FD
06
FC
01
03
FE
FD
02
00
00
FF
00
FE
00
FE
01
FC
01
FC
FE
FE
01
FE
02
00
03
FC
FE
FC
01
FF
FD
FD
00
01
00
FE
02
FE
FF
FD
FE
01
00
02
FD
FD
FD
FF
FE
01
FF
FF
03
FE
FE
00
FD
02
01
02
01
02
FE
02
01
01
00
FD
03
02
FD
00
F2
02
03
01
F9
01
FF
18
FD
FF
01
05
00
04
04
FD
03
FE
03
F7
01
02
F9
FD
FD
F8
02
FE
03
00
02
01
01
FD
FE
FC
02
00
FB
03
FF
FE
02
FC
03
03
02
FE
01
F9
00
F9
FE
FE
00
FE
02
FF
02
FF
F7
01
00
00
E5
F5
02
03
D4
FE
F8
02
FF
FD
E9
FE
FE
FF
00
FF
FF
01
05
E2
0B
FE
FB
01
FD
FF
FF
FE
00
FE
00
FF
01
FF
02
02
FD
FE
FF
00
FF
FE
FD
01
03
00
FE
FE
FD
FC
FC
02
FE
00
01
FD
FD
00
02
FE
FB
FD
00
01
02
FD
FB
00
FE
FE
01
FF
00
FE
00
02
02
FF
00
01
01
FD
FE
FE
00
01
FF
03
FE
02
00
00
FF
02
FF
FE
01
FF
02
FD
FC
FE
FF
0A
00
00
FC
02
FF
05
00
01
FF
F3
FE
FD
FC
01
FF
01
FE
FE
02
02
01
01
00
FF
02
F5
FE
03
FF
FF
02
FD
02
FD
FE
00
FE
FD
00
FD
02
FA
FF
F7
03
FD
FD
01
F9
00
02
00
FF
04
FE
01
FE
00
07
FF
FD
02
FF
08
FD
FF
04
FF
01
FA
FE
02
01
07
DB
00
D0
03
FA
01
F9
F8
FE
01
FA
01
FE
02
F5
01
00
FE
00
FF
03
F5
01
FF
FF
FF
02
FD
02
FE
03
FC
FD
FF
FE
FD
FD
01
FD
FF
01
00
FF
00
FF
FE
FE
FB
03
FF
FE
01
00
01
FE
FE
01
FC
FF
00
FE
02
02
FA
FB
FE
FF
03
FF
00
FB
FF
FF
00
FC
01
03
01
01
02
FC
00
FA
01
01
F9
FE
00
FA
FC
01
00
03
02
FF
01
FE
01
F9
03
F9
03
FD
FB
00
02
03
FD
00
00
06
08
03
03
F8
00
06
FB
03
00
FE
FD
01
ED
FC
00
FE
01
FD
00
F8
FD
F3
FD
FF
F5
FD
00
FF
FF
00
FD
00
00
00
FE
FC
03
FF
FE
FE
FE
FE
00
FD
03
FF
02
00
FC
02
FE
02
02
FE
03
FF
00
02
02
01
01
02
FE
F9
05
00
FF
EE
03
00
08
01
00
F9
02
FD
FB
00
FB
00
03
F5
11
01
02
FE
01
F8
00
FF
FE
FB
FD
01
FF
F7
02
00
01
F7
01
02
14
04
01
FD
05
FD
FE
FE
F9
00
FB
08
06
01
00
02
FE
FB
F6
03
02
01
FF
FF
FF
FF
01
FF
FF
FE
00
02
02
FE
FE
FF
FD
03
FE
01
00
FD
FD
00
FD
00
00
FF
02
FD
FE
02
FF
01
04
02
FF
F9
F4
03
03
02
FE
FB
07
FF
FD
08
FE
02
FF
00
00
00
04
FD
FE
F8
FD
00
FF
FF
D0
02
00
FE
FF
FF
01
01
FF
00
00
FD
FF
FF
FA
FE
FC
02
01
03
02
02
00
01
FA
02
00
FD
01
FA
00
FB
FD
FE
FE
FE
01
00
03
01
FF
00
02
01
FE
01
01
01
FC
00
FD
FE
FF
03
01
01
FD
00
00
FC
03
FF
FF
00
FD
FD
FD
F4
FC
FF
FF
FA
FE
00
FE
EF
02
FD
01
FA
FF
07
FA
FC
02
F9
00
00
FF
F6
FC
F9
FF
F9
FE
F4
0A
FE
FD
0A
01
02
FF
F7
01
FE
00
FC
02
FC
E9
FD
00
05
FE
FD
00
FF
FA
01
02
08
02
FE
FF
FC
FD
F8
0E
02
00
FA
FE
FE
00
FF
FF
FD
FD
FE
01
00
FB
01
FE
FF
04
FF
04
03
FF
02
F9
FD
FF
FE
FF
FF
01
FD
FF
01
FD
FF
03
04
FF
F6
FC
01
00
E5
FD
03
F7
F6
00
05
02
FD
00
02
FD
00
04
FD
00
F9
FE
F9
01
FB
0C
FE
FE
02
01
03
FF
FF
FD
FF
01
02
02
00
FD
02
01
02
02
FD
FD
02
FE
00
01
FC
00
00
FE
FF
FD
00
FE
FF
03
F4
01
02
01
FC
02
02
01
FE
FE
01
11
01
05
FE
FE
FE
06
00
FF
FE
E9
FA
F9
FB
00
FD
FF
FF
FE
00
02
FE
FE
00
00
FB
03
02
01
F3
02
01
F9
FE
03
FC
03
03
FE
02
FC
00
01
FC
FC
01
00
F4
00
FC
F6
FE
01
FF
FC
FE
01
F3
03
00
FE
04
02
FD
F6
F8
00
0B
FD
FE
03
FF
00
00
04
F9
F9
05
00
04
01
EF
08
FF
01
D6
00
FE
03
09
EF
FE
00
0D
01
FC
00
02
02
0B
FD
01
F9
FD
02
02
FF
F4
F9
F0
02
02
FE
01
03
00
FC
00
FF
00
FF
FF
02
FF
02
00
FF
04
F1
00
03
F8
03
FF
FC
00
FC
FE
FD
FE
07
04
00
FB
FD
FE
F7
FE
00
FD
00
03
02
EE
0C
02
FF
D1
FF
00
0D
01
03
ED
FD
FC
FF
FE
F9
04
FC
FA
FB
F4
FE
FB
FE
F6
03
02
FC
FE
FE
FD
02
01
02
01
FE
F6
00
01
01
01
FD
FF
00
FE
FF
01
FD
02
FF
F9
02
F4
01
FC
FE
FD
02
FE
02
FF
FF
FE
02
FE
03
02
FF
FB
FF
FF
00
FD
01
FF
FD
01
FC
FA
FF
FF
FE
FD
00
FA
01
FA
01
FD
00
FD
02
01
02
02
03
F0
05
03
FF
05
03
00
F2
FE
FE
0D
04
FD
02
FD
01
FF
FC
FD
03
FF
02
E9
02
FA
CD
02
03
FE
02
FE
FF
FE
FD
00
01
00
FD
02
FD
FF
00
FF
04
01
FE
FE
03
FF
FF
00
FF
00
00
FF
01
FC
00
FD
00
02
01
01
02
FC
FE
FD
03
09
01
FF
F0
FE
01
0C
FE
FD
00
00
03
00
FE
F7
FD
EB
FE
FD
FF
FC
FD
01
01
FF
FB
FE
01
FD
FF
FF
05
FC
00
00
13
F8
FF
FD
00
FE
FA
FF
FC
03
05
FB
02
03
FE
F4
02
F8
FA
FE
01
F8
03
FF
03
F8
F7
03
00
00
FE
00
F7
09
02
FE
02
03
02
01
FD
01
FC
FE
02
FF
FD
02
FE
00
FF
01
03
FD
00
02
00
E9
04
01
03
FB
FD
03
09
FF
02
D3
00
01
06
FF
00
FF
03
F8
02
04
01
01
01
FB
0A
FE
00
01
FF
FE
03
FD
02
FF
00
01
FD
01
FC
FE
FE
02
01
FE
01
01
FF
01
FF
FE
00
03
01
01
02
FE
04
FE
FF
FC
FF
01
02
FE
FF
FE
FF
01
FF
01
06
01
01
F8
02
04
FE
00
FE
00
FA
EA
00
DF
FF
02
FE
01
F6
01
FF
03
07
FE
FE
FE
00
FE
04
FE
FF
FC
0A
FD
FC
08
FF
01
FE
FC
FC
03
07
01
FB
05
FF
F9
01
08
06
FE
FE
FE
03
FE
02
04
F5
06
01
E6
FE
00
09
FD
02
E8
FC
04
01
FC
FC
02
FF
F6
00
CC
FF
FF
FD
F8
00
FF
FF
00
FF
03
02
04
F9
01
FE
FA
FF
02
EB
FD
02
FA
01
FB
00
FE
FF
02
00
03
F7
02
FF
FC
01
FA
09
FE
FD
03
FE
FD
02
FF
FE
FF
FD
FD
03
FE
FE
03
01
03
02
01
FD
FD
FF
03
FB
00
02
FC
02
FE
01
FE
01
FE
FE
05
07
FE
01
0B
0A
FF
FC
10
FE
FF
EE
00
00
10
01
FE
01
FB
FE
FC
00
E9
FB
DD
01
FE
FF
F9
00
FC
FD
03
FF
FF
01
01
FE
FE
03
02
01
01
00
FD
01
FD
01
FE
00
02
FE
01
FF
FF
00
FE
02
FC
00
F9
00
03
FD
EF
FF
01
02
02
FC
FC
FE
06
01
02
02
FE
05
FC
07
FC
FA
02
07
00
F2
01
FA
02
FF
00
01
04
EF
FD
FF
FE
00
01
01
05
01
00
02
FF
02
FB
F9
00
FE
0A
FE
00
00
00
FF
FF
04
04
FD
FD
FD
FE
01
03
07
00
03
FE
FF
FD
01
FE
03
01
02
08
FD
FF
F8
00
FF
FE
FF
02
02
01
FC
03
FB
03
FF
01
03
08
FD
FB
FF
FE
00
FC
FE
02
02
F8
08
03
FD
F7
03
01
0F
08
FE
00
08
04
05
00
03
02
F8
F7
EE
F6
FE
00
00
E8
06
01
FE
0C
03
FE
FE
F5
0B
00
02
E4
FF
FF
FF
F9
02
ED
01
00
FB
FB
FA
04
FE
01
F3
03
01
F8
00
FE
FC
03
FD
07
03
00
FE
0B
F8
01
01
07
00
FA
0C
F9
FE
FD
00
00
04
FC
FE
FC
06
01
02
05
00
F6
02
FF
06
FE
01
04
FC
02
01
FA
FD
01
03
01
FF
03
16
01
FE
FE
05
FF
03
FD
FD
00
FF
04
FD
03
FE
F8
02
F5
F2
01
FF
F9
00
03
FF
FA
FF
03
FE
0A
01
01
FF
FF
FF
04
FD
02
FC
FB
FF
FD
FB
FD
FA
FF
FE
FC
02
00
F5
FF
01
00
FE
01
00
02
00
01
00
00
01
00
00
00
FD
FD
00
FF
FE
FD
00
01
FD
F8
FB
FD
FF
FE
FF
00
01
FF
FD
02
FB
FF
FF
E2
FD
02
FF
EC
02
FC
04
F9
FE
E8
00
00
07
FD
FB
00
04
FF
F1
EE
01
FE
02
FD
0B
00
00
02
06
02
03
F7
03
03
00
CC
FE
FF
00
06
FD
E9
04
FE
FD
FE
FA
04
00
03
E5
05
FF
F6
02
F8
F8
00
02
FF
FF
03
02
FE
01
02
02
00
FE
00
FF
02
FF
01
01
FE
FB
FD
FF
FE
FF
FD
FE
FE
FE
FE
03
FD
01
FE
FE
F3
03
FE
02
15
04
FF
FF
FD
FF
FF
FF
F8
01
FE
FC
03
02
04
06
FE
F0
FD
01
03
FE
04
FE
FB
EA
02
01
EC
FD
02
FE
1A
03
07
FF
FC
00
01
FB
02
02
03
FD
FE
F5
FE
FF
00
ED
FB
FB
05
00
05
00
F8
EE
00
00
FD
01
02
FF
01
00
FD
FE
02
02
01
FF
01
01
02
03
03
FE
FF
01
01
00
FD
FE
FD
00
01
FF
02
03
00
02
F0
01
FF
00
F5
04
FF
01
DE
01
01
0A
FD
02
E6
FD
00
FC
01
FC
00
ED
F4
00
CB
01
E4
FE
F3
01
01
FF
F8
FD
FF
03
03
15
00
FD
F5
FE
01
FD
07
FF
FD
01
FE
01
FE
01
FE
03
02
01
02
02
EB
00
03
F3
01
FE
FB
01
03
03
12
FC
FE
FE
08
02
FF
10
FF
03
F7
FD
02
FE
01
01
01
FD
F5
FB
FA
00
FD
02
FB
06
FD
02
01
02
02
00
F5
FB
FE
03
FE
00
FC
FD
FF
FD
09
FE
FF
03
02
FF
FE
FF
F5
FC
F7
02
00
FF
FC
FB
02
01
FD
01
01
FE
01
FB
FD
FF
07
00
00
F1
03
FD
05
FE
FC
FB
01
FF
01
E7
FB
FF
FD
01
FE
03
01
E6
FF
FD
FF
FD
00
02
FE
03
00
FE
F2
FE
03
03
01
02
F0
03
01
F3
00
FF
04
FF
00
F5
E1
02
FA
01
F9
FA
FF
02
E7
FF
00
03
FE
FE
01
FF
EF
00
FF
05
FD
FD
02
02
03
02
00
02
FD
F5
FA
FD
F9
FE
FA
01
FC
F3
02
02
FB
01
FD
00
F6
04
FE
01
02
FF
04
F8
FD
01
03
02
01
01
03
03
FE
E0
01
00
F8
02
01
FE
FF
F2
FF
02
05
01
FE
FF
EA
FB
FF
00
03
FD
00
06
01
00
08
FF
FF
02
FD
00
03
F7
04
01
01
FF
01
00
04
0A
00
FD
FE
FD
FE
00
00
00
FD
FF
FE
FE
FD
01
FE
FE
01
FF
FF
02
FF
00
FE
FF
FF
FF
03
FE
00
01
01
03
FD
00
FF
FD
02
03
FE
FC
FD
01
03
00
FF
FD
00
01
00
FE
01
FF
FE
FE
FD
02
FE
00
FE
FE
00
FF
FF
FF
02
FE
00
03
02
03
FF
FF
00
01
01
00
FE
FF
FE
FF
01
01
FE
FB
01
FC
FE
FE
01
00
01
00
FD
FD
FD
01
02
FE
F4
01
FE
03
07
F9
FE
FF
05
FD
FF
13
FF
01
04
03
00
F5
FD
FE
05
FC
FD
02
02
FD
01
01
FE
03
03
02
FC
FE
03
01
FB
FD
04
FD
F7
01
FF
01
00
00
FD
04
03
03
FE
00
01
00
FB
FE
F7
FE
02
02
FB
00
02
FF
03
03
FE
FD
F6
03
FF
04
DE
FE
FF
00
02
02
F4
00
02
FF
FE
F8
04
FA
FD
F6
FF
FF
FD
FE
00
F9
FF
FE
FD
FE
00
01
FE
02
00
FD
00
FF
01
01
03
FF
FC
FF
00
00
00
FF
03
FE
FE
FE
FD
01
00
FE
FF
02
02
00
F9
FF
FF
FE
01
FA
00
FE
04
02
02
FB
FE
FE
FD
FD
FD
F6
FF
01
FF
FD
00
FE
03
00
FB
FE
00
FD
FE
FE
FB
FE
FF
01
00
FB
FD
FE
FF
00
00
FF
FB
FF
00
FB
FE
F4
FB
01
FF
FC
FF
FE
00
04
FC
FE
FD
FD
02
01
FB
00
FE
01
0D
00
01
FE
01
02
00
FA
02
FE
01
FE
FF
F5
03
00
FC
EC
FC
F8
FF
01
F3
02
FC
F3
01
02
FD
01
FE
FF
F4
02
FF
FF
00
00
03
0C
01
FF
D8
05
FD
07
FF
00
FE
FA
F4
FC
FE
03
FF
02
FC
09
01
FD
FE
FE
01
01
00
FE
00
03
03
00
01
0A
F9
FC
FE
FE
FC
00
FD
FE
02
00
06
01
FF
03
F4
01
01
00
FE
01
FE
FF
02
03
FC
FE
01
02
01
02
FF
F7
00
FF
01
01
02
03
01
FC
00
04
FC
07
FF
FE
F9
FF
FA
E8
03
01
E8
FF
00
FD
07
FB
FB
FC
05
00
05
05
FD
00
02
08
FF
F9
00
03
FC
F1
FF
06
03
00
FF
FD
FF
DE
00
FD
02
FB
01
FF
FF
09
FB
00
FD
00
FB
F4
F8
FC
FC
F8
01
FE
FD
FC
02
FB
06
0D
01
FE
F8
00
FE
F9
FE
01
F5
FC
FF
01
02
F4
03
03
03
00
FD
F7
FB
FE
01
FC
FC
00
FF
FD
02
03
E2
FF
EB
02
FE
01
FE
01
03
02
04
03
FD
02
F6
00
06
FF
00
02
FF
0D
FF
FC
DB
FC
FD
FE
FD
FF
02
FE
D0
F1
DE
FF
FB
FD
EE
03
00
01
FC
03
02
FD
FE
FF
00
FE
FE
02
FE
FF
FD
FF
FF
00
FF
FD
02
00
FC
FC
02
FF
FD
FE
04
FF
FF
01
02
02
FD
03
FE
FD
02
FD
FD
01
FE
FF
FC
FA
FE
FD
09
00
01
FC
FE
01
01
01
00
00
03
FE
FC
02
03
03
FE
FF
00
FE
FE
00
E3
01
02
FF
0E
FF
03
E1
FF
FB
0A
F3
01
02
FC
FF
03
FA
FB
FA
02
01
F8
FF
05
DB
02
03
F5
01
FD
FD
1D
FF
02
03
00
00
FF
08
08
FF
FE
00
00
00
01
FF
FE
E5
FF
FF
FF
01
00
00
FB
F1
04
FE
05
FE
01
03
04
01
00
02
C3
FE
FD
05
07
00
DF
00
00
F8
FD
F9
06
07
EF
FF
07
FE
FD
00
04
08
02
FF
FE
01
00
FF
00
FB
00
FE
FE
04
01
FB
02
FE
F7
00
FD
04
FF
01
FE
01
F9
07
01
FF
FB
02
F3
FD
02
03
F1
01
02
02
0C
FB
02
FC
04
FD
02
0E
00
00
02
05
FF
03
05
01
FD
E5
F4
FD
ED
03
FC
01
FF
F4
FF
02
F7
FF
02
FF
00
04
01
FD
01
FF
03
0D
FE
00
F6
FB
FD
F9
01
02
FE
FE
F9
EB
06
00
07
FD
FE
ED
02
01
FC
00
02
00
02
FE
FE
02
FB
FE
00
FE
01
00
FE
FE
FE
01
FD
FF
00
FD
FC
FD
FA
FF
01
FF
FE
00
01
01
E6
02
02
01
03
04
02
02
FD
02
FF
01
02
01
FE
F9
FF
FC
FB
00
02
F3
F7
09
05
01
FB
FF
03
FB
02
FD
05
02
03
01
01
02
02
00
EA
FF
FB
06
02
FE
F9
FF
FE
FD
FD
FB
03
FF
00
FB
02
02
FA
FF
FA
FC
01
03
00
FE
01
FE
00
01
FF
02
FE
FE
00
FD
00
01
02
FE
FD
FF
00
00
00
FF
02
FC
00
FD
FC
01
00
FD
FE
FE
FB
FD
FF
FF
03
FE
03
02
FC
FD
00
F6
05
FD
FF
F5
02
FC
FC
FD
FE
F9
FC
05
05
FF
FA
FF
01
FC
02
FF
03
01
02
FE
F3
FD
FC
02
09
02
01
FC
FF
FB
0B
FE
01
01
FC
00
FF
FA
FA
FE
FB
02
00
02
FF
E4
FD
FD
FA
03
FE
03
F7
09
FD
01
F1
FE
02
FD
FA
02
FE
FD
FF
FC
04
FD
00
F8
FE
FD
EF
FF
03
FF
FD
04
FF
00
0C
FD
00
FE
F1
FA
FE
02
FE
03
FE
FF
04
FC
0B
FE
FF
FF
FF
FD
01
0C
01
02
00
00
FB
03
04
07
FF
02
F1
03
FF
00
F3
EA
02
01
02
02
00
F7
FB
FB
0C
FC
03
FC
FF
01
04
02
FF
FE
01
FE
FA
FE
FC
F7
01
FE
03
02
FF
02
FF
09
01
00
F9
FD
FF
FF
FF
04
FD
00
00
FE
FE
01
04
F5
03
FC
01
FE
F9
00
FC
01
FF
02
FF
02
02
FD
06
FE
00
02
09
FF
04
06
03
03
F0
01
FC
FB
03
FE
FC
FD
F6
EA
05
FD
F3
FE
FC
05
05
00
FD
00
01
01
FF
FB
02
FE
EB
00
00
FF
00
FE
F6
00
03
02
03
FF
00
00
F2
01
EB
03
FE
02
02
01
FF
FF
04
04
FF
01
FE
F9
02
FE
FD
02
FF
FD
FB
FE
02
03
FC
01
FE
02
00
05
FA
FA
05
FF
F5
FE
01
FE
FF
01
01
03
FE
FF
FD
00
02
01
02
FD
00
04
01
03
01
FF
FF
FC
00
FF
02
F6
FD
FE
01
FF
04
FE
02
F8
00
02
FA
01
00
01
FF
F9
FD
01
00
02
03
02
F9
04
FD
FD
FD
F3
FC
FA
FE
EF
F5
FA
04
02
E7
00
ED
00
01
FE
FF
00
01
02
F6
02
FF
01
00
01
FD
0B
FD
FE
FC
01
FE
FB
00
FC
03
FE
04
0C
01
02
FC
02
F7
F6
00
00
0B
FE
01
FF
1A
08
FE
03
F4
FE
05
FE
FE
FE
F6
01
FF
FF
03
FB
05
02
EB
05
B2
01
FD
FF
FF
FF
00
00
00
00
00
FF
FD
FF
01
FD
FA
02
FC
04
02
00
FD
FD
FE
FA
FE
FE
FF
FF
FD
FE
FA
FE
FA
01
FE
FF
01
00
07
FE
FD
FD
E8
00
02
04
FC
02
FE
EC
00
FC
FB
FC
FF
05
FF
FE
FF
06
FA
02
FB
02
F6
00
FC
02
01
FF
FE
FC
FD
FD
FE
01
FE
02
FE
00
00
FE
05
01
FF
FD
02
02
FF
FD
00
F8
01
03
FE
FF
FE
02
FB
00
02
FE
FE
01
02
FF
F9
02
FC
FD
00
FE
02
02
00
00
FC
01
01
02
FD
04
03
FD
03
FE
00
FF
00
00
FD
FE
FD
01
F9
FD
FE
FE
F7
00
FD
02
05
02
FE
F7
FD
FE
07
FE
FC
F9
FF
FF
01
FC
EF
F9
E5
02
FD
00
F9
03
FF
FE
02
00
00
FD
FF
00
00
FF
F2
FE
FF
FD
FD
00
F6
02
02
FF
FD
00
FF
FC
F8
E8
F5
00
FE
03
FC
F9
03
00
FD
FE
01
FD
03
FC
FE
01
FE
03
01
FD
FF
02
FC
00
FC
00
01
01
FC
FF
00
00
FF
02
FE
00
FF
01
FD
FE
08
FE
FE
03
06
FC
FE
03
07
FE
00
04
FF
02
05
FE
FD
FF
FF
FE
00
01
F7
FD
FA
00
FF
00
00
09
02

