22
29
FE
10
F9
E2
29
2D
EA
23
EE
E9
E2
13
F5
FB
ED
E1
F3
EB
F3
E0
12
0C
13
02
0C
D6
F6
FA
16
FF
11
0B
F3
19
E8
FD
E3
05
F9
FF
FB
15
2A
D9
0F
F3
00
DD
FB
0D
1E
0A
DB
FB
F6
F0
19
0B
E9
EF
FF
DE
0C
FA
01
F9
2C
E7
F3
F2
08
0D
E8
C9
2B
E0
2A
05
F5
03
04
F7
FC
DD
D9
2F
F9
F4
FA
1D
10
1F
F1
E5
11
42
04
E5
F9
09
20
26
CF
ED
E0
13
F4
18
01
14
FF
F7
0F
2C
0D
DA
0A
26
16
DB
08
3A
EE
07
FE
EE
36
F4
F0
11
DD
27
EE
0F
17
F8
E3
13
E0
03
16
24
2B
2A
00
12
F9
F9
17
FD
20
06
F7
F3
0A
EA
05
EB
05
04
DF
3C
06
0A
05
13
FF
11
FA
02
FC
00
FD
02
E1
1C
2D
15
FE
0D
02
13
19
D2
15
E7
02
EA
FF
C5
18
31
FD
FE
11
ED
0F
E4
FA
10
23
F4
EB
06
06
E4
08
0D
1C
13
13
00
31
34
F3
0B
09
E5
F9
01
12
06
D3
FD
2F
FE
19
2A
EA
0B
ED
F0
E6
08
0C
E7
F6
00
ED
0F
2E
E9
EC
FA
24
E8
15
E0
02
04
1B
FA
00
15
FC
43
EC
FE
1B
0F
CA
F3
1B
1B
E8
02
06
F4
05
C2
00
FC
FA
FD
F5
FC
F0
12
FE
E5
13
00
2E
2C
04
EC
FC
ED
1A
26
29
1F
01
EB
EE
11
DB
EF
D9
0E
10
1E
F4
04
03
F6
F3
0A
CA
07
0D
05
FC
19
08
FA
08
FC
F6
D9
18
0D
07
F6
10
F7
04
17
0F
04
E6
04
ED
FC
F9
DC
FF
E7
E4
3F
D2
E8
04
1D
F0
FF
F6
E7
FE
32
11
17
04
ED
EA
16
01
26
F7
02
F9
10
01
FB
03
01
00
1C
0A
14
E7
D6
E3
FA
FD
FC
27
EE
F5
01
F3
D6
E4
01
F2
1D
CF
EA
02
F7
1B
07
33
FE
FB
03
E9
F1
ED
E8
D9
0D
2A
D5
0E
D3
02
FF
FF
F1
0D
F9
F0
28
0A
EC
02
F5
E1
F7
EE
E4
F5
FE
FC
00
03
E5
F9
11
11
FA
26
15
00
08
CF
F3
E6
EF
E9
02
E8
20
ED
FD
02
03
04
06
41
06
FA
11
24
F6
2A
F2
11
FF
F4
E0
08
00
2A
D3
F5
E0
E8
0B
11
10
D2
04
E1
FB
E1
06
E6
D7
E6
FB
E4
01
29
19
14
F7
13
26
11
FB
D9
D6
07
12
DF
E7
1D
03
31
F8
E1
18
FE
07
E9
27
16
D2

