FF
F8
05
FC
FC
FF
FB
05
02
FF
02
FB
FA
FD
FC
02
FD
FD
FB
01
FF
FB
01
FE
01
FE
FF
FD
FB
01
05
FD
FF
00
00
01
FF
FE
02
FC
00
00
01
FC
02
01
FF
FF
FD
FE
FE
FF
03
03
FF
FD
FF
FD
01
00
00
FE
02
FD
00
FE
FF
00
FF
01
FE
FE
01
00
01
FF
FB
01
02
03
FF
FB
00
FE
FF
02
FF
FE
FF
FD
00
FF
03
FF
FD
FD
01
FF
08
00
F6
FF
09
03
02
FF
02
F6
F7
FE
01
02
F9
F3
FC
02
00
FA
FE
00
F1
03
04
00
FA
03
0A
00
01
ED
00
F7
01
03
00
F9
E9
FE
00
EC
F5
F9
FE
FF
00
F1
F9
FD
FE
FE
FB
FF
FB
FD
F2
FF
FC
02
03
F5
FE
FE
00
FE
FC
02
01
01
02
03
FE
FD
FD
02
02
02
00
00
FF
FE
01
01
01
FF
FC
01
01
FF
FF
FE
FF
03
01
FA
FD
0C
FA
FF
FD
06
FE
FE
01
FB
FF
FC
00
01
FE
F3
FB
02
FF
01
FD
02
00
00
FA
FD
00
01
03
FB
03
F4
EF
03
03
00
DA
F9
F5
01
FF
04
04
F7
FE
FA
FE
F3
FD
FF
FF
00
FF
01
FF
F4
00
00
03
00
08
F2
01
FE
FE
03
03
FE
02
FF
FF
00
00
00
02
FF
00
FF
02
FD
FB
FF
FB
02
00
FF
02
FE
FB
FF
00
FF
01
FD
FF
FF
FD
F8
04
00
01
0B
05
02
01
02
0D
00
FD
02
FB
F9
FB
00
02
FE
04
FF
04
00
FD
01
03
00
11
02
FE
08
0F
03
FD
00
EF
FD
04
FE
FF
07
07
FD
01
00
00
FA
01
01
FC
FF
F4
FF
01
05
06
01
FA
01
05
EB
02
03
FF
FF
F2
FF
06
F8
F8
FF
02
04
FF
FD
FA
FF
01
F5
01
02
00
FE
01
03
01
01
FF
FD
F9
FF
07
FF
03
02
0C
FB
02
02
FA
FC
F3
01
00
FE
F0
FF
FE
FF
01
FC
F8
01
00
04
F7
00
FC
FD
00
FE
F8
00
05
FB
FD
FE
FD
F9
03
00
FB
F7
F4
FE
FD
FB
FF
FE
FE
00
FE
FB
F8
03
FE
FC
FD
01
F1
FE
FE
02
FA
FD
0A
FE
FF
01
F9
FF
FD
FC
05
0B
EC
02
FE
FF
FD
03
01
00
04
0A
FF
00
02
FF
FA
01
FF
FE
FF
FE
FD
01
02
02
00
FD
01
F8
FE
01
FD
07
02
00
FD
01
01
01
01
FB
02
FB
FA
03
FE
00
FE
00
F1
FE
F7
01
F8
FE
01
0C
FE
FE
F9
FA
F7
FF
05
00
00
02
FF
F3
02
F7
05
01
03
FE
02
04
FC
FE
FB
00
FA
FD
00
02
F9
00
F3
09
FF
00
00
FD
02
02
FC
FF
02
03
FE
FF
01
00
FF
FD
02
FD
FD
00
01
00
FD
01
03
00
FF
FE
00
02
FF
FA
FF
F9
07
02
FD
FF
FE
01
FB
FC
FE
03
F3
FA
02
00
00
F8
FD
00
00
01
FE
01
03
FC
F9
FE
01
03
01
F3
FE
00
FC
00
FC
FE
FA
00
00
01
FF
FD
00
FE
00
FF
00
F9
FF
FE
FE
FF
FE
FF
06
FF
FA
FF
FD
01
00
FE
FF
F9
F3
02
FF
FD
02
FD
D4
02
FF
04
07
00
01
00
FF
FA
00
FF
02
03
03
00
F3
01
02
04
FE
01
05
F9
03
FE
02
FF
00
FF
05
FB
01
03
01
FA
F9
F9
FF
00
FF
FF
FD
02
FC
FB
FA
FD
F9
FD
00
FF
F8
03
FE
FE
02
00
FE
10
F2
01
0F
FB
FF
01
FE
03
00
FF
FF
FE
01
E8
03
02
03
02
04
01
06
00
FD
01
F2
FE
03
EB
02
FD
09
00
FB
FD
DB
F1
FC
01
FE
04
07
FA
FC
FD
01
FC
01
FD
FC
01
02
00
FF
DF
FB
FB
FE
FE
01
FD
00
03
02
FC
F8
FD
04
F7
FB
02
FF
FF
F6
FB
00
00
F7
F7
F8
FF
FE
FE
FC
FF
F4
00
00
FF
FA
03
FA
00
FD
FD
FB
FD
FB
03
01
FF
FA
01
03
FF
FD
FB
01
FF
FD
FD
00
00
FB
FC
FD
02
FC
FE
FD
FE
FD
FF
01
FB
00
F5
FF
FA
00
FE
00
FC
F8
FE
01
E8
FC
FB
01
FF
FC
F7
F1
00
00
03
00
00
F9
FC
03
03
FE
FF
0B
F4
02
FD
00
08
FE
03
FE
F9
FD
00
FD
FD
03
FC
03
FD
01
F9
FF
03
FC
04
FD
02
FB
FB
02
FE
FB
02
F6
FA
00
06
FD
07
01
01
09
04
02
00
FF
09
FC
FD
02
FD
00
F5
FF
00
03
06
04
03
0A
FF
FA
04
F4
00
09
FC
02
FD
FE
FD
FC
01
00
FF
00
FE
02
FD
FD
FE
00
FF
02
02
02
FF
02
00
FE
FE
FF
FB
FE
FC
FF
FD
FF
FF
FE
FA
F8
FF
FE
FF
02
FD
FC
FF
FF
00
FE
01
FE
FD
01
FC
01
02
FF
FC
FF
FD
FF
00
FD
01
FE
FF
FF
01
FE
FE
08
05
F9
01
03
F8
FE
01
FD
FD
F8
FA
01
FE
05
F4
FE
01
01
01
FF
FE
03
FB
FF
00
00
FF
F0
FB
FD
FE
02
FF
02
FF
FD
01
FD
00
03
FD
FD
FC
FE
FF
FF
FF
00
FE
FC
FF
01
02
FE
00
FB
02
02
01
FF
02
02
F6
01
FE
FB
FD
E3
00
03
FE
01
FE
FC
00
FE
FE
00
03
01
FD
00
01
04
02
02
EC
03
FB
00
00
FE
FC
FE
FD
00
04
FA
FE
02
FC
FE
02
FE
01
FE
FF
02
FE
FB
FC
FC
00
00
FC
FB
FD
02
FD
FD
FE
02
03
FE
FE
FE
FB
0B
00
FB
02
0A
FD
F7
02
02
FF
FF
FC
02
FE
00
FB
01
01
FB
FE
FE
FD
ED
FF
FD
00
F5
01
E7
FE
FE
01
00
FD
FC
02
00
05
F2
FD
02
FE
FF
FF
01
FD
01
FA
FE
02
00
FE
04
03
02
00
FD
FE
FA
02
00
FE
01
FF
06
FE
FC
FE
FE
02
FF
03
00
FE
FD
FF
FF
03
FD
FE
FE
FE
02
FF
00
03
FE
FB
01
FE
FF
FF
00
00
FE
F7
11
05
02
02
01
EE
FD
FD
FF
01
01
FD
FD
00
01
03
FE
FD
01
00
04
01
F9
02
05
01
F7
FE
FF
F8
02
00
00
FC
03
FF
FD
FC
FE
00
02
00
00
FE
01
FF
00
02
00
01
02
00
FD
FE
01
FF
FE
FF
FC
00
FE
01
02
F4
08
F7
02
03
FC
F8
EE
FE
02
FB
FD
FB
FE
FD
01
F9
F8
01
FD
FF
14
01
F8
FC
02
FE
FB
FE
04
04
01
00
06
FD
FE
03
00
01
FC
00
01
FF
FD
FF
02
01
FF
FC
FC
FD
FE
FD
FD
FE
F9
FF
F9
01
FC
01
F9
FC
03
FD
01
FD
00
01
01
00
FF
FD
01
02
00
FE
FE
FF
FE
FE
FE
01
02
FF
03
FF
FD
FD
FF
00
FF
FD
00
FE
02
FA
FB
F9
FF
FE
DF
FA
FC
FF
FE
00
FF
00
FE
00
FB
05
FE
00
03
FE
F6
02
FA
E9
FC
00
F7
00
FD
FC
FE
04
01
F2
FF
01
00
FF
FE
00
FF
09
07
F9
00
06
FF
FF
01
00
00
FC
FF
FE
F9
FC
0A
FE
FA
03
06
00
01
09
05
F7
00
FE
D1
EF
FD
FE
02
00
04
FD
00
FE
02
FA
02
02
FE
01
FE
FF
06
DB
FE
F9
02
03
FF
01
03
00
04
FE
F4
FD
01
F7
02
FF
03
09
09
FA
FC
FF
00
F9
01
01
00
FE
03
01
F9
FD
03
FF
FC
FE
06
FE
FE
00
04
FB
F6
00
02
03
FF
FF
02
F3
03
FF
FD
01
FC
02
FC
00
FB
FD
00
03
F0
FB
FD
FC
F5
FD
08
FF
01
F4
13
F1
01
FF
FE
00
F8
FF
01
FE
0B
FB
02
FE
FD
FA
07
FE
00
01
F8
01
04
FE
DE
00
00
01
05
E7
00
00
FE
FE
00
00
02
01
00
01
01
02
00
FF
02
FE
00
FE
00
FE
FD
01
FD
00
FE
FE
01
FB
02
FF
FD
01
00
04
F9
00
FD
01
EC
FE
FD
FD
FD
F8
DF
F6
FC
00
FB
F5
FC
FE
FB
FF
FB
01
E5
F9
01
02
F9
FF
03
FC
FE
04
FE
FE
FF
FD
09
05
00
00
02
FE
ED
FF
00
FF
F7
FB
F8
01
02
01
01
FE
F8
05
FA
00
FC
02
FA
FE
FE
FE
01
00
FF
01
01
FF
FF
01
FD
FF
FF
02
FE
00
FD
01
FF
FF
FE
FD
02
FE
03
01
00
FD
01
FE
00
FC
02
05
01
09
00
01
E1
EB
FD
02
03
03
04
FD
FC
F9
03
FC
06
FF
00
00
FF
FF
03
E5
00
FB
09
FE
FD
FF
FF
FD
FE
FF
02
FE
FD
FE
01
01
01
FE
00
02
FE
FE
01
FD
00
FD
03
00
FE
FF
FF
01
FE
FF
01
01
FE
01
00
F1
08
04
FF
00
FD
F6
F9
FE
02
F8
FC
F6
01
00
FC
F4
02
FF
FF
FE
04
FD
FF
FC
01
00
FB
01
FD
F1
FE
08
FB
FF
05
00
07
FC
00
01
00
FE
0C
01
02
FD
02
00
08
01
00
FF
F9
01
06
05
15
03
06
01
FF
02
FF
00
04
F0
FF
00
04
0B
00
FE
02
00
08
FE
00
06
03
FD
FC
FF
FD
FD
01
FE
FB
FE
08
01
FB
01
0B
FF
01
FC
F5
FF
02
FF
01
00
FA
00
00
05
FE
FC
01
00
02
FE
01
FF
FD
02
FD
03
FB
FD
FF
04
FD
00
F1
03
00
03
FE
FE
03
FD
06
01
06
FF
01
01
FF
FF
FF
02
01
0C
00
00
FE
FF
FC
FF
03
FB
FC
00
08
FD
0B
FD
FE
F6
0E
05
FF
03
FC
F8
F9
FF
FE
FD
08
00
00
01
00
FC
FB
01
FC
04
FF
01
FE
00
00
01
FE
FF
0D
03
FE
00
FE
10
05
FD
FD
FB
FC
00
03
00
FB
FF
FF
01
01
F9
03
00
FA
01
00
FE
F7
09
F4
FF
FF
FE
FD
08
01
00
FE
FF
FF
FC
01
01
FE
00
FE
FD
FF
00
FC
FF
FF
03
FE
FE
FC
FF
01
FD
03
FD
FE
00
02
FE
FE
02
01
FF
01
FF
FF
00
FE
FE
01
02
01
00
00
FF
01
02
FE
FB
00
02
00
FC
FD
FE
00
FF
01
01
01
FD
FF
01
01
00
06
0A
FD
00
01
FF
04
00
00
F9
01
FD
02
FF
FE
ED
FC
FF
00
03
FF
00
F9
01
FB
01
FB
00
00
F9
00
F5
0C
FC
F5
02
F4
01
F7
FE
01
FF
F9
FD
FF
FF
FD
FD
01
01
FF
FE
00
02
03
F4
06
FF
F4
FF
03
FC
03
00
F6
00
01
00
FC
FB
F7
FE
02
0B
0A
00
FF
05
FC
F3
FF
01
01
FF
0C
01
07
F8
EC
01
08
02
FE
FB
FF
05
01
04
01
01
02
0A
F5
02
02
01
04
05
FD
FE
FB
01
F6
00
01
FF
00
FF
04
FF
FD
01
06
00
0B
F8
03
0C
F6
0A
F4
01
01
F8
01
02
FE
FA
F9
01
FD
FF
02
06
00
00
F9
FC
03
01
EC
00
06
01
05
FE
FF
08
FE
05
03
FB
F5
FB
06
FE
E6
00
FD
03
F9
FA
FF
FF
F0
EA
F3
FE
01
FB
FF
02
00
FA
00
F9
FE
01
02
00
00
01
03
02
FB
00
07
F0
F1
FE
FD
FE
FC
F8
00
05
00
FA
FF
FE
00
00
FF
00
01
FA
FF
FD
00
02
02
FC
00
01
FE
06
02
FE
FF
F9
01
FF
FE
FA
02
FF
FE
FF
01
04
01
FF
00
01
01
02
02
FC
04
04
F6
00
06
FB
00
FE
FD
00
FE
FE
F6
01
02
FF
02
FC
FA
01
FF
FF
04
03
05
02
FD
00
FE
FE
FF
F9
FA
00
FC
FF
FE
FF
FF
06
00
FE
F1
02
04
00
F8
01
00
FC
00
FD
FF
02
02
FE
FE
FE
FF
03
00
FD
FA
FE
00
01
00
00
05
FB
02
F1
F9
02
F7
00
DB
03
05
03
00
05
FA
FD
FD
FA
01
08
FD
02
FC
04
FB
FE
FD
DC
04
FB
FD
01
F4
07
02
E8
FC
FC
03
FE
F6
FB
02
02
00
02
06
FA
FC
FF
FD
FF
FD
FE
FC
FD
01
01
03
F9
01
FC
04
03
09
F7
00
03
04
01
02
01
02
FF
FE
FF
FD
FE
FE
FF
02
01
00
FD
FE
01
00
FF
FC
01
02
00
FC
02
FE
02
FB
FD
00
01
FC
FD
01
01
FC
F9
FE
FF
FE
FF
FE
FE
00
FD
01
FD
FC
FE
FB
01
FF
01
02
FF
00
00
00
02
00
00
02
E8
04
03
00
01
FE
FF
02
03
FE
04
FA
FB
01
02
03
FC
FA
FE
FE
01
01
FE
FA
FD
EA
04
06
02
06
10
FE
00
FD
00
FF
00
00
02
FC
00
03
FF
FD
02
01
00
00
FE
FD
01
FF
00
01
FE
FC
FF
FE
FD
00
FF
00
FE
00
FA
FF
00
FD
FE
0A
FA
F9
01
FD
FC
00
FD
00
02
FA
EF
F8
FD
03
FE
FF
00
FD
FE
02
FD
FF
00
07
FB
01
01
08
0B
03
02
06
02
04
FD
00
FE
01
03
FE
01
FF
06
FE
00
02
00
F9
01
F5
FF
FB
04
FA
02
08
00
00
03
06
01
00
FE
F5
FD
FD
FF
01
FC
01
05
00
00
00
FA
FF
FE
FF
FF
02
FF
FE
FF
03
01
00
FF
00
FB
01
00
04
03
00
03
02
FF
00
02
FE
FF
FF
FE
04
01
01
FD
FD
01
00
01
FE
FD
FF
01
FC
00
FD
00
F7
FC
03
00
00
07
F1
FE
00
02
01
FF
FD
05
FC
F9
02
01
FF
FC
01
FF
FF
FF
FF
01
FA
FA
06
FE
F0
03
FA
05
FD
03
FC
05
F2
01
06
00
FE
FF
02
06
01
01
FF
FF
01
F4
04
02
00
FC
02
00
01
FF
00
02
F7
01
06
FD
FE
F4
01
0D
F3
FF
FE
FD
FD
02
FF
01
FB
F7
FD
00
01
02
03
FE
FC
FB
FE
01
00
02
00
02
FA
00
03
EE
FD
FA
07
00
02
FD
01
FE
07
FE
FD
06
FF
FB
04
07
FD
04
03
FF
00
FF
01
FE
F7
02
04
04
FE
FE
FA
FF
FF
FC
FD
FD
02
03
FC
FE
01
FF
01
FE
00
FD
FE
FE
01
01
FC
02
00
FE
FF
02
FC
00
FE
00
FD
00
FE
FD
00
FD
FF
FD
01
02
FC
FE
FE
00
FD
FE
FA
01
01
FE
FE
00
F9
01
03
FF
FF
FF
FD
00
00
01
FF
02
02
FD
01
FD
FE
FC
01
FB
FE
FE
FD
FF
01
02
01
02
00
00
00
FE
03
01
FE
FE
01
FD
02
02
FD
01
01
00
01
00
FF
FF
02
01
FF
FD
FE
FF
F9
FE
FE
FE
FC
FB
FE
FF
FF
FE
FD
FF
FE
FD
01
FF
01
03
00
01
00
FE
00
00
01
03
03
01
F3
FF
EE
F0
00
00
00
FF
06
FD
00
FF
04
09
01
FF
04
00
FE
FE
00
F3
FD
FF
07
FF
02
FF
00
FB
FE
FD
FB
02
FE
00
FF
FE
02
F5
FF
00
FE
FD
FE
01
FD
01
FD
FE
FE
01
FA
FB
FF
FE
F7
02
FF
FC
FF
E4
FB
F8
06
FE
FE
FD
02
03
01
06
0D
FE
01
FC
F9
01
03
01
02
02
01
02
F2
01
02
00
FE
FF
FC
FD
01
FC
FC
FA
F7
FE
FC
00
FA
FE
02
F9
04
FF
02
00
FC
FE
FF
FD
FD
FA
00
01
05
F5
FC
FD
F7
FF
12
01
02
07
FE
FF
FE
FE
03
00
FD
FF
FF
F7
F8
FE
00
FE
01
F4
01
FF
04
FD
FD
00
02
FD
00
02
FE
FD
04
00
FE
00
FE
FB
FC
FE
FE
05
03
02
FD
04
00
FE
FE
00
00
FD
FC
01
FF
FE
03
FF
FD
F0
04
00
F7
03
03
FE
02
FF
00
F2
01
FF
04
FF
03
02
FD
FE
F6
02
FE
01
FC
FC
FB
FE
02
00
FA
FF
FA
03
01
00
F9
FD
FB
02
FE
E0
FC
0A
F9
FF
01
04
01
00
FF
06
00
F7
01
FB
00
03
05
01
F7
FA
01
01
05
FE
FE
FE
07
00
F8
07
01
FA
F0
09
F9
01
02
F8
01
00
FF
F4
EB
FC
FE
FD
FF
0A
00
02
00
FF
07
03
02
00
FF
03
FC
02
F6
FF
02
FC
FF
FE
01
00
FD
FB
FD
03
03
FE
00
01
FD
00
02
FC
FC
FF
00
01
FE
02
01
FE
02
03
FD
FF
01
FF
01
FF
FF
FE
01
02
F4
00
FF
FF
FD
FC
F8
FF
FE
FE
00
FD
FA
03
FB
00
00
01
F9
F9
FB
FD
F8
03
00
00
01
FF
03
FB
00
03
FE
FF
FD
02
01
04
01
FF
FE
02
01
F6
FC
FD
FF
01
00
02
FF
FF
FD
FF
02
FD
03
04
02
FF
00
FE
04
02
00
FF
FA
FF
FF
FB
FE
00
00
FF
00
FC
FB
02
01
00
FE
02
FD
FE
FE
FD
FE
FE
01
FC
FF
06
07
06
05
FC
05
FF
F0
01
FE
FB
F4
02
00
00
FD
03
FD
02
00
03
FB
FD
F7
FD
F7
FE
01
00
01
FD
00
FE
01
FC
02
02
FF
FD
02
01
01
00
FE
00
FC
FF
01
FE
00
02
02
FD
FE
FF
01
00
FD
FF
FA
02
01
00
02
FC
01
FD
FD
FF
01
02
05
FE
03
FC
05
FD
FF
02
FF
FF
01
01
03
01
03
FF
FE
FD
00
02
FD
01
00
FF
00
01
01
00
FE
00
FD
02
FD
FD
01
FE
FF
00
01
01
FF
FF
01
02
FD
FE
02
FE
00
FD
02
03
FD
03
FF
FF
00
E3
0E
FF
03
FE
FD
03
02
FE
FE
F5
FE
FC
FA
F8
FB
F9
04
FF
FA
02
F9
FD
01
F9
FC
FF
05
00
FC
0C
01
FD
00
02
FA
FE
F9
06
02
FF
03
FD
F5
FE
FF
FE
00
FE
FC
01
02
FB
F8
02
EE
FE
FE
FF
F9
02
FE
FA
FE
FE
FD
00
03
FE
FD
00
01
01
00
FE
02
01
FF
00
02
FE
FF
00
FE
02
00
FE
01
FF
00
00
00
03
FE
02
FE
FC
F9
FE
03
00
FE
FC
F4
02
FE
F4
FA
FB
FD
02
01
01
FD
00
FD
01
FC
FF
FD
01
EC
00
01
01
01
FB
02
FF
FF
00
00
01
02
02
FD
FD
FF
FD
FD
FF
02
00
FD
FE
00
FD
FE
01
FE
FD
02
01
00
02
00
00
01
00
FE
FF
FC
FD
FF
FF
02
02
07
00
02
10
FA
FB
FF
05
01
02
01
02
FC
01
FA
01
FA
02
FF
FF
FD
02
F6
04
00
08
0A
08
01
00
FE
FF
FE
FF
03
FA
01
FC
03
00
FD
03
FD
00
FE
FD
FD
01
F5
FB
F9
02
F7
01
04
FC
FE
01
FE
06
FF
00
02
FE
05
02
01
09
F8
FE
02
00
FC
F7
00
03
FF
00
05
00
01
00
FE
00
F9
00
F1
FE
01
F7
02
F1
FF
FE
FB
01
FD
03
FE
F8
F9
FE
01
02
02
F5
06
02
FE
03
02
FE
00
01
F8
FE
01
FF
EC
01
FE
FD
FF
FB
04
01
02
FF
FB
03
01
01
00
02
00
FE
FD
FF
FC
00
01
03
00
FE
FD
FE
FB
FE
01
FF
05
FF
02
FA
04
FD
02
FE
FB
00
03
FE
FD
04
02
FD
02
01
00
02
01
02
02
F9
03
00
01
F8
00
FD
01
03
FF
01
00
FC
04
FB
FF
FB
9A
FD
05
02
FE
FA
FE
FC
FD
FA
FC
06
02
FE
00
03
FD
FD
06
A3
03
FC
10
FE
F4
02
02
F9
F4
F5
FF
00
00
FC
FA
00
01
08
08
FC
FC
FD
FE
FF
09
00
01
00
F8
00
EF
01
F3
FD
05
FF
03
FC
01
FC
01
FF
00
FF
01
FE
FD
02
00
FF
00
FD
FD
FF
02
FD
FE
02
FF
FF
FA
FF
01
02
01
FF
FB
01
FD
FE
00
00
FD
FF
FD
FD
01
FA
FA
FD
03
FF
03
02
00
FF
FD
FA
00
01
00
00
FE
FF
02
00
F7
FC
FC
FE
02
FF
01
FD
FD
FE
FD
02
FB
00
F9
FE
02
01
02
FE
FE
FE
FD
FE
01
01
02
FE
03
01
00
FE
01
00
00
FD
FB
03
00
07
EC
05
00
FE
E3
F9
F7
FD
02
03
F8
00
FF
FA
02
F8
FE
FF
FF
FE
01
00
03
EF
00
01
FC
01
00
FB
00
02
FE
FE
FA
00
DD
FA
FA
FD
00
FB
FA
01
FE
F9
01
FB
FF
FE
02
01
FF
01
F7
E4
FF
00
FA
FE
F7
01
00
F2
01
11
F2
FD
01
05
05
FE
FE
06
01
F3
FD
01
FF
FF
02
00
FE
FC
FE
02
F9
00
FB
FE
FF
FD
09
F0
03
DF
05
07
FB
FF
FD
04
01
FE
03
06
01
FC
FC
FB
00
01
01
FE
F6
00
03
01
00
FD
01
FD
06
FE
FC
F7
FE
EE
FD
FD
FF
FE
FD
FD
05
03
FE
EF
E7
FE
01
00
FF
04
03
04
01
FD
00
02
FD
FE
F3
FF
F8
01
F4
F8
FE
EF
FB
FD
03
FC
00
FA
03
FF
FF
05
0F
FC
FD
FD
01
00
07
01
FF
FC
F1
00
F7
FE
FC
02
F7
02
FC
01
01
05
0E
00
F5
01
00
FB
00
01
FE
F1
F7
FE
FF
FA
00
F6
00
00
FF
01
FE
02
FC
F7
03
FD
F8
FF
13
FD
03
FD
FA
0D
06
03
01
FD
FA
FD
01
F9
FE
01
01
02
FC
FF
FC
01
FD
00
01
FE
FF
FC
F8
03
FF
02
F3
01
02
F8
FE
F9
FF
FE
DF
09
00
00
02
00
00
F2
FF
00
FF
00
FD
00
00
FF
F6
FD
05
E1
02
FE
FC
02
03
01
01
FE
FD
00
00
00
FC
FF
FA
03
00
FC
FE
FE
FD
FF
02
FC
FF
02
01
FD
FC
FD
FE
FF
FD
FD
FF
00
00
00
01
FE
03
FD
FD
01
01
02
02
FE
FE
00
FE
FE
03
FD
FE
FF
00
01
00
FD
FD
02
FE
FE
01
02
FF
FD
FE
02
00
F4
FF
FA
FB
02
FA
FE
02
00
00
00
05
00
01
FF
01
FB
03
01
FD
00
07
FF
F3
FD
FF
02
01
00
06
FB
FD
00
02
01
02
02
FC
00
F5
FF
FF
FC
00
FC
01
FE
03
FE
01
FD
FE
00
04
FE
FD
FA
02
FE
FF
00
04
00
03
02
02
FD
02
FE
F9
F5
FE
FF
03
00
FB
FC
00
00
FD
FF
01
03
FB
03
FC
02
03
FB
07
02
FE
FE
F1
01
FF
02
FF
03
FE
FD
01
FD
FE
FD
FE
02
FD
FE
02
01
03
FE
00
FD
01
01
FE
FF
FD
FE
01
FD
00
03
03
00
02
00
01
FC
00
FD
00
FE
FD
00
FD
00
01
FD
FF
02
FF
FE
03
FF
FC
00
02
FD
FF
00
FB
FF
FF
FF
00
02
02
FD
FE
03
FE
03
FE
04
FB
03
00
FF
03
FC
02
02
01
FE
02
FF
FE
03
FC
00
FC
FB
FC
FF
F8
00
02
FF
FD
02
F4
FC
FF
FD
DB
EB
FE
FE
01
05
02
FC
FE
FD
04
FC
03
01
01
FE
00
FD
02
E3
FF
FC
FD
FF
FC
03
FF
08
F8
04
04
FE
F8
02
FC
FF
00
EE
FF
FC
FD
FF
00
07
FB
01
FF
04
F9
00
FA
FD
F3
02
01
FE
FA
FE
01
FC
FB
00
01
FF
FA
F9
FD
00
01
FE
FF
01
FE
FE
02
01
01
00
01
FD
00
02
FB
FB
00
FE
FD
02
FF
FD
FF
01
F9
FD
FD
FF
FD
FD
FB
FD
FD
FB
F9
FF
FB
FD
FC
FD
FF
FF
FF
FD
FB
02
FC
FF
FB
FD
FF
00
FF
02
02
F9
FB
02
01
02
F2
FB
FC
02
01
FF
00
FF
FD
FE
02
01
FE
03
FC
FD
FF
FF
FF
F8
F8
FD
FD
FE
FA
FF
00
08
05
F6
F8
00
03
FE
06
01
01
F5
02
01
01
FF
00
FD
FF
00
04
FE
02
FE
F8
03
FD
01
FA
01
12
F8
01
FD
FF
02
FD
FD
FF
00
FE
FF
03
FD
FD
FF
02
FF
02
FC
02
00
FF
FF
01
FF
00
FE
FF
FE
03
FF
FC
01
FF
F1
03
07
F7
00
F2
FB
F9
00
02
04
FB
00
02
01
02
FE
00
02
FE
F8
01
FF
00
ED
FE
FE
FB
01
FD
F7
FE
FB
02
FF
FB
00
FD
02
02
FF
FF
F5
F6
FC
FF
FD
FF
FF
FC
02
FE
FC
FC
00
E3
FE
FD
FD
EF
01
04
FE
FD
FA
03
01
00
02
FD
FB
FD
FE
03
01
02
FD
00
FD
01
01
FD
FF
02
01
FE
FD
FE
02
FF
FD
FE
02
02
00
FE
F0
FD
09
F8
00
F7
FB
F5
FF
FF
FE
05
FE
02
02
FF
F2
F2
00
02
FF
0C
00
FC
F9
02
01
FD
03
05
FC
02
04
03
FE
00
02
FB
00
00
02
02
08
FE
FB
FE
02
FB
FE
FE
FF
FD
FB
F5
FF
FA
01
FF
FC
EF
00
FA
F9
FF
FF
FF
FD
FF
00
00
01
00
03
FE
00
FF
01
FF
FD
FD
FD
FB
02
FD
00
FF
00
01
FD
FE
FF
FE
FE
FD
FF
02
00
01
0D
02
FE
E6
FA
01
03
FE
02
F3
FD
FD
01
FC
FE
FF
FF
00
FC
FD
02
06
F3
08
FD
01
FE
01
FF
01
FA
03
F5
00
00
F8
05
FD
FD
FE
FF
09
02
FE
FF
FE
F5
FF
00
02
00
07
01
F4
F4
01
FE
F3
02
0C
F3
FF
00
05
02
FC
02
FF
00
FD
FF
FF
02
FC
FC
03
FE
FE
FA
05
01
FE
FD
FE
FD
FB
03
FB
FE
FD
02
FD
FC
01
0A
02
FC
04
FD
E3
F9
FE
FF
02
FC
03
00
FE
FC
02
07
FD
01
02
02
00
00
FE
EE
F6
FD
FF
01
03
03
00
00
FD
FE
FD
FD
00
FF
FE
FD
02
FF
01
FD
01
01
01
01
FD
00
00
00
02
00
02
FE
00
02
00
FF
00
01
01
FA
09
FF
FE
03
FC
01
FF
02
03
02
FB
FA
03
FC
FF
F6
01
00
FD
04
F9
FE
FD
FC
F9
00
F7
02
FB
F1
01
04
04
FF
00
FE
FD
FA
01
FF
FD
FF
01
00
FD
FF
FE
03
04
01
02
FB
00
FF
01
F5
FF
FD
FE
03
03
F5
03
02
F1
F3
01
FE
EB
F8
EC
FE
FF
F5
FE
FB
FF
00
FA
0D
FB
FE
04
02
03
FE
FB
F6
04
00
FC
FF
09
01
FF
FA
09
09
FC
02
03
05
FE
01
01
F4
CD
FB
00
FD
00
F6
F7
FF
00
03
FC
03
01
FD
FC
FE
F3
02
F6
F8
01
FF
02
FB
F1
FE
01
F9
FB
FE
01
00
FF
FF
FD
FA
01
F6
02
02
FF
FA
01
FF
04
FA
02
FC
FD
02
06
FE
FF
00
F8
F7
FF
FF
04
02
FE
00
01
02
01
FD
00
03
FD
F9
02
04
02
FA
FF
FF
EE
FB
02
FD
FD
FE
01
FC
FE
FD
FE
FE
FC
01
FE
02
F9
00
02
FE
01
FE
00
00
00
FE
FF
01
FD
FD
01
FD
FB
FE
F9
03
00
01
FD
FC
02
FD
FF
FA
FC
00
FE
FF
FF
03
FD
00
FC
FC
00
01
01
FD
FB
01
02
FE
FF
00
FC
02
FA
FE
02
02
FC
FA
FE
01
04
10
F4
00
04
F5
FA
01
02
03
03
FA
01
FC
FA
E4
05
FD
02
FE
FE
02
01
FD
06
00
F6
FE
FB
F2
FE
FF
00
FD
00
FE
00
00
FF
FF
FE
FD
FE
FE
FF
02
02
FF
FE
00
FF
FF
FE
FF
FE
FC
FE
FC
FE
03
00
FB
00
FF
ED
08
F9
03
02
FD
05
00
FF
02
01
00
00
FD
FE
00
FD
00
00
FD
00
01
03
00
04
FE
02
FF
05
02
FF
F8
00
FC
01
FF
EE
02
01
FE
01
FD
FB
FB
FB
02
05
FC
FB
FF
FE
FC
FC
00
00
E4
01
FF
FE
01
08
FC
FF
FD
00
05
FC
FD
03
05
FF
FF
02
FC
F8
FE
00
01
03
FA
01
01
02
FF
F9
00
F7
FE
FF
02
F8
FF
00
FD
03
FE
F5
F6
FB
FD
FF
FD
08
00
FE
FB
FF
00
03
FD
FF
FF
FD
FE
04
FC
F9
03
FC
05
F8
FC
FA
FF
FB
0E
02
FF
00
FE
01
FF
01
FD
FC
01
FE
FE
04
02
FF
00
FE
FA
00
00
FE
FD
FF
01
FD
01
FF
FF
00
FE
05
05
00
F4
F8
06
FC
01
FD
05
02
FF
02
02
01
FD
03
FE
FE
08
F7
00
FE
FD
05
FD
FF
00
03
02
FD
00
E8
06
FE
00
FB
01
03
FD
F9
04
E7
FE
00
F9
04
FC
02
03
FF
EF
FA
FE
01
01
FE
03
EF
FB
F9
00
EF
00
09
E9
FE
05
01
0A
00
02
02
01
FA
02
FD
F6
FD
FD
FF
FB
02
FF
FB
02
FE
02
F8
02
FF
01
0A
04
FD
FF
08
F1
02
05
F9
F8
01
FE
CE
EB
FF
02
03
FF
FF
FE
FE
FB
02
01
03
03
00
FE
FD
00
04
DA
01
F8
01
FE
03
03
00
00
FC
FE
FF
02
00
FE
00
FF
FE
FD
FC
FD
02
FF
FD
FC
00
01
FD
FE
01
FE
FE
02
FC
01
FB
02
FC
00
02
04
05
14
06
01
FB
FF
01
FF
01
01
F6
02
FB
FD
FD
FD
04
FF
FA
01
06
00
F1
01
E7
FF
FC
02
0C
04
02
FA
FF
FA
FE
00
F8
FF
FE
02
00
FF
02
FD
FF
FF
FE
00
FF
02
00
01
02
03
FE
F5
FE
02
04
FF
FF
FF
03
EF
F6
01
FE
FE
D7
08
0A
00
03
12
FB
02
FD
00
02
04
01
01
FA
FE
FF
01
FF
DA
08
FE
FA
00
EA
07
01
F0
FF
FF
04
FE
FB
00
F8
03
FF
04
FA
FC
FF
FF
FE
F1
FE
FF
FE
00
FC
01
F7
FC
03
00
FD
FF
05
FB
03
F9
FB
01
FC
02
FD
03
02
01
FF
F7
01
01
02
01
FA
04
00
FF
FC
FF
F6
00
FA
FF
FE
FF
F9
02
05
03
FF
01
0C
04
FE
01
02
04
01
FE
FF
FA
00
04
FE
FE
01
00
01
FF
01
FC
01
00
08
01
FC
02
F9
01
F9
FF
00
F0
FC
F0
02
00
FB
01
01
00
01
00
0D
FD
FE
FE
02
FF
02
03
00
FF
00
FD
F5
F9
FE
FD
F3
FE
0C
00
FE
FD
02
FB
00
01
D9
09
E3
02
02
01
02
FB
FE
FC
FC
F5
FF
FE
01
FA
FE
01
06
E0
04
FD
FE
FD
08
FC
01
02
FE
FE
FE
FF
09
FF
FF
01
01
02
01
01
02
05
02
FF
FC
00
FE
FD
05
FE
03
FB
01
00
04
FE
01
09
00
FC
F6
0E
F9
01
FE
F8
03
03
01
04
FB
F9
FD
01
FD
FF
FF
FF
FE
FE
00
FE
FF
06
01
FC
FC
02
FE
00
02
02
00
FF
00
01
FE
FD
FA
FE
00
03
FB
FE
02
FF
FD
00
00
FD
FD
02
FC
FE
02
FC
FD
02
00
03
F9
01
FE
FC
03
FE
03
FD
FB
FC
EF
FE
FE
09
09
0A
02
04
00
FC
F8
01
04
FC
FD
FF
01
FF
FB
00
02
02
0C
FF
03
0B
FE
FA
FE
01
02
F6
FD
02
FD
02
01
FD
04
02
02
FF
FE
01
01
FF
02
01
FF
FE
09
FE
F8
FD
09
01
01
01
FD
FE
FE
FE
02
02
FE
02
02
02
FF
FF
FD
FF
00
FF
00
02
FE
FE
FE
01
01
02
FE
02
FE
01
FD
03
01
00
FD
FA
FF
00
FE
F9
09
01
01
14
02
FE
01
02
03
08
FE
04
FE
05
07
01
FA
01
03
FC
F7
FE
DF
08
03
F8
03
04
01
02
03
02
0A
00
FF
05
F9
FA
03
06
FD
FB
FD
01
FD
03
10
FE
EC
FF
01
00
F8
02
F2
03
00
FE
FD
02
00
01
01
00
FB
00
02
01
FF
FD
FB
FB
FE
00
03
02
FC
01
FF
FE
FF
FF
FC
FC
00
FE
FE
FE
02
FD
00
0E
FB
FE
05
03
03
03
FF
F2
F8
F8
02
FF
FF
00
0B
FF
FE
FE
F4
02
F7
05
F9
FF
FB
03
01
FF
00
FF
F7
FD
FA
FF
FA
03
F1
01
FE
04
FF
FD
FD
FE
FC
01
FF
01
F9
01
FC
01
F4
FF
02
FE
01
01
09
09
FD
EE
FE
0C
FD
00
FD
01
ED
02
00
01
F9
FE
FE
FE
FD
F4
07
00
01
00
F6
FE
FC
FC
F8
FF
F8
FF
FC
F1
01
F4
F3
01
FF
FD
FD
FB
F0
00
FE
04
0C
FE
01
03
00
03
F4
FF
FB
01
00
FD
F0
FA
0B
FE
01
FF
0A
00
00
FD
F8
08
FE
02
01
F8
01
FF
01
F6
FC
FF
FF
FD
04
FB
FF
01
01
FE
04
03
FE
FE
FE
FE
FE
02
EE
FD
FE
04
05
ED
FB
00
01
0E
FD
FF
FF
0A
03
02
04
04
01
F1
01
03
02
00
FC
FE
04
03
04
00
07
FF
02
00
00
FB
F8
06
F8
FE
FD
F8
FD
00
03
01
00
F9
FE
FF
00
E9
FE
00
FD
FE
F5
02
F9
F8
F2
01
F9
02
FF
F9
FF
FD
F0
07
F9
FF
FD
0F
07
FF
01
FC
FA
F8
FC
FA
01
00
05
02
FB
00
09
01
03
FD
F0
FD
FF
FD
F5
F9
03
03
FF
08
FB
02
05
03
00
02
00
FD
03
FF
01
FE
01
FE
FF
FF
FE
02
FD
FF
ED
00
00
00
F9
FE
FE
F2
FE
00
FC
FF
01
FF
00
01
FE
FD
FE
FD
FF
FE
FE
01
02
FD
FC
FD
FE
00
FC
FE
FF
FC
00
00
01
FE
02
00
FF
FF
FE
00
FD
FD
FB
FD
FE
03
FD
FD
01
FE
02
01
01
FE
FC
01
FC
FE
FD
FE
FF
00
FE
FF
00
00
FD
01
02
FA
FE
01
01
00
FB
FC
00
FE
02
FF
00
01
FD
02
FE
FF
03
01
03
02
FD
01
FD
FB
FE
FD
FF
02
FD
05
02
FC
00
F6
01
FF
F7
F5
FE
00
02
F6
F4
FD
03
FD
FE
F9
FE
02
04
02
FF
02
FD
FB
FB
02
FC
02
F7
FC
00
FD
03
FA
FF
02
01
03
F9
00
FE
FC
00
02
00
01
00
FD
FD
FE
02
FD
01
03
FC
00
F9
00
FB
00
FF
FB
00
FE
FB
F7
03
FF
F8
02
FD
03
FD
07
05
FF
FE
FA
FC
00
FF
00
FF
FD
FB
FF
FA
F5
02
FF
FB
00
01
00
03
FE
01
FE
FE
00
00
FE
02
FF
00
FE
FB
02
01
03
FD
FD
FD
FE
FE
02
FC
00
01
FF
FD
02
02
02
00
02
01
FD
03
FA
FE
02
00
02
FC
03
FD
FF
FA
FA
02
FE
FF
FC
02
00
00
02
01
FE
02
00
FF
FD
FC
00
FC
02
00
FD
FD
FA
FD
01
07
02
FE
FF
FF
03
F9
FB
FF
FD
FD
F8
00
00
FE
02
FE
01
FA
FE
01
01
FD
00
F1
03
00
EB
F4
F5
03
03
D2
00
02
00
02
0D
EE
FE
00
FD
02
08
FD
02
FE
04
02
FF
FD
DC
04
FE
F9
FF
E3
0B
01
FB
F9
FC
FE
03
06
00
03
FF
FE
09
04
03
03
FE
03
0A
FF
FF
03
FD
FE
00
FE
01
FF
FE
FE
FF
FE
05
02
00
03
01
FB
FD
FD
01
F4
02
02
FF
FC
FD
01
01
FD
FC
FA
FD
FD
FF
FA
02
F8
02
FD
FF
F7
01
FC
07
01
FE
00
FC
00
FE
FF
F3
06
FE
FE
F7
01
FE
02
00
FE
FB
00
01
01
FC
FD
FE
03
F6
02
FE
FC
02
05
05
FE
F8
F9
FA
FF
FD
E2
03
08
02
03
07
F4
02
FE
F8
05
04
01
FF
FA
05
08
01
FC
E2
05
FC
FB
01
E8
F6
00
0C
F4
FC
F6
FD
F8
F7
F5
03
00
01
FF
FD
FC
FC
F9
FC
F8
FF
01
FE
03
00
FF
ED
00
FD
F8
FE
05
01
00
FF
FD
08
F5
02
F9
01
BE
FE
FE
FE
F4
00
FB
FF
01
00
F7
FE
00
00
00
02
F8
FC
F7
FB
FA
FF
FF
F9
FD
E6
F7
DB
00
FE
FB
00
0B
02
00
04
06
FE
FE
03
FC
FF
06
FD
00
FE
02
01
F6
FF
FB
FF
F9
FF
01
FA
03
FF
FE
FF
FE
00
02
FD
FD
03
FF
FC
FD
FF
FC
FD
01
FD
FF
FD
00
03
FF
FE
FE
FD
FF
01
FF
FE
01
01
FF
F2
03
FC
FE
FD
FE
02
F9
FD
FF
01
02
FE
00
FF
FF
F9
FD
FD
FE
00
03
FE
FF
01
FE
FE
F9
01
04
01
FD
02
FA
09
ED
FC
08
F9
FE
FF
01
01
FE
F7
FD
02
FA
FE
FE
FE
00
FB
00
02
FF
FE
03
FA
FB
00
02
F3
FE
FD
FC
05
00
04
00
06
08
FF
03
11
01
00
03
01
02
02
04
01
FE
04
04
FE
04
FC
00
03
FD
01
F0
05
FE
FC
06
FC
FE
FF
08
04
F5
FF
FE
00
01
FD
01
02
FE
FE
03
01
01
FE
FB
03
F6
03
02
00
00
FF
07
F9
00
EC
FB
02
FE
FF
00
0A
05
FF
FE
02
FF
03
00
00
03
FE
04
02
FC
00
04
01
FC
FE
FC
01
FD
01
FD
1F
01
F3
FE
F8
FF
02
FA
00
FD
00
00
01
F8
FD
01
01
01
FE
FD
FE
FD
05
FA
00
FF
00
09
FC
FE
FE
09
04
FF
E7
FF
FC
F8
01
FD
03
FE
FF
00
F8
F5
FE
00
FF
FF
F6
FC
01
FB
02
F3
01
FE
FB
05
FD
FC
FE
FB
FE
FE
01
02
00
FF
03
FF
FD
FD
02
00
FA
FF
00
FD
00
FF
00
01
FF
FD
FE
00
00
01
02
FB
FF
00
FE
FE
FD
FF
06
06
FB
FD
02
00
F7
F2
02
FF
F6
01
FE
04
01
FC
04
F8
01
FE
FD
FD
FF
FE
FD
01
FE
F7
FE
FD
FE
FF
FD
01
F9
00
FE
00
F9
FF
02
01
03
02
FD
FD
FE
FE
FF
FF
03
FD
FD
02
FE
FC
00
00
02
FF
02
04
01
01
FE
03
01
FC
FC
FD
FE
03
FF
00
02
01
00
FD
FD
01
FD
02
FD
FD
FD
FE
02
00
FE
02
02
FE
01
FF
FD
00
04
0D
FB
F8
FD
07
F7
F0
FE
FF
EA
F6
FB
01
01
F8
F3
EE
02
01
FE
FE
FE
F0
FF
03
FB
F4
FF
FD
01
FF
F6
FA
0C
EF
03
FE
F5
FC
FF
03
FF
FE
FF
FD
02
00
08
02
FF
01
FE
02
FE
06
00
04
00
F8
FD
01
02
FF
FE
02
09
00
FF
F2
FD
04
01
FF
F0
F1
FC
FD
FD
00
FA
FB
FF
FE
01
FB
00
F2
FF
FF
01
FD
01
FF
FB
01
07
05
00
00
FE
05
0E
F1
01
02
03
02
02
FE
01
F9
03
F6
02
03
00
FB
FF
03
FE
FD
01
F7
02
0E
FC
01
01
0F
05
04
02
00
F9
00
01
FE
F7
EA
FD
01
FC
F6
F5
FE
01
00
03
F5
FD
F7
FE
FC
FF
F6
FF
F2
FD
02
F7
FF
F6
FD
02
E1
FE
04
FE
01
00
01
03
02
00
04
F8
07
FE
01
FD
01
FF
FA
F4
FD
FE
FB
00
FE
04
03
00
03
EF
03
00
F4
F7
06
FD
FF
FD
09
F7
FE
FF
FF
FD
FF
00
01
FD
FD
01
04
F5
04
FB
F6
01
05
FE
01
02
FA
08
FD
01
F6
FC
FB
FD
FE
0A
04
FE
FD
00
FD
F9
F7
01
02
FA
FE
01
01
FF
FD
03
03
FF
06
FF
02
FC
FF
F9
01
FE
DE
FB
FB
FE
FF
FC
09
FA
FD
FC
FE
02
05
02
FE
FF
08
01
01
E3
FF
FD
FA
FF
09
04
FE
FC
F5
FD
01
03
FB
F9
FE
FF
FE
F6
00
01
FF
01
00
02
FC
FF
FE
02
FE
03
FB
FC
F9
FF
FC
00
F3
03
FF
FF
F2
FF
F5
01
E4
ED
FB
01
FE
FA
FE
01
FA
FA
FF
04
00
04
00
01
01
FE
FD
ED
05
FC
FF
03
FB
01
FE
EB
01
02
FB
02
00
FE
FF
FF
FD
FD
FC
00
FF
FE
02
FF
FB
FF
FD
FB
FE
FF
FD
FB
F9
01
FD
00
01
00
02
E6
01
F8
FF
02
FE
0D
01
FF
00
FE
0C
FE
01
00
FE
FD
09
FE
FF
FD
06
FF
03
00
ED
02
05
03
07
FD
FE
FF
03
00
00
FF
FE
FF
FC
FE
03
FC
FE
01
02
01
FF
FF
01
02
00
FC
FE
00
03
FF
FD
01
02
02
FA
01
01
05
F5
00
FC
00
01
FF
C7
FF
FF
01
08
06
FE
00
F9
FD
F8
FF
02
00
01
02
00
FE
09
FE
03
02
02
FF
00
FB
FC
FF
00
00
FF
06
FF
00
02
FD
FA
FC
02
FD
01
FE
01
FD
FF
00
FE
FF
02
00
FE
02
01
FF
FB
00
01
ED
F7
FB
F9
FE
EF
FE
05
FD
02
FC
FE
FA
FC
FD
FF
FE
FC
01
FA
FB
FB
00
FB
F3
FC
FD
FB
FE
FD
F8
FD
FC
00
0B
FD
FF
00
F4
00
FF
FF
F7
FE
FA
01
FE
02
08
00
01
FF
00
00
03
F8
FD
F1
FC
FE
03
FB
FB
00
FD
0F
FE
FC
FF
03
00
00
02
03
FC
06
05
FF
01
FF
F2
FF
02
01
FF
F6
01
FC
03
F9
04
FC
00
F5
FF
02
FE
FC
FF
FE
FE
FE
01
00
00
03
FE
01
FF
02
00
01
FF
FE
FD
FE
00
02
00
03
01
FD
FD
FF
FE
FC
00
02
E2
F5
FD
FE
FF
00
09
E9
00
FE
00
02
FB
FF
FD
FE
F4
FA
FC
00
02
FA
00
FC
01
FA
00
02
FE
04
EE

